<unk>	0
<s>	0
</s>	0
er	-0
an	-1
in	-2
en	-3
▁t	-4
ie	-5
▁o	-6
▁d	-7
he	-8
▁a	-9
▁v	-10
or	-11
at	-12
on	-13
▁w	-14
st	-15
re	-16
▁b	-17
it	-18
▁die	-19
is	-20
▁the	-21
ing	-22
▁s	-23
al	-24
ge	-25
▁p	-26
▁m	-27
ar	-28
▁in	-29
el	-30
▁of	-31
es	-32
ro	-33
le	-34
and	-35
ent	-36
ou	-37
et	-38
ed	-39
▁n	-40
▁van	-41
ion	-42
ic	-43
▁to	-44
▁c	-45
▁en	-46
▁h	-47
▁f	-48
as	-49
▁is	-50
ik	-51
ers	-52
▁D	-53
▁be	-54
id	-55
om	-56
▁and	-57
ig	-58
▁ge	-59
ur	-60
de	-61
il	-62
te	-63
▁re	-64
▁k	-65
ra	-66
ment	-67
ord	-68
▁S	-69
▁on	-70
aar	-71
ek	-72
▁T	-73
ct	-74
▁te	-75
se	-76
▁A	-77
▁'	-78
ir	-79
▁ver	-80
▁P	-81
▁e	-82
ation	-83
ol	-84
▁C	-85
▁>	-86
▁aan	-87
▁wat	-88
ap	-89
▁g	-90
▁W	-91
▁l	-92
▁pro	-93
ul	-94
un	-95
▁M	-96
▁word	-97
▁st	-98
▁th	-99
der	-100
▁om	-101
ak	-102
▁op	-103
▁as	-104
eg	-105
▁R	-106
ve	-107
▁for	-108
ag	-109
oor	-110
▁he	-111
▁(	-112
▁de	-113
ies	-114
▁u	-115
ien	-116
th	-117
▁or	-118
▁I	-119
am	-120
ad	-121
▁H	-122
em	-123
▁B	-124
im	-125
▁O	-126
oo	-127
▁1	-128
▁vir	-129
▁nie	-130
▁G	-131
ings	-132
▁j	-133
▁mo	-134
▁by	-135
00	-136
ist	-137
ep	-138
ly	-139
▁Die	-140
▁y	-141
ite	-142
our	-143
est	-144
▁V	-145
erk	-146
ate	-147
▁2	-148
ver	-149
if	-150
ot	-151
ens	-152
ial	-153
us	-154
ce	-155
ru	-156
lik	-157
▁het	-158
af	-159
▁al	-160
op	-161
ay	-162
▁N	-163
▁wh	-164
ch	-165
▁The	-166
ter	-167
we	-168
▁con	-169
▁K	-170
ut	-171
art	-172
ste	-173
▁E	-174
ant	-175
▁moet	-176
heid	-177
ier	-178
sp	-179
ub	-180
▁met	-181
ect	-182
pp	-183
▁that	-184
ry	-185
ity	-186
la	-187
▁F	-188
eer	-189
ab	-190
ip	-191
ust	-192
vin	-193
ron	-194
ill	-195
ende	-196
ige	-197
iv	-198
ess	-199
ith	-200
omm	-201
▁are	-202
aat	-203
▁le	-204
ke	-205
ort	-206
▁L	-207
os	-208
▁dat	-209
ang	-210
ere	-211
▁with	-212
▁kan	-213
sk	-214
▁bes	-215
ure	-216
▁do	-217
▁reg	-218
ering	-219
▁sal	-220
um	-221
aal	-222
qu	-223
▁an	-224
▁voor	-225
▁uit	-226
ow	-227
ib	-228
oek	-229
uur	-230
▁In	-231
lic	-232
fn	-233
▁we	-234
▁deur	-235
▁oor	-236
▁Pro	-237
die	-238
erm	-239
aan	-240
▁se	-241
fr	-242
me	-243
orm	-244
ive	-245
▁you	-246
▁app	-247
erv	-248
▁pers	-249
lu	-250
ions	-251
▁ons	-252
are	-253
▁must	-254
▁Dep	-255
▁-	-256
ff	-257
over	-258
end	-259
od	-260
▁On	-261
▁hul	-262
▁ne	-263
pe	-264
asie	-265
ale	-266
cial	-267
like	-268
▁daar	-269
res	-270
▁waar	-271
▁not	-272
▁200	-273
▁vers	-274
ok	-275
ice	-276
▁bet	-277
ire	-278
▁it	-279
▁ex	-280
▁na	-281
▁im	-282
ans	-283
▁par	-284
du	-285
ple	-286
▁J	-287
ld	-288
▁will	-289
ber	-290
▁ac	-291
aak	-292
dien	-293
oun	-294
ys	-295
ele	-296
overn	-297
ierdie	-298
ave	-299
oer	-300
▁dit	-301
ond	-302
▁tot	-303
gew	-304
hou	-305
overnment	-306
age	-307
▁su	-308
▁Reg	-309
▁geb	-310
lo	-311
kom	-312
elik	-313
▁werk	-314
▁sk	-315
▁3	-316
▁onder	-317
stel	-318
▁r	-319
ac	-320
ind	-321
03	-322
ult	-323
ape	-324
og	-325
▁*	-326
▁have	-327
oe	-328
ting	-329
oon	-330
▁<	-331
▁af	-332
be	-333
ical	-334
ann	-335
agra	-336
igh	-337
▁sy	-338
ern	-339
▁paragra	-340
oord	-341
ities	-342
▁aange	-343
▁vol	-344
vel	-345
ome	-346
▁ont	-347
OV	-348
▁jy	-349
-2	-350
▁0	-351
▁Provin	-352
▁Cape	-353
oed	-354
10	-355
ain	-356
▁cont	-357
ore	-358
▁has	-359
▁was	-360
uis	-361
iese	-362
ied	-363
gra	-364
ther	-365
yd	-366
lig	-367
ated	-368
uid	-369
ont	-370
ich	-371
▁Afr	-372
▁com	-373
▁St	-374
iteit	-375
▁part	-376
istr	-377
ert	-378
▁hierdie	-379
pro	-380
▁jou	-381
▁hulle	-382
sel	-383
ary	-384
▁ch	-385
ipal	-386
able	-387
▁4	-388
ZA	-389
ear	-390
▁person	-391
ken	-392
rom	-393
ood	-394
GOV	-395
ne	-396
▁can	-397
▁provin	-398
▁which	-399
▁gro	-400
▁at	-401
aap	-402
▁19	-403
▁ad	-404
mp	-405
artment	-406
ake	-407
hede	-408
ov	-409
ard	-410
ks	-411
ublic	-412
▁Government	-413
arte	-414
form	-415
-03	-416
▁aans	-417
▁un	-418
.2	-419
artement	-420
gram	-421
vol	-422
▁your	-423
port	-424
IV	-425
▁from	-426
ruik	-427
▁so	-428
▁ag	-429
▁this	-430
▁who	-431
▁pl	-432
▁our	-433
-24	-434
▁U	-435
▁pol	-436
iale	-437
▁acc	-438
▁qu	-439
eling	-440
▁bel	-441
ene	-442
▁ook	-443
▁been	-444
kap	-445
▁ing	-446
▁6	-447
outh	-448
▁Regering	-449
ices	-450
ud	-451
▁rec	-452
▁sub	-453
▁aansoek	-454
▁pla	-455
ding	-456
▁wor	-457
kt	-458
▁ek	-459
▁any	-460
▁el	-461
amp	-462
</	-463
ts	-464
▁Y	-465
ance	-466
▁land	-467
oc	-468
ident	-469
▁prov	-470
ikk	-471
▁Wat	-472
▁Department	-473
rond	-474
act	-475
▁West	-476
-03-24	-477
ational	-478
wer	-479
▁enige	-480
luit	-481
ister	-482
ations	-483
ign	-484
gov	-485
ast	-486
▁all	-487
.1	-488
▁sp	-489
▁Afric	-490
ence	-491
wys	-492
▁5	-493
xt	-494
onder	-495
▁off	-496
iss	-497
▁per	-498
▁besk	-499
werk	-500
rib	-501
▁comm	-502
ool	-503
wikk	-504
▁Dit	-505
oen	-506
▁inc	-507
▁pr	-508
velop	-509
ree	-510
ug	-511
▁serv	-512
▁water	-513
▁ges	-514
bl	-515
▁ar	-516
ph	-517
bare	-518
▁Western	-519
ft	-520
igheid	-521
▁South	-522
▁staat	-523
▁best	-524
val	-525
▁7	-526
asion	-527
ide	-528
▁applic	-529
▁may	-530
▁comp	-531
▁ander	-532
▁jaar	-533
▁beh	-534
bou	-535
enskap	-536
siale	-537
aad	-538
▁Wes	-539
000	-540
fer	-541
▁year	-542
Kaap	-543
ense	-544
eld	-545
way	-546
ec	-547
rek	-548
ank	-549
ors	-550
oos	-551
▁man	-552
▁verb	-553
skap	-554
woord	-555
▁dien	-556
ES	-557
▁Suid	-558
ell	-559
of	-560
frik	-561
▁wees	-562
ons	-563
all	-564
ië	-565
plement	-566
iteite	-567
ame	-568
acil	-569
ild	-570
▁me	-571
Afrik	-572
ous	-573
unis	-574
ief	-575
enn	-576
▁des	-577
nem	-578
▁verk	-579
▁Departement	-580
▁pre	-581
▁fin	-582
baar	-583
unic	-584
ail	-585
ue	-586
red	-587
iek	-588
▁8	-589
onom	-590
asionale	-591
▁quest	-592
teken	-593
ction	-594
▁bep	-595
voer	-596
za	-597
ga	-598
▁bed	-599
▁term	-600
yk	-601
velopment	-602
OR	-603
▁gebruik	-604
ase	-605
ass	-606
▁Home	-607
rag	-608
▁inter	-609
▁work	-610
010	-611
▁implement	-612
txt	-613
▁As	-614
one	-615
ligting	-616
stit	-617
▁state	-618
▁if	-619
▁res	-620
▁Wh	-621
▁ra	-622
ted	-623
ost	-624
▁"	-625
ande	-626
elike	-627
▁other	-628
ject	-629
▁ma	-630
ateway	-631
▁ro	-632
▁paragraaf	-633
▁resp	-634
▁Ne	-635
▁Th	-636
ute	-637
▁ten	-638
▁their	-639
iem	-640
▁paragraph	-641
cess	-642
ets	-643
vang	-644
cil	-645
cap	-646
▁questions	-647
▁dis	-648
▁toe	-649
▁tyd	-650
een	-651
blad	-652
lag	-653
ual	-654
ime	-655
▁spe	-656
▁plaas	-657
unicipal	-658
und	-659
EL	-660
ection	-661
egateway	-662
▁soos	-663
▁form	-664
▁En	-665
formation	-666
voor	-667
ically	-668
▁Tuis	-669
so	-670
org	-671
ution	-672
ia	-673
ikel	-674
irect	-675
capegateway	-676
▁ass	-677
▁Tuisblad	-678
).	-679
rat	-680
▁ged	-681
▁dep	-682
▁sek	-683
▁produ	-684
▁De	-685
ders	-686
▁|	-687
crib	-688
ople	-689
ryf	-690
▁my	-691
▁02	-692
▁ind	-693
ount	-694
▁meer	-695
acilities	-696
OS	-697
▁program	-698
ouncil	-699
alth	-700
▁An	-701
▁doen	-702
asil	-703
cribed	-704
▁persoon	-705
▁wet	-706
.2010	-707
▁Dis	-708
▁Comm	-709
▁also	-710
asies	-711
ges	-712
ER	-713
anis	-714
ine	-715
IT	-716
▁min	-717
ces	-718
▁199	-719
aam	-720
▁maak	-721
▁mense	-722
▁pos	-723
▁ak	-724
▁cons	-725
ble	-726
ondheid	-727
to	-728
iness	-729
▁versk	-730
▁pe	-731
▁need	-732
▁perm	-733
uit	-734
ark	-735
lis	-736
yn	-737
▁med	-738
ric	-739
▁am	-740
iewe	-741
),	-742
▁her	-743
▁mag	-744
▁Act	-745
che	-746
ition	-747
aard	-748
min	-749
▁ontwikk	-750
stem	-751
usiness	-752
▁alle	-753
sie	-754
▁Jou	-755
wet	-756
▁inge	-757
isie	-758
bek	-759
▁Your	-760
▁grond	-761
▁such	-762
ss	-763
ific	-764
▁terms	-765
▁teen	-766
gewing	-767
▁tra	-768
▁Al	-769
ater	-770
loy	-771
stru	-772
▁kind	-773
bour	-774
▁aangeteken	-775
led	-776
▁Provincial	-777
ument	-778
oop	-779
use	-780
▁Africa	-781
ong	-782
ighbour	-783
els	-784
ten	-785
▁out	-786
RA	-787
▁people	-788
▁more	-789
▁Provinsiale	-790
ach	-791
▁9	-792
oof	-793
▁MIV	-794
▁la	-795
unity	-796
▁If	-797
▁een	-798
EN	-799
sien	-800
▁beg	-801
▁deel	-802
OOR	-803
arm	-804
▁mem	-805
▁Ch	-806
▁HIV	-807
▁requ	-808
▁gen	-809
.2010-03-24	-810
▁us	-811
▁Min	-812
▁get	-813
antwoord	-814
▁emp	-815
ling	-816
YS	-817
DEL	-818
leg	-819
unisipal	-820
.2010-03-24.	-821
enbare	-822
pute	-823
iding	-824
▁indien	-825
▁Wet	-826
ring	-827
▁bo	-828
▁ve	-829
ronically	-830
lin	-831
▁kom	-832
ls	-833
▁Public	-834
stand	-835
▁described	-836
wy	-837
OORDEL	-838
anneer	-839
air	-840
hood	-841
▁Kyk	-842
▁child	-843
▁information	-844
bekende	-845
vent	-846
staal	-847
agement	-848
meenskap	-849
pr	-850
▁Dispute	-851
▁GD	-852
▁akron	-853
▁&	-854
▁akroniem	-855
▁000	-856
OORDELYS	-857
▁WOORDELYS	-858
▁Onbekende	-859
▁staatstaal	-860
stig	-861
▁GDOS	-862
▁stateft	-863
▁acronically	-864
▁SA	-865
▁public	-866
ighbourhood	-867
▁ho	-868
wn	-869
▁record	-870
▁Be	-871
▁ger	-872
entre	-873
▁det	-874
▁exp	-875
▁beskik	-876
▁Serv	-877
▁inligting	-878
jek	-879
ivers	-880
urs	-881
tor	-882
▁they	-883
own	-884
▁there	-885
▁elke	-886
▁ter	-887
▁dr	-888
▁Op	-889
▁ens	-890
▁hoe	-891
▁inf	-892
▁supp	-893
ced	-894
AL	-895
▁belang	-896
▁its	-897
▁Council	-898
▁fun	-899
▁num	-900
ren	-901
ible	-902
▁implementation	-903
ates	-904
ente	-905
▁tr	-906
▁021	-907
▁stel	-908
aatskap	-909
▁di	-910
êre	-911
io	-912
▁mon	-913
king	-914
▁hand	-915
▁gem	-916
aie	-917
iging	-918
chool	-919
▁Q	-920
▁bev	-921
▁sh	-922
ampte	-923
▁hy	-924
oog	-925
houd	-926
▁Ver	-927
▁volg	-928
Afrika	-929
▁than	-930
▁nu	-931
itte	-932
volge	-933
stitution	-934
asiliteite	-935
erde	-936
▁Neighbourhood	-937
kke	-938
van	-939
▁eff	-940
idd	-941
▁gele	-942
▁offic	-943
▁gemeenskap	-944
irector	-945
reek	-946
▁inclu	-947
▁Raad	-948
▁maar	-949
rum	-950
▁no	-951
pos	-952
iële	-953
IN	-954
reg	-955
tikel	-956
▁Facilities	-957
rateg	-958
▁org	-959
▁number	-960
▁sod	-961
olog	-962
▁doel	-963
▁10	-964
▁bin	-965
▁bestuur	-966
vir	-967
▁application	-968
▁verantwoord	-969
bers	-970
ocal	-971
kte	-972
rif	-973
oort	-974
▁where	-975
ress	-976
▁employ	-977
▁health	-978
▁gew	-979
orp	-980
ision	-981
entrum	-982
uss	-983
▁but	-984
ments	-985
tu	-986
up	-987
▁Indien	-988
▁goed	-989
▁provid	-990
▁beskikbaar	-991
iz	-992
Kaapse	-993
▁services	-994
▁act	-995
uring	-996
▁government	-997
its	-998
▁Onder	-999
ange	-1000
▁time	-1001
erings	-1002
▁Pre	-1003
elf	-1004
uth	-1005
▁business	-1006
iligheid	-1007
ile	-1008
▁leg	-1009
hould	-1010
▁ident	-1011
SE	-1012
deel	-1013
▁rep	-1014
▁ingevolge	-1015
rik	-1016
unisipaliteit	-1017
unicipality	-1018
▁one	-1019
▁fe	-1020
odig	-1021
▁service	-1022
cy	-1023
▁hel	-1024
isl	-1025
▁bu	-1026
2.	-1027
▁day	-1028
▁new	-1029
▁Hierdie	-1030
▁Fasiliteite	-1031
▁nuwe	-1032
▁refer	-1033
..	-1034
▁ins	-1035
isd	-1036
▁Minister	-1037
ante	-1038
estuur	-1039
▁betaal	-1040
komste	-1041
▁Un	-1042
▁hou	-1043
spit	-1044
ural	-1045
ger	-1046
conom	-1047
▁voorsien	-1048
▁diens	-1049
▁Development	-1050
▁section	-1051
▁Om	-1052
ents	-1053
▁add	-1054
▁when	-1055
geb	-1056
eken	-1057
hand	-1058
oel	-1059
ety	-1060
▁This	-1061
▁should	-1062
sig	-1063
afety	-1064
ism	-1065
av	-1066
.00	-1067
▁pay	-1068
▁sign	-1069
uthor	-1070
▁wil	-1071
IC	-1072
▁Ek	-1073
▁ensure	-1074
▁artikel	-1075
▁Ons	-1076
▁ontvang	-1077
ified	-1078
▁Ad	-1079
ise	-1080
▁recorded	-1081
ses	-1082
elings	-1083
rit	-1084
fore	-1085
ko	-1086
aft	-1087
▁development	-1088
▁Daar	-1089
▁No	-1090
▁binne	-1091
iend	-1092
▁only	-1093
▁respons	-1094
AN	-1095
ty	-1096
▁gesk	-1097
ures	-1098
▁help	-1099
ieke	-1100
iseer	-1101
4.	-1102
▁Ag	-1103
aste	-1104
▁ent	-1105
oeg	-1106
aanse	-1107
▁righ	-1108
▁test	-1109
ID	-1110
▁gaan	-1111
erg	-1112
hip	-1113
▁cour	-1114
▁Land	-1115
▁dec	-1116
▁Director	-1117
ids	-1118
dering	-1119
▁Services	-1120
▁system	-1121
▁under	-1122
ricult	-1123
▁take	-1124
▁12	-1125
ious	-1126
oin	-1127
▁wanneer	-1128
▁Vra	-1129
ibr	-1130
▁years	-1131
▁ooreen	-1132
▁organis	-1133
anning	-1134
▁permit	-1135
▁baie	-1136
▁pres	-1137
volg	-1138
▁spes	-1139
▁eer	-1140
ose	-1141
▁appro	-1142
1.	-1143
gg	-1144
12	-1145
▁bl	-1146
▁partic	-1147
reat	-1148
mit	-1149
ennis	-1150
▁African	-1151
tion	-1152
▁twe	-1153
▁vis	-1154
▁support	-1155
▁lang	-1156
▁contact	-1157
ior	-1158
▁toep	-1159
ommer	-1160
▁haar	-1161
eel	-1162
▁kry	-1163
▁own	-1164
vaar	-1165
eds	-1166
▁cert	-1167
ye	-1168
wes	-1169
▁Watch	-1170
▁saam	-1171
ifik	-1172
▁betro	-1173
su	-1174
ator	-1175
▁nasionale	-1176
▁Ho	-1177
IS	-1178
▁National	-1179
50	-1180
▁national	-1181
▁QU	-1182
▁/	-1183
▁ob	-1184
ondheids	-1185
hic	-1186
cation	-1187
iat	-1188
onderhede	-1189
ission	-1190
ministr	-1191
▁Par	-1192
▁up	-1193
ature	-1194
utive	-1195
▁groot	-1196
▁net	-1197
▁sit	-1198
▁exam	-1199
▁Centre	-1200
▁vorm	-1201
ugh	-1202
▁within	-1203
▁bek	-1204
laas	-1205
istre	-1206
ensie	-1207
ae	-1208
pl	-1209
ax	-1210
ners	-1211
▁gee	-1212
onds	-1213
ged	-1214
bes	-1215
▁priv	-1216
▁management	-1217
dat	-1218
tig	-1219
ins	-1220
▁QUES	-1221
ract	-1222
eker	-1223
ads	-1224
▁Town	-1225
▁av	-1226
▁programme	-1227
▁i	-1228
▁verh	-1229
ei	-1230
▁daardie	-1231
▁Con	-1232
▁VRA	-1233
▁vro	-1234
ade	-1235
des	-1236
▁nodig	-1237
▁bepaal	-1238
▁kn	-1239
▁VRAE	-1240
▁spec	-1241
▁use	-1242
▁Nasionale	-1243
eter	-1244
▁begin	-1245
▁QUESSE	-1246
▁Ar	-1247
ffic	-1248
onment	-1249
▁ab	-1250
▁Bo	-1251
▁Kaap	-1252
▁provinsiale	-1253
▁He	-1254
ters	-1255
als	-1256
▁ou	-1257
tre	-1258
▁dié	-1259
ecutive	-1260
▁Is	-1261
rig	-1262
▁apply	-1263
urg	-1264
▁project	-1265
▁these	-1266
▁trans	-1267
▁Ge	-1268
steun	-1269
les	-1270
ourism	-1271
dienste	-1272
▁each	-1273
▁provide	-1274
▁ko	-1275
ming	-1276
▁register	-1277
▁belangrik	-1278
iod	-1279
▁maatskap	-1280
5.	-1281
amil	-1282
ighede	-1283
▁geld	-1284
self	-1285
==	-1286
aring	-1287
eneem	-1288
ink	-1289
▁count	-1290
ooi	-1291
▁conc	-1292
▁legisl	-1293
ening	-1294
▁What	-1295
▁opsig	-1296
▁plan	-1297
...	-1298
▁Pl	-1299
▁toege	-1300
▁Man	-1301
ook	-1302
▁kl	-1303
aff	-1304
▁Ve	-1305
▁neem	-1306
sport	-1307
▁kont	-1308
▁kinders	-1309
wing	-1310
beeld	-1311
ussen	-1312
▁provincial	-1313
▁require	-1314
AS	-1315
▁kennis	-1316
▁comple	-1317
by	-1318
▁Or	-1319
irst	-1320
▁hoof	-1321
nb	-1322
▁gra	-1323
ected	-1324
ility	-1325
▁access	-1326
▁before	-1327
▁rece	-1328
gewer	-1329
vul	-1330
▁est	-1331
gestel	-1332
▁registr	-1333
▁police	-1334
ining	-1335
eland	-1336
gaan	-1337
▁avail	-1338
very	-1339
▁verantwoordelik	-1340
▁ber	-1341
ating	-1342
ENT	-1343
▁well	-1344
▁members	-1345
aid	-1346
airs	-1347
lak	-1348
▁30	-1349
▁betrokke	-1350
▁bas	-1351
ient	-1352
▁int	-1353
rol	-1354
Afrikaanse	-1355
▁onders	-1356
tings	-1357
▁month	-1358
▁strateg	-1359
ium	-1360
low	-1361
▁20	-1362
ob	-1363
▁regering	-1364
▁prop	-1365
ives	-1366
▁ontwikkeling	-1367
ning	-1368
▁Pres	-1369
AR	-1370
▁plaaslike	-1371
ereik	-1372
stelling	-1373
vironment	-1374
program	-1375
▁available	-1376
▁gr	-1377
berg	-1378
▁gedoen	-1379
▁proble	-1380
▁process	-1381
asting	-1382
▁toeg	-1383
ablis	-1384
▁hier	-1385
▁Jy	-1386
-0	-1387
ON	-1388
nbsp	-1389
ansiële	-1390
hed	-1391
▁onge	-1392
▁openbare	-1393
▁kw	-1394
▁self	-1395
▁sw	-1396
▁opsigte	-1397
ule	-1398
▁same	-1399
teg	-1400
ved	-1401
▁mat	-1402
▁regul	-1403
ivid	-1404
▁kon	-1405
▁ple	-1406
ksie	-1407
▁val	-1408
ely	-1409
▁intern	-1410
▁tussen	-1411
▁verseker	-1412
▁care	-1413
▁mark	-1414
▁school	-1415
bestuur	-1416
vers	-1417
▁assist	-1418
gel	-1419
▁vere	-1420
conomic	-1421
ret	-1422
▁area	-1423
wag	-1424
ner	-1425
▁twee	-1426
mes	-1427
▁TB	-1428
▁eerste	-1429
ised	-1430
ancial	-1431
heer	-1432
▁equ	-1433
▁children	-1434
veel	-1435
orpor	-1436
▁Sek	-1437
▁lede	-1438
▁besonderhede	-1439
▁Libr	-1440
rough	-1441
▁set	-1442
▁del	-1443
stad	-1444
for	-1445
▁import	-1446
11	-1447
▁main	-1448
▁geval	-1449
▁officer	-1450
93	-1451
liek	-1452
▁Afrik	-1453
TE	-1454
mal	-1455
voerende	-1456
bron	-1457
vestig	-1458
rae	-1459
rim	-1460
▁PR	-1461
atus	-1462
▁verm	-1463
▁verst	-1464
▁volgende	-1465
7.	-1466
doen	-1467
▁rel	-1468
dig	-1469
diens	-1470
▁polic	-1471
ommiss	-1472
▁gereg	-1473
vant	-1474
▁hospit	-1475
▁first	-1476
ish	-1477
saak	-1478
cc	-1479
ede	-1480
▁made	-1481
▁applicant	-1482
istreer	-1483
▁projek	-1484
ffairs	-1485
▁.	-1486
ife	-1487
▁App	-1488
▁Ex	-1489
legs	-1490
▁2004	-1491
▁stud	-1492
▁Safety	-1493
ould	-1494
oms	-1495
ING	-1496
▁18	-1497
▁Hoe	-1498
▁Dien	-1499
ency	-1500
▁pas	-1501
▁report	-1502
▁You	-1503
▁period	-1504
▁verle	-1505
na	-1506
▁amp	-1507
omp	-1508
▁Spe	-1509
▁stand	-1510
▁dienste	-1511
out	-1512
▁make	-1513
ath	-1514
werp	-1515
ative	-1516
▁author	-1517
ember	-1518
neming	-1519
▁To	-1520
ertifik	-1521
▁result	-1522
▁community	-1523
▁ben	-1524
▁Community	-1525
▁gemaak	-1526
ai	-1527
itee	-1528
▁referred	-1529
▁prof	-1530
▁We	-1531
▁Grond	-1532
▁ste	-1533
▁responsible	-1534
▁polisie	-1535
arge	-1536
▁doc	-1537
eral	-1538
▁respect	-1539
bout	-1540
▁Wor	-1541
▁including	-1542
antoor	-1543
▁province	-1544
▁ekonom	-1545
▁verwys	-1546
▁moont	-1547
▁Bes	-1548
▁hê	-1549
▁imp	-1550
▁nog	-1551
▁voord	-1552
▁13	-1553
perk	-1554
▁she	-1555
▁verl	-1556
▁It	-1557
▁For	-1558
200	-1559
unities	-1560
eleid	-1561
ails	-1562
▁raad	-1563
▁ph	-1564
▁lic	-1565
rand	-1566
▁geh	-1567
iddel	-1568
▁Tr	-1569
teen	-1570
riculture	-1571
aling	-1572
▁most	-1573
▁able	-1574
▁Affairs	-1575
nolog	-1576
▁about	-1577
▁Rep	-1578
▁pub	-1579
▁document	-1580
ITE	-1581
▁co	-1582
voorbeeld	-1583
ck	-1584
▁after	-1585
▁besluit	-1586
vind	-1587
ekte	-1588
▁impro	-1589
ekt	-1590
ruk	-1591
hicle	-1592
▁plant	-1593
ote	-1594
isme	-1595
▁Cour	-1596
ole	-1597
skrif	-1598
▁date	-1599
▁financial	-1600
oot	-1601
▁verskaf	-1602
▁President	-1603
▁provided	-1604
▁tw	-1605
▁ful	-1606
▁sodan	-1607
iven	-1608
ower	-1609
▁country	-1610
sh	-1611
rastru	-1612
raad	-1613
▁famil	-1614
▁dok	-1615
assing	-1616
MENT	-1617
▁Municipality	-1618
rekking	-1619
▁were	-1620
tuig	-1621
koms	-1622
gem	-1623
▁Re	-1624
▁Sk	-1625
▁Openbare	-1626
rent	-1627
linic	-1628
gro	-1629
▁lig	-1630
▁tak	-1631
▁provinsie	-1632
▁kle	-1633
▁versoek	-1634
iën	-1635
▁rele	-1636
leent	-1637
vorm	-1638
▁example	-1639
▁vry	-1640
wap	-1641
▁lid	-1642
ittee	-1643
▁local	-1644
▁effect	-1645
▁gest	-1646
eme	-1647
▁issu	-1648
telike	-1649
▁post	-1650
▁slegs	-1651
▁Tourism	-1652
▁geen	-1653
▁leer	-1654
tyd	-1655
▁member	-1656
▁cond	-1657
nommer	-1658
▁15	-1659
▁hulp	-1660
itions	-1661
▁regard	-1662
▁administr	-1663
▁14	-1664
▁would	-1665
▁rem	-1666
isdaad	-1667
▁through	-1668
ited	-1669
▁sodanige	-1670
dus	-1671
gesk	-1672
▁bew	-1673
▁cap	-1674
▁gevolg	-1675
▁landbou	-1676
▁eg	-1677
ssss	-1678
▁verkl	-1679
ansport	-1680
▁insluit	-1681
▁toegang	-1682
ful	-1683
isk	-1684
hol	-1685
▁used	-1686
44	-1687
▁bre	-1688
▁fol	-1689
keur	-1690
▁aansoeker	-1691
▁agree	-1692
▁Kaapstad	-1693
igs	-1694
met	-1695
riv	-1696
▁em	-1697
raat	-1698
▁dem	-1699
▁laat	-1700
▁lew	-1701
▁datum	-1702
ector	-1703
ional	-1704
▁toest	-1705
ven	-1706
iation	-1707
rime	-1708
▁Plaas	-1709
woordig	-1710
inde	-1711
▁Voor	-1712
▁accord	-1713
▁inkomste	-1714
▁Werk	-1715
▁appoin	-1716
▁beampte	-1717
▁regte	-1718
,000	-1719
ertifikaat	-1720
stasie	-1721
▁ondersteun	-1722
uage	-1723
▁daarvan	-1724
▁interest	-1725
dep	-1726
▁Library	-1727
▁request	-1728
▁lear	-1729
▁Constitution	-1730
aande	-1731
ween	-1732
▁web	-1733
▁voer	-1734
uurwap	-1735
83	-1736
ateg	-1737
mier	-1738
oem	-1739
▁establis	-1740
▁huis	-1741
py	-1742
▁know	-1743
▁between	-1744
wel	-1745
▁into	-1746
urende	-1747
ory	-1748
emeenskap	-1749
.4	-1750
▁drie	-1751
▁weer	-1752
▁Tra	-1753
▁Onderwys	-1754
stelsel	-1755
▁Edu	-1756
▁life	-1757
ET	-1758
▁Pol	-1759
SA	-1760
▁prior	-1761
▁beskerm	-1762
ws	-1763
gadering	-1764
59	-1765
arch	-1766
ness	-1767
▁huur	-1768
▁hof	-1769
▁behand	-1770
irekte	-1771
▁special	-1772
▁Af	-1773
akel	-1774
▁how	-1775
▁design	-1776
▁cl	-1777
▁Res	-1778
ulp	-1779
▁11	-1780
▁Munisipaliteit	-1781
.11	-1782
▁gek	-1783
ienaar	-1784
▁toepassing	-1785
▁address	-1786
werking	-1787
lect	-1788
▁prote	-1789
▁rights	-1790
▁over	-1791
ifiseer	-1792
TI	-1793
▁conf	-1794
▁Sec	-1795
▁2000	-1796
▁Ges	-1797
▁2006	-1798
▁week	-1799
ef	-1800
▁Fin	-1801
▁days	-1802
▁Health	-1803
▁product	-1804
UN	-1805
aks	-1806
tain	-1807
▁court	-1808
▁propert	-1809
enef	-1810
▁sec	-1811
▁resour	-1812
▁naam	-1813
▁given	-1814
▁office	-1815
rug	-1816
▁gely	-1817
▁Gemeenskap	-1818
ict	-1819
▁aff	-1820
▁follow	-1821
aris	-1822
▁sluit	-1823
▁certific	-1824
oet	-1825
▁pur	-1826
▁Directories	-1827
▁gesondheids	-1828
▁rol	-1829
▁finansiële	-1830
▁verand	-1831
30	-1832
toets	-1833
▁writ	-1834
▁details	-1835
edu	-1836
▁exc	-1837
▁Local	-1838
lings	-1839
▁prom	-1840
oeding	-1841
ike	-1842
-1	-1843
rop	-1844
beampte	-1845
ëls	-1846
▁toek	-1847
ulle	-1848
▁vra	-1849
▁vert	-1850
▁shall	-1851
▁wie	-1852
▁imm	-1853
▁control	-1854
60	-1855
fonds	-1856
▁Gro	-1857
▁areas	-1858
ular	-1859
▁order	-1860
▁particip	-1861
▁does	-1862
-03-24-	-1863
wth	-1864
lement	-1865
▁Sw	-1866
▁two	-1867
▁mill	-1868
▁party	-1869
aans	-1870
▁cost	-1871
▁name	-1872
▁during	-1873
▁department	-1874
resent	-1875
▁Ont	-1876
▁dra	-1877
▁tydperk	-1878
▁his	-1879
bet	-1880
dag	-1881
tern	-1882
alings	-1883
▁Landbou	-1884
▁ople	-1885
▁departement	-1886
▁ontwikkel	-1887
▁subse	-1888
▁cur	-1889
ined	-1890
iste	-1891
▁disc	-1892
unisip	-1893
▁skool	-1894
▁nou	-1895
êreld	-1896
▁voort	-1897
▁determ	-1898
▁policy	-1899
▁necess	-1900
▁mater	-1901
▁einde	-1902
▁verkry	-1903
▁bevord	-1904
▁Uit	-1905
unisipale	-1906
▁egter	-1907
▁important	-1908
▁moontlik	-1909
▁list	-1910
▁sê	-1911
elandse	-1912
▁private	-1913
▁16	-1914
▁signed	-1915
▁benef	-1916
wikkeling	-1917
▁submit	-1918
merk	-1919
▁hers	-1920
▁Plaaslike	-1921
ms	-1922
gee	-1923
gewings	-1924
▁nav	-1925
▁1.	-1926
enis	-1927
weeg	-1928
iqu	-1929
▁stru	-1930
▁ondersoek	-1931
▁eiend	-1932
▁Met	-1933
▁nat	-1934
▁full	-1935
▁Grondwet	-1936
waard	-1937
▁Howe	-1938
▁terug	-1939
▁relevant	-1940
▁2003	-1941
▁seker	-1942
IDS	-1943
▁gep	-1944
▁place	-1945
▁Dienste	-1946
▁mil	-1947
▁wetgewing	-1948
WU	-1949
▁mens	-1950
▁Univers	-1951
aker	-1952
▁sonder	-1953
▁waarop	-1954
IP	-1955
rak	-1956
iede	-1957
▁Can	-1958
▁aim	-1959
▁ann	-1960
▁komm	-1961
▁necessary	-1962
▁long	-1963
▁municipal	-1964
ging	-1965
▁verwy	-1966
IE	-1967
IR	-1968
▁buit	-1969
▁improve	-1970
▁dae	-1971
artikel	-1972
erf	-1973
ills	-1974
▁Management	-1975
aries	-1976
nemings	-1977
▁Education	-1978
▁gebied	-1979
ope	-1980
▁want	-1981
▁aand	-1982
iers	-1983
▁Med	-1984
▁bem	-1985
▁high	-1986
▁prevent	-1987
ination	-1988
▁proses	-1989
▁represent	-1990
▁legislation	-1991
▁dan	-1992
▁qual	-1993
tenance	-1994
tes	-1995
udge	-1996
ccess	-1997
▁compan	-1998
▁geleent	-1999
ker	-2000
▁direct	-2001
▁perform	-2002
▁ref	-2003
lia	-2004
▁watter	-2005
▁How	-2006
iet	-2007
▁cla	-2008
▁farm	-2009
yf	-2010
▁poss	-2011
utions	-2012
▁Program	-2013
lae	-2014
ris	-2015
urity	-2016
liament	-2017
▁beteken	-2018
sit	-2019
▁toer	-2020
▁indust	-2021
sm	-2022
iel	-2023
▁ja	-2024
▁notice	-2025
▁Executive	-2026
▁2005	-2027
burg	-2028
ider	-2029
▁eie	-2030
▁hom	-2031
uman	-2032
20	-2033
▁wy	-2034
sies	-2035
▁dag	-2036
▁bedryf	-2037
▁ke	-2038
▁verband	-2039
iw	-2040
▁By	-2041
ading	-2042
▁ty	-2043
▁Premier	-2044
▁betrekking	-2045
let	-2046
▁property	-2047
EP	-2048
▁27	-2049
▁krag	-2050
keie	-2051
▁bly	-2052
deling	-2053
▁amount	-2054
▁dokument	-2055
▁inst	-2056
▁required	-2057
tens	-2058
▁oort	-2059
uurwapen	-2060
enning	-2061
▁bec	-2062
▁vul	-2063
entrums	-2064
isation	-2065
▁verder	-2066
▁subartikel	-2067
uch	-2068
▁gev	-2069
▁Vol	-2070
staan	-2071
▁environment	-2072
cture	-2073
▁every	-2074
▁oper	-2075
39	-2076
▁three	-2077
▁bedrag	-2078
▁conditions	-2079
▁programmes	-2080
lain	-2081
teenwoordig	-2082
ian	-2083
neem	-2084
▁training	-2085
ines	-2086
▁prim	-2087
▁However	-2088
inal	-2089
▁individ	-2090
aart	-2091
▁language	-2092
▁werks	-2093
▁again	-2094
wor	-2095
▁pot	-2096
▁current	-2097
▁million	-2098
▁perman	-2099
▁municipality	-2100
bel	-2101
▁My	-2102
ctions	-2103
4,	-2104
pers	-2105
irearm	-2106
▁tax	-2107
▁then	-2108
isions	-2109
▁voldoen	-2110
iate	-2111
omen	-2112
land	-2113
▁sport	-2114
▁bestaan	-2115
▁licence	-2116
▁edu	-2117
ogra	-2118
valu	-2119
▁subsection	-2120
ktuur	-2121
▁produs	-2122
▁contrib	-2123
▁Le	-2124
▁voorsiening	-2125
ves	-2126
▁vas	-2127
ches	-2128
4)	-2129
uk	-2130
anne	-2131
▁nood	-2132
▁var	-2133
▁case	-2134
ight	-2135
▁Registr	-2136
▁verbeter	-2137
▁voorkom	-2138
▁Off	-2139
▁Gemeenskaps	-2140
rewe	-2141
ady	-2142
18	-2143
iemand	-2144
iaal	-2145
▁OF	-2146
lus	-2147
mb	-2148
▁87	-2149
▁Toer	-2150
▁werknem	-2151
MS	-2152
rakt	-2153
room	-2154
▁Mot	-2155
wagte	-2156
▁reeds	-2157
▁clinic	-2158
ipment	-2159
-10	-2160
uurt	-2161
▁resources	-2162
▁registered	-2163
▁gere	-2164
bronne	-2165
▁contin	-2166
▁Agriculture	-2167
ommissie	-2168
nr	-2169
▁gedurende	-2170
▁verwyder	-2171
▁ters	-2172
▁Water	-2173
ept	-2174
ants	-2175
iver	-2176
▁incre	-2177
iote	-2178
▁last	-2179
▁sake	-2180
▁spesif	-2181
rust	-2182
▁funks	-2183
▁behoort	-2184
▁asook	-2185
ibl	-2186
mber	-2187
▁1998	-2188
▁vereis	-2189
ftes	-2190
ises	-2191
▁Van	-2192
▁treat	-2193
gen	-2194
▁che	-2195
imum	-2196
vaard	-2197
▁tydens	-2198
▁El	-2199
eting	-2200
▁right	-2201
lyn	-2202
▁staff	-2203
▁certificate	-2204
▁persone	-2205
▁besoek	-2206
ieë	-2207
▁income	-2208
HE	-2209
ually	-2210
▁hoë	-2211
▁2009	-2212
ibliote	-2213
▁koste	-2214
▁infrastru	-2215
▁sow	-2216
▁Business	-2217
ause	-2218
▁cop	-2219
▁months	-2220
net	-2221
elde	-2222
▁volt	-2223
IK	-2224
.200	-2225
ha	-2226
reet	-2227
ential	-2228
▁31	-2229
▁uitge	-2230
▁dif	-2231
▁mar	-2232
▁Sub	-2233
idings	-2234
▁Se	-2235
▁Court	-2236
mall	-2237
ify	-2238
tegr	-2239
▁much	-2240
▁Distr	-2241
▁workers	-2242
▁bod	-2243
▁equipment	-2244
adat	-2245
aarde	-2246
6.	-2247
▁Inf	-2248
▁60	-2249
uriteit	-2250
▁geneem	-2251
leenthede	-2252
UR	-2253
▁byd	-2254
ded	-2255
joen	-2256
▁wys	-2257
houding	-2258
▁like	-2259
term	-2260
▁agreement	-2261
▁21	-2262
▁100	-2263
▁world	-2264
▁social	-2265
▁Wanneer	-2266
70	-2267
▁Hou	-2268
▁bepl	-2269
ionele	-2270
▁staan	-2271
▁staats	-2272
IL	-2273
oeie	-2274
bruik	-2275
▁skep	-2276
▁maande	-2277
▁projects	-2278
▁hersien	-2279
ri	-2280
ased	-2281
orre	-2282
▁cre	-2283
▁aanvaar	-2284
▁communities	-2285
▁behoe	-2286
▁level	-2287
▁growth	-2288
▁Commission	-2289
osit	-2290
▁fact	-2291
treff	-2292
▁att	-2293
urther	-2294
▁object	-2295
irekteur	-2296
ral	-2297
▁whe	-2298
▁uite	-2299
▁verkies	-2300
▁personeel	-2301
▁almal	-2302
gels	-2303
▁bied	-2304
▁sche	-2305
▁adv	-2306
atiewe	-2307
▁gemeenskappe	-2308
idence	-2309
▁veral	-2310
veiligheid	-2311
▁gel	-2312
sy	-2313
▁eienaar	-2314
▁Child	-2315
▁beperk	-2316
▁beheer	-2317
.12	-2318
eder	-2319
▁omdat	-2320
40	-2321
====	-2322
abour	-2323
▁Sport	-2324
ards	-2325
▁waarin	-2326
hank	-2327
▁Buurt	-2328
▁Motor	-2329
ui	-2330
▁siek	-2331
ane	-2332
▁wyse	-2333
▁elect	-2334
werheid	-2335
ases	-2336
▁Lear	-2337
sid	-2338
ultuur	-2339
wyl	-2340
▁Ro	-2341
▁weet	-2342
▁ekonomiese	-2343
▁Pers	-2344
▁waarde	-2345
▁50	-2346
itor	-2347
iving	-2348
▁them	-2349
entres	-2350
▁whether	-2351
▁without	-2352
tige	-2353
jaar	-2354
▁item	-2355
▁Engels	-2356
▁compet	-2357
▁Speaker	-2358
.3	-2359
uty	-2360
▁PO	-2361
-02.	-2362
co	-2363
riend	-2364
▁navors	-2365
▁sector	-2366
▁volled	-2367
▁develop	-2368
loc	-2369
▁SAP	-2370
▁eiendom	-2371
▁School	-2372
▁issued	-2373
unt	-2374
huis	-2375
▁employe	-2376
ategor	-2377
▁Buurtwagte	-2378
▁EN	-2379
AIDS	-2380
▁give	-2381
▁activ	-2382
▁bring	-2383
▁vroue	-2384
▁verteenwoordig	-2385
▁hoeveel	-2386
bed	-2387
ette	-2388
▁status	-2389
▁authority	-2390
▁particular	-2391
ery	-2392
▁Committee	-2393
br	-2394
este	-2395
▁vanaf	-2396
▁official	-2397
▁following	-2398
▁cle	-2399
▁munisipaliteit	-2400
▁sol	-2401
az	-2402
IES	-2403
▁norm	-2404
pre	-2405
abil	-2406
▁systems	-2407
▁There	-2408
IPAL	-2409
▁uitg	-2410
ille	-2411
produ	-2412
bevel	-2413
vest	-2414
▁City	-2415
▁klin	-2416
▁0.00	-2417
etsont	-2418
▁addition	-2419
▁bab	-2420
▁end	-2421
▁meas	-2422
▁beste	-2423
tal	-2424
▁insp	-2425
eng	-2426
ability	-2427
▁voordat	-2428
▁08	-2429
ikasie	-2430
▁skrif	-2431
gawe	-2432
▁rek	-2433
▁law	-2434
▁sodat	-2435
▁Mr	-2436
▁asp	-2437
▁vyf	-2438
ineer	-2439
▁2007	-2440
▁claim	-2441
abin	-2442
2,	-2443
▁woon	-2444
likheid	-2445
▁Parliament	-2446
▁taken	-2447
anteer	-2448
kses	-2449
tiging	-2450
▁group	-2451
▁polit	-2452
▁Stad	-2453
▁done	-2454
▁gehou	-2455
▁good	-2456
departement	-2457
ason	-2458
▁vuurwapen	-2459
;>	-2460
▁Kan	-2461
undige	-2462
▁voltooi	-2463
▁indic	-2464
▁minder	-2465
▁profess	-2466
iety	-2467
aats	-2468
▁verleen	-2469
▁specified	-2470
luk	-2471
▁Economic	-2472
;>&	-2473
▁col	-2474
ampus	-2475
itage	-2476
▁bevoeg	-2477
▁belasting	-2478
estel	-2479
▁bereik	-2480
ix	-2481
▁stap	-2482
ack	-2483
used	-2484
loed	-2485
▁against	-2486
▁vlak	-2487
gaam	-2488
useum	-2489
▁Jan	-2490
▁sou	-2491
handel	-2492
▁sekere	-2493
▁open	-2494
▁uits	-2495
gekeur	-2496
ilding	-2497
▁lewer	-2498
▁start	-2499
ma	-2500
ize	-2501
▁Aan	-2502
▁et	-2503
ived	-2504
▁blads	-2505
bied	-2506
asiese	-2507
▁daarop	-2508
▁inform	-2509
▁wel	-2510
edien	-2511
▁paid	-2512
▁dise	-2513
▁vier	-2514
inn	-2515
oep	-2516
▁occ	-2517
▁fund	-2518
▁complete	-2519
▁asse	-2520
▁pass	-2521
▁facil	-2522
▁sukses	-2523
idse	-2524
▁mis	-2525
▁bekend	-2526
▁constitution	-2527
▁maatskaplike	-2528
uw	-2529
▁waarom	-2530
▁volgens	-2531
▁Alle	-2532
▁Fund	-2533
▁registration	-2534
▁depend	-2535
▁employer	-2536
▁17	-2537
▁2008	-2538
▁lewens	-2539
▁contain	-2540
▁dus	-2541
lated	-2542
▁skul	-2543
▁motor	-2544
▁toepas	-2545
▁opt	-2546
▁So	-2547
▁br	-2548
▁tech	-2549
▁hanteer	-2550
▁contract	-2551
iew	-2552
▁mediese	-2553
▁rest	-2554
priate	-2555
▁company	-2556
▁akt	-2557
▁see	-2558
▁consider	-2559
▁uitgereik	-2560
duct	-2561
moed	-2562
▁ask	-2563
▁klein	-2564
▁wêreld	-2565
▁cit	-2566
▁opge	-2567
ital	-2568
▁Su	-2569
▁Toerisme	-2570
▁lis	-2571
ED	-2572
▁3.	-2573
▁nam	-2574
▁page	-2575
▁saak	-2576
▁accordance	-2577
aper	-2578
▁material	-2579
▁possible	-2580
iere	-2581
▁opport	-2582
ceed	-2583
▁afge	-2584
vention	-2585
▁omgewing	-2586
ryw	-2587
▁1,	-2588
ustain	-2589
▁MUN	-2590
▁toel	-2591
▁Watches	-2592
▁Learning	-2593
agn	-2594
retar	-2595
epl	-2596
▁Box	-2597
▁verrig	-2598
laat	-2599
▁sim	-2600
emming	-2601
▁evalu	-2602
▁besp	-2603
▁gestel	-2604
▁veiligheid	-2605
▁24	-2606
▁opleiding	-2607
inf	-2608
▁pat	-2609
▁needs	-2610
oney	-2611
▁sla	-2612
▁Service	-2613
stellings	-2614
emp	-2615
reed	-2616
▁age	-2617
▁Des	-2618
illende	-2619
▁besigheid	-2620
aged	-2621
ament	-2622
▁maand	-2623
▁voorgesk	-2624
▁doeltreff	-2625
▁regerings	-2626
her	-2627
waardes	-2628
51	-2629
kl	-2630
vis	-2631
gggg	-2632
▁kap	-2633
▁economic	-2634
ace	-2635
▁eis	-2636
iteits	-2637
▁beleid	-2638
▁account	-2639
▁provides	-2640
▁Veiligheid	-2641
rip	-2642
rys	-2643
unte	-2644
enges	-2645
▁Offic	-2646
▁board	-2647
▁instit	-2648
▁onderwys	-2649
rem	-2650
▁received	-2651
▁distr	-2652
Aids	-2653
▁money	-2654
▁sowel	-2655
▁geregistreer	-2656
EW	-2657
▁type	-2658
▁groei	-2659
itation	-2660
los	-2661
▁red	-2662
▁some	-2663
▁conte	-2664
▁further	-2665
▁executive	-2666
▁Gidse	-2667
▁Street	-2668
▁bevorder	-2669
▁role	-2670
dheid	-2671
▁nadat	-2672
▁2.	-2673
▁reken	-2674
▁bi	-2675
▁many	-2676
▁assess	-2677
▁inhoud	-2678
ental	-2679
▁hoog	-2680
rome	-2681
▁free	-2682
▁gegee	-2683
▁pract	-2684
▁iemand	-2685
▁Dr	-2686
▁Vir	-2687
▁plek	-2688
▁veroor	-2689
▁gebiede	-2690
77	-2691
▁cal	-2692
wikkelings	-2693
iënte	-2694
gemene	-2695
▁goedgekeur	-2696
reëls	-2697
▁boer	-2698
▁posit	-2699
▁Tel	-2700
▁find	-2701
▁Information	-2702
pril	-2703
▁ear	-2704
ances	-2705
▁copy	-2706
▁jong	-2707
▁bladsy	-2708
▁treatment	-2709
arie	-2710
AT	-2711
▁dam	-2712
▁huid	-2713
byvoorbeeld	-2714
lede	-2715
▁raak	-2716
unisipaliteite	-2717
ader	-2718
▁begro	-2719
1,	-2720
▁miljoen	-2721
▁When	-2722
▁less	-2723
▁what	-2724
▁let	-2725
▁aangew	-2726
▁044	-2727
▁because	-2728
inge	-2729
▁worker	-2730
ays	-2731
name	-2732
▁keer	-2733
▁final	-2734
▁Di	-2735
abinet	-2736
▁skakel	-2737
▁prescribed	-2738
▁verskillende	-2739
▁sc	-2740
▁job	-2741
▁grant	-2742
▁responsib	-2743
alle	-2744
▁promot	-2745
yl	-2746
▁success	-2747
▁Programme	-2748
▁werkgewer	-2749
gether	-2750
proses	-2751
▁25	-2752
▁safety	-2753
▁medical	-2754
sels	-2755
▁Bre	-2756
ricultural	-2757
▁bro	-2758
▁sam	-2759
alf	-2760
ound	-2761
▁bou	-2762
▁bank	-2763
1)	-2764
au	-2765
▁both	-2766
▁functions	-2767
site	-2768
▁Supp	-2769
▁alre	-2770
▁basis	-2771
ousing	-2772
▁visit	-2773
▁def	-2774
▁concern	-2775
▁together	-2776
▁House	-2777
▁onderneming	-2778
/0	-2779
▁Fe	-2780
▁vehicle	-2781
▁ID	-2782
▁Me	-2783
▁subject	-2784
derd	-2785
ctor	-2786
▁Kom	-2787
▁fish	-2788
ipe	-2789
etsontwerp	-2790
eign	-2791
ries	-2792
do	-2793
▁All	-2794
thing	-2795
▁huidige	-2796
▁situ	-2797
▁Applic	-2798
▁established	-2799
▁held	-2800
▁voed	-2801
▁Chief	-2802
AP	-2803
▁women	-2804
▁Author	-2805
▁volledige	-2806
▁aw	-2807
▁Huis	-2808
▁Crime	-2809
▁Transport	-2810
▁Ind	-2811
▁Officer	-2812
▁general	-2813
▁Aans	-2814
ktes	-2815
▁Waar	-2816
ared	-2817
▁Comp	-2818
▁goeie	-2819
9.	-2820
nf	-2821
▁Leg	-2822
▁matter	-2823
▁education	-2824
67	-2825
sed	-2826
▁gu	-2827
▁dieself	-2828
ël	-2829
kode	-2830
▁alloc	-2831
▁dieselfde	-2832
52	-2833
onde	-2834
▁April	-2835
▁consum	-2836
▁integr	-2837
bos	-2838
▁recon	-2839
▁maintenance	-2840
adres	-2841
▁veroorsaak	-2842
▁prev	-2843
hoe	-2844
▁those	-2845
▁partners	-2846
▁completed	-2847
▁GE	-2848
▁Hoof	-2849
▁spesifieke	-2850
serv	-2851
▁Co	-2852
▁PL	-2853
okument	-2854
63	-2855
agtig	-2856
▁learners	-2857
▁Office	-2858
▁University	-2859
gelê	-2860
ratis	-2861
▁Priv	-2862
entskap	-2863
▁go	-2864
▁Aansoek	-2865
bo	-2866
inder	-2867
usting	-2868
▁Uitvoerende	-2869
aving	-2870
▁human	-2871
▁bepalings	-2872
tuie	-2873
▁Verv	-2874
▁bedoel	-2875
mbly	-2876
▁port	-2877
▁better	-2878
ii	-2879
▁gebe	-2880
▁later	-2881
▁kor	-2882
▁sien	-2883
sitter	-2884
pas	-2885
▁content	-2886
▁Trans	-2887
▁citiz	-2888
▁volle	-2889
▁Misdaad	-2890
▁firearm	-2891
▁geleentheid	-2892
orth	-2893
▁News	-2894
likasies	-2895
IG	-2896
.1.	-2897
.93	-2898
▁Im	-2899
EPAR	-2900
▁boek	-2901
▁stad	-2902
▁Vehicle	-2903
80	-2904
▁taal	-2905
ultural	-2906
▁maatskappy	-2907
▁Pot	-2908
▁venn	-2909
ulture	-2910
iko	-2911
rovir	-2912
▁terwyl	-2913
▁Her	-2914
▁drug	-2915
likse	-2916
▁stem	-2917
jekte	-2918
stroom	-2919
nology	-2920
▁skole	-2921
▁Sy	-2922
▁erk	-2923
organis	-2924
▁ingestel	-2925
geneem	-2926
▁ww	-2927
voed	-2928
▁effective	-2929
gn	-2930
▁tol	-2931
▁www	-2932
▁Board	-2933
kundige	-2934
▁gewoon	-2935
ula	-2936
komende	-2937
▁gesondheid	-2938
ema	-2939
wat	-2940
iol	-2941
nator	-2942
acity	-2943
▁rekord	-2944
▁siekte	-2945
▁oorweeg	-2946
▁body	-2947
▁prem	-2948
▁differ	-2949
▁vergadering	-2950
▁groep	-2951
▁appoint	-2952
▁Parlement	-2953
alk	-2954
▁vor	-2955
ester	-2956
▁produsente	-2957
87	-2958
▁ontwikkelings	-2959
▁Z	-2960
▁lê	-2961
▁foc	-2962
▁mak	-2963
ences	-2964
▁Janu	-2965
▁projekte	-2966
▁getu	-2967
▁ooreenkoms	-2968
onte	-2969
▁agter	-2970
▁applicable	-2971
indes	-2972
aatreëls	-2973
gh	-2974
RO	-2975
▁Part	-2976
▁DEPAR	-2977
ification	-2978
▁investig	-2979
▁ret	-2980
bring	-2981
standighede	-2982
▁provisions	-2983
lose	-2984
▁verg	-2985
▁bewys	-2986
vo	-2987
▁Hulle	-2988
▁previous	-2989
▁IN	-2990
▁foreign	-2991
57	-2992
▁Kind	-2993
▁Vers	-2994
▁lewe	-2995
▁provision	-2996
--	-2997
▁Bestuur	-2998
reng	-2999
groep	-3000
▁sorg	-3001
▁Enige	-3002
▁middel	-3003
facilities	-3004
off	-3005
▁Te	-3006
thou	-3007
ended	-3008
▁protect	-3009
weg	-3010
ators	-3011
▁family	-3012
▁gedeel	-3013
▁specific	-3014
NWU	-3015
▁sustain	-3016
▁verbind	-3017
akt	-3018
beid	-3019
oura	-3020
▁doelw	-3021
▁invest	-3022
eleindes	-3023
▁22	-3024
dery	-3025
▁kwal	-3026
airpers	-3027
▁written	-3028
▁industry	-3029
▁verskeie	-3030
▁kennisgewing	-3031
▁council	-3032
▁munisipale	-3033
89	-3034
day	-3035
ermit	-3036
▁Intern	-3037
▁funksies	-3038
pes	-3039
eerde	-3040
▁uitvoerende	-3041
.20	-3042
▁Aug	-3043
▁Mar	-3044
▁vak	-3045
▁tree	-3046
▁aansoekvorm	-3047
hest	-3048
▁quality	-3049
▁lisensie	-3050
▁hospitaal	-3051
oorte	-3052
stige	-3053
eration	-3054
▁spesiale	-3055
5,	-3056
ITY	-3057
▁23	-3058
less	-3059
▁rig	-3060
ektor	-3061
▁invol	-3062
▁Municipal	-3063
▁druk	-3064
▁grondwet	-3065
▁registrasie	-3066
▁pad	-3067
▁aantal	-3068
aai	-3069
til	-3070
▁mod	-3071
▁liggaam	-3072
▁designed	-3073
werkers	-3074
▁impact	-3075
▁verkoop	-3076
ontwikkeling	-3077
ana	-3078
▁Pub	-3079
▁capacity	-3080
bre	-3081
raf	-3082
▁Bel	-3083
▁persons	-3084
▁Environment	-3085
▁rese	-3086
udit	-3087
work	-3088
▁beoog	-3089
▁meeste	-3090
▁Sake	-3091
▁prin	-3092
▁redu	-3093
nerable	-3094
▁Hospit	-3095
▁verslag	-3096
▁complain	-3097
▁measures	-3098
urb	-3099
▁weg	-3100
▁verklaring	-3101
dhede	-3102
eding	-3103
▁econom	-3104
ists	-3105
raam	-3106
▁already	-3107
▁komp	-3108
▁real	-3109
▁byvoorbeeld	-3110
53	-3111
ick	-3112
▁40	-3113
andag	-3114
stens	-3115
▁Ople	-3116
▁chem	-3117
▁crim	-3118
▁obtain	-3119
poses	-3120
▁small	-3121
▁gevaar	-3122
eke	-3123
▁onl	-3124
▁vac	-3125
▁mann	-3126
▁postal	-3127
▁verdere	-3128
▁decision	-3129
▁Inligting	-3130
▁verp	-3131
▁steun	-3132
vaardig	-3133
▁receive	-3134
ics	-3135
▁besit	-3136
▁kragtens	-3137
▁behandeling	-3138
vat	-3139
▁hour	-3140
▁gratis	-3141
▁publiek	-3142
▁website	-3143
▁export	-3144
lies	-3145
▁fee	-3146
▁home	-3147
spreek	-3148
ections	-3149
komstig	-3150
df	-3151
▁non	-3152
▁five	-3153
▁toegeken	-3154
seer	-3155
▁ouer	-3156
▁misdaad	-3157
▁planning	-3158
app	-3159
won	-3160
telik	-3161
▁call	-3162
▁subsid	-3163
▁certain	-3164
▁include	-3165
▁leerders	-3166
▁play	-3167
CT	-3168
enew	-3169
▁budge	-3170
istes	-3171
istering	-3172
▁cann	-3173
▁being	-3174
▁beter	-3175
▁corre	-3176
▁OB	-3177
ster	-3178
▁tans	-3179
▁owner	-3180
▁cannot	-3181
▁transport	-3182
▁ses	-3183
▁tre	-3184
▁verspre	-3185
▁continue	-3186
▁legal	-3187
▁change	-3188
ssssssss	-3189
▁station	-3190
23	-3191
oë	-3192
▁tel	-3193
toria	-3194
▁said	-3195
▁elekt	-3196
iversiteit	-3197
▁Uys	-3198
▁veil	-3199
▁August	-3200
OP	-3201
aag	-3202
▁gebeur	-3203
ars	-3204
▁guid	-3205
itiat	-3206
▁Vigs	-3207
▁total	-3208
▁schools	-3209
▁permanent	-3210
▁AN	-3211
▁parties	-3212
▁belangrike	-3213
hulp	-3214
▁sent	-3215
▁boere	-3216
▁ris	-3217
▁ser	-3218
▁klag	-3219
ersiële	-3220
▁vermin	-3221
▁infected	-3222
OC	-3223
ommige	-3224
▁while	-3225
▁Strateg	-3226
▁werknemers	-3227
-,	-3228
DC	-3229
wa	-3230
geme	-3231
water	-3232
ounsel	-3233
▁State	-3234
fe	-3235
ury	-3236
roue	-3237
ules	-3238
▁kantoor	-3239
▁munisipaliteite	-3240
wc	-3241
TION	-3242
alte	-3243
▁neg	-3244
▁North	-3245
▁charge	-3246
▁Hy	-3247
▁Rec	-3248
gawes	-3249
▁risk	-3250
adem	-3251
▁lit	-3252
▁oop	-3253
▁2010	-3254
▁Project	-3255
OU	-3256
bru	-3257
mat	-3258
▁lead	-3259
▁research	-3260
▁verklaar	-3261
▁successful	-3262
▁toestemming	-3263
▁hol	-3264
▁pdf	-3265
ERV	-3266
pleeg	-3267
eneral	-3268
▁least	-3269
geleenthede	-3270
eks	-3271
lack	-3272
orte	-3273
enheid	-3274
▁gehad	-3275
▁inges	-3276
▁uitvoer	-3277
▁Kle	-3278
▁verhoog	-3279
▁security	-3280
▁Afrikaans	-3281
mee	-3282
▁Gra	-3283
▁1999	-3284
▁approved	-3285
▁activities	-3286
▁diagn	-3287
▁building	-3288
▁facilities	-3289
▁Do	-3290
▁Maatskap	-3291
oste	-3292
werf	-3293
▁value	-3294
▁purposes	-3295
▁verander	-3296
lop	-3297
iteer	-3298
▁prakt	-3299
blief	-3300
ience	-3301
▁ingedien	-3302
90	-3303
roep	-3304
▁vaard	-3305
▁kontrak	-3306
▁institutions	-3307
osed	-3308
▁misd	-3309
▁size	-3310
▁build	-3311
▁kliniek	-3312
rup	-3313
▁Any	-3314
▁canc	-3315
▁still	-3316
▁partye	-3317
▁Of	-3318
sake	-3319
gedra	-3320
▁means	-3321
ulation	-3322
ikw	-3323
sec	-3324
▁glo	-3325
▁2002	-3326
▁waste	-3327
▁betaling	-3328
▁Environmental	-3329
▁centre	-3330
▁premises	-3331
▁virus	-3332
▁recomm	-3333
▁benefits	-3334
PO	-3335
ove	-3336
omet	-3337
▁listed	-3338
▁manier	-3339
61	-3340
▁enc	-3341
erskap	-3342
▁genoem	-3343
chie	-3344
▁saf	-3345
▁laas	-3346
elling	-3347
▁crime	-3348
▁uitdag	-3349
TA	-3350
-103	-3351
imate	-3352
▁gelys	-3353
ootskap	-3354
▁asseblief	-3355
▁4.	-3356
eal	-3357
▁Kl	-3358
▁here	-3359
▁verw	-3360
▁deleg	-3361
▁Member	-3362
dokument	-3363
▁onderteken	-3364
▁international	-3365
8,	-3366
irc	-3367
▁verbruik	-3368
lei	-3369
rasie	-3370
▁Mens	-3371
▁skills	-3372
unikasie	-3373
▁potential	-3374
▁erf	-3375
▁steeds	-3376
▁Province	-3377
spro	-3378
▁internasionale	-3379
atal	-3380
▁bron	-3381
▁reason	-3382
▁werking	-3383
▁Gesondheid	-3384
asse	-3385
▁fis	-3386
odige	-3387
▁fasil	-3388
▁volhou	-3389
▁werkers	-3390
▁determined	-3391
▁performance	-3392
Wet	-3393
▁ern	-3394
grond	-3395
▁course	-3396
▁natuur	-3397
▁proced	-3398
▁various	-3399
ommissaris	-3400
gesondheids	-3401
▁Kh	-3402
▁wit	-3403
-03-2	-3404
▁totale	-3405
▁writing	-3406
▁Provinsie	-3407
jun	-3408
▁upd	-3409
▁bevat	-3410
ansies	-3411
hop	-3412
▁483	-3413
spect	-3414
iektes	-3415
▁vervoer	-3416
gings	-3417
ontein	-3418
▁different	-3419
▁manner	-3420
airperson	-3421
▁aangestel	-3422
▁appointed	-3423
ese	-3424
▁BI	-3425
▁allow	-3426
dui	-3427
▁dire	-3428
▁event	-3429
▁tersaak	-3430
▁buitelandse	-3431
urn	-3432
alwe	-3433
maak	-3434
slag	-3435
iwiteite	-3436
oto	-3437
will	-3438
▁Cont	-3439
▁Authority	-3440
EG	-3441
▁80	-3442
▁kop	-3443
▁code	-3444
▁toepaslike	-3445
8.	-3446
▁oortre	-3447
▁District	-3448
92	-3449
uns	-3450
kerm	-3451
▁Legisl	-3452
84	-3453
▁VAN	-3454
▁anders	-3455
▁appropriate	-3456
ereg	-3457
ubliek	-3458
▁achie	-3459
irm	-3460
ending	-3461
▁ooreenstem	-3462
/200	-3463
▁Cons	-3464
▁buite	-3465
▁instru	-3466
ywerheid	-3467
▁Vervoer	-3468
▁consult	-3469
▁Emp	-3470
posit	-3471
▁gewe	-3472
services	-3473
▁aangedui	-3474
epte	-3475
iddels	-3476
▁voorwaardes	-3477
▁updated	-3478
ask	-3479
▁establish	-3480
yne	-3481
iquor	-3482
issery	-3483
rid	-3484
▁vind	-3485
ergency	-3486
▁Centres	-3487
▁hulpbronne	-3488
▁tersaaklike	-3489
tog	-3490
▁site	-3491
▁accident	-3492
▁waarvoor	-3493
▁0.	-3494
hoor	-3495
ktor	-3496
▁Works	-3497
letters	-3498
nologie	-3499
▁vorige	-3500
▁disease	-3501
▁algemene	-3502
▁Jun	-3503
▁ide	-3504
▁beleg	-3505
▁ondersteuning	-3506
tegre	-3507
▁back	-3508
▁toes	-3509
▁employees	-3510
▁responsibility	-3511
jie	-3512
ield	-3513
▁kos	-3514
▁tenant	-3515
▁waarvan	-3516
▁employment	-3517
▁hours	-3518
▁naaste	-3519
RV	-3520
▁34	-3521
▁enter	-3522
▁trust	-3523
handeling	-3524
94	-3525
ENS	-3526
vlak	-3527
tering	-3528
▁chall	-3529
▁amptelike	-3530
▁Ass	-3531
▁Prof	-3532
▁loop	-3533
▁individual	-3534
▁gesp	-3535
▁afval	-3536
oint	-3537
▁deb	-3538
▁streek	-3539
▁probleme	-3540
▁submitted	-3541
sue	-3542
gely	-3543
habil	-3544
eptember	-3545
▁registreer	-3546
13	-3547
▁Sex	-3548
▁mas	-3549
▁beskou	-3550
▁kategor	-3551
▁transfer	-3552
▁kommersiële	-3553
65	-3554
▁Mem	-3555
▁ext	-3556
▁payment	-3557
▁municipalities	-3558
beids	-3559
▁adop	-3560
▁duid	-3561
rodu	-3562
▁nom	-3563
ursus	-3564
▁tolk	-3565
▁viol	-3566
essies	-3567
▁pog	-3568
ansie	-3569
middel	-3570
▁costs	-3571
▁skuldig	-3572
irth	-3573
▁lei	-3574
▁gestrem	-3575
▁organisations	-3576
▁VIR	-3577
▁Afrika	-3578
▁stappe	-3579
▁stelsel	-3580
▁voertuig	-3581
▁Ph	-3582
ober	-3583
▁having	-3584
lisensie	-3585
▁huurder	-3586
eug	-3587
▁assistance	-3588
EWS	-3589
beg	-3590
▁Net	-3591
anger	-3592
itees	-3593
▁enig	-3594
▁encoura	-3595
▁fishing	-3596
Act	-3597
▁los	-3598
▁Main	-3599
beleid	-3600
▁PRaft	-3601
▁testing	-3602
dent	-3603
▁inv	-3604
gebruik	-3605
▁remain	-3606
▁bestaande	-3607
▁Plan	-3608
igings	-3609
▁selfs	-3610
▁omstandighede	-3611
agte	-3612
cing	-3613
suele	-3614
▁oord	-3615
▁forms	-3616
staande	-3617
▁korpor	-3618
▁gewoonlik	-3619
73	-3620
aars	-3621
eria	-3622
iënt	-3623
plan	-3624
isiat	-3625
ville	-3626
▁conv	-3627
▁ouers	-3628
▁citizens	-3629
▁verminder	-3630
pose	-3631
rede	-3632
▁based	-3633
▁market	-3634
ping	-3635
▁gehe	-3636
▁bevestig	-3637
ton	-3638
▁6.	-3639
raag	-3640
▁Febru	-3641
saaklik	-3642
▁opgawe	-3643
kont	-3644
kantoor	-3645
oorde	-3646
iff	-3647
junk	-3648
▁offer	-3649
▁Museum	-3650
▁offence	-3651
▁nodige	-3652
▁Pretoria	-3653
▁facility	-3654
orporation	-3655
▁onderhoud	-3656
6,	-3657
imes	-3658
▁kort	-3659
▁toets	-3660
▁Deputy	-3661
▁commit	-3662
▁ouderd	-3663
▁Children	-3664
▁La	-3665
aftn	-3666
▁Moet	-3667
▁next	-3668
▁getal	-3669
▁economy	-3670
▁voordele	-3671
▁infrastructure	-3672
▁drugs	-3673
▁energ	-3674
▁Kinders	-3675
▁Vergadering	-3676
▁applications	-3677
erc	-3678
ird	-3679
heen	-3680
trek	-3681
▁div	-3682
▁Social	-3683
isting	-3684
ooreen	-3685
▁September	-3686
▁Ber	-3687
.2009	-3688
ients	-3689
koste	-3690
entral	-3691
▁large	-3692
▁es	-3693
▁altyd	-3694
▁gevalle	-3695
-03-24-4)	-3696
elle	-3697
ribun	-3698
▁mult	-3699
▁trek	-3700
▁matters	-3701
▁protection	-3702
here	-3703
ikwels	-3704
ising	-3705
▁step	-3706
amer	-3707
veer	-3708
▁fra	-3709
▁Noord	-3710
▁vraag	-3711
▁kontak	-3712
▁werker	-3713
▁Kultuur	-3714
ST	-3715
LIK	-3716
iets	-3717
view	-3718
▁THE	-3719
asing	-3720
▁afhank	-3721
ligtings	-3722
▁Bibliote	-3723
▁behandel	-3724
ounselling	-3725
▁according	-3726
uim	-3727
▁very	-3728
▁handel	-3729
▁farmers	-3730
▁geskied	-3731
▁primêre	-3732
ERN	-3733
ivery	-3734
▁Security	-3735
▁allocated	-3736
▁ant	-3737
▁way	-3738
▁four	-3739
▁divid	-3740
belasting	-3741
rd	-3742
enior	-3743
▁kons	-3744
▁Paper	-3745
▁letter	-3746
▁behoeftes	-3747
▁documents	-3748
▁Dié	-3749
▁Oud	-3750
ention	-3751
▁polisiebeampte	-3752
lê	-3753
▁Cla	-3754
▁sex	-3755
▁Elke	-3756
gewers	-3757
▁brand	-3758
▁prosed	-3759
onomiese	-3760
▁Housing	-3761
▁meeting	-3762
▁committee	-3763
▁voorgeskrewe	-3764
19	-3765
43	-3766
rie	-3767
dorp	-3768
posed	-3769
▁praat	-3770
▁capital	-3771
▁function	-3772
▁ru	-3773
ages	-3774
laag	-3775
ways	-3776
▁betre	-3777
▁Ontwikkeling	-3778
yc	-3779
▁hele	-3780
idelik	-3781
▁trade	-3782
▁omgewings	-3783
▁Munisipale	-3784
▁insluitend	-3785
▁hist	-3786
▁problems	-3787
▁navorsing	-3788
▁had	-3789
gebied	-3790
ograph	-3791
rywing	-3792
▁Omgewings	-3793
ogn	-3794
usp	-3795
▁soort	-3796
fte	-3797
▁plig	-3798
▁until	-3799
▁comply	-3800
▁verlies	-3801
▁wetgewer	-3802
▁dokumente	-3803
▁ap	-3804
ects	-3805
ondse	-3806
▁aard	-3807
▁meet	-3808
▁basiese	-3809
▁Legislature	-3810
iene	-3811
▁groter	-3812
▁dek	-3813
▁Hand	-3814
▁Potche	-3815
▁produk	-3816
▁vulnerable	-3817
OM	-3818
bosch	-3819
▁GEMS	-3820
▁samewerking	-3821
uro	-3822
▁bur	-3823
▁burg	-3824
▁gebou	-3825
▁Application	-3826
▁dood	-3827
▁bydra	-3828
▁Administr	-3829
deur	-3830
druk	-3831
▁speel	-3832
▁ekonomie	-3833
▁Registering	-3834
▁ondernemings	-3835
TH	-3836
ulu	-3837
▁hig	-3838
kende	-3839
cially	-3840
▁aangebied	-3841
62	-3842
etisie	-3843
ronk	-3844
utes	-3845
▁bena	-3846
▁bill	-3847
ustice	-3848
▁beide	-3849
eplanning	-3850
▁Sekuriteit	-3851
▁Acc	-3852
▁Asse	-3853
▁Road	-3854
▁deal	-3855
▁supply	-3856
▁among	-3857
▁meter	-3858
▁verlede	-3859
▁Publikasies	-3860
▁pens	-3861
inated	-3862
▁Where	-3863
▁exper	-3864
imals	-3865
ntegre	-3866
▁Adult	-3867
▁scheme	-3868
:00	-3869
▁lim	-3870
▁prep	-3871
ulated	-3872
stances	-3873
▁products	-3874
▁Lid	-3875
▁sure	-3876
▁sektor	-3877
dule	-3878
plek	-3879
trede	-3880
▁swart	-3881
▁Private	-3882
ër	-3883
lace	-3884
▁Jul	-3885
▁great	-3886
▁question	-3887
▁NWU	-3888
▁mand	-3889
▁012	-3890
▁Mnr	-3891
▁stat	-3892
gestelde	-3893
▁concerned	-3894
▁weke	-3895
▁second	-3896
▁monitor	-3897
▁aansoeke	-3898
gader	-3899
▁Kont	-3900
kampus	-3901
▁skryf	-3902
▁herstel	-3903
▁parents	-3904
▁agricultural	-3905
▁stu	-3906
▁budget	-3907
▁bydrae	-3908
85	-3909
ode	-3910
▁ir	-3911
orge	-3912
voorkom	-3913
▁sertifikaat	-3914
",	-3915
64	-3916
hang	-3917
liks	-3918
keers	-3919
▁tele	-3920
▁bates	-3921
▁Assembly	-3922
▁vennootskap	-3923
▁implementering	-3924
▁Qu	-3925
▁TO	-3926
rein	-3927
uele	-3928
ached	-3929
aster	-3930
▁lank	-3931
gelope	-3932
ordering	-3933
▁perseel	-3934
▁hospital	-3935
▁reference	-3936
bb	-3937
komitee	-3938
▁voedsel	-3939
onn	-3940
▁slag	-3941
▁medic	-3942
▁Komitee	-3943
▁dikwels	-3944
▁EM	-3945
▁oog	-3946
▁food	-3947
▁identified	-3948
aking	-3949
▁These	-3950
▁sommige	-3951
▁ev	-3952
▁temp	-3953
ercial	-3954
gewende	-3955
▁voordeel	-3956
▁recommend	-3957
▁ooreenkomstig	-3958
RS	-3959
ete	-3960
▁(2	-3961
File	-3962
▁Prote	-3963
▁abuse	-3964
▁kapit	-3965
▁works	-3966
keuring	-3967
========	-3968
▁afskrif	-3969
programme	-3970
▁Training	-3971
▁verstaan	-3972
▁doelwitte	-3973
▁toerusting	-3974
▁opportunities	-3975
7,	-3976
AC	-3977
ensy	-3978
fact	-3979
▁technology	-3980
ICES	-3981
NEWS	-3982
▁six	-3983
volle	-3984
▁ground	-3985
▁verwag	-3986
den	-3987
per	-3988
enes	-3989
▁rate	-3990
▁Labour	-3991
▁boerdery	-3992
82	-3993
▁pow	-3994
▁wis	-3995
ekaar	-3996
▁afgelope	-3997
▁identity	-3998
band	-3999
▁Park	-4000
▁labour	-4001
▁publis	-4002
▁agriculture	-4003
ving	-4004
versk	-4005
▁Swart	-4006
▁aanbevel	-4007
▁plaasvind	-4008
gt	-4009
hops	-4010
raak	-4011
voeg	-4012
▁deposit	-4013
▁Direkteur	-4014
▁purpose	-4015
rou	-4016
▁Sche	-4017
maatskap	-4018
▁bereken	-4019
▁Planning	-4020
▁currently	-4021
lew	-4022
atory	-4023
moede	-4024
prene	-4025
▁rede	-4026
▁lease	-4027
▁Instit	-4028
▁legislature	-4029
iary	-4030
leut	-4031
ateur	-4032
▁eers	-4033
▁range	-4034
▁vermoë	-4035
▁primary	-4036
▁toekoms	-4037
▁working	-4038
▁Heritage	-4039
▁gemeenskaps	-4040
ittees	-4041
▁birth	-4042
▁risiko	-4043
baarheid	-4044
▁teenoor	-4045
▁verandering	-4046
▁der	-4047
▁few	-4048
▁wins	-4049
▁convic	-4050
▁tourism	-4051
▁now	-4052
ronic	-4053
ISIPAL	-4054
▁invul	-4055
▁conclu	-4056
▁regulations	-4057
100	-4058
hes	-4059
man	-4060
▁Produ	-4061
▁house	-4062
▁commission	-4063
▁why	-4064
▁Verk	-4065
▁behe	-4066
▁road	-4067
ensies	-4068
▁aandag	-4069
▁genoeg	-4070
▁consent	-4071
▁director	-4072
▁ooreenstemming	-4073
andid	-4074
werker	-4075
▁behoor	-4076
▁vandag	-4077
oh	-4078
▁Ent	-4079
▁SAPS	-4080
▁julle	-4081
▁weens	-4082
ktoraat	-4083
▁started	-4084
▁studente	-4085
▁permanente	-4086
▁Publications	-4087
▁infrastruktuur	-4088
punt	-4089
▁lys	-4090
▁duur	-4091
betaal	-4092
gemeen	-4093
isters	-4094
14	-4095
oef	-4096
ums	-4097
aign	-4098
waar	-4099
▁live	-4100
riteria	-4101
▁siektes	-4102
acy	-4103
oekom	-4104
tende	-4105
ampaign	-4106
▁discuss	-4107
▁requirements	-4108
▁beë	-4109
ITIES	-4110
ousule	-4111
▁MUNIC	-4112
▁plans	-4113
▁Watter	-4114
pye	-4115
okus	-4116
ologiese	-4117
▁Potchef	-4118
▁vervang	-4119
leentheid	-4120
▁president	-4121
▁28	-4122
▁Ter	-4123
▁sur	-4124
▁Inter	-4125
▁contemp	-4126
▁MUNICIPAL	-4127
▁relations	-4128
▁vereistes	-4129
▁tek	-4130
regte	-4131
▁Bill	-4132
pecially	-4133
ntegreerde	-4134
▁KB	-4135
▁laun	-4136
▁past	-4137
vember	-4138
▁verkeers	-4139
▁determine	-4140
▁production	-4141
akk	-4142
tinge	-4143
enders	-4144
▁Voord	-4145
▁annual	-4146
▁languages	-4147
ryd	-4148
ITEIT	-4149
other	-4150
overty	-4151
▁often	-4152
▁effekt	-4153
▁traffic	-4154
▁increase	-4155
.59	-4156
▁Sal	-4157
▁him	-4158
enbosch	-4159
▁especially	-4160
69	-4161
▁...	-4162
▁SAPD	-4163
▁clear	-4164
▁install	-4165
-12	-4166
.2.	-4167
toe	-4168
wass	-4169
oneel	-4170
▁clean	-4171
itering	-4172
▁uitgawes	-4173
▁SV	-4174
erende	-4175
ryk	-4176
unde	-4177
▁Soc	-4178
▁lande	-4179
▁unless	-4180
▁minimum	-4181
irektoraat	-4182
orn	-4183
▁At	-4184
ancy	-4185
lyne	-4186
▁One	-4187
▁sat	-4188
rakte	-4189
permit	-4190
▁basic	-4191
▁Breede	-4192
▁gelewer	-4193
▁ingevul	-4194
▁gesondheidsorg	-4195
lick	-4196
▁Bay	-4197
▁bal	-4198
venue	-4199
▁bele	-4200
▁familie	-4201
▁visvang	-4202
▁Republic	-4203
gesondheid	-4204
▁contemplated	-4205
▁Ontwikkelings	-4206
EC	-4207
ng	-4208
-20	-4209
▁afr	-4210
▁jare	-4211
▁vest	-4212
▁provinces	-4213
lied	-4214
urban	-4215
▁demok	-4216
▁assets	-4217
▁bykomende	-4218
▁emergency	-4219
▁skriftelike	-4220
enk	-4221
▁(0	-4222
ights	-4223
▁PROV	-4224
▁Klein	-4225
▁proceed	-4226
struction	-4227
▁ouderdom	-4228
▁Ant	-4229
houers	-4230
▁adres	-4231
▁direk	-4232
▁beskerming	-4233
ues	-4234
geld	-4235
▁dro	-4236
ingsk	-4237
▁Voer	-4238
▁susp	-4239
beheer	-4240
▁recogn	-4241
▁daarvoor	-4242
gene	-4243
▁High	-4244
▁says	-4245
▁begroting	-4246
lyf	-4247
▁fil	-4248
inary	-4249
lusion	-4250
termyn	-4251
▁bemark	-4252
▁verbet	-4253
▁vooraf	-4254
▁natural	-4255
▁political	-4256
estic	-4257
▁Geen	-4258
itasie	-4259
▁besig	-4260
▁create	-4261
▁collect	-4262
▁produkte	-4263
lan	-4264
▁29	-4265
▁Not	-4266
▁mus	-4267
▁gesê	-4268
arings	-4269
▁equal	-4270
▁leave	-4271
▁geleenthede	-4272
▁aims	-4273
▁Staat	-4274
fontein	-4275
▁jaarlikse	-4276
▁uiteenges	-4277
▁organisasie	-4278
TMENT	-4279
▁2001	-4280
endent	-4281
ysical	-4282
▁gesag	-4283
▁powers	-4284
▁verskyn	-4285
▁duidelik	-4286
▁fl	-4287
meld	-4288
uture	-4289
▁stuur	-4290
loyment	-4291
▁behalwe	-4292
▁toerisme	-4293
▁Directorate	-4294
▁organisasies	-4295
Un	-4296
olle	-4297
▁Com	-4298
ennings	-4299
▁verkiesing	-4300
osa	-4301
▁pa	-4302
▁Kon	-4303
▁buy	-4304
▁ongeveer	-4305
▁produksie	-4306
▁verwyderaftn	-4307
▁Potchefstroom	-4308
ched	-4309
come	-4310
ival	-4311
▁paar	-4312
ITEITE	-4313
▁bloot	-4314
ciliation	-4315
▁oortreding	-4316
▁uiteengesit	-4317
▁environmental	-4318
law	-4319
aroo	-4320
prof	-4321
ompan	-4322
▁circ	-4323
▁bibliote	-4324
ISIPALITEIT	-4325
▁goedkeuring	-4326
▁Ple	-4327
▁SARS	-4328
▁tensy	-4329
houdings	-4330
standing	-4331
▁Members	-4332
▁univers	-4333
▁regulasies	-4334
asis	-4335
▁put	-4336
ekering	-4337
▁Report	-4338
▁daarna	-4339
▁doctor	-4340
▁bestuurs	-4341
▁obtained	-4342
▁Republiek	-4343
iaat	-4344
▁Bag	-4345
▁Vry	-4346
skryf	-4347
▁focus	-4348
▁inwon	-4349
▁redes	-4350
▁additional	-4351
▁constitutional	-4352
IST	-4353
omat	-4354
etting	-4355
▁amend	-4356
▁normal	-4357
raamwerk	-4358
▁position	-4359
ATION	-4360
gress	-4361
▁down	-4362
▁toon	-4363
▁verord	-4364
▁komitee	-4365
▁DEPARTMENT	-4366
hips	-4367
▁inj	-4368
iende	-4369
▁Courts	-4370
▁Staats	-4371
▁Voordat	-4372
▁funding	-4373
▁verstrek	-4374
▁Maintenance	-4375
cent	-4376
jies	-4377
reik	-4378
▁privaat	-4379
▁heritage	-4380
▁Finansiële	-4381
▁appointment	-4382
▁institution	-4383
ique	-4384
▁huw	-4385
status	-4386
▁Fonds	-4387
▁prestasie	-4388
▁MUNICIPALITY	-4389
▁doeltreffende	-4390
15	-4391
ERS	-4392
bedryf	-4393
enburg	-4394
▁minister	-4395
▁students	-4396
▁werknemer	-4397
▁aanstelling	-4398
45	-4399
wal	-4400
▁5.	-4401
beer	-4402
▁reë	-4403
aners	-4404
▁EMDC	-4405
▁vigs	-4406
ekteer	-4407
▁drank	-4408
▁contra	-4409
▁future	-4410
ellenbosch	-4411
▁commercial	-4412
▁provinsies	-4413
".	-4414
▁65	-4415
▁korrek	-4416
retariaat	-4417
▁Desember	-4418
▁investment	-4419
uut	-4420
▁7.	-4421
owwe	-4422
vula	-4423
▁son	-4424
selves	-4425
▁Click	-4426
▁geskik	-4427
ological	-4428
▁misdryf	-4429
▁objectives	-4430
sa	-4431
▁Am	-4432
imal	-4433
▁soc	-4434
kture	-4435
ource	-4436
▁dalk	-4437
omestic	-4438
▁administration	-4439
ash	-4440
ively	-4441
▁effic	-4442
▁oorsp	-4443
▁interests	-4444
▁strategiese	-4445
▁erv	-4446
▁sin	-4447
ately	-4448
▁Deur	-4449
▁Posit	-4450
▁exerc	-4451
▁witness	-4452
veld	-4453
vert	-4454
▁Imm	-4455
▁Sch	-4456
arest	-4457
poort	-4458
▁trad	-4459
▁Kliek	-4460
▁tweede	-4461
▁politieke	-4462
▁bevordering	-4463
▁polisiestasie	-4464
▁eng	-4465
tenis	-4466
▁action	-4467
▁benefit	-4468
▁uitdagings	-4469
▁identiteits	-4470
▁participate	-4471
▁Wit	-4472
▁ill	-4473
▁moed	-4474
itiative	-4475
▁nearest	-4476
▁promotion	-4477
▁skriftelik	-4478
LIKE	-4479
▁aank	-4480
▁appear	-4481
▁bystand	-4482
▁records	-4483
beplanning	-4484
▁hoeveelheid	-4485
BS	-4486
kru	-4487
▁Bu	-4488
▁Dec	-4489
▁weeks	-4490
roniese	-4491
▁aanslag	-4492
▁Maatskaplike	-4493
▁Sc	-4494
hold	-4495
stof	-4496
▁common	-4497
▁toekenning	-4498
▁bv	-4499
▁oud	-4500
▁Maart	-4501
▁Clinic	-4502
▁seksuele	-4503
▁vaardighede	-4504
▁2,	-4505
stuk	-4506
▁Lang	-4507
▁saad	-4508
▁veld	-4509
▁afric	-4510
▁Section	-4511
▁gestuur	-4512
▁algemeen	-4513
▁voorheen	-4514
onst	-4515
▁car	-4516
isyne	-4517
ureau	-4518
▁weier	-4519
▁issues	-4520
▁instelling	-4521
▁ii	-4522
thers	-4523
▁ontwerp	-4524
75	-4525
86	-4526
icy	-4527
abor	-4528
▁old	-4529
▁faks	-4530
▁known	-4531
istreerde	-4532
▁Opleiding	-4533
▁Prevention	-4534
▁beplanning	-4535
ablish	-4536
▁above	-4537
voeding	-4538
▁Police	-4539
▁Regional	-4540
haar	-4541
▁moe	-4542
▁rad	-4543
ather	-4544
▁deem	-4545
▁pregn	-4546
agtiging	-4547
▁present	-4548
▁priority	-4549
▁relating	-4550
oud	-4551
datum	-4552
▁prys	-4553
mework	-4554
▁asked	-4555
▁evidence	-4556
▁Stellenbosch	-4557
▁AND	-4558
▁afs	-4559
▁vote	-4560
gaande	-4561
nemers	-4562
▁sterk	-4563
▁Bureau	-4564
▁tender	-4565
▁correct	-4566
▁maintain	-4567
voorkomings	-4568
hl	-4569
wig	-4570
abel	-4571
ware	-4572
▁Tot	-4573
▁mnr	-4574
▁Over	-4575
afhank	-4576
▁recre	-4577
endheid	-4578
▁onlang	-4579
▁befonds	-4580
▁involved	-4581
EK	-4582
fol	-4583
sep	-4584
▁Pe	-4585
▁Org	-4586
ender	-4587
estes	-4588
mitted	-4589
rivier	-4590
▁bekom	-4591
▁proof	-4592
isionele	-4593
▁ongeluk	-4594
▁November	-4595
▁Wetgewer	-4596
''	-4597
loop	-4598
gener	-4599
uleer	-4600
▁SERV	-4601
▁task	-4602
▁Quest	-4603
▁streng	-4604
▁highest	-4605
▁accompan	-4606
▁criminal	-4607
▁ST	-4608
elig	-4609
ruit	-4610
▁FAS	-4611
▁benodig	-4612
▁grounds	-4613
▁communic	-4614
3)	-4615
▁found	-4616
▁sleut	-4617
▁standards	-4618
▁doeleindes	-4619
pel	-4620
▁Lic	-4621
▁Ste	-4622
ommod	-4623
▁Care	-4624
▁beroep	-4625
usionele	-4626
▁approval	-4627
▁minstens	-4628
▁aangesien	-4629
▁ingesluit	-4630
▁33	-4631
best	-4632
▁Cor	-4633
▁tar	-4634
▁kies	-4635
hicles	-4636
▁assoc	-4637
▁fisiese	-4638
▁positive	-4639
Im	-4640
▁AF	-4641
loos	-4642
werpe	-4643
▁moes	-4644
antore	-4645
reedom	-4646
▁namens	-4647
▁Finance	-4648
▁another	-4649
▁countries	-4650
▁tu	-4651
▁aanv	-4652
▁libr	-4653
▁George	-4654
▁pap	-4655
▁With	-4656
owerment	-4657
▁Distrik	-4658
▁sustainable	-4659
ott	-4660
straat	-4661
▁bewus	-4662
▁items	-4663
▁beplan	-4664
wassenes	-4665
▁indicated	-4666
▁assessment	-4667
▁Er	-4668
ategory	-4669
▁businesses	-4670
▁Sekretariaat	-4671
hosa	-4672
verk	-4673
wyse	-4674
▁death	-4675
▁short	-4676
▁besmet	-4677
▁kinder	-4678
▁placed	-4679
▁weers	-4680
▁Ekonomiese	-4681
▁kommunikasie	-4682
iret	-4683
▁sum	-4684
▁tale	-4685
▁vroe	-4686
-03-02.	-4687
fficient	-4688
▁optrede	-4689
rywighede	-4690
▁vergader	-4691
▁materials	-4692
RAD	-4693
waarde	-4694
▁gener	-4695
▁Support	-4696
▁factors	-4697
▁consultation	-4698
je	-4699
sc	-4700
▁Del	-4701
▁lug	-4702
ledge	-4703
▁organ	-4704
lothing	-4705
▁menslike	-4706
▁strategy	-4707
gemeenskap	-4708
lid	-4709
▁jur	-4710
▁skoon	-4711
▁valid	-4712
▁Artikel	-4713
▁lo	-4714
eption	-4715
▁gevra	-4716
▁polio	-4717
▁Metrop	-4718
▁fondse	-4719
▁verskil	-4720
bal	-4721
dro	-4722
▁26	-4723
▁Deel	-4724
▁Noordwes	-4725
▁aktiwiteite	-4726
UB	-4727
▁43	-4728
oors	-4729
spel	-4730
▁Joh	-4731
▁Lede	-4732
doende	-4733
nemende	-4734
▁appeal	-4735
▁uitreik	-4736
▁SERVICES	-4737
OO	-4738
drag	-4739
line	-4740
▁Ret	-4741
▁steps	-4742
gggggggg	-4743
▁verhuur	-4744
▁webwerf	-4745
▁includes	-4746
5-	-4747
iens	-4748
▁ken	-4749
▁read	-4750
▁decla	-4751
▁democ	-4752
▁Cultural	-4753
▁volhoubare	-4754
▁administrasie	-4755
▁aangeleentheid	-4756
ims	-4757
▁Hel	-4758
▁LOC	-4759
unstig	-4760
▁issue	-4761
▁goedere	-4762
▁kultuur	-4763
▁versuim	-4764
▁Voertuig	-4765
▁challenges	-4766
▁9.	-4767
your	-4768
▁suid	-4769
ansier	-4770
▁cases	-4771
▁south	-4772
igheids	-4773
▁armoede	-4774
▁gesament	-4775
▁passport	-4776
shof	-4777
▁etc	-4778
atives	-4779
duidelik	-4780
▁gehalte	-4781
agentskap	-4782
▁afdeling	-4783
▁direkteur	-4784
Pula	-4785
ided	-4786
▁sos	-4787
aksie	-4788
gekom	-4789
▁feit	-4790
▁hoër	-4791
retariat	-4792
ho	-4793
AAS	-4794
avors	-4795
iture	-4796
Imvula	-4797
▁erken	-4798
▁marri	-4799
▁toegew	-4800
▁Cabinet	-4801
▁related	-4802
▁grootste	-4803
▁aangegaan	-4804
▁Universiteit	-4805
▁32	-4806
▁75	-4807
IENS	-4808
▁baba	-4809
▁gelyk	-4810
.10	-4811
ony	-4812
▁023	-4813
▁May	-4814
▁binn	-4815
▁uitvo	-4816
▁erfenis	-4817
▁directly	-4818
▁regarded	-4819
▁aanspreek	-4820
▁convicted	-4821
dentifiseer	-4822
▁bevoegdheid	-4823
edert	-4824
▁centres	-4825
▁produsent	-4826
ronde	-4827
ktiewe	-4828
▁LOCAL	-4829
▁Organis	-4830
▁promote	-4831
▁vehicles	-4832
▁kategorie	-4833
▁vergoeding	-4834
▁42	-4835
▁PLAAS	-4836
leiding	-4837
▁optree	-4838
▁animals	-4839
entreprene	-4840
▁PLAASLIKE	-4841
▁persoonlike	-4842
,"	-4843
lord	-4844
tenare	-4845
vement	-4846
▁behoefte	-4847
▁employee	-4848
▁geboorte	-4849
▁identify	-4850
FA	-4851
▁Het	-4852
▁Mat	-4853
▁Pos	-4854
▁gard	-4855
▁compon	-4856
▁oorleg	-4857
▁bepaalde	-4858
▁sel	-4859
anges	-4860
amptes	-4861
▁Mense	-4862
▁Medium	-4863
lewering	-4864
▁Firearm	-4865
▁sitting	-4866
▁probleem	-4867
▁z	-4868
▁Sh	-4869
opro	-4870
▁Mag	-4871
▁kun	-4872
iated	-4873
▁plat	-4874
▁Indust	-4875
▁levels	-4876
▁considered	-4877
72	-4878
▁90	-4879
lote	-4880
▁Mos	-4881
itate	-4882
▁study	-4883
▁always	-4884
▁belange	-4885
▁conduct	-4886
▁x	-4887
▁Tax	-4888
▁tro	-4889
▁Teen	-4890
▁regs	-4891
esting	-4892
▁Kaapse	-4893
▁accred	-4894
▁huwelik	-4895
▁verwerk	-4896
-10-03-24	-4897
dependent	-4898
▁contribution	-4899
BO	-4900
IAL	-4901
edule	-4902
▁hern	-4903
▁indig	-4904
▁vrywill	-4905
iretrovir	-4906
▁drukskrif	-4907
jor	-4908
ivil	-4909
ross	-4910
▁And	-4911
hoorn	-4912
▁entr	-4913
▁tour	-4914
▁admin	-4915
▁Society	-4916
▁afhanklik	-4917
▁korporasie	-4918
▁departments	-4919
▁implemented	-4920
▁plaaswerkers	-4921
▁36	-4922
▁inhe	-4923
▁safe	-4924
▁occup	-4925
iseerde	-4926
▁January	-4927
▁neighbour	-4928
▁Have	-4929
▁Tech	-4930
▁lees	-4931
▁geweld	-4932
enditure	-4933
▁physical	-4934
PulaImvula	-4935
▁infection	-4936
▁toegelaat	-4937
▁wetenskap	-4938
▁Wetsontwerp	-4939
▁accompanied	-4940
▁successfully	-4941
RE	-4942
ured	-4943
▁Een	-4944
▁Let	-4945
based	-4946
staat	-4947
▁tipe	-4948
▁River	-4949
▁brief	-4950
▁goods	-4951
▁teken	-4952
▁geraak	-4953
▁totdat	-4954
▁magtiging	-4955
icro	-4956
olid	-4957
▁kil	-4958
▁chief	-4959
▁power	-4960
tshoorn	-4961
▁Adjunk	-4962
▁passed	-4963
risiteit	-4964
▁category	-4965
▁maatreëls	-4966
▁voorsitter	-4967
ufact	-4968
▁city	-4969
▁exclu	-4970
▁bedrae	-4971
▁complaint	-4972
▁Registration	-4973
▁00	-4974
gang	-4975
▁Els	-4976
isoen	-4977
▁card	-4978
indien	-4979
▁Human	-4980
lements	-4981
▁effort	-4982
▁Gebruik	-4983
▁Oudtshoorn	-4984
▁bevoegdhede	-4985
UL	-4986
WC	-4987
RIC	-4988
clu	-4989
iner	-4990
▁Prov	-4991
▁Word	-4992
▁fees	-4993
▁major	-4994
▁Policy	-4995
▁rekords	-4996
▁Transmitted	-4997
3,	-4998
iger	-4999
ried	-5000
▁Vul	-5001
▁akk	-5002
▁sak	-5003
▁teg	-5004
digde	-5005
▁mees	-5006
elines	-5007
isering	-5008
▁dokter	-5009
spective	-5010
▁Basiese	-5011
▁posisie	-5012
angerskap	-5013
88	-5014
fort	-5015
▁lod	-5016
ivier	-5017
▁dwel	-5018
▁half	-5019
nfrome	-5020
▁March	-5021
▁gewys	-5022
▁oorsk	-5023
▁clinics	-5024
▁Afdeling	-5025
▁bespreek	-5026
▁onderneem	-5027
▁reconciliation	-5028
500	-5029
▁Na	-5030
▁Pr	-5031
keid	-5032
▁(1)	-5033
▁TRV	-5034
▁uur	-5035
ricity	-5036
▁maklik	-5037
▁plante	-5038
tekening	-5039
▁partner	-5040
▁Firearms	-5041
▁uitgevoer	-5042
WR	-5043
Kap	-5044
mark	-5045
▁win	-5046
▁Each	-5047
▁onkru	-5048
▁rekening	-5049
igde	-5050
▁500	-5051
▁Bet	-5052
▁DIE	-5053
mense	-5054
▁Rights	-5055
▁senior	-5056
▁verdien	-5057
▁neighbours	-5058
ANN	-5059
hof	-5060
vere	-5061
▁Hof	-5062
▁ele	-5063
kaart	-5064
rimin	-5065
▁Binn	-5066
▁wish	-5067
azette	-5068
▁unemp	-5069
-12-02.	-5070
istrate	-5071
▁Access	-5072
▁bevind	-5073
yke	-5074
foon	-5075
gest	-5076
▁miel	-5077
projek	-5078
▁altern	-5079
▁Secretariat	-5080
pg	-5081
▁er	-5082
cies	-5083
▁Are	-5084
▁pop	-5085
▁return	-5086
▁poverty	-5087
▁versprei	-5088
▁disability	-5089
lof	-5090
nov	-5091
uter	-5092
▁tru	-5093
ption	-5094
▁repla	-5095
kontrak	-5096
▁introdu	-5097
▁structure	-5098
▁procedures	-5099
▁Voertuigtoets	-5100
▁participation	-5101
▁geregistreerde	-5102
Zulu	-5103
abet	-5104
▁dut	-5105
▁flu	-5106
plant	-5107
▁koop	-5108
itable	-5109
▁Famil	-5110
eniging	-5111
▁circum	-5112
▁divided	-5113
▁offered	-5114
▁Januarie	-5115
▁household	-5116
▁oorspronk	-5117
▁integrated	-5118
caft	-5119
▁Ged	-5120
▁art	-5121
▁aimed	-5122
▁break	-5123
▁groups	-5124
▁plants	-5125
▁potens	-5126
▁weersp	-5127
▁belanghe	-5128
ME	-5129
▁44	-5130
▁bil	-5131
enous	-5132
ectors	-5133
▁geleë	-5134
▁gewas	-5135
▁verblyf	-5136
▁MUNISIPALITEIT	-5137
▁ca	-5138
▁loc	-5139
▁tit	-5140
where	-5141
▁remov	-5142
▁advice	-5143
▁burger	-5144
▁confirm	-5145
▁concluded	-5146
▁indigenous	-5147
The	-5148
aby	-5149
lem	-5150
bert	-5151
oeke	-5152
▁kyk	-5153
▁orig	-5154
registr	-5155
strateg	-5156
voertuig	-5157
▁delivery	-5158
▁existing	-5159
EV	-5160
▁gre	-5161
eksie	-5162
reken	-5163
▁even	-5164
riends	-5165
▁Small	-5166
▁moeil	-5167
▁renew	-5168
General	-5169
▁living	-5170
ensation	-5171
▁onmiddel	-5172
▁soon	-5173
▁veel	-5174
ILITIES	-5175
gebiede	-5176
▁liquor	-5177
▁leaders	-5178
▁personal	-5179
.2010-03-2	-5180
▁competition	-5181
."	-5182
cers	-5183
brief	-5184
▁fill	-5185
▁rural	-5186
ificant	-5187
vinding	-5188
▁problem	-5189
▁rehabil	-5190
▁Inkomste	-5191
▁verrigtinge	-5192
▁63	-5193
▁ago	-5194
▁guil	-5195
▁exemp	-5196
▁sleutel	-5197
▁policies	-5198
▁specially	-5199
▁verduidelik	-5200
EST	-5201
▁Nie	-5202
▁arr	-5203
▁gef	-5204
▁geë	-5205
▁san	-5206
Natal	-5207
stall	-5208
ustom	-5209
▁Baie	-5210
▁Form	-5211
▁Trade	-5212
▁fokus	-5213
▁using	-5214
▁confer	-5215
ifikasie	-5216
▁gedeelte	-5217
▁natuurlike	-5218
.2010-03-25.	-5219
KO	-5220
▁ol	-5221
▁vern	-5222
enberg	-5223
▁derde	-5224
▁announ	-5225
▁Beampte	-5226
▁voertuie	-5227
load	-5228
▁400	-5229
▁FAC	-5230
oemde	-5231
redie	-5232
▁Maar	-5233
▁dele	-5234
▁educ	-5235
▁look	-5236
deelde	-5237
▁somet	-5238
▁higher	-5239
▁burgers	-5240
▁thereof	-5241
▁Binnelandse	-5242
▁Nu	-5243
osis	-5244
skool	-5245
▁Guid	-5246
▁cultural	-5247
▁modified	-5248
▁strategic	-5249
ela	-5250
skyn	-5251
▁agt	-5252
ession	-5253
▁black	-5254
sentrum	-5255
verslag	-5256
sertifikaat	-5257
▁instellings	-5258
);	-5259
emse	-5260
tions	-5261
▁jobs	-5262
▁datab	-5263
▁youth	-5264
▁langer	-5265
▁parent	-5266
▁probeer	-5267
▁ontstaan	-5268
▁Kommissie	-5269
leer	-5270
sorg	-5271
stra	-5272
▁toen	-5273
▁Elect	-5274
▁gerig	-5275
▁Agency	-5276
▁daarom	-5277
▁besonder	-5278
▁deelname	-5279
▁oorgedra	-5280
▁sekuriteit	-5281
rus	-5282
▁Sp	-5283
pgwc	-5284
▁Beg	-5285
▁vre	-5286
▁rond	-5287
gemaak	-5288
▁bloed	-5289
▁manag	-5290
huising	-5291
▁review	-5292
projekte	-5293
▁context	-5294
▁voorgelê	-5295
▁developed	-5296
▁FACILITIES	-5297
▁realisation	-5298
▁professional	-5299
mel	-5300
▁ha	-5301
INGS	-5302
ooit	-5303
ough	-5304
uses	-5305
verw	-5306
▁1994	-5307
oerant	-5308
▁early	-5309
▁gemik	-5310
skrifte	-5311
▁except	-5312
▁guilty	-5313
▁leiers	-5314
▁toesig	-5315
03-03-24	-5316
▁arbeids	-5317
▁inisiat	-5318
▁limited	-5319
vy	-5320
miss	-5321
abled	-5322
▁heel	-5323
cester	-5324
ration	-5325
▁tests	-5326
retrovir	-5327
▁election	-5328
▁corporation	-5329
17	-5330
bep	-5331
aland	-5332
enses	-5333
ronty	-5334
▁char	-5335
▁Vroue	-5336
▁gradu	-5337
▁third	-5338
▁geniet	-5339
produksie	-5340
▁Augustus	-5341
▁Hospital	-5342
▁ernstige	-5343
▁circumstances	-5344
side	-5345
inger	-5346
ograf	-5347
▁vinn	-5348
▁skade	-5349
▁stron	-5350
▁Please	-5351
▁versam	-5352
sto	-5353
▁CD	-5354
▁Maak	-5355
▁calc	-5356
▁Ander	-5357
▁behuis	-5358
▁duties	-5359
▁geslag	-5360
▁kursus	-5361
▁gebring	-5362
▁launched	-5363
▁sufficient	-5364
▁verpligting	-5365
ontwikkelings	-5366
onse	-5367
▁GOV	-5368
▁Oor	-5369
▁hoop	-5370
IENSTE	-5371
▁inbeg	-5372
▁nooit	-5373
mission	-5374
▁GOVERN	-5375
ateriaal	-5376
▁entreprene	-5377
info	-5378
otte	-5379
wese	-5380
indig	-5381
▁Bylae	-5382
▁White	-5383
▁price	-5384
▁sense	-5385
▁thank	-5386
▁klagte	-5387
▁reduce	-5388
▁versorg	-5389
▁expenses	-5390
▁kapitaal	-5391
▁materiaal	-5392
▁particularly	-5393
LIC	-5394
inks	-5395
ently	-5396
enings	-5397
▁accep	-5398
elewing	-5399
▁histor	-5400
▁mekaar	-5401
▁planne	-5402
▁naamlik	-5403
▁percent	-5404
▁salaris	-5405
▁chemical	-5406
▁marriage	-5407
▁Februarie	-5408
▁navorsings	-5409
▁verhouding	-5410
▁,	-5411
fic	-5412
skom	-5413
udic	-5414
▁PUB	-5415
ffing	-5416
▁mass	-5417
▁diere	-5418
▁dinge	-5419
▁vaste	-5420
▁nature	-5421
▁persent	-5422
▁vermeld	-5423
▁Biblioteke	-5424
▁aangebring	-5425
▁wetsontwerp	-5426
▁neighbourhood	-5427
aseer	-5428
▁close	-5429
▁ready	-5430
▁agreed	-5431
▁medium	-5432
▁officials	-5433
▁verwysing	-5434
▁opleidings	-5435
iks	-5436
nel	-5437
bere	-5438
week	-5439
aration	-5440
beskerm	-5441
▁handels	-5442
▁posadres	-5443
ler	-5444
▁il	-5445
▁ry	-5446
aren	-5447
▁Bem	-5448
▁fine	-5449
▁vrae	-5450
action	-5451
▁FASIL	-5452
▁driving	-5453
▁Worcester	-5454
▁therefore	-5455
▁GOVERNMENT	-5456
97	-5457
aand	-5458
ably	-5459
ault	-5460
▁19.	-5461
▁try	-5462
essie	-5463
gereg	-5464
▁swak	-5465
▁team	-5466
▁tien	-5467
▁inbegrip	-5468
▁Libraries	-5469
▁expenditure	-5470
hib	-5471
Kapa	-5472
▁Use	-5473
▁enk	-5474
ouses	-5475
▁guide	-5476
▁subst	-5477
▁breast	-5478
▁redelike	-5479
▁FASILITEITE	-5480
year	-5481
proei	-5482
waZulu	-5483
▁Testing	-5484
▁kliënte	-5485
▁begunstig	-5486
▁proceedings	-5487
600	-5488
AND	-5489
olit	-5490
teer	-5491
afrik	-5492
ensit	-5493
inate	-5494
▁princ	-5495
related	-5496
▁behalf	-5497
▁mother	-5498
▁travel	-5499
▁aansoekers	-5500
▁increasing	-5501
▁kompetisie	-5502
oper	-5503
ander	-5504
trent	-5505
ensive	-5506
▁press	-5507
annings	-5508
▁woorde	-5509
aba	-5510
keer	-5511
▁abs	-5512
▁resol	-5513
▁daartoe	-5514
▁veilige	-5515
▁moontlike	-5516
iretroviral	-5517
▁onderskeie	-5518
uted	-5519
▁fax	-5520
▁key	-5521
▁sul	-5522
estry	-5523
▁SVWR	-5524
affing	-5525
▁outside	-5526
▁swangerskap	-5527
▁Commissioner	-5528
afel	-5529
▁big	-5530
▁vrou	-5531
usband	-5532
stasies	-5533
▁aandui	-5534
▁deemed	-5535
▁Africans	-5536
▁December	-5537
retrovirale	-5538
▁verordening	-5539
ubs	-5540
rans	-5541
vloed	-5542
▁rang	-5543
▁Women	-5544
▁reeks	-5545
hoeftes	-5546
▁geskep	-5547
▁plekke	-5548
▁Traffic	-5549
▁oordrag	-5550
IRS	-5551
SAP	-5552
▁197	-5553
▁amb	-5554
▁Spes	-5555
▁jeug	-5556
▁graag	-5557
▁waarna	-5558
ervation	-5559
▁immunis	-5560
▁vanjaar	-5561
▁regional	-5562
▁confident	-5563
▁Omgewingsake	-5564
rywe	-5565
▁272	-5566
mente	-5567
▁micro	-5568
▁wissel	-5569
▁diegene	-5570
▁slagoff	-5571
▁berading	-5572
AA	-5573
St	-5574
etse	-5575
loss	-5576
reef	-5577
▁elk	-5578
▁mate	-5579
eregte	-5580
▁Skool	-5581
▁immed	-5582
▁rente	-5583
▁sedert	-5584
▁vryheid	-5585
▁bepaling	-5586
▁strategies	-5587
▁verbinding	-5588
Universiteit	-5589
besonderhede	-5590
kie	-5591
▁Ms	-5592
luite	-5593
▁lost	-5594
▁Kontak	-5595
▁studie	-5596
▁vlakke	-5597
▁poskode	-5598
▁competit	-5599
▁landlord	-5600
▁progress	-5601
▁samelewing	-5602
39/	-5603
bus	-5604
▁max	-5605
▁Tribun	-5606
▁prosec	-5607
▁undert	-5608
▁campaign	-5609
ex	-5610
hoek	-5611
▁mik	-5612
TEMENT	-5613
▁geplaas	-5614
▁gereeld	-5615
▁serious	-5616
▁kwessies	-5617
▁voorgeskryf	-5618
urse	-5619
▁OBA	-5620
▁dui	-5621
▁ruim	-5622
▁vaar	-5623
liseer	-5624
▁iKapa	-5625
▁owners	-5626
▁werksaam	-5627
▁Onderhoud	-5628
▁statement	-5629
▁mental	-5630
▁aspekte	-5631
▁departemente	-5632
▁handtekening	-5633
gesondheidsorg	-5634
49	-5635
med	-5636
▁OV	-5637
Serv	-5638
qual	-5639
▁Wie	-5640
▁teik	-5641
▁funds	-5642
▁houer	-5643
▁PROVIN	-5644
▁portion	-5645
▁companies	-5646
▁reasonable	-5647
▁maatskappye	-5648
wyd	-5649
▁Gr	-5650
▁REG	-5651
asons	-5652
▁Work	-5653
▁nurs	-5654
ktober	-5655
▁alles	-5656
▁illeg	-5657
▁pligte	-5658
▁unique	-5659
Afrikaners	-5660
▁organisation	-5661
KE	-5662
has	-5663
▁Kn	-5664
punte	-5665
▁Stud	-5666
▁dank	-5667
▁diep	-5668
▁voel	-5669
▁World	-5670
▁liter	-5671
▁paspoort	-5672
▁oorspronklike	-5673
68	-5674
win	-5675
▁72	-5676
▁Mas	-5677
▁gou	-5678
gebre	-5679
▁belas	-5680
▁funksie	-5681
▁fasiliteit	-5682
ze	-5683
dek	-5684
dra	-5685
gerig	-5686
▁tegn	-5687
eganis	-5688
▁Youth	-5689
▁techn	-5690
Service	-5691
▁Supply	-5692
▁danger	-5693
▁gesien	-5694
inkomste	-5695
▁inwoners	-5696
▁opgestel	-5697
▁contribute	-5698
▁Chairperson	-5699
mot	-5700
tel	-5701
▁77	-5702
arded	-5703
enlik	-5704
▁Besk	-5705
▁impak	-5706
▁rules	-5707
▁straf	-5708
iwiteit	-5709
▁jurisd	-5710
▁changes	-5711
▁Sexually	-5712
▁diseases	-5713
▁spesifiek	-5714
▁opportunity	-5715
▁aangeleenthede	-5716
▁vl	-5717
endam	-5718
place	-5719
▁baby	-5720
▁media	-5721
areness	-5722
imately	-5723
▁Hoekom	-5724
▁sexual	-5725
▁Afronty	-5726
▁reports	-5727
▁domestic	-5728
the	-5729
une	-5730
akom	-5731
this	-5732
▁Why	-5733
▁oes	-5734
order	-5735
▁reis	-5736
aktore	-5737
annaland	-5738
▁aspects	-5739
▁reasons	-5740
mpt	-5741
▁say	-5742
▁dink	-5743
▁simp	-5744
▁uitges	-5745
generaal	-5746
▁Schools	-5747
▁inheemse	-5748
▁Nywerheid	-5749
▁published	-5750
▁voortgaan	-5751
▁Counselling	-5752
▁consumption	-5753
▁plaaswerker	-5754
reh	-5755
▁AB	-5756
▁Mei	-5757
▁Nam	-5758
houer	-5759
▁Meer	-5760
▁harm	-5761
▁rent	-5762
▁field	-5763
▁uitbre	-5764
▁vissery	-5765
▁accommod	-5766
▁manufact	-5767
▁committed	-5768
▁elektrisiteit	-5769
ayo	-5770
skep	-5771
▁Cal	-5772
▁Hoog	-5773
▁iets	-5774
istent	-5775
▁manual	-5776
▁consumer	-5777
▁toestande	-5778
9,	-5779
PP	-5780
set	-5781
▁50%	-5782
▁Bro	-5783
▁NPO	-5784
unday	-5785
▁link	-5786
▁stig	-5787
asiteit	-5788
▁afford	-5789
▁Polisie	-5790
▁producers	-5791
.,	-5792
▁geag	-5793
▁reëls	-5794
▁73	-5795
ailed	-5796
streek	-5797
weging	-5798
rdineer	-5799
▁govern	-5800
▁please	-5801
▁Oktober	-5802
▁granted	-5803
▁regular	-5804
▁respond	-5805
▁framework	-5806
▁population	-5807
▁individuals	-5808
▁70	-5809
ogen	-5810
▁tye	-5811
esour	-5812
hewig	-5813
▁bate	-5814
ficult	-5815
rediet	-5816
▁intel	-5817
ellendam	-5818
▁direkte	-5819
▁difficult	-5820
▁understand	-5821
kn	-5822
enie	-5823
breng	-5824
umayo	-5825
▁Volg	-5826
▁hoef	-5827
▁Karoo	-5828
▁today	-5829
mentaar	-5830
▁stadium	-5831
▁Northern	-5832
▁aangewys	-5833
▁included	-5834
▁original	-5835
▁begrotings	-5836
▁designated	-5837
▁verhuurder	-5838
▁chairperson	-5839
lor	-5840
utr	-5841
▁Beh	-5842
▁ther	-5843
▁gewees	-5844
▁deliver	-5845
▁schedule	-5846
▁Infrastru	-5847
▁workshops	-5848
▁electricity	-5849
▁Agricultural	-5850
GO	-5851
IB	-5852
TW	-5853
web	-5854
lier	-5855
gelyk	-5856
spond	-5857
▁hekt	-5858
▁line	-5859
ervorm	-5860
▁Black	-5861
▁polis	-5862
▁struct	-5863
▁membership	-5864
▁percentage	-5865
ayel	-5866
hoof	-5867
perv	-5868
rial	-5869
▁022	-5870
atuur	-5871
icket	-5872
▁biopro	-5873
▁licens	-5874
▁regter	-5875
▁usually	-5876
▁communication	-5877
58	-5878
go	-5879
dan	-5880
----	-5881
ired	-5882
plig	-5883
skik	-5884
Diens	-5885
▁Jaar	-5886
▁Werke	-5887
▁vorms	-5888
▁moeder	-5889
loosheid	-5890
positief	-5891
▁General	-5892
▁Licence	-5893
▁illness	-5894
inligting	-5895
rehensive	-5896
▁gebaseer	-5897
▁Kannaland	-5898
▁Registrar	-5899
▁committees	-5900
weer	-5901
▁mee	-5902
▁mach	-5903
▁vacc	-5904
advant	-5905
▁onver	-5906
▁daarin	-5907
▁opvoed	-5908
▁vordering	-5909
▁Swellendam	-5910
▁BE	-5911
▁Ten	-5912
wende	-5913
▁Make	-5914
▁Oper	-5915
▁Port	-5916
▁Unit	-5917
malige	-5918
sektor	-5919
▁boete	-5920
▁poging	-5921
▁KwaZulu	-5922
iffs	-5923
raal	-5924
▁meth	-5925
▁share	-5926
▁konsep	-5927
▁express	-5928
▁someone	-5929
▁toelaat	-5930
▁disadvant	-5931
▁ondergaan	-5932
GB	-5933
RP	-5934
ows	-5935
▁don	-5936
oning	-5937
▁aanlyn	-5938
▁bewerk	-5939
▁gevang	-5940
▁DIENSTE	-5941
▁werkplek	-5942
▁announced	-5943
▁efficient	-5944
▁inligtings	-5945
▁vergaderings	-5946
norm	-5947
geval	-5948
ostig	-5949
▁1996	-5950
▁Design	-5951
▁Opdoen	-5952
▁bydraes	-5953
▁husband	-5954
▁voorbere	-5955
▁Direktoraat	-5956
bv	-5957
ORT	-5958
loe	-5959
▁Who	-5960
itsha	-5961
▁cover	-5962
▁labor	-5963
▁sulke	-5964
▁attend	-5965
▁bestee	-5966
ifically	-5967
▁accepted	-5968
▁owerheid	-5969
▁versterk	-5970
feul	-5971
ioen	-5972
iêre	-5973
mail	-5974
▁Dat	-5975
▁Mark	-5976
ursary	-5977
middels	-5978
▁cancer	-5979
ortefeul	-5980
▁assault	-5981
▁geskiedenis	-5982
ran	-5983
cont	-5984
sequ	-5985
▁head	-5986
▁urban	-5987
▁young	-5988
▁aangek	-5989
▁hektaar	-5990
▁DEPARTEMENT	-5991
25	-5992
ANS	-5993
ici	-5994
iii	-5995
▁93	-5996
haal	-5997
▁arg	-5998
▁sep	-5999
▁yes	-6000
kohol	-6001
▁dorp	-6002
prises	-6003
▁bevel	-6004
ertiary	-6005
▁oorskry	-6006
ayelitsha	-6007
materiaal	-6008
▁bekostig	-6009
▁Elsenburg	-6010
▁hoofsaaklik	-6011
uun	-6012
ieer	-6013
anned	-6014
plaas	-6015
▁Beau	-6016
▁bors	-6017
besmet	-6018
though	-6019
▁Forum	-6020
▁keuse	-6021
▁gereed	-6022
ulturele	-6023
▁Special	-6024
▁pension	-6025
▁volunte	-6026
▁strength	-6027
▁violence	-6028
keidenheid	-6029
▁toegestaan	-6030
▁disadvantaged	-6031
In	-6032
kings	-6033
oefen	-6034
risis	-6035
▁Appro	-6036
▁teach	-6037
▁kontant	-6038
▁referral	-6039
▁aangewend	-6040
▁erkenning	-6041
▁belangrikste	-6042
▁representatives	-6043
▁Dra	-6044
endar	-6045
redit	-6046
school	-6047
▁gekom	-6048
aseerde	-6049
▁opdrag	-6050
▁threat	-6051
▁achieve	-6052
▁affected	-6053
▁exercise	-6054
doeleindes	-6055
▁transferred	-6056
baan	-6057
toon	-6058
▁Tsh	-6059
▁ton	-6060
anted	-6061
cohol	-6062
▁Qual	-6063
▁band	-6064
▁Junie	-6065
▁estim	-6066
▁hande	-6067
▁verval	-6068
▁vision	-6069
▁restric	-6070
▁society	-6071
▁marketing	-6072
▁verbetering	-6073
.13	-6074
eto	-6075
uel	-6076
.418	-6077
▁cor	-6078
▁keep	-6079
eksies	-6080
▁gepub	-6081
▁behels	-6082
▁source	-6083
▁rakende	-6084
▁examination	-6085
▁huurkontrak	-6086
▁recommendation	-6087
US	-6088
adig	-6089
▁mot	-6090
itary	-6091
theid	-6092
uting	-6093
▁Resp	-6094
▁verd	-6095
▁rates	-6096
▁skuld	-6097
▁speak	-6098
▁Arbeid	-6099
▁Growth	-6100
▁benoem	-6101
▁expand	-6102
▁kliënt	-6103
▁demonst	-6104
▁meerder	-6105
▁omtrent	-6106
▁Projects	-6107
▁grondslag	-6108
▁representative	-6109
ssssssssssssssss	-6110
bew	-6111
nex	-6112
old	-6113
ots	-6114
▁ON	-6115
crip	-6116
time	-6117
riende	-6118
▁Julie	-6119
▁laaste	-6120
▁arrange	-6121
▁Beaufort	-6122
▁maandelik	-6123
▁ess	-6124
lands	-6125
▁Bank	-6126
▁Cert	-6127
▁Neem	-6128
▁span	-6129
ftware	-6130
▁drink	-6131
▁serve	-6132
wysings	-6133
▁Employ	-6134
▁Persal	-6135
▁others	-6136
▁pressure	-6137
ooreenkoms	-6138
▁uitstaande	-6139
▁documentation	-6140
DR	-6141
LE	-6142
elk	-6143
ihl	-6144
▁OP	-6145
▁Pad	-6146
orary	-6147
▁hang	-6148
▁leef	-6149
inerie	-6150
▁Regte	-6151
▁eight	-6152
▁whole	-6153
skynlik	-6154
▁Compan	-6155
▁learner	-6156
▁antwoord	-6157
▁wysiging	-6158
▁transform	-6159
▁prosedures	-6160
▁professionele	-6161
▁fire	-6162
itional	-6163
▁gespes	-6164
▁ingelig	-6165
▁aangeneem	-6166
▁aanbeveling	-6167
▁authorities	-6168
▁onmiddellik	-6169
▁gesamentlike	-6170
iam	-6171
▁Prim	-6172
▁flow	-6173
▁note	-6174
lusive	-6175
▁paper	-6176
▁recyc	-6177
▁taking	-6178
▁termyn	-6179
▁eenheid	-6180
▁medikasie	-6181
▁dependents	-6182
▁onderhewig	-6183
smunisipaliteit	-6184
ipl	-6185
stu	-6186
game	-6187
▁Tyd	-6188
▁pet	-6189
▁1997	-6190
▁howe	-6191
public	-6192
▁divor	-6193
▁whose	-6194
merking	-6195
▁People	-6196
▁affect	-6197
▁events	-6198
▁informed	-6199
▁decisions	-6200
66	-6201
▁Ty	-6202
ened	-6203
racy	-6204
▁Kry	-6205
▁gang	-6206
▁mond	-6207
▁vict	-6208
handig	-6209
▁times	-6210
council	-6211
▁museum	-6212
avorsing	-6213
▁geestes	-6214
▁besigheids	-6215
▁voorletters	-6216
▁gl	-6217
stro	-6218
▁Berg	-6219
▁graan	-6220
rekings	-6221
▁eerder	-6222
cription	-6223
▁openbaar	-6224
▁dienslewering	-6225
3.	-6226
ll	-6227
▁happ	-6228
▁masj	-6229
▁poor	-6230
▁Status	-6231
▁nation	-6232
▁spreek	-6233
▁greater	-6234
strategie	-6235
▁experien	-6236
▁onafhank	-6237
▁werkgewers	-6238
.2009-12-02.	-6239
▁administratiewe	-6240
RU	-6241
com	-6242
uma	-6243
▁Ma	-6244
arts	-6245
▁Red	-6246
oedig	-6247
▁Hier	-6248
▁loss	-6249
atures	-6250
▁Second	-6251
▁regver	-6252
▁vanuit	-6253
▁Volgens	-6254
▁amongst	-6255
▁daaraan	-6256
▁privile	-6257
▁funksion	-6258
▁encourage	-6259
▁uitvoering	-6260
▁gepubliseer	-6261
▁teenwoordig	-6262
kken	-6263
kole	-6264
▁Che	-6265
▁aft	-6266
▁audit	-6267
oordele	-6268
▁tested	-6269
▁Justice	-6270
▁maximum	-6271
▁onderrig	-6272
ennisgewing	-6273
▁kommentaar	-6274
▁tegnologie	-6275
▁lidmaatskap	-6276
MA	-6277
ben	-6278
dige	-6279
item	-6280
▁Erf	-6281
▁fit	-6282
apter	-6283
▁Perm	-6284
▁data	-6285
▁upon	-6286
nvloed	-6287
▁gelei	-6288
▁bronne	-6289
▁beleids	-6290
▁statist	-6291
▁resident	-6292
▁toestand	-6293
-103-03-24	-6294
▁behoorlik	-6295
▁hospitale	-6296
▁entrepreneurs	-6297
arg	-6298
▁IM	-6299
boek	-6300
▁June	-6301
affers	-6302
change	-6303
making	-6304
▁paaie	-6305
▁geword	-6306
▁mening	-6307
▁online	-6308
▁conflic	-6309
▁Language	-6310
▁artikels	-6311
▁internal	-6312
▁belegging	-6313
▁identifiseer	-6314
read	-6315
ryse	-6316
▁Sup	-6317
ither	-6318
▁summ	-6319
▁vang	-6320
brengs	-6321
orporate	-6322
owerheid	-6323
▁Kabinet	-6324
▁housing	-6325
▁payable	-6326
▁diagnosed	-6327
▁providing	-6328
▁veiligheids	-6329
Die	-6330
ront	-6331
▁028	-6332
isies	-6333
sters	-6334
▁besl	-6335
▁soek	-6336
▁ster	-6337
▁System	-6338
▁divers	-6339
▁getuie	-6340
▁longer	-6341
▁Beskerm	-6342
▁veldtog	-6343
▁declared	-6344
▁insluitende	-6345
):	-6346
▁MM	-6347
cted	-6348
▁(2)	-6349
iately	-6350
▁likel	-6351
▁occur	-6352
▁wette	-6353
rigting	-6354
▁courts	-6355
ihlumayo	-6356
▁Gateway	-6357
▁Industry	-6358
▁clothing	-6359
▁entrance	-6360
▁awareness	-6361
▁residence	-6362
54	-6363
aw	-6364
lam	-6365
▁Ke	-6366
baai	-6367
▁Teg	-6368
▁dev	-6369
ellow	-6370
iplin	-6371
uster	-6372
▁energy	-6373
utrition	-6374
▁Gazette	-6375
▁creation	-6376
▁requester	-6377
uitvoerende	-6378
▁aanmerking	-6379
organisasies	-6380
▁significant	-6381
ats	-6382
iple	-6383
▁Est	-6384
amber	-6385
astal	-6386
earch	-6387
iance	-6388
▁oral	-6389
moedig	-6390
▁satis	-6391
▁Mossel	-6392
▁scient	-6393
▁categor	-6394
▁monthly	-6395
▁medisyne	-6396
▁increased	-6397
▁voldoende	-6398
▁betaalbaar	-6399
▁vervaardig	-6400
▁Strategiese	-6401
▁noodsaaklik	-6402
▁installation	-6403
ns	-6404
bank	-6405
inne	-6406
lock	-6407
stal	-6408
▁vot	-6409
▁Rand	-6410
▁arch	-6411
▁gene	-6412
wysing	-6413
▁email	-6414
▁hernu	-6415
▁sites	-6416
▁client	-6417
▁garden	-6418
▁kanker	-6419
▁likely	-6420
▁pogings	-6421
▁vooruit	-6422
houdelike	-6423
▁Spesiale	-6424
▁geregtig	-6425
▁greatest	-6426
▁pasiënte	-6427
▁uitsluit	-6428
▁encouraged	-6429
▁verskeidenheid	-6430
6)	-6431
DE	-6432
aa	-6433
kk	-6434
see	-6435
requ	-6436
taft	-6437
merke	-6438
▁Find	-6439
ilities	-6440
werhede	-6441
▁Sexual	-6442
▁usable	-6443
▁vertro	-6444
▁district	-6445
▁download	-6446
▁verbruikers	-6447
avi	-6448
fin	-6449
-200	-6450
▁Adv	-6451
▁whom	-6452
ffende	-6453
holders	-6454
▁proper	-6455
voordele	-6456
▁aanstel	-6457
▁elected	-6458
▁effektiewe	-6459
▁meerderheid	-6460
▁WC	-6461
▁raam	-6462
▁since	-6463
atorium	-6464
▁accoun	-6465
▁allowed	-6466
▁onlangs	-6467
▁komitees	-6468
▁proposed	-6469
nis	-6470
acts	-6471
doel	-6472
▁Bos	-6473
▁Vis	-6474
▁sing	-6475
▁blood	-6476
▁Tesour	-6477
▁invoer	-6478
▁Persoon	-6479
▁conflict	-6480
▁practical	-6481
▁agreements	-6482
▁categories	-6483
log	-6484
ody	-6485
uil	-6486
63.1	-6487
kure	-6488
▁Manag	-6489
▁omvat	-6490
▁raads	-6491
udicial	-6492
▁PUBLIC	-6493
▁Streek	-6494
▁Sunday	-6495
▁betref	-6496
laration	-6497
▁landdro	-6498
▁reflect	-6499
▁verplig	-6500
ografiese	-6501
▁assembly	-6502
▁meetings	-6503
▁practices	-6504
▁prosedure	-6505
▁protected	-6506
▁workplace	-6507
▁beleggings	-6508
▁standaarde	-6509
▁doeltreffend	-6510
jar	-6511
aken	-6512
odes	-6513
▁Bed	-6514
fasil	-6515
▁Huur	-6516
▁miss	-6517
▁taak	-6518
ctober	-6519
likasie	-6520
spelers	-6521
▁United	-6522
▁offices	-6523
▁consists	-6524
▁independent	-6525
%.	-6526
(1)	-6527
fnN	-6528
▁km	-6529
wana	-6530
▁11.	-6531
ksies	-6532
fnNNWU	-6533
▁visie	-6534
tigheid	-6535
▁instel	-6536
▁opstel	-6537
▁instand	-6538
▁situasie	-6539
gebaseerde	-6540
▁buildings	-6541
▁dangerous	-6542
▁hospitals	-6543
▁knowledge	-6544
▁Afrikaanse	-6545
▁belanghebb	-6546
▁International	-6547
ily	-6548
▁35	-6549
deer	-6550
hing	-6551
▁vee	-6552
ienis	-6553
spoor	-6554
▁foto	-6555
▁onbe	-6556
▁talle	-6557
▁finale	-6558
dokumente	-6559
▁bemagtig	-6560
▁comprehensive	-6561
ww	-6562
SAPS	-6563
aily	-6564
▁Tre	-6565
▁cash	-6566
▁nasie	-6567
ulasies	-6568
▁soveel	-6569
▁clients	-6570
▁gevestig	-6571
▁situated	-6572
▁inwerking	-6573
ondernemings	-6574
quir	-6575
wend	-6576
▁Twe	-6577
▁Char	-6578
▁Taal	-6579
▁conn	-6580
▁onts	-6581
▁tuis	-6582
▁afwes	-6583
▁voorlê	-6584
▁daaroor	-6585
▁efforts	-6586
▁getoets	-6587
▁Building	-6588
▁resource	-6589
▁Wetenskap	-6590
▁kommissie	-6591
▁befondsing	-6592
▁recognised	-6593
▁themselves	-6594
▁description	-6595
================	-6596
aes	-6597
wyk	-6598
-24-	-6599
rist	-6600
▁Mal	-6601
▁Toe	-6602
▁kol	-6603
▁earn	-6604
elands	-6605
▁guard	-6606
▁minste	-6607
▁justice	-6608
▁waarmee	-6609
▁criteria	-6610
▁tersiêre	-6611
▁tydelike	-6612
▁Provinces	-6613
▁Khayelitsha	-6614
47	-6615
OND	-6616
ilt	-6617
HEID	-6618
OUTH	-6619
▁Paar	-6620
onders	-6621
▁Skema	-6622
▁bevol	-6623
▁names	-6624
▁terme	-6625
▁moedig	-6626
▁recent	-6627
▁Culture	-6628
▁reached	-6629
▁sectors	-6630
▁verhoed	-6631
wetenskap	-6632
▁versoeker	-6633
▁afgehandel	-6634
▁langtermyn	-6635
▁Kultuursake	-6636
27	-6637
TU	-6638
ERG	-6639
Min	-6640
▁kus	-6641
igers	-6642
▁Once	-6643
▁drop	-6644
▁maks	-6645
▁sekt	-6646
▁belie	-6647
▁fonds	-6648
▁fully	-6649
▁kandid	-6650
▁verlang	-6651
organisasie	-6652
▁Volwassenes	-6653
▁specifically	-6654
vry	-6655
▁55	-6656
saam	-6657
oende	-6658
▁After	-6659
▁sosiale	-6660
▁Berading	-6661
▁jaarliks	-6662
▁ongeskik	-6663
▁verwante	-6664
oekennings	-6665
▁landelike	-6666
▁nywerheid	-6667
▁objective	-6668
▁procedure	-6669
▁sometimes	-6670
▁suksesvol	-6671
▁suksesvolle	-6672
TEG	-6673
▁dw	-6674
ONTA	-6675
neld	-6676
▁dou	-6677
wcape	-6678
▁Ther	-6679
▁sewe	-6680
▁Depot	-6681
reation	-6682
▁gewerk	-6683
▁method	-6684
verwante	-6685
▁created	-6686
▁treated	-6687
▁patients	-6688
▁pregnancy	-6689
▁biblioteek	-6690
▁demokrasie	-6691
▁verspreiding	-6692
lee	-6693
uls	-6694
rale	-6695
▁lyn	-6696
▁sig	-6697
ecaft	-6698
iteur	-6699
▁Good	-6700
▁daag	-6701
▁apart	-6702
▁separ	-6703
▁Scheme	-6704
▁gehoor	-6705
▁Contact	-6706
▁aanmeld	-6707
▁distrik	-6708
▁refused	-6709
▁verloor	-6710
▁cleaning	-6711
▁experience	-6712
▁resolution	-6713
▁immediately	-6714
▁werksaamhede	-6715
DP	-6716
goed	-6717
▁bru	-6718
▁unf	-6719
asury	-6720
emand	-6721
inclu	-6722
oring	-6723
▁comb	-6724
▁once	-6725
elfare	-6726
▁Comple	-6727
▁prepared	-6728
-203-03-24	-6729
bestuurder	-6730
▁struktuur	-6731
▁temporary	-6732
▁parliament	-6733
.9	-6734
apy	-6735
bly	-6736
kus	-6737
▁sm	-6738
enda	-6739
kers	-6740
loei	-6741
stek	-6742
▁New	-6743
▁men	-6744
alled	-6745
gehou	-6746
inent	-6747
lewer	-6748
▁elkeen	-6749
▁teiken	-6750
ximately	-6751
▁herroep	-6752
▁numbers	-6753
▁besluite	-6754
▁signature	-6755
Pro	-6756
eff	-6757
ius	-6758
eers	-6759
klin	-6760
▁lif	-6761
oster	-6762
▁272/	-6763
gevind	-6764
▁targe	-6765
▁types	-6766
▁produced	-6767
▁verpleeg	-6768
▁contracts	-6769
▁Voorsitter	-6770
▁Gesondheids	-6771
▁betreffende	-6772
▁counselling	-6773
ina	-6774
itch	-6775
laan	-6776
stud	-6777
▁via	-6778
▁Arts	-6779
▁phot	-6780
▁verge	-6781
edelike	-6782
▁Liquor	-6783
▁agency	-6784
▁andere	-6785
resident	-6786
▁besliss	-6787
▁moeilik	-6788
▁portfol	-6789
▁printed	-6790
▁sektore	-6791
▁statements	-6792
▁outstanding	-6793
ENB	-6794
▁3,	-6795
oice	-6796
▁011	-6797
▁Eng	-6798
▁MMW	-6799
wards	-6800
▁duty	-6801
▁hard	-6802
▁Stand	-6803
▁agent	-6804
▁bylaw	-6805
▁Handel	-6806
▁Iemand	-6807
▁recover	-6808
▁adoption	-6809
▁essential	-6810
▁positiewe	-6811
▁waarskynlik	-6812
4-	-6813
81	-6814
OT	-6815
ESS	-6816
dere	-6817
irit	-6818
ulum	-6819
ERING	-6820
▁diss	-6821
▁naby	-6822
▁reën	-6823
lation	-6824
▁dwelm	-6825
▁wysig	-6826
▁vervolg	-6827
▁Algemene	-6828
▁confirmed	-6829
▁getuienis	-6830
▁produseer	-6831
▁benadeelde	-6832
▁voormalige	-6833
departemente	-6834
9)	-6835
ARE	-6836
lys	-6837
omb	-6838
▁IRP	-6839
▁wag	-6840
nagte	-6841
▁Insp	-6842
aviour	-6843
elinge	-6844
groepe	-6845
strand	-6846
▁gekry	-6847
▁rondom	-6848
▁Corners	-6849
▁October	-6850
▁continu	-6851
▁geweier	-6852
▁healthy	-6853
▁interne	-6854
▁markets	-6855
▁commence	-6856
▁tertiary	-6857
▁Strategic	-6858
▁calculated	-6859
▁prevention	-6860
▁transformation	-6861
DA	-6862
hel	-6863
▁WH	-6864
etes	-6865
▁Sum	-6866
▁More	-6867
▁Saam	-6868
▁anal	-6869
▁Skole	-6870
▁nakom	-6871
▁oudit	-6872
▁trots	-6873
▁enable	-6874
▁aanbied	-6875
▁Tribunal	-6876
▁geskikte	-6877
▁solutions	-6878
▁productive	-6879
55	-6880
aut	-6881
▁Ob	-6882
ilot	-6883
▁wes	-6884
▁Help	-6885
▁Only	-6886
iction	-6887
▁Assoc	-6888
▁Other	-6889
houdens	-6890
▁Albert	-6891
▁Submit	-6892
▁caused	-6893
▁receip	-6894
▁applies	-6895
▁gesonde	-6896
opleiding	-6897
▁Register	-6898
▁deelneem	-6899
▁amendment	-6900
▁wetgewende	-6901
▁competitive	-6902
geh	-6903
mon	-6904
▁Bur	-6905
rence	-6906
▁ABET	-6907
▁OBOS	-6908
▁Stads	-6909
▁minor	-6910
▁spuit	-6911
vissery	-6912
▁Wêreld	-6913
▁spread	-6914
Minister	-6915
inelands	-6916
▁patient	-6917
▁riglyne	-6918
▁partnership	-6919
▁bedrywighede	-6920
RC	-6921
bra	-6922
▁wan	-6923
ained	-6924
▁Komm	-6925
▁Pool	-6926
gewoon	-6927
ondome	-6928
▁benut	-6929
▁During	-6930
▁Notice	-6931
▁gronde	-6932
▁Freedom	-6933
▁onkruid	-6934
▁variety	-6935
▁Ministers	-6936
▁aangewese	-6937
▁regarding	-6938
▁empowerment	-6939
erve	-6940
▁12.	-6941
▁MDR	-6942
▁las	-6943
▁Hulp	-6944
▁Stel	-6945
▁arts	-6946
▁kant	-6947
uditor	-6948
▁aware	-6949
▁vroeë	-6950
redings	-6951
▁accept	-6952
▁hereby	-6953
▁opened	-6954
▁illegal	-6955
▁mandate	-6956
▁uitgebre	-6957
besmetting	-6958
▁buiteland	-6959
▁interested	-6960
▁previously	-6961
▁voorgestelde	-6962
ani	-6963
imp	-6964
int	-6965
▁47	-6966
▁66	-6967
akte	-6968
ilar	-6969
reke	-6970
▁pen	-6971
▁Gaan	-6972
icated	-6973
▁Plans	-6974
▁force	-6975
▁graad	-6976
▁oblig	-6977
ratiese	-6978
ustheid	-6979
▁arbeid	-6980
hulpbron	-6981
ventions	-6982
▁reported	-6983
▁sodoende	-6984
▁tegniese	-6985
ialiseerde	-6986
▁Initiative	-6987
▁structures	-6988
▁plaasgevind	-6989
rsa	-6990
yds	-6991
▁OOR	-6992
▁fab	-6993
quate	-6994
▁STRA	-6995
▁While	-6996
ruption	-6997
▁extent	-6998
▁testic	-6999
▁focused	-7000
▁trained	-7001
▁oorweging	-7002
▁waaronder	-7003
▁rolspelers	-7004
.7	-7005
IEW	-7006
bil	-7007
cer	-7008
con	-7009
ref	-7010
arde	-7011
▁Def	-7012
▁sme	-7013
▁laws	-7014
onomie	-7015
▁aanbe	-7016
.9363.1	-7017
▁Sector	-7018
▁veilig	-7019
kkenheid	-7020
▁distrib	-7021
▁lewering	-7022
▁majority	-7023
▁Vuurwapen	-7024
▁investigation	-7025
▁administrative	-7026
oont	-7027
▁Wyn	-7028
▁bor	-7029
▁come	-7030
▁grie	-7031
▁lodge	-7032
▁bedank	-7033
▁clause	-7034
▁tekort	-7035
▁Hoeveel	-7036
▁aanneem	-7037
▁clearly	-7038
▁normale	-7039
▁results	-7040
▁Complete	-7041
▁February	-7042
▁activity	-7043
▁kulturele	-7044
▁profession	-7045
▁publikasie	-7046
.2010-03-02.	-7047
▁afgevaardig	-7048
beh	-7049
mis	-7050
vra	-7051
iable	-7052
ulate	-7053
▁Oral	-7054
verage	-7055
delings	-7056
oordeel	-7057
▁Income	-7058
▁infect	-7059
▁Arbeids	-7060
▁Revenue	-7061
▁verkrag	-7062
onderlike	-7063
▁Certific	-7064
▁Projekte	-7065
▁Tesourie	-7066
▁contains	-7067
▁maksimum	-7068
▁voorstel	-7069
▁finansier	-7070
▁graduates	-7071
▁individue	-7072
▁substance	-7073
▁Opleidings	-7074
▁beskermings	-7075
▁verleenning	-7076
AAP	-7077
eph	-7078
iër	-7079
▁4,	-7080
onge	-7081
ords	-7082
▁CAP	-7083
atief	-7084
▁groe	-7085
▁repe	-7086
imming	-7087
riving	-7088
▁Christ	-7089
▁groepe	-7090
▁initiat	-7091
▁toegepas	-7092
▁processes	-7093
▁kwalifiseer	-7094
▁authorisation	-7095
www	-7096
.114	-7097
rade	-7098
giene	-7099
loyed	-7100
▁init	-7101
▁laid	-7102
▁ment	-7103
▁slaag	-7104
▁gewone	-7105
▁injury	-7106
▁satisf	-7107
▁toegewys	-7108
ertifikate	-7109
▁democracy	-7110
▁situation	-7111
▁maandelikse	-7112
▁Internasionale	-7113
esp	-7114
ips	-7115
ota	-7116
▁Day	-7117
▁breë	-7118
gegaan	-7119
▁gedrag	-7120
▁single	-7121
▁amended	-7122
▁receipt	-7123
▁verslae	-7124
estelling	-7125
▁Klousule	-7126
▁achieved	-7127
▁geskrewe	-7128
▁raamwerk	-7129
▁kontrakte	-7130
▁strategie	-7131
▁Production	-7132
▁biologiese	-7133
▁components	-7134
▁publication	-7135
bei	-7136
bor	-7137
▁8.	-7138
2009	-7139
BOOV	-7140
haaf	-7141
ivity	-7142
▁AIDS	-7143
▁soms	-7144
jarige	-7145
urance	-7146
▁Paarl	-7147
▁entit	-7148
▁roads	-7149
▁Clause	-7150
▁called	-7151
▁onthou	-7152
▁vestig	-7153
▁STRATEG	-7154
▁alkohol	-7155
▁similar	-7156
uurwapens	-7157
▁Swimming	-7158
▁firearms	-7159
▁werklike	-7160
▁jongmense	-7161
▁commitment	-7162
▁commencement	-7163
EB	-7164
tp	-7165
get	-7166
ipp	-7167
▁53	-7168
▁Ann	-7169
▁arm	-7170
▁ink	-7171
South	-7172
riese	-7173
▁Call	-7174
▁bere	-7175
chanis	-7176
reking	-7177
▁onwet	-7178
▁Driving	-7179
▁gewysig	-7180
▁seisoen	-7181
▁studies	-7182
ogenoemde	-7183
▁sections	-7184
▁industrial	-7185
▁Association	-7186
ny	-7187
span	-7188
ysis	-7189
▁ENT	-7190
▁Sak	-7191
▁July	-7192
▁Soos	-7193
▁belê	-7194
▁hoor	-7195
▁merk	-7196
raktyke	-7197
▁search	-7198
▁strong	-7199
▁toekom	-7200
▁omskryf	-7201
including	-7202
▁suitable	-7203
▁staatsdiens	-7204
▁(1	-7205
▁low	-7206
▁Farm	-7207
▁Many	-7208
▁Post	-7209
▁kode	-7210
waters	-7211
▁stryd	-7212
erative	-7213
tablish	-7214
▁Before	-7215
▁abnorm	-7216
▁beweeg	-7217
▁houses	-7218
▁masels	-7219
▁ernstig	-7220
▁lewende	-7221
▁maniere	-7222
▁terrein	-7223
geregshof	-7224
kommissie	-7225
▁Entities	-7226
▁attached	-7227
▁vertroul	-7228
ersentrums	-7229
▁amptenare	-7230
▁medicines	-7231
▁subsidies	-7232
▁correspond	-7233
▁Constitutional	-7234
91	-7235
fil	-7236
iso	-7237
nft	-7238
ryp	-7239
▁Mon	-7240
▁eas	-7241
fully	-7242
urope	-7243
▁8000	-7244
▁CAPE	-7245
▁dier	-7246
▁eise	-7247
ondêre	-7248
▁Skakel	-7249
▁either	-7250
▁extens	-7251
▁voortd	-7252
▁faktore	-7253
▁growing	-7254
▁premier	-7255
▁Sentrums	-7256
▁Entiteite	-7257
▁employers	-7258
▁technical	-7259
▁priorities	-7260
▁recreational	-7261
ung	-7262
▁dog	-7263
▁les	-7264
▁nag	-7265
▁East	-7266
▁born	-7267
▁plus	-7268
▁platt	-7269
▁skema	-7270
▁slawe	-7271
▁assign	-7272
▁formal	-7273
▁geheel	-7274
stelsels	-7275
▁Behoort	-7276
▁disclos	-7277
▁toelaes	-7278
▁entitled	-7279
▁generally	-7280
▁Technology	-7281
▁accessible	-7282
▁verwysings	-7283
leersentrums	-7284
SP	-7285
iele	-7286
▁bos	-7287
endes	-7288
▁maat	-7289
▁dring	-7290
▁toetse	-7291
rekening	-7292
▁doelwit	-7293
▁officers	-7294
▁condition	-7295
▁kwaliteit	-7296
▁facilitate	-7297
▁kapasiteit	-7298
▁62	-7299
ipes	-7300
woon	-7301
▁Saf	-7302
▁Groot	-7303
pervlak	-7304
▁alcohol	-7305
▁Infections	-7306
▁aanbevelings	-7307
▁Administration	-7308
.6	-7309
96	-7310
hyl	-7311
▁du	-7312
osie	-7313
ruis	-7314
▁300	-7315
▁kar	-7316
ostes	-7317
▁0800	-7318
▁Arch	-7319
▁Drank	-7320
▁Terwyl	-7321
▁expert	-7322
▁geldig	-7323
▁konfer	-7324
istrates	-7325
▁beëindig	-7326
▁visitors	-7327
ographical	-7328
▁strukture	-7329
▁uitwerking	-7330
stitusionele	-7331
▁toekomstige	-7332
▁Ondernemings	-7333
▁Registrateur	-7334
▁huishoudelike	-7335
pat	-7336
▁Tu	-7337
▁rom	-7338
worpe	-7339
▁reël	-7340
▁unit	-7341
ension	-7342
esburg	-7343
hoewel	-7344
onderd	-7345
▁below	-7346
▁waard	-7347
▁Besmet	-7348
▁bewaar	-7349
▁gebrek	-7350
▁litres	-7351
▁oploss	-7352
▁served	-7353
tablisht	-7354
▁verskaffing	-7355
41	-7356
▁45	-7357
▁NAL	-7358
▁ban	-7359
▁pan	-7360
reine	-7361
▁fair	-7362
dertyd	-7363
▁Apply	-7364
▁Plant	-7365
▁akadem	-7366
▁bodies	-7367
▁rather	-7368
▁Central	-7369
▁adopted	-7370
▁prokure	-7371
▁towards	-7372
▁klinieke	-7373
▁Questions	-7374
▁beginsels	-7375
▁allocations	-7376
▁kommissaris	-7377
▁establishment	-7378
wek	-7379
▁Bl	-7380
ixed	-7381
ctors	-7382
▁Mult	-7383
▁geluk	-7384
▁plase	-7385
siening	-7386
veldtog	-7387
▁Action	-7388
▁enkele	-7389
▁propos	-7390
▁spirit	-7391
betaling	-7392
sentrums	-7393
ustomary	-7394
▁Control	-7395
▁tenders	-7396
elfdertyd	-7397
▁expected	-7398
▁families	-7399
woordigheid	-7400
▁proletters	-7401
▁particulars	-7402
▁accreditation	-7403
ock	-7404
▁37	-7405
▁ly	-7406
▁Sit	-7407
▁dub	-7408
▁send	-7409
▁Skills	-7410
▁copies	-7411
▁gelede	-7412
▁lening	-7413
▁nommer	-7414
▁Mediese	-7415
▁believe	-7416
▁verkeer	-7417
propriate	-7418
▁computer	-7419
▁exchange	-7420
▁libraries	-7421
▁Corporation	-7422
▁verpligtinge	-7423
▁transformasie	-7424
99	-7425
Met	-7426
pay	-7427
lish	-7428
alley	-7429
iekte	-7430
▁acqu	-7431
▁disk	-7432
ikking	-7433
▁broad	-7434
▁civil	-7435
▁negot	-7436
aansoek	-7437
▁former	-7438
afdeling	-7439
asionaal	-7440
volgende	-7441
▁friends	-7442
▁voeding	-7443
▁Protector	-7444
▁certified	-7445
▁beantwoord	-7446
▁implementeer	-7447
affer	-7448
▁pipe	-7449
▁stok	-7450
profit	-7451
▁SOUTH	-7452
osition	-7453
▁uiteind	-7454
▁deposito	-7455
▁standard	-7456
▁Marketing	-7457
▁Provinsies	-7458
▁behoorlike	-7459
▁biological	-7460
▁gevaarlike	-7461
▁initiatives	-7462
ika	-7463
ergy	-7464
laer	-7465
omme	-7466
prise	-7467
spers	-7468
▁Eden	-7469
▁loan	-7470
▁sold	-7471
▁Reken	-7472
▁byeen	-7473
▁stake	-7474
ibility	-7475
lectual	-7476
▁Saldan	-7477
▁damage	-7478
▁gestig	-7479
▁indiens	-7480
▁Polisiediens	-7481
▁relationship	-7482
▁Administrasie	-7483
▁Antiretroviral	-7484
▁Infrastructure	-7485
par	-7486
yns	-7487
▁PRO	-7488
▁afn	-7489
.595.	-7490
▁fuel	-7491
▁stor	-7492
▁warm	-7493
tuiste	-7494
ingsburg	-7495
ingsraad	-7496
positiewe	-7497
▁Treasury	-7498
▁gereelde	-7499
▁provider	-7500
fasiliteit	-7501
▁Gedurende	-7502
▁confidence	-7503
erp	-7504
rec	-7505
tho	-7506
avit	-7507
geer	-7508
tome	-7509
▁Div	-7510
▁Fun	-7511
▁Kap	-7512
▁due	-7513
eders	-7514
▁Fest	-7515
▁mean	-7516
▁Diens	-7517
▁built	-7518
gehalte	-7519
▁binnek	-7520
▁grants	-7521
▁nurses	-7522
▁selfoon	-7523
▁Research	-7524
▁mededing	-7525
▁multiple	-7526
▁software	-7527
▁bogenoemde	-7528
▁fasiliteer	-7529
▁skakelkode	-7530
IF	-7531
▁Ou	-7532
ames	-7533
iode	-7534
ires	-7535
rate	-7536
usal	-7537
▁Must	-7538
liance	-7539
ources	-7540
stowwe	-7541
▁annex	-7542
▁hetsy	-7543
▁joint	-7544
▁minim	-7545
▁pleeg	-7546
▁proud	-7547
ference	-7548
ritical	-7549
▁Integr	-7550
▁crimes	-7551
ribunaal	-7552
▁defined	-7553
▁energie	-7554
▁replaced	-7555
▁finalised	-7556
▁elihlumayo	-7557
▁experienced	-7558
22	-7559
ETA	-7560
▁sl	-7561
.595	-7562
oman	-7563
▁But	-7564
▁mut	-7565
gelde	-7566
▁Doen	-7567
gesien	-7568
iëring	-7569
matige	-7570
▁huise	-7571
hervorm	-7572
istance	-7573
▁candid	-7574
▁getoon	-7575
▁coastal	-7576
▁hearing	-7577
▁Schedule	-7578
▁annually	-7579
▁calendar	-7580
▁ensuring	-7581
▁Ondergaan	-7582
▁praktiese	-7583
-10-03-24-4)	-7584
▁Kennisgewing	-7585
▁aanspreeklik	-7586
▁identification	-7587
heg	-7588
imb	-7589
ikal	-7590
▁FOR	-7591
▁Pay	-7592
istic	-7593
istry	-7594
lende	-7595
ogter	-7596
▁DIST	-7597
▁could	-7598
▁Valley	-7599
oedeling	-7600
omgewing	-7601
pligtige	-7602
▁central	-7603
oekenning	-7604
▁telefoon	-7605
▁elections	-7606
▁oorhandig	-7607
voorwaardes	-7608
▁partnerships	-7609
IA	-7610
amb	-7611
arr	-7612
bit	-7613
lex	-7614
ANNE	-7615
apie	-7616
▁Det	-7617
▁Mit	-7618
bleme	-7619
endal	-7620
kloof	-7621
uters	-7622
▁hart	-7623
▁took	-7624
aining	-7625
▁gelde	-7626
▁quant	-7627
▁sover	-7628
▁sowat	-7629
enewens	-7630
legging	-7631
▁Appeal	-7632
▁Nature	-7633
▁decide	-7634
▁restor	-7635
ursaries	-7636
▁leading	-7637
▁verdeel	-7638
▁Forestry	-7639
▁Positive	-7640
▁gemagtig	-7641
▁regstreek	-7642
▁satisfied	-7643
▁onderworpe	-7644
▁Staatsdiens	-7645
▁bemagtiging	-7646
▁Hooggeregshof	-7647
▁teenwoordigheid	-7648
SIG	-7649
ley	-7650
mak	-7651
boet	-7652
orand	-7653
▁Seks	-7654
ground	-7655
rought	-7656
▁AFRIC	-7657
▁behou	-7658
quiries	-7659
▁advert	-7660
▁offers	-7661
▁history	-7662
▁opgeneem	-7663
▁vereiste	-7664
▁Financial	-7665
▁Institute	-7666
▁agentskap	-7667
▁beskikbare	-7668
▁bestuurder	-7669
▁evaluation	-7670
▁demokratiese	-7671
▁ooreenkomste	-7672
ION	-7673
owe	-7674
free	-7675
tamp	-7676
wens	-7677
wins	-7678
▁syn	-7679
forum	-7680
gende	-7681
ective	-7682
enigde	-7683
oegang	-7684
vlakke	-7685
▁Graan	-7686
▁adult	-7687
▁vader	-7688
▁Question	-7689
▁salaries	-7690
▁requested	-7691
▁Laingsburg	-7692
▁interventions	-7693
uif	-7694
ump	-7695
▁IS	-7696
wise	-7697
▁874	-7698
▁Ens	-7699
▁eet	-7700
▁biod	-7701
▁cele	-7702
idavit	-7703
ulasie	-7704
▁upgra	-7705
▁ervaar	-7706
▁instem	-7707
▁Process	-7708
▁gepaste	-7709
▁vennote	-7710
uneration	-7711
▁separate	-7712
▁hoofuitvoerende	-7713
hout	-7714
ieël	-7715
ilet	-7716
▁10.	-7717
▁Col	-7718
▁Nab	-7719
▁top	-7720
gebou	-7721
onnis	-7722
ratic	-7723
shulp	-7724
splan	-7725
mptoms	-7726
▁Bring	-7727
▁PLANS	-7728
▁vroeg	-7729
geriewe	-7730
▁intens	-7731
▁vervat	-7732
asionele	-7733
▁Voorkom	-7734
▁exposed	-7735
▁konsult	-7736
▁skedule	-7737
▁response	-7738
▁beskrywing	-7739
▁scientific	-7740
dae	-7741
▁Cl	-7742
▁MEC	-7743
▁enh	-7744
▁coop	-7745
▁kuns	-7746
▁easil	-7747
▁inent	-7748
iddelde	-7749
▁advies	-7750
▁hierbo	-7751
▁intend	-7752
▁interp	-7753
▁orders	-7754
▁formele	-7755
▁hygiene	-7756
▁goedkeur	-7757
▁korrekte	-7758
▁estimated	-7759
▁hieronder	-7760
fasiliteite	-7761
▁initiative	-7762
▁accommodation	-7763
ala	-7764
namp	-7765
wane	-7766
ysna	-7767
anker	-7768
komst	-7769
stein	-7770
▁1993	-7771
▁Jeug	-7772
▁Mand	-7773
▁bind	-7774
▁bott	-7775
▁delay	-7776
▁mikro	-7777
▁AFRICA	-7778
▁consequ	-7779
▁library	-7780
▁vermoed	-7781
▁learning	-7782
▁affidavit	-7783
▁contained	-7784
▁testament	-7785
▁infectious	-7786
▁declaration	-7787
▁construction	-7788
▁tradisionele	-7789
.17	-7790
sos	-7791
TING	-7792
rdin	-7793
break	-7794
oured	-7795
▁NALN	-7796
▁cape	-7797
encies	-7798
▁droog	-7799
dusente	-7800
▁awarded	-7801
▁gewasse	-7802
▁uitslag	-7803
▁verhoor	-7804
▁waaraan	-7805
▁presence	-7806
▁symptoms	-7807
▁portefeul	-7808
down	-7809
eries	-7810
▁Note	-7811
▁mans	-7812
esters	-7813
▁2004,	-7814
▁Enter	-7815
▁phase	-7816
▁become	-7817
▁buiten	-7818
▁consid	-7819
▁global	-7820
▁kansel	-7821
▁strewe	-7822
▁daarmee	-7823
▁guardian	-7824
▁practice	-7825
-10-03-24-	-7826
vaardiging	-7827
▁voorbeeld	-7828
▁compliance	-7829
▁inisiatief	-7830
▁medication	-7831
16	-7832
TC	-7833
ske	-7834
▁Ac	-7835
oose	-7836
pris	-7837
▁CID	-7838
▁Gre	-7839
etown	-7840
▁Both	-7841
▁stip	-7842
anklik	-7843
▁1998.	-7844
▁Budge	-7845
▁Group	-7846
▁Orale	-7847
▁Trust	-7848
▁hands	-7849
▁words	-7850
.2009-0	-7851
▁Annual	-7852
▁Dogter	-7853
▁Knysna	-7854
▁streef	-7855
▁vriend	-7856
▁challen	-7857
▁redelik	-7858
behoeftes	-7859
▁Overberg	-7860
▁approach	-7861
▁concerning	-7862
asiesentrums	-7863
▁huishoudings	-7864
▁Fax	-7865
▁VER	-7866
▁gees	-7867
▁proc	-7868
ffings	-7869
orteer	-7870
▁aksie	-7871
ighting	-7872
oerdery	-7873
▁africa	-7874
▁played	-7875
▁chronic	-7876
▁geldige	-7877
▁mielies	-7878
▁permits	-7879
infrastru	-7880
▁Disaster	-7881
▁besproei	-7882
▁Regerings	-7883
▁Biblioteek	-7884
▁respective	-7885
▁Registrasie	-7886
▁regtehouers	-7887
98	-7888
Wes	-7889
mer	-7890
4.10	-7891
reme	-7892
smis	-7893
iency	-7894
ondig	-7895
skole	-7896
▁Sher	-7897
▁base	-7898
▁meld	-7899
▁table	-7900
▁takes	-7901
enieurs	-7902
intenis	-7903
▁aansien	-7904
▁hoogste	-7905
▁indicate	-7906
▁belasbare	-7907
▁parlement	-7908
▁mishandeling	-7909
▁120	-7910
▁RSA	-7911
▁dur	-7912
▁	-7913
e	-7914
i	-7915
a	-7916
n	-7917
t	-7918
o	-7919
r	-7920
s	-7921
d	-7922
l	-7923
g	-7924
h	-7925
m	-7926
u	-7927
p	-7928
k	-7929
v	-7930
f	-7931
c	-7932
b	-7933
w	-7934
y	-7935
.	-7936
,	-7937
0	-7938
-	-7939
S	-7940
A	-7941
D	-7942
1	-7943
T	-7944
2	-7945
'	-7946
I	-7947
O	-7948
E	-7949
R	-7950
P	-7951
>	-7952
C	-7953
M	-7954
W	-7955
V	-7956
j	-7957
G	-7958
N	-7959
3	-7960
B	-7961
4	-7962
H	-7963
)	-7964
(	-7965
9	-7966
K	-7967
L	-7968
5	-7969
x	-7970
:	-7971
F	-7972
/	-7973
8	-7974
7	-7975
6	-7976
?	-7977
U	-7978
<	-7979
q	-7980
;	-7981
ë	-7982
J	-7983
Y	-7984
z	-7985
"	-7986
Z	-7987
*	-7988
ê	-7989
@	-7990
&	-7991
|	-7992
=	-7993
Q	-7994
%	-7995
é	-7996
