<unk>	0
<s>	0
</s>	0
▁t	-0
he	-1
▁the	-2
▁a	-3
on	-4
in	-5
▁o	-6
ti	-7
es	-8
en	-9
er	-10
tion	-11
▁of	-12
re	-13
nd	-14
▁in	-15
ar	-16
▁s	-17
▁w	-18
is	-19
ic	-20
or	-21
▁and	-22
▁c	-23
▁p	-24
▁b	-25
ou	-26
an	-27
al	-28
at	-29
ed	-30
▁to	-31
it	-32
ec	-33
▁f	-34
ent	-35
ation	-36
ing	-37
qu	-38
▁T	-39
▁m	-40
▁qu	-41
le	-42
estion	-43
▁question	-44
ro	-45
ur	-46
▁h	-47
mp	-48
▁th	-49
ment	-50
▁The	-51
il	-52
st	-53
ve	-54
▁d	-55
▁be	-56
▁e	-57
ce	-58
▁A	-59
lic	-60
▁i	-61
▁I	-62
▁D	-63
▁imp	-64
as	-65
▁is	-66
lo	-67
ly	-68
▁that	-69
om	-70
▁g	-71
▁C	-72
ations	-73
no	-74
id	-75
ay	-76
▁on	-77
▁S	-78
ct	-79
ri	-80
ess	-81
▁M	-82
ity	-83
▁re	-84
▁y	-85
▁implic	-86
▁pro	-87
▁v	-88
▁con	-89
▁E	-90
ect	-91
▁are	-92
et	-93
▁you	-94
se	-95
arf	-96
arfur	-97
▁Darfur	-98
▁as	-99
ll	-100
▁wh	-101
ers	-102
▁implications	-103
▁so	-104
un	-105
ary	-106
▁wor	-107
th	-108
ch	-109
ire	-110
ill	-111
▁or	-112
the	-113
▁P	-114
ate	-115
ra	-116
lu	-117
na	-118
ir	-119
▁ha	-120
ter	-121
▁for	-122
ul	-123
▁inc	-124
▁work	-125
ag	-126
ble	-127
▁he	-128
ld	-129
ig	-130
▁we	-131
▁u	-132
▁l	-133
▁en	-134
ence	-135
ard	-136
▁questionna	-137
est	-138
▁fa	-139
ver	-140
▁an	-141
▁will	-142
▁pre	-143
erv	-144
ut	-145
ech	-146
ric	-147
▁J	-148
pp	-149
ith	-150
ff	-151
ure	-152
▁with	-153
▁ac	-154
▁questionnaire	-155
▁no	-156
ap	-157
art	-158
em	-159
▁inf	-160
ol	-161
▁Jan	-162
▁n	-163
▁prec	-164
▁B	-165
ak	-166
▁r	-167
▁have	-168
uary	-169
ust	-170
ci	-171
▁January	-172
▁ex	-173
bs	-174
ther	-175
▁our	-176
▁W	-177
omm	-178
▁can	-179
si	-180
ments	-181
ven	-182
ort	-183
▁by	-184
▁su	-185
our	-186
▁st	-187
ain	-188
▁this	-189
way	-190
▁co	-191
ical	-192
ad	-193
oun	-194
▁tech	-195
▁de	-196
ist	-197
per	-198
able	-199
iti	-200
▁not	-201
log	-202
and	-203
rom	-204
ran	-205
▁your	-206
ac	-207
ise	-208
▁any	-209
▁from	-210
▁po	-211
▁N	-212
▁Af	-213
▁been	-214
are	-215
te	-216
ould	-217
im	-218
▁sa	-219
▁se	-220
age	-221
min	-222
▁le	-223
ection	-224
bserv	-225
ors	-226
ip	-227
▁observ	-228
▁In	-229
tive	-230
ated	-231
▁it	-232
▁Afric	-233
gh	-234
ant	-235
ommun	-236
nolog	-237
orm	-238
▁har	-239
ake	-240
ich	-241
▁ad	-242
ies	-243
lud	-244
out	-245
outh	-246
▁app	-247
▁which	-248
▁technolog	-249
nder	-250
ini	-251
ards	-252
▁under	-253
all	-254
ear	-255
▁must	-256
▁precise	-257
kw	-258
▁other	-259
kwini	-260
tic	-261
ild	-262
▁ag	-263
op	-264
riv	-265
over	-266
▁prov	-267
▁South	-268
ru	-269
us	-270
wards	-271
▁do	-272
▁O	-273
loy	-274
alu	-275
▁Act	-276
▁towards	-277
me	-278
sp	-279
du	-280
▁influ	-281
▁al	-282
▁acc	-283
▁all	-284
um	-285
to	-286
▁H	-287
▁ch	-288
bu	-289
▁gi	-290
part	-291
▁man	-292
rou	-293
od	-294
▁get	-295
ance	-296
▁R	-297
ous	-298
ness	-299
▁who	-300
rivate	-301
cho	-302
▁valu	-303
ces	-304
tw	-305
ves	-306
▁res	-307
ast	-308
overn	-309
chool	-310
ome	-311
ress	-312
▁whe	-313
▁sh	-314
▁bec	-315
yst	-316
▁"	-317
ab	-318
▁incon	-319
▁eff	-320
ow	-321
ion	-322
▁ne	-323
ities	-324
▁but	-325
tions	-326
▁1	-327
igh	-328
ult	-329
fe	-330
ystem	-331
ervic	-332
▁pe	-333
ub	-334
ner	-335
cial	-336
ience	-337
▁inconven	-338
thekwini	-339
▁ab	-340
ational	-341
▁system	-342
▁was	-343
▁par	-344
ase	-345
ge	-346
▁precisely	-347
▁sof	-348
ount	-349
ector	-350
▁one	-351
ris	-352
au	-353
▁-	-354
▁him	-355
▁env	-356
▁peop	-357
▁cont	-358
overnment	-359
▁has	-360
gra	-361
▁people	-362
lop	-363
▁It	-364
nical	-365
▁Ethekwini	-366
velop	-367
ore	-368
▁should	-369
▁private	-370
▁sp	-371
aged	-372
▁make	-373
▁k	-374
fic	-375
vest	-376
▁their	-377
▁conc	-378
ty	-379
▁about	-380
tware	-381
mploy	-382
sel	-383
▁see	-384
▁software	-385
▁inconvenience	-386
ommunity	-387
▁F	-388
ud	-389
ons	-390
▁inform	-391
enc	-392
▁ass	-393
end	-394
ublic	-395
ry	-396
▁comp	-397
▁reg	-398
ainst	-399
idence	-400
▁L	-401
cil	-402
ause	-403
ern	-404
▁technologies	-405
▁School	-406
ality	-407
ile	-408
rough	-409
risis	-410
▁crisis	-411
ber	-412
stru	-413
erm	-414
▁they	-415
▁valuable	-416
▁only	-417
▁G	-418
▁into	-419
▁African	-420
▁through	-421
▁includ	-422
▁us	-423
tit	-424
▁Community	-425
▁servic	-426
ight	-427
ates	-428
▁hard	-429
▁harm	-430
▁li	-431
lect	-432
▁provid	-433
ord	-434
ual	-435
▁cong	-436
▁bu	-437
▁tran	-438
▁Y	-439
▁If	-440
▁because	-441
li	-442
▁at	-443
▁don	-444
▁Map	-445
gram	-446
▁Africa	-447
▁me	-448
la	-449
icip	-450
unicip	-451
▁ens	-452
▁vic	-453
▁effect	-454
dle	-455
ss	-456
▁2	-457
ction	-458
▁concern	-459
iddle	-460
ery	-461
enti	-462
▁j	-463
▁well	-464
now	-465
ning	-466
titu	-467
ial	-468
▁while	-469
▁his	-470
▁envis	-471
▁envisaged	-472
▁sector	-473
onom	-474
▁able	-475
▁her	-476
quire	-477
▁fail	-478
▁vig	-479
▁De	-480
very	-481
▁Tech	-482
▁cro	-483
▁det	-484
ister	-485
▁give	-486
▁incidence	-487
res	-488
self	-489
00	-490
low	-491
vestment	-492
▁does	-493
▁its	-494
▁had	-495
▁exc	-496
▁public	-497
▁concerned	-498
▁develop	-499
am	-500
▁admin	-501
sive	-502
pport	-503
▁Th	-504
▁cap	-505
ilding	-506
ine	-507
▁fact	-508
▁day	-509
▁know	-510
ener	-511
ex	-512
ign	-513
▁mem	-514
▁tra	-515
ful	-516
▁information	-517
ren	-518
▁program	-519
▁U	-520
▁Employ	-521
▁said	-522
▁cons	-523
ach	-524
▁safe	-525
inct	-526
▁against	-527
ere	-528
ari	-529
▁use	-530
so	-531
▁un	-532
▁government	-533
gy	-534
▁count	-535
ok	-536
ie	-537
▁base	-538
cip	-539
▁sec	-540
▁very	-541
les	-542
tor	-543
aw	-544
▁ind	-545
▁exp	-546
▁ro	-547
▁trans	-548
ght	-549
▁also	-550
her	-551
uring	-552
▁ensure	-553
▁observation	-554
struct	-555
▁applic	-556
▁polic	-557
▁oper	-558
titution	-559
cal	-560
▁every	-561
▁commun	-562
▁Ch	-563
▁Pri	-564
hip	-565
ood	-566
gu	-567
▁were	-568
▁being	-569
agement	-570
▁19	-571
urity	-572
irst	-573
▁bo	-574
▁child	-575
istr	-576
▁import	-577
ite	-578
▁inte	-579
ective	-580
ners	-581
▁emp	-582
▁cross	-583
right	-584
▁including	-585
▁failure	-586
▁am	-587
building	-588
▁You	-589
bers	-590
▁right	-591
ludes	-592
▁lo	-593
one	-594
▁coll	-595
▁first	-596
stand	-597
▁af	-598
▁rec	-599
▁Technical	-600
▁We	-601
▁Middle	-602
▁factors	-603
urr	-604
▁after	-605
lement	-606
▁exper	-607
econom	-608
wo	-609
▁part	-610
▁if	-611
▁vigor	-612
▁law	-613
unicipality	-614
▁precinct	-615
▁vigorous	-616
ular	-617
ators	-618
▁new	-619
alled	-620
uto	-621
▁harvestment	-622
▁harmon	-623
▁harder	-624
▁dep	-625
day	-626
ising	-627
▁facil	-628
▁leg	-629
▁victor	-630
▁K	-631
▁security	-632
▁management	-633
ees	-634
▁two	-635
▁inter	-636
▁understand	-637
gest	-638
▁term	-639
ents	-640
form	-641
eng	-642
▁implement	-643
▁way	-644
ati	-645
pt	-646
red	-647
▁Pro	-648
duct	-649
sion	-650
▁pl	-651
▁congress	-652
▁mo	-653
ower	-654
▁199	-655
▁require	-656
▁given	-657
ici	-658
▁land	-659
ls	-660
▁To	-661
▁within	-662
lectric	-663
▁Maputo	-664
air	-665
fore	-666
▁whether	-667
ide	-668
ong	-669
▁big	-670
tain	-671
▁far	-672
▁take	-673
ater	-674
▁implicated	-675
ility	-676
cc	-677
owerment	-678
▁terms	-679
▁provin	-680
▁these	-681
▁This	-682
▁And	-683
▁mon	-684
der	-685
ustom	-686
int	-687
▁curr	-688
▁proper	-689
▁social	-690
▁services	-691
▁fin	-692
▁ev	-693
iness	-694
ail	-695
pro	-696
▁Municipality	-697
▁op	-698
ential	-699
▁eng	-700
▁best	-701
ently	-702
▁there	-703
ree	-704
▁section	-705
ected	-706
▁could	-707
▁intell	-708
ange	-709
erson	-710
▁met	-711
ue	-712
▁ann	-713
▁may	-714
▁biggest	-715
ho	-716
▁gener	-717
▁country	-718
▁technical	-719
▁tak	-720
▁econom	-721
▁sour	-722
called	-723
ticular	-724
partment	-725
▁particular	-726
ating	-727
▁empowerment	-728
▁adv	-729
▁regard	-730
▁bas	-731
ten	-732
▁year	-733
▁No	-734
▁sc	-735
▁collection	-736
▁East	-737
▁Min	-738
sible	-739
▁intellect	-740
▁assist	-741
▁offic	-742
hen	-743
pon	-744
▁want	-745
▁intellectual	-746
▁Re	-747
▁Cons	-748
▁lear	-749
ound	-750
▁questioning	-751
here	-752
omes	-753
▁buy	-754
of	-755
▁per	-756
▁area	-757
▁Un	-758
▁provided	-759
▁Par	-760
▁geta	-761
▁influx	-762
▁them	-763
▁members	-764
▁mas	-765
ke	-766
mil	-767
▁Constitution	-768
▁open	-769
▁areas	-770
▁here	-771
▁famil	-772
▁getaway	-773
▁victory	-774
ament	-775
ose	-776
lectricity	-777
ks	-778
▁where	-779
▁dis	-780
▁deploy	-781
ining	-782
▁capt	-783
act	-784
ph	-785
ative	-786
amin	-787
▁development	-788
▁rep	-789
▁Cap	-790
mpt	-791
rib	-792
▁communic	-793
▁some	-794
▁fear	-795
▁programme	-796
de	-797
▁Mr	-798
▁transac	-799
ural	-800
alth	-801
▁el	-802
ian	-803
ollow	-804
iv	-805
▁assess	-806
▁experi	-807
ive	-808
usiness	-809
▁Employees	-810
tical	-811
▁such	-812
ures	-813
▁world	-814
ourt	-815
▁range	-816
▁follow	-817
get	-818
▁service	-819
▁Wh	-820
▁sit	-821
▁days	-822
▁te	-823
▁currently	-824
▁He	-825
lp	-826
▁beh	-827
ision	-828
ced	-829
▁National	-830
▁help	-831
▁before	-832
▁administer	-833
ission	-834
▁face	-835
▁pay	-836
▁vi	-837
▁than	-838
▁sub	-839
▁contin	-840
▁application	-841
▁tur	-842
▁Custom	-843
▁Comm	-844
▁vari	-845
uman	-846
ermin	-847
▁technological	-848
rac	-849
▁ris	-850
▁subs	-851
ot	-852
ranch	-853
uc	-854
▁children	-855
fer	-856
▁himself	-857
ade	-858
ency	-859
▁working	-860
ism	-861
The	-862
▁would	-863
▁safegu	-864
ition	-865
ticip	-866
▁without	-867
▁coun	-868
isation	-869
ings	-870
▁di	-871
▁call	-872
not	-873
ability	-874
▁There	-875
▁inv	-876
ised	-877
▁person	-878
▁Prior	-879
▁found	-880
▁cannot	-881
▁Wor	-882
▁account	-883
▁required	-884
▁Ma	-885
▁Branch	-886
▁determin	-887
▁perm	-888
examin	-889
liament	-890
▁support	-891
▁school	-892
▁An	-893
ged	-894
▁facilit	-895
▁influential	-896
▁prompt	-897
up	-898
▁Parliament	-899
os	-900
Thekwini	-901
▁national	-902
▁ed	-903
pportun	-904
rastruct	-905
▁opportun	-906
ne	-907
▁(	-908
▁prom	-909
rastructure	-910
▁like	-911
ects	-912
nership	-913
▁infrastructure	-914
▁num	-915
ignty	-916
▁sing	-917
isl	-918
▁diff	-919
lements	-920
▁precisement	-921
▁Ap	-922
▁ar	-923
mes	-924
▁single	-925
▁ow	-926
iron	-927
▁respon	-928
oc	-929
▁Q	-930
orce	-931
▁each	-932
▁Coun	-933
▁excludes	-934
lace	-935
▁Electricity	-936
omp	-937
▁med	-938
ecess	-939
▁observed	-940
ecial	-941
▁leve	-942
▁when	-943
▁risk	-944
▁importance	-945
▁many	-946
ironment	-947
eci	-948
▁solu	-949
itor	-950
ink	-951
▁Council	-952
examination	-953
▁meas	-954
▁determine	-955
atives	-956
ricult	-957
▁property	-958
▁health	-959
ee	-960
▁human	-961
▁provincial	-962
cess	-963
ace	-964
▁what	-965
▁month	-966
▁made	-967
▁announ	-968
▁Ben	-969
▁forces	-970
▁economic	-971
ream	-972
▁tim	-973
▁iss	-974
▁result	-975
▁Government	-976
▁educ	-977
gan	-978
ribut	-979
▁local	-980
▁form	-981
▁appro	-982
▁cor	-983
amp	-984
▁massive	-985
▁taking	-986
▁administered	-987
ety	-988
enced	-989
ident	-990
▁both	-991
▁Iran	-992
rate	-993
▁water	-994
▁line	-995
acity	-996
▁add	-997
▁initi	-998
▁policy	-999
pe	-1000
▁grou	-1001
▁ob	-1002
irect	-1003
ues	-1004
xt	-1005
mit	-1006
▁technology	-1007
▁legisl	-1008
partments	-1009
▁200	-1010
▁Servic	-1011
oper	-1012
sport	-1013
▁rele	-1014
▁elements	-1015
▁environment	-1016
▁become	-1017
▁solutions	-1018
istration	-1019
een	-1020
row	-1021
▁number	-1022
als	-1023
▁invol	-1024
▁various	-1025
cu	-1026
ather	-1027
▁announce	-1028
▁following	-1029
iciary	-1030
▁took	-1031
where	-1032
aste	-1033
tween	-1034
▁between	-1035
▁real	-1036
itation	-1037
▁observers	-1038
▁time	-1039
▁underway	-1040
▁St	-1041
udiciary	-1042
ied	-1043
▁Qu	-1044
▁EThekwini	-1045
▁happ	-1046
▁access	-1047
▁Tran	-1048
▁used	-1049
▁Develop	-1050
▁pos	-1051
▁Po	-1052
▁Cup	-1053
read	-1054
tice	-1055
▁ho	-1056
▁three	-1057
esp	-1058
▁cri	-1059
ances	-1060
▁Ho	-1061
ene	-1062
▁pres	-1063
▁mainst	-1064
▁mainstream	-1065
▁think	-1066
atch	-1067
encing	-1068
▁observations	-1069
ron	-1070
▁harmony	-1071
king	-1072
ware	-1073
▁agricult	-1074
▁influence	-1075
ia	-1076
mary	-1077
▁cent	-1078
ket	-1079
▁particip	-1080
led	-1081
▁employ	-1082
▁harderness	-1083
order	-1084
fulness	-1085
▁programmes	-1086
reignty	-1087
til	-1088
its	-1089
unicipal	-1090
▁place	-1091
ecific	-1092
ctions	-1093
zi	-1094
ans	-1095
▁process	-1096
▁say	-1097
▁Cape	-1098
▁department	-1099
▁systems	-1100
ties	-1101
▁Did	-1102
▁engage	-1103
omen	-1104
▁Sa	-1105
force	-1106
▁resour	-1107
chie	-1108
▁Private	-1109
hem	-1110
▁As	-1111
▁susp	-1112
▁worked	-1113
▁achie	-1114
▁docu	-1115
▁roll	-1116
▁En	-1117
▁report	-1118
el	-1119
▁aff	-1120
ffective	-1121
ergy	-1122
▁situ	-1123
▁energy	-1124
▁dem	-1125
any	-1126
ds	-1127
structed	-1128
▁how	-1129
▁order	-1130
duction	-1131
ires	-1132
hed	-1133
ready	-1134
▁already	-1135
▁dec	-1136
▁mat	-1137
▁ful	-1138
vant	-1139
▁more	-1140
▁Development	-1141
▁congressive	-1142
▁SA	-1143
▁When	-1144
und	-1145
less	-1146
▁acquire	-1147
▁pr	-1148
▁Mait	-1149
nergy	-1150
▁Energy	-1151
▁av	-1152
spit	-1153
▁stations	-1154
rove	-1155
border	-1156
▁organ	-1157
▁Minister	-1158
▁need	-1159
▁anyway	-1160
▁ty	-1161
adem	-1162
▁express	-1163
tro	-1164
ased	-1165
▁rel	-1166
▁precludes	-1167
▁They	-1168
gether	-1169
▁chall	-1170
▁years	-1171
▁situation	-1172
ited	-1173
▁lead	-1174
▁main	-1175
▁subsection	-1176
tern	-1177
▁World	-1178
ass	-1179
▁done	-1180
▁municipal	-1181
▁sci	-1182
▁life	-1183
▁member	-1184
▁Note	-1185
ix	-1186
▁promptly	-1187
cce	-1188
▁Service	-1189
▁else	-1190
▁academ	-1191
▁together	-1192
▁operation	-1193
ved	-1194
▁basis	-1195
▁product	-1196
ind	-1197
▁important	-1198
▁prev	-1199
ecially	-1200
▁capacity	-1201
▁judiciary	-1202
▁esp	-1203
▁fun	-1204
ature	-1205
▁deployment	-1206
▁especially	-1207
▁consult	-1208
▁capturing	-1209
▁pric	-1210
▁sources	-1211
▁middle	-1212
▁achieve	-1213
▁cer	-1214
eneral	-1215
▁prin	-1216
▁possible	-1217
▁own	-1218
illage	-1219
▁princip	-1220
▁academic	-1221
▁comm	-1222
▁Polic	-1223
▁point	-1224
▁apply	-1225
▁business	-1226
▁Ad	-1227
formation	-1228
▁Customer	-1229
▁rights	-1230
▁provide	-1231
▁announcements	-1232
cept	-1233
▁ask	-1234
▁months	-1235
reat	-1236
General	-1237
ages	-1238
▁learning	-1239
ested	-1240
▁assessments	-1241
forcement	-1242
▁Iranian	-1243
▁communities	-1244
mb	-1245
ecessary	-1246
hemical	-1247
▁conf	-1248
lete	-1249
▁official	-1250
▁Ec	-1251
▁happen	-1252
ler	-1253
atchment	-1254
ack	-1255
vin	-1256
▁constructed	-1257
ish	-1258
▁allow	-1259
aper	-1260
▁police	-1261
za	-1262
".	-1263
▁train	-1264
▁ent	-1265
ew	-1266
▁role	-1267
▁3	-1268
ote	-1269
▁pur	-1270
▁fully	-1271
▁ins	-1272
▁strate	-1273
▁aware	-1274
omestic	-1275
▁Char	-1276
fied	-1277
▁particularly	-1278
▁training	-1279
man	-1280
▁1998	-1281
▁Apex	-1282
▁transactions	-1283
ens	-1284
ries	-1285
▁medical	-1286
denti	-1287
▁improve	-1288
tected	-1289
▁domestic	-1290
▁requ	-1291
con	-1292
ove	-1293
▁pri	-1294
▁levels	-1295
ger	-1296
▁soon	-1297
▁issues	-1298
arc	-1299
▁Ex	-1300
berg	-1301
▁dat	-1302
▁scen	-1303
ep	-1304
▁vicin	-1305
▁science	-1306
▁questionnaires	-1307
ustice	-1308
▁advant	-1309
▁opportunity	-1310
▁transaction	-1311
iss	-1312
▁waste	-1313
▁says	-1314
▁Court	-1315
ants	-1316
▁Econom	-1317
▁Cent	-1318
▁measures	-1319
▁relevant	-1320
par	-1321
thing	-1322
▁Department	-1323
▁out	-1324
ving	-1325
rowth	-1326
ilit	-1327
▁Acce	-1328
▁home	-1329
▁court	-1330
tiv	-1331
▁during	-1332
alf	-1333
ject	-1334
side	-1335
used	-1336
▁elect	-1337
duc	-1338
▁permit	-1339
fence	-1340
▁avail	-1341
▁elsewhere	-1342
SA	-1343
▁good	-1344
▁municipalities	-1345
▁available	-1346
ted	-1347
ared	-1348
▁vicinity	-1349
ended	-1350
▁cho	-1351
▁Are	-1352
▁Part	-1353
▁long	-1354
▁contribut	-1355
ame	-1356
itte	-1357
▁posi	-1358
mall	-1359
tics	-1360
▁vigil	-1361
▁Primary	-1362
▁perform	-1363
▁legislation	-1364
▁Acceler	-1365
▁meet	-1366
▁women	-1367
▁intern	-1368
oura	-1369
▁justice	-1370
▁deployed	-1371
▁Pl	-1372
ier	-1373
▁Acc	-1374
▁implemented	-1375
▁influencing	-1376
▁Ag	-1377
abl	-1378
graph	-1379
ges	-1380
ts	-1381
▁pow	-1382
aff	-1383
▁now	-1384
▁move	-1385
ela	-1386
▁mining	-1387
▁prevent	-1388
▁viability	-1389
▁Accelerated	-1390
▁aud	-1391
▁conte	-1392
▁prices	-1393
▁openness	-1394
ng	-1395
▁diffic	-1396
▁herself	-1397
bour	-1398
selves	-1399
tt	-1400
▁Aud	-1401
ute	-1402
▁Priority	-1403
▁On	-1404
▁facilitate	-1405
enforcement	-1406
▁Partnership	-1407
own	-1408
ecti	-1409
ath	-1410
ice	-1411
uter	-1412
▁Ind	-1413
▁Tra	-1414
ittee	-1415
▁source	-1416
▁Business	-1417
▁did	-1418
ivers	-1419
irector	-1420
ond	-1421
tig	-1422
blem	-1423
▁problem	-1424
lear	-1425
▁refer	-1426
▁counter	-1427
▁harmonising	-1428
▁Con	-1429
specific	-1430
▁find	-1431
▁incap	-1432
issance	-1433
▁All	-1434
▁typ	-1435
▁Prot	-1436
▁promote	-1437
▁positive	-1438
▁responsible	-1439
vestig	-1440
tter	-1441
▁off	-1442
fy	-1443
hold	-1444
▁prac	-1445
ory	-1446
rit	-1447
hemicals	-1448
▁Priorities	-1449
▁address	-1450
▁Director	-1451
▁implication	-1452
▁Fac	-1453
▁mar	-1454
▁activ	-1455
▁fight	-1456
▁identi	-1457
▁initiative	-1458
bul	-1459
▁go	-1460
▁Effective	-1461
▁bi	-1462
▁group	-1463
▁countries	-1464
iew	-1465
av	-1466
ections	-1467
▁challeng	-1468
▁participation	-1469
ield	-1470
▁behalf	-1471
ines	-1472
▁Pres	-1473
▁environmental	-1474
angu	-1475
overnments	-1476
ronic	-1477
▁small	-1478
▁resources	-1479
▁communications	-1480
▁6	-1481
▁quality	-1482
▁Economic	-1483
IV	-1484
▁What	-1485
▁most	-1486
▁comes	-1487
▁Ms	-1488
kill	-1489
▁arr	-1490
▁HIV	-1491
▁Commission	-1492
ium	-1493
ral	-1494
▁challenges	-1495
rid	-1496
ever	-1497
▁schools	-1498
be	-1499
▁Reg	-1500
▁crime	-1501
▁prosp	-1502
▁impact	-1503
acy	-1504
▁So	-1505
▁same	-1506
▁decision	-1507
▁experienced	-1508
atever	-1509
▁min	-1510
▁data	-1511
000	-1512
▁parents	-1513
echan	-1514
party	-1515
ectors	-1516
▁fav	-1517
▁Safe	-1518
▁whatever	-1519
ope	-1520
▁continue	-1521
▁congestion	-1522
▁000	-1523
ender	-1524
ledge	-1525
▁food	-1526
▁skill	-1527
▁Africans	-1528
▁includes	-1529
▁enc	-1530
▁manner	-1531
ecting	-1532
▁vigorously	-1533
▁att	-1534
▁Public	-1535
oy	-1536
▁intro	-1537
▁appli	-1538
▁context	-1539
▁computer	-1540
▁families	-1541
▁soci	-1542
▁langu	-1543
▁skills	-1544
duce	-1545
term	-1546
▁Apart	-1547
▁webs	-1548
▁gu	-1549
▁ve	-1550
▁six	-1551
▁over	-1552
▁purp	-1553
▁sin	-1554
▁accred	-1555
▁advantage	-1556
itiz	-1557
orts	-1558
▁citiz	-1559
itement	-1560
ineer	-1561
▁case	-1562
▁power	-1563
▁harvest	-1564
▁website	-1565
tim	-1566
▁cre	-1567
airs	-1568
▁ear	-1569
▁turn	-1570
▁ensuring	-1571
uture	-1572
▁tour	-1573
▁among	-1574
ck	-1575
▁play	-1576
▁Paper	-1577
▁field	-1578
▁Centre	-1579
▁ma	-1580
▁san	-1581
earch	-1582
ustry	-1583
▁differ	-1584
▁Res	-1585
▁fund	-1586
arcity	-1587
▁indic	-1588
gr	-1589
year	-1590
▁crow	-1591
ef	-1592
ouse	-1593
thor	-1594
▁corre	-1595
▁consum	-1596
titutions	-1597
▁informed	-1598
▁production	-1599
▁agriculture	-1600
iar	-1601
▁care	-1602
▁favour	-1603
▁Facilit	-1604
▁present	-1605
▁activities	-1606
▁Transport	-1607
med	-1608
▁meter	-1609
▁Auditor	-1610
▁look	-1611
▁central	-1612
▁involves	-1613
▁documents	-1614
▁saw	-1615
▁mess	-1616
▁prep	-1617
itable	-1618
▁engaged	-1619
▁evidence	-1620
▁institutions	-1621
▁van	-1622
▁reas	-1623
▁au	-1624
ancial	-1625
ighbour	-1626
▁referred	-1627
▁act	-1628
▁encoura	-1629
▁administr	-1630
tc	-1631
▁democ	-1632
▁necessary	-1633
▁family	-1634
▁hospit	-1635
▁turbul	-1636
▁opportunities	-1637
we	-1638
▁equ	-1639
▁tal	-1640
▁stud	-1641
▁start	-1642
▁submit	-1643
ables	-1644
arian	-1645
▁electronic	-1646
▁international	-1647
▁Co	-1648
▁Aff	-1649
▁etc	-1650
▁conduct	-1651
▁effective	-1652
▁harmfulness	-1653
ally	-1654
ik	-1655
ording	-1656
▁Committee	-1657
ecu	-1658
▁20	-1659
▁Ty	-1660
land	-1661
▁sti	-1662
oliti	-1663
▁acute	-1664
pri	-1665
▁arrested	-1666
anning	-1667
ious	-1668
▁mis	-1669
▁recon	-1670
▁vigilance	-1671
▁log	-1672
▁acid	-1673
▁Lear	-1674
▁future	-1675
gramme	-1676
▁Charter	-1677
▁content	-1678
protected	-1679
▁excitement	-1680
operation	-1681
▁consultation	-1682
▁Kh	-1683
▁Le	-1684
pris	-1685
▁those	-1686
ys	-1687
road	-1688
prises	-1689
ax	-1690
▁rem	-1691
itional	-1692
▁author	-1693
▁knowledge	-1694
▁up	-1695
▁still	-1696
▁sanitation	-1697
fety	-1698
▁acqu	-1699
▁accur	-1700
▁United	-1701
▁suitable	-1702
▁transport	-1703
▁Om	-1704
▁buyers	-1705
▁dest	-1706
▁exclu	-1707
▁correct	-1708
▁win	-1709
▁Affairs	-1710
▁scenarcity	-1711
by	-1712
og	-1713
▁run	-1714
▁next	-1715
▁region	-1716
▁President	-1717
▁Sec	-1718
▁Wes	-1719
▁cost	-1720
▁state	-1721
▁ground	-1722
▁safeguard	-1723
▁occ	-1724
▁prepare	-1725
che	-1726
▁Mem	-1727
▁Ombu	-1728
▁based	-1729
oint	-1730
▁failed	-1731
hood	-1732
▁supp	-1733
ecutive	-1734
▁effici	-1735
▁function	-1736
stra	-1737
▁head	-1738
▁inner	-1739
▁staff	-1740
▁education	-1741
ody	-1742
▁Be	-1743
▁matter	-1744
▁operates	-1745
operatives	-1746
▁neighbour	-1747
jor	-1748
▁level	-1749
▁since	-1750
ID	-1751
sib	-1752
▁Many	-1753
priate	-1754
▁today	-1755
▁approach	-1756
▁familiar	-1757
▁suspects	-1758
ectives	-1759
▁message	-1760
▁purpose	-1761
ases	-1762
▁major	-1763
▁Chemicals	-1764
▁administration	-1765
▁spons	-1766
▁Police	-1767
▁offers	-1768
▁Members	-1769
▁complete	-1770
▁Maputograph	-1771
iz	-1772
▁fre	-1773
▁set	-1774
▁strategy	-1775
tre	-1776
acit	-1777
▁neg	-1778
▁side	-1779
▁Chair	-1780
▁air	-1781
▁eas	-1782
▁rece	-1783
▁Hold	-1784
▁Tyger	-1785
▁mechan	-1786
▁appliances	-1787
ually	-1788
itarian	-1789
hic	-1790
▁obj	-1791
ention	-1792
▁accept	-1793
▁sectors	-1794
▁province	-1795
ions	-1796
rief	-1797
ences	-1798
▁road	-1799
▁financial	-1800
▁logis	-1801
▁accurate	-1802
▁agricultural	-1803
tis	-1804
▁often	-1805
▁until	-1806
▁integr	-1807
▁different	-1808
▁bott	-1809
▁wee	-1810
▁humanitarian	-1811
▁Mar	-1812
▁vehic	-1813
apt	-1814
▁crowd	-1815
▁est	-1816
lling	-1817
▁soft	-1818
agistr	-1819
urther	-1820
▁Trade	-1821
▁economy	-1822
▁measure	-1823
▁interest	-1824
▁V	-1825
lor	-1826
▁ple	-1827
rehen	-1828
▁incomp	-1829
rehensive	-1830
▁provision	-1831
▁types	-1832
ract	-1833
▁behind	-1834
▁incapacit	-1835
ling	-1836
▁After	-1837
olitical	-1838
▁certain	-1839
ZA	-1840
lf	-1841
▁Comp	-1842
ically	-1843
▁units	-1844
▁Schools	-1845
▁amended	-1846
▁Information	-1847
EA	-1848
▁mu	-1849
▁Any	-1850
▁2002	-1851
▁last	-1852
nother	-1853
▁Tygerberg	-1854
▁valuables	-1855
adium	-1856
▁Educ	-1857
▁prior	-1858
▁capture	-1859
has	-1860
▁ra	-1861
ager	-1862
▁Bench	-1863
▁constru	-1864
▁Education	-1865
ished	-1866
▁cult	-1867
▁live	-1868
ersons	-1869
lected	-1870
ustain	-1871
▁Man	-1872
▁house	-1873
iod	-1874
ffic	-1875
ribu	-1876
▁lit	-1877
▁products	-1878
IDS	-1879
▁Town	-1880
ave	-1881
mer	-1882
lled	-1883
tific	-1884
ineering	-1885
agistrates	-1886
sector	-1887
▁Intern	-1888
▁acquis	-1889
▁instru	-1890
▁detection	-1891
▁Magistrates	-1892
▁Directorate	-1893
▁bene	-1894
▁sites	-1895
▁worker	-1896
▁research	-1897
▁Z	-1898
ilt	-1899
▁investig	-1900
hod	-1901
joy	-1902
lude	-1903
▁Yes	-1904
▁past	-1905
▁evalu	-1906
istinct	-1907
▁Provin	-1908
▁officer	-1909
▁sustain	-1910
EC	-1911
▁5	-1912
lain	-1913
rug	-1914
face	-1915
▁final	-1916
▁educators	-1917
FA	-1918
reng	-1919
▁Cri	-1920
▁period	-1921
▁repres	-1922
▁undert	-1923
▁contain	-1924
▁Protection	-1925
yc	-1926
ward	-1927
▁growth	-1928
▁consumer	-1929
▁my	-1930
based	-1931
▁Plan	-1932
▁evol	-1933
tically	-1934
▁leaders	-1935
▁ref	-1936
▁list	-1937
▁document	-1938
▁learners	-1939
▁payments	-1940
▁ur	-1941
▁mass	-1942
lc	-1943
▁;	-1944
▁deal	-1945
andela	-1946
▁Customary	-1947
▁inconveni	-1948
▁experiment	-1949
▁acquisition	-1950
▁administrators	-1951
▁cop	-1952
▁happening	-1953
ends	-1954
▁Eight	-1955
▁enter	-1956
▁facilities	-1957
▁Is	-1958
ways	-1959
▁welc	-1960
▁Dr	-1961
usual	-1962
ption	-1963
▁much	-1964
▁Unusual	-1965
▁Ba	-1966
▁register	-1967
ali	-1968
ele	-1969
oreign	-1970
▁emphas	-1971
▁meeting	-1972
cale	-1973
ried	-1974
▁invest	-1975
▁Western	-1976
▁Maitland	-1977
▁Watchment	-1978
▁contributes	-1979
▁comprehensive	-1980
ump	-1981
ache	-1982
▁try	-1983
istry	-1984
▁tele	-1985
▁counse	-1986
▁streng	-1987
▁everyone	-1988
▁accreditation	-1989
▁At	-1990
▁App	-1991
ctive	-1992
▁resp	-1993
▁reconna	-1994
▁reconnaissance	-1995
arm	-1996
▁Bill	-1997
▁above	-1998
▁company	-1999
▁society	-2000
▁selected	-2001
▁precincts	-2002
▁represent	-2003
ator	-2004
cies	-2005
South	-2006
▁agree	-2007
▁miscon	-2008
▁safety	-2009
▁operations	-2010
necess	-2011
▁direct	-2012
▁establ	-2013
▁further	-2014
▁Governments	-2015
▁30	-2016
▁self	-2017
▁means	-2018
▁experience	-2019
▁acids	-2020
avi	-2021
ccer	-2022
enda	-2023
ting	-2024
md	-2025
▁Bu	-2026
▁Apr	-2027
▁mid	-2028
▁AIDS	-2029
▁stadium	-2030
▁relating	-2031
▁Rep	-2032
ash	-2033
cmd	-2034
▁dire	-2035
aviour	-2036
▁obtain	-2037
ribution	-2038
▁behaviour	-2039
▁na	-2040
duced	-2041
▁Champ	-2042
▁Hospit	-2043
▁harmful	-2044
▁continent	-2045
▁investment	-2046
mar	-2047
ital	-2048
▁negative	-2049
▁yourself	-2050
▁indistinct	-2051
▁registration	-2052
▁observational	-2053
wn	-2054
ank	-2055
olog	-2056
▁force	-2057
▁words	-2058
▁Programme	-2059
7.	-2060
ider	-2061
▁Land	-2062
▁buff	-2063
gic	-2064
cmdE	-2065
▁strengthe	-2066
ily	-2067
▁ph	-2068
atis	-2069
▁util	-2070
atural	-2071
▁Section	-2072
▁request	-2073
▁community	-2074
▁applicable	-2075
ib	-2076
racy	-2077
▁heart	-2078
▁Ombuds	-2079
iversary	-2080
▁natural	-2081
▁Hospital	-2082
▁policing	-2083
line	-2084
reas	-2085
▁tar	-2086
ordin	-2087
scale	-2088
▁disc	-2089
tention	-2090
▁comply	-2091
▁sphere	-2092
▁target	-2093
▁incompet	-2094
▁ec	-2095
▁tax	-2096
eness	-2097
▁youth	-2098
▁helped	-2099
▁plants	-2100
▁unless	-2101
pl	-2102
▁copy	-2103
iation	-2104
▁peace	-2105
▁choose	-2106
▁engagements	-2107
▁prospecting	-2108
view	-2109
▁White	-2110
▁Sh	-2111
eral	-2112
irit	-2113
▁clo	-2114
▁def	-2115
▁four	-2116
▁custom	-2117
▁results	-2118
▁safeguards	-2119
""	-2120
▁teleph	-2121
▁welcome	-2122
▁assistance	-2123
zz	-2124
ribute	-2125
▁great	-2126
▁liter	-2127
▁include	-2128
▁sustainable	-2129
eur	-2130
▁Trans	-2131
▁Holdings	-2132
▁movements	-2133
▁International	-2134
ffs	-2135
pren	-2136
▁pip	-2137
▁Sector	-2138
ang	-2139
▁Nations	-2140
▁difficult	-2141
▁implementation	-2142
▁Old	-2143
▁trad	-2144
▁April	-2145
preneur	-2146
▁became	-2147
engineering	-2148
▁anniversary	-2149
▁communicates	-2150
ull	-2151
▁Al	-2152
cket	-2153
▁aim	-2154
tiles	-2155
venue	-2156
▁clear	-2157
▁Executive	-2158
ick	-2159
ork	-2160
▁New	-2161
quate	-2162
▁Quar	-2163
▁doct	-2164
partner	-2165
▁reduce	-2166
▁neighbourhood	-2167
▁Mo	-2168
itim	-2169
▁gather	-2170
▁legitim	-2171
▁maintain	-2172
▁functions	-2173
ogn	-2174
akes	-2175
gation	-2176
illion	-2177
▁enjoy	-2178
▁using	-2179
▁Policy	-2180
▁accord	-2181
▁viable	-2182
▁citizens	-2183
▁According	-2184
▁implicates	-2185
▁appropriate	-2186
▁seeking	-2187
▁resource	-2188
▁permission	-2189
▁constitution	-2190
▁cir	-2191
theid	-2192
▁regul	-2193
▁centre	-2194
▁accordance	-2195
▁initiatives	-2196
wa	-2197
▁:	-2198
▁Sp	-2199
▁high	-2200
ruction	-2201
▁bucket	-2202
▁parties	-2203
▁28	-2204
earest	-2205
riefing	-2206
▁efforts	-2207
▁sponsors	-2208
new	-2209
acted	-2210
round	-2211
▁language	-2212
▁applicant	-2213
▁exclusive	-2214
▁household	-2215
bre	-2216
▁Ga	-2217
athe	-2218
▁appe	-2219
▁seven	-2220
ey	-2221
▁thus	-2222
▁effects	-2223
▁project	-2224
▁Ministry	-2225
▁preclude	-2226
▁Champions	-2227
▁political	-2228
▁electricity	-2229
Af	-2230
ft	-2231
rik	-2232
rop	-2233
ship	-2234
Afric	-2235
▁cond	-2236
▁turns	-2237
▁young	-2238
▁accident	-2239
▁certific	-2240
ena	-2241
▁For	-2242
▁gran	-2243
▁just	-2244
▁news	-2245
▁norm	-2246
▁These	-2247
▁Benner	-2248
▁reasons	-2249
care	-2250
▁Mrs	-2251
ulties	-2252
vinced	-2253
▁basic	-2254
▁convinced	-2255
▁principal	-2256
▁directions	-2257
illar	-2258
▁away	-2259
▁dist	-2260
▁full	-2261
entioned	-2262
▁general	-2263
▁happened	-2264
government	-2265
▁Facilitate	-2266
▁logistical	-2267
cing	-2268
ened	-2269
ough	-2270
gress	-2271
▁1998,	-2272
▁treat	-2273
▁monitor	-2274
▁difficulties	-2275
ilst	-2276
lder	-2277
▁Dep	-2278
▁non	-2279
cmdEng	-2280
▁recyc	-2281
▁tribute	-2282
▁des	-2283
▁method	-2284
▁specific	-2285
▁democracy	-2286
rong	-2287
▁100	-2288
verty	-2289
▁special	-2290
work	-2291
▁Add	-2292
▁Child	-2293
▁Growth	-2294
▁action	-2295
▁gender	-2296
▁strong	-2297
▁Investment	-2298
uty	-2299
ints	-2300
▁common	-2301
▁constructive	-2302
▁experiencing	-2303
▁Ph	-2304
semb	-2305
▁Now	-2306
▁end	-2307
▁Afrik	-2308
▁takes	-2309
▁office	-2310
lessness	-2311
▁ago	-2312
▁car	-2313
▁inst	-2314
sembly	-2315
▁conflic	-2316
▁Assembly	-2317
▁communicate	-2318
anies	-2319
▁writ	-2320
ession	-2321
▁Defence	-2322
▁poverty	-2323
▁consider	-2324
▁facility	-2325
▁legislature	-2326
▁Fund	-2327
▁contro	-2328
▁accused	-2329
▁constra	-2330
▁continu	-2331
▁foundation	-2332
▁facilitated	-2333
▁Maputography	-2334
▁substitution	-2335
▁jo	-2336
aner	-2337
ters	-2338
▁Let	-2339
▁Our	-2340
▁seen	-2341
▁Waste	-2342
▁second	-2343
▁supply	-2344
▁whilst	-2345
effective	-2346
▁efficiency	-2347
aking	-2348
▁trainers	-2349
▁officials	-2350
body	-2351
play	-2352
▁going	-2353
▁recogn	-2354
▁foreign	-2355
dist	-2356
encies	-2357
▁rural	-2358
▁Industry	-2359
▁everyday	-2360
▁organisation	-2361
isms	-2362
idents	-2363
▁newsp	-2364
▁Soccer	-2365
▁electric	-2366
▁expression	-2367
kh	-2368
crib	-2369
orth	-2370
▁pot	-2371
▁Capt	-2372
▁mand	-2373
▁stand	-2374
▁value	-2375
▁agenda	-2376
ventions	-2377
▁allowed	-2378
▁primary	-2379
▁legitimacy	-2380
▁Lo	-2381
▁Employment	-2382
▁strengthen	-2383
▁softreignty	-2384
nov	-2385
▁Sub	-2386
▁sure	-2387
▁detail	-2388
▁Revenue	-2389
▁properly	-2390
▁telephone	-2391
▁encouraged	-2392
▁requirements	-2393
ny	-2394
rian	-2395
▁dri	-2396
▁team	-2397
▁gathe	-2398
▁manage	-2399
▁Republic	-2400
▁planning	-2401
▁soreignty	-2402
▁turnstiles	-2403
▁Sum	-2404
▁ways	-2405
▁week	-2406
▁Right	-2407
▁progress	-2408
▁vis	-2409
heres	-2410
tensive	-2411
▁market	-2412
▁mineral	-2413
▁captured	-2414
ring	-2415
inction	-2416
▁spheres	-2417
▁interests	-2418
▁traditional	-2419
let	-2420
▁Rec	-2421
▁Som	-2422
uteng	-2423
▁fash	-2424
▁Summit	-2425
▁fashion	-2426
▁matters	-2427
▁recover	-2428
▁certificate	-2429
▁4	-2430
ife	-2431
ason	-2432
know	-2433
▁Works	-2434
sibility	-2435
▁households	-2436
▁achievements	-2437
jects	-2438
▁Force	-2439
ulation	-2440
▁acutely	-2441
▁learner	-2442
▁started	-2443
▁elections	-2444
▁electrical	-2445
ics	-2446
agra	-2447
▁Gauteng	-2448
▁themselves	-2449
▁municipality	-2450
vere	-2451
▁Pre	-2452
▁hereby	-2453
▁current	-2454
▁weather	-2455
▁gathered	-2456
▁companies	-2457
▁er	-2458
▁issu	-2459
▁jump	-2460
▁kind	-2461
agraph	-2462
▁goods	-2463
ilities	-2464
reasing	-2465
isations	-2466
▁suspect	-2467
▁potential	-2468
▁turbulence	-2469
▁hospitality	-2470
IL	-2471
cri	-2472
▁El	-2473
eeee	-2474
▁low	-2475
▁sug	-2476
▁Entre	-2477
ruption	-2478
▁operators	-2479
▁Eu	-2480
▁fri	-2481
▁Unit	-2482
▁seek	-2483
▁vehicle	-2484
▁paragraph	-2485
▁recycling	-2486
oni	-2487
enge	-2488
▁Cor	-2489
▁innov	-2490
▁spirit	-2491
▁defence	-2492
▁identified	-2493
▁partnership	-2494
▁Entrepreneur	-2495
▁inconvenienced	-2496
eed	-2497
▁Union	-2498
▁agreement	-2499
▁assisting	-2500
▁generation	-2501
▁rebuilding	-2502
bab	-2503
▁Bec	-2504
▁sex	-2505
▁deli	-2506
orders	-2507
sition	-2508
▁motor	-2509
▁seeks	-2510
▁facing	-2511
▁relations	-2512
3,	-2513
lie	-2514
▁Pa	-2515
▁How	-2516
▁ver	-2517
▁indig	-2518
▁better	-2519
▁addition	-2520
▁conflict	-2521
▁fundament	-2522
▁strategic	-2523
▁introduced	-2524
▁Sche	-2525
▁legal	-2526
mission	-2527
vention	-2528
▁discus	-2529
▁projects	-2530
▁fundamental	-2531
PS	-2532
▁7	-2533
▁Ass	-2534
lines	-2535
▁least	-2536
▁media	-2537
akehold	-2538
▁anyone	-2539
▁groups	-2540
▁challenge	-2541
▁contained	-2542
▁principle	-2543
▁everything	-2544
10	-2545
▁City	-2546
ensive	-2547
▁Enter	-2548
▁known	-2549
▁respect	-2550
necessary	-2551
▁provides	-2552
ban	-2553
▁Si	-2554
▁questions	-2555
▁stakehold	-2556
▁mechanisms	-2557
▁apt	-2558
enous	-2559
▁down	-2560
rope	-2561
▁gall	-2562
▁post	-2563
ptions	-2564
▁Applic	-2565
▁Shared	-2566
▁indigenous	-2567
▁authorities	-2568
5,	-2569
han	-2570
ost	-2571
ivid	-2572
▁name	-2573
▁liber	-2574
▁issued	-2575
▁Mandela	-2576
▁bottles	-2577
▁enacted	-2578
▁priority	-2579
oney	-2580
sist	-2581
▁fire	-2582
players	-2583
tenance	-2584
▁Europe	-2585
▁rather	-2586
▁inconsist	-2587
▁congresses	-2588
▁money	-2589
▁study	-2590
▁Agency	-2591
▁buffet	-2592
▁create	-2593
▁Children	-2594
▁involved	-2595
str	-2596
ton	-2597
▁Bo	-2598
▁Pe	-2599
cast	-2600
dule	-2601
▁One	-2602
▁city	-2603
▁wife	-2604
▁taken	-2605
▁audits	-2606
▁complain	-2607
▁constraints	-2608
rete	-2609
▁she	-2610
▁easy	-2611
person	-2612
▁night	-2613
▁advice	-2614
▁choice	-2615
roadcast	-2616
▁Schedule	-2617
▁concrete	-2618
▁date	-2619
vereignty	-2620
▁Learners	-2621
▁realising	-2622
▁exclusively	-2623
▁functioning	-2624
▁harderfulness	-2625
go	-2626
ley	-2627
thern	-2628
▁Your	-2629
▁alle	-2630
▁demon	-2631
▁Because	-2632
ticipated	-2633
▁ourselves	-2634
▁questionings	-2635
▁Day	-2636
proof	-2637
▁phen	-2638
▁prot	-2639
▁word	-2640
veness	-2641
▁tender	-2642
▁However	-2643
▁persons	-2644
▁someone	-2645
▁generate	-2646
▁industry	-2647
▁turbulent	-2648
▁influenced	-2649
▁old	-2650
epend	-2651
▁enti	-2652
▁ever	-2653
▁read	-2654
▁another	-2655
▁Afrikaner	-2656
▁treatment	-2657
▁questioned	-2658
▁vertically	-2659
▁foc	-2660
▁Bapt	-2661
▁view	-2662
▁Benoni	-2663
▁doctor	-2664
▁phenomen	-2665
▁ret	-2666
cribed	-2667
overty	-2668
▁Techn	-2669
▁occas	-2670
▁pillar	-2671
▁Address	-2672
▁effected	-2673
▁independ	-2674
▁facilitating	-2675
▁Ne	-2676
aces	-2677
▁belie	-2678
▁benef	-2679
▁corrid	-2680
▁normal	-2681
atistics	-2682
▁cultural	-2683
▁Ombudsman	-2684
▁Management	-2685
▁healthcare	-2686
▁10	-2687
cent	-2688
▁sign	-2689
▁owner	-2690
▁Action	-2691
▁Charles	-2692
▁transform	-2693
oci	-2694
hand	-2695
▁few	-2696
▁dise	-2697
▁held	-2698
▁pass	-2699
▁built	-2700
▁visit	-2701
ination	-2702
▁Catchment	-2703
▁innovation	-2704
▁phenomenon	-2705
eth	-2706
irm	-2707
▁ca	-2708
▁Why	-2709
▁cla	-2710
veral	-2711
▁thank	-2712
▁concurr	-2713
▁applications	-2714
IFA	-2715
erc	-2716
▁cru	-2717
atory	-2718
▁hist	-2719
ividual	-2720
▁counterpart	-2721
▁14	-2722
lass	-2723
▁party	-2724
▁sport	-2725
▁talking	-2726
▁Services	-2727
▁languages	-2728
ma	-2729
▁der	-2730
ccess	-2731
▁guid	-2732
though	-2733
▁examp	-2734
▁anything	-2735
▁governments	-2736
▁Transformation	-2737
ench	-2738
irls	-2739
sian	-2740
▁circ	-2741
▁wasn	-2742
ference	-2743
ommunic	-2744
▁letter	-2745
▁Security	-2746
NC	-2747
ruct	-2748
abour	-2749
lying	-2750
terna	-2751
▁apar	-2752
▁come	-2753
▁type	-2754
▁North	-2755
▁accomp	-2756
▁methods	-2757
▁occasion	-2758
▁eThekwini	-2759
▁concurrence	-2760
▁explor	-2761
▁indust	-2762
▁gallery	-2763
▁liberation	-2764
▁Do	-2765
▁why	-2766
lated	-2767
range	-2768
▁2010	-2769
▁hous	-2770
enager	-2771
▁success	-2772
▁increasing	-2773
uses	-2774
ester	-2775
▁anal	-2776
▁temp	-2777
ercial	-2778
▁scene	-2779
▁except	-2780
▁expand	-2781
▁subject	-2782
▁Complete	-2783
▁captures	-2784
▁Businesses	-2785
▁organisations	-2786
▁Exp	-2787
▁sett	-2788
▁exerc	-2789
ceptions	-2790
▁delivery	-2791
▁detectives	-2792
▁generators	-2793
ret	-2794
sed	-2795
▁la	-2796
tition	-2797
▁review	-2798
▁earning	-2799
▁contract	-2800
▁Technolog	-2801
▁apartheid	-2802
▁leadership	-2803
)(	-2804
use	-2805
ined	-2806
rial	-2807
▁emb	-2808
place	-2809
sions	-2810
▁FIFA	-2811
▁chan	-2812
▁five	-2813
▁doing	-2814
▁Mapena	-2815
▁discip	-2816
▁enable	-2817
▁underlying	-2818
▁exploration	-2819
▁maintenance	-2820
▁implementing	-2821
rab	-2822
▁60	-2823
ided	-2824
▁Dis	-2825
istra	-2826
▁came	-2827
▁Other	-2828
▁Strate	-2829
▁income	-2830
▁season	-2831
▁safeguarding	-2832
▁8	-2833
▁Or	-2834
▁vul	-2835
ondon	-2836
▁Anti	-2837
▁Move	-2838
▁back	-2839
▁camp	-2840
▁Quart	-2841
▁citizen	-2842
▁Building	-2843
▁Investig	-2844
▁participating	-2845
dri	-2846
lla	-2847
▁18	-2848
ists	-2849
▁Cab	-2850
▁hus	-2851
▁pop	-2852
▁anti	-2853
▁While	-2854
▁London	-2855
▁several	-2856
▁Provinces	-2857
▁objectives	-2858
",	-2859
▁21	-2860
▁UN	-2861
iles	-2862
irth	-2863
tify	-2864
▁1997.	-2865
▁affect	-2866
▁vulner	-2867
▁scenari	-2868
▁suggest	-2869
▁European	-2870
▁transfer	-2871
▁prescribed	-2872
ET	-2873
band	-2874
logy	-2875
▁cle	-2876
illed	-2877
▁Admin	-2878
▁urged	-2879
▁Rights	-2880
▁appoint	-2881
▁respond	-2882
▁agencies	-2883
▁hospitals	-2884
▁promising	-2885
▁submission	-2886
assy	-2887
ises	-2888
▁Baf	-2889
▁int	-2890
anent	-2891
gency	-2892
okeng	-2893
▁Arab	-2894
▁char	-2895
▁build	-2896
▁might	-2897
▁Before	-2898
▁alterna	-2899
▁democra	-2900
▁Movement	-2901
▁Protector	-2902
▁employees	-2903
▁everybody	-2904
▁workplace	-2905
▁individual	-2906
▁misconduct	-2907
▁registered	-2908
▁Chairperson	-2909
ury	-2910
▁12	-2911
buza	-2912
icro	-2913
inet	-2914
ones	-2915
▁key	-2916
▁spe	-2917
ourism	-2918
▁audit	-2919
▁reason	-2920
▁sections	-2921
▁permanent	-2922
▁incapacitated	-2923
99	-2924
sa	-2925
▁II	-2926
itan	-2927
ropol	-2928
▁Prem	-2929
▁drug	-2930
▁shall	-2931
▁histor	-2932
▁trying	-2933
▁Cabinet	-2934
▁crucial	-2935
▁finance	-2936
▁husband	-2937
▁winning	-2938
▁Benchmar	-2939
▁investors	-2940
▁Enterprises	-2941
br	-2942
sh	-2943
ale	-2944
vir	-2945
lies	-2946
▁gun	-2947
erals	-2948
minal	-2949
▁Base	-2950
▁laun	-2951
▁proc	-2952
▁frequ	-2953
outhern	-2954
▁Health	-2955
▁newsle	-2956
ropolitan	-2957
▁Although	-2958
▁cooperation	-2959
ya	-2960
▁24	-2961
aning	-2962
▁Some	-2963
▁poss	-2964
nected	-2965
▁death	-2966
▁drive	-2967
▁speci	-2968
▁Deputy	-2969
▁agents	-2970
▁appear	-2971
▁sourced	-2972
▁building	-2973
▁recovery	-2974
▁released	-2975
▁9	-2976
nex	-2977
aled	-2978
iplo	-2979
ritor	-2980
▁step	-2981
▁marri	-2982
▁consign	-2983
▁demonstr	-2984
▁problems	-2985
▁providing	-2986
▁theillage	-2987
▁hardernessing	-2988
AR	-2989
BSA	-2990
oid	-2991
pos	-2992
hest	-2993
ible	-2994
▁ext	-2995
▁put	-2996
enary	-2997
▁pipel	-2998
▁Employer	-2999
▁identity	-3000
▁informal	-3001
▁practition	-3002
▁mainstreaming	-3003
cer	-3004
▁micro	-3005
▁comple	-3006
▁involve	-3007
▁Conference	-3008
▁democratic	-3009
▁safeguight	-3010
▁departments	-3011
▁incompetence	-3012
app	-3013
▁Se	-3014
fact	-3015
▁bio	-3016
▁bus	-3017
▁mod	-3018
retro	-3019
▁wish	-3020
▁intim	-3021
▁carried	-3022
▁regular	-3023
▁Employers	-3024
▁statement	-3025
▁businesses	-3026
▁evaluation	-3027
▁Departments	-3028
ba	-3029
etro	-3030
▁Leg	-3031
▁Zim	-3032
babwe	-3033
water	-3034
itions	-3035
▁Where	-3036
▁press	-3037
▁Respon	-3038
▁Somali	-3039
▁acting	-3040
▁Premier	-3041
▁leading	-3042
▁outside	-3043
▁Zimbabwe	-3044
▁harderful	-3045
▁regarding	-3046
▁incapacity	-3047
▁mechanical	-3048
▁established	-3049
▁introduction	-3050
▁constitutional	-3051
.,	-3052
▁Im	-3053
▁im	-3054
oman	-3055
▁But	-3056
▁gra	-3057
▁lic	-3058
African	-3059
▁around	-3060
▁struct	-3061
▁Nearest	-3062
▁educate	-3063
▁marriage	-3064
arch	-3065
▁Imp	-3066
▁wal	-3067
driven	-3068
▁Bache	-3069
▁minim	-3070
▁quite	-3071
▁recre	-3072
▁analys	-3073
▁called	-3074
▁design	-3075
economic	-3076
retrovir	-3077
▁Poverty	-3078
▁advance	-3079
▁employers	-3080
▁gatherings	-3081
▁vulnerable	-3082
anied	-3083
enses	-3084
ommod	-3085
ourge	-3086
entive	-3087
lusion	-3088
▁Offic	-3089
▁entire	-3090
▁please	-3091
▁remain	-3092
▁Another	-3093
▁actions	-3094
▁Minerals	-3095
▁generates	-3096
▁accompanied	-3097
▁prospective	-3098
▁understanding	-3099
alid	-3100
olen	-3101
osen	-3102
▁vot	-3103
▁Every	-3104
▁Human	-3105
▁coast	-3106
▁scope	-3107
▁spect	-3108
process	-3109
▁amongst	-3110
▁Agricult	-3111
hes	-3112
▁lu	-3113
aced	-3114
hips	-3115
treme	-3116
product	-3117
▁extreme	-3118
▁traffic	-3119
▁applying	-3120
▁everywhere	-3121
▁instruments	-3122
▁precinction	-3123
▁metropolitan	-3124
edom	-3125
▁men	-3126
▁gave	-3127
▁rest	-3128
▁itself	-3129
▁subsid	-3130
▁expenses	-3131
▁Provincial	-3132
▁continuing	-3133
▁monitoring	-3134
▁investigate	-3135
▁Constitutional	-3136
oot	-3137
▁col	-3138
▁gal	-3139
▁let	-3140
luded	-3141
▁Home	-3142
▁Peace	-3143
▁bench	-3144
▁commit	-3145
▁values	-3146
▁Eastern	-3147
▁freedom	-3148
▁greatest	-3149
stu	-3150
tity	-3151
aches	-3152
ffici	-3153
ories	-3154
▁insp	-3155
▁stolen	-3156
▁Persons	-3157
▁control	-3158
▁million	-3159
roadcasting	-3160
▁complaints	-3161
bal	-3162
▁Ro	-3163
▁His	-3164
sters	-3165
▁Area	-3166
▁SAPS	-3167
atures	-3168
▁claim	-3169
▁event	-3170
▁proof	-3171
iversity	-3172
ological	-3173
▁evolved	-3174
▁friends	-3175
▁turning	-3176
▁establish	-3177
▁pipelines	-3178
distribution	-3179
▁counselling	-3180
▁observances	-3181
▁precinctness	-3182
ulu	-3183
item	-3184
▁Jud	-3185
▁Pal	-3186
▁That	-3187
▁cases	-3188
▁Submit	-3189
▁chosen	-3190
▁mandate	-3191
▁practical	-3192
▁conditions	-3193
▁performance	-3194
▁sovereignty	-3195
ni	-3196
bur	-3197
zela	-3198
▁Bar	-3199
▁fee	-3200
▁ide	-3201
▁sla	-3202
fully	-3203
▁avoid	-3204
▁exist	-3205
ableness	-3206
▁alleged	-3207
▁jumping	-3208
▁subitem	-3209
▁emphasis	-3210
▁indicate	-3211
▁provider	-3212
▁vigilant	-3213
retroviral	-3214
▁Ithekwini	-3215
▁industrial	-3216
▁population	-3217
rict	-3218
tise	-3219
▁Det	-3220
▁com	-3221
onder	-3222
▁code	-3223
▁once	-3224
stuffs	-3225
▁agent	-3226
▁satis	-3227
entives	-3228
▁Nature	-3229
▁metals	-3230
▁integrity	-3231
▁foodstuffs	-3232
▁inconsistent	-3233
Is	-3234
ube	-3235
bubu	-3236
room	-3237
ture	-3238
▁sur	-3239
apers	-3240
cated	-3241
ometh	-3242
orning	-3243
▁height	-3244
▁spaces	-3245
▁follows	-3246
▁targets	-3247
▁writing	-3248
▁vehicles	-3249
▁efficient	-3250
▁generated	-3251
▁specified	-3252
▁counterparts	-3253
12	-3254
▁sea	-3255
▁book	-3256
▁1993,	-3257
▁entry	-3258
▁storm	-3259
▁notice	-3260
▁someth	-3261
▁invited	-3262
▁Chairman	-3263
▁something	-3264
▁corruption	-3265
▁victorious	-3266
▁realisation	-3267
▁questionnage	-3268
aid	-3269
azi	-3270
epe	-3271
ubl	-3272
▁Jo	-3273
▁Air	-3274
▁ade	-3275
▁hig	-3276
ached	-3277
▁Oper	-3278
▁cele	-3279
▁publ	-3280
▁talk	-3281
brella	-3282
▁adult	-3283
▁woman	-3284
▁examin	-3285
▁Briefing	-3286
▁adequate	-3287
ectiveness	-3288
italisation	-3289
▁consignment	-3290
▁incapacitating	-3291
4.	-3292
gin	-3293
off	-3294
burg	-3295
thek	-3296
▁Hon	-3297
advant	-3298
▁birth	-3299
▁lower	-3300
▁needs	-3301
▁States	-3302
▁holder	-3303
▁preclu	-3304
▁Quality	-3305
▁benefic	-3306
▁acquired	-3307
▁hardware	-3308
▁corridors	-3309
▁disadvant	-3310
▁therefore	-3311
▁observable	-3312
rame	-3313
▁due	-3314
tempt	-3315
▁priv	-3316
▁quick	-3317
▁trade	-3318
urement	-3319
▁nation	-3320
▁tempor	-3321
▁underne	-3322
▁integrated	-3323
▁Mapenaissance	-3324
▁BI	-3325
▁Ri	-3326
aily	-3327
buck	-3328
▁Don	-3329
acher	-3330
lobal	-3331
▁Diplo	-3332
▁midst	-3333
▁risks	-3334
standing	-3335
▁partners	-3336
▁valuableness	-3337
amb	-3338
▁Su	-3339
▁ap	-3340
▁em	-3341
▁2008	-3342
▁Park	-3343
▁Crime	-3344
▁arriv	-3345
▁equip	-3346
▁gives	-3347
▁mater	-3348
▁socio	-3349
▁tourna	-3350
▁counsel	-3351
▁forward	-3352
▁impacts	-3353
▁pleased	-3354
istrative	-3355
▁material	-3356
▁requires	-3357
ommodation	-3358
▁disciplines	-3359
▁effectiveness	-3360
▁questionnaway	-3361
▁understandable	-3362
atal	-3363
fort	-3364
▁weap	-3365
ampepe	-3366
olence	-3367
rology	-3368
tising	-3369
▁Local	-3370
▁daily	-3371
▁manag	-3372
▁short	-3373
▁trave	-3374
mergency	-3375
▁excused	-3376
▁Khampepe	-3377
▁encourage	-3378
▁equipment	-3379
▁extremely	-3380
▁additional	-3381
ane	-3382
hle	-3383
▁Ang	-3384
▁ten	-3385
ately	-3386
etary	-3387
▁impress	-3388
▁receive	-3389
▁station	-3390
▁approved	-3391
▁tournament	-3392
▁Agriculture	-3393
▁Responsible	-3394
▁procurement	-3395
leg	-3396
cell	-3397
▁Adv	-3398
▁Dur	-3399
▁Ple	-3400
▁mus	-3401
▁rob	-3402
anded	-3403
enter	-3404
▁knew	-3405
ending	-3406
▁Initi	-3407
▁calls	-3408
▁weeks	-3409
▁associ	-3410
ulations	-3411
▁applies	-3412
▁attempt	-3413
▁culture	-3414
▁teacher	-3415
ciliation	-3416
mentioned	-3417
▁disadvantaged	-3418
DC	-3419
por	-3420
▁ge	-3421
going	-3422
icket	-3423
▁Both	-3424
▁Dube	-3425
▁masses	-3426
▁believe	-3427
▁harness	-3428
processing	-3429
▁harvestments	-3430
ai	-3431
▁bibs	-3432
▁jobs	-3433
uclear	-3434
economy	-3435
▁Durban	-3436
▁agency	-3437
▁things	-3438
▁scourge	-3439
▁workers	-3440
▁critical	-3441
▁employer	-3442
sibilities	-3443
▁mentioned	-3444
▁provinces	-3445
TI	-3446
az	-3447
atho	-3448
▁asp	-3449
matic	-3450
▁With	-3451
▁even	-3452
▁hear	-3453
▁host	-3454
aching	-3455
▁Recon	-3456
▁Please	-3457
▁button	-3458
▁wouldn	-3459
▁variety	-3460
▁diseases	-3461
▁indicated	-3462
▁published	-3463
▁destruction	-3464
trac	-3465
▁mul	-3466
▁vac	-3467
▁Inte	-3468
▁fast	-3469
▁prof	-3470
retary	-3471
▁March	-3472
▁drugs	-3473
▁theft	-3474
▁wonder	-3475
▁regarded	-3476
▁generally	-3477
▁happiness	-3478
▁Investigations	-3479
io	-3480
hab	-3481
rum	-3482
ateg	-3483
char	-3484
arily	-3485
▁airp	-3486
▁fish	-3487
▁Phill	-3488
▁early	-3489
▁accepted	-3490
▁actually	-3491
▁evaluate	-3492
▁emphasise	-3493
▁positively	-3494
▁principles	-3495
ommunications	-3496
▁Mp	-3497
bear	-3498
ored	-3499
enner	-3500
▁Paul	-3501
▁link	-3502
rition	-3503
▁couldn	-3504
▁having	-3505
▁licence	-3506
▁nuclear	-3507
▁village	-3508
▁benefits	-3509
▁collected	-3510
▁ownership	-3511
▁possession	-3512
lt	-3513
ats	-3514
▁cl	-3515
wide	-3516
built	-3517
tters	-3518
▁note	-3519
▁stay	-3520
▁datab	-3521
▁faith	-3522
▁guide	-3523
▁never	-3524
idation	-3525
▁buying	-3526
▁depends	-3527
▁spectrum	-3528
▁according	-3529
PA	-3530
imp	-3531
ird	-3532
vey	-3533
▁15	-3534
avel	-3535
▁biod	-3536
▁driv	-3537
▁gang	-3538
▁hand	-3539
▁plan	-3540
▁show	-3541
▁close	-3542
▁valid	-3543
▁mission	-3544
▁reports	-3545
▁included	-3546
▁Secretary	-3547
▁processes	-3548
▁Initiative	-3549
▁harvesting	-3550
▁consultations	-3551
).	-3552
DP	-3553
ze	-3554
▁Te	-3555
aign	-3556
lood	-3557
ules	-3558
achin	-3559
▁didn	-3560
▁farm	-3561
▁bring	-3562
▁price	-3563
▁quali	-3564
ization	-3565
million	-3566
▁Palest	-3567
▁easily	-3568
▁record	-3569
▁ticket	-3570
▁attract	-3571
▁underst	-3572
▁weapons	-3573
▁griefing	-3574
▁continues	-3575
▁undertake	-3576
▁settlements	-3577
▁biodiversity	-3578
▁inconvenents	-3579
▁transformation	-3580
7,	-3581
yn	-3582
orage	-3583
track	-3584
▁body	-3585
▁hold	-3586
▁simp	-3587
everal	-3588
▁speak	-3589
▁teams	-3590
Mandela	-3591
▁Region	-3592
▁destro	-3593
▁machin	-3594
tainment	-3595
▁Several	-3596
▁helping	-3597
▁housing	-3598
connected	-3599
▁audience	-3600
▁innering	-3601
▁targeted	-3602
▁incentive	-3603
▁profession	-3604
▁possibility	-3605
▁consideration	-3606
OC	-3607
▁sw	-3608
▁lat	-3609
▁led	-3610
▁poll	-3611
titled	-3612
▁1995,	-3613
▁issue	-3614
▁makes	-3615
▁milit	-3616
▁Legisl	-3617
▁gallet	-3618
▁produc	-3619
▁typing	-3620
▁valued	-3621
producted	-3622
▁entitled	-3623
▁newspapers	-3624
▁underneath	-3625
▁understood	-3626
ots	-3627
▁22	-3628
▁Ku	-3629
▁ce	-3630
known	-3631
orrow	-3632
▁fulf	-3633
▁upon	-3634
igence	-3635
▁Agree	-3636
▁Organ	-3637
▁categ	-3638
▁winter	-3639
▁Customs	-3640
▁aspects	-3641
▁example	-3642
▁heartfe	-3643
▁Learning	-3644
▁employee	-3645
▁military	-3646
▁Judiciary	-3647
▁machinery	-3648
▁Transition	-3649
▁alternative	-3650
▁fe	-3651
▁Mal	-3652
▁mur	-3653
ourse	-3654
▁Amer	-3655
▁Kore	-3656
arters	-3657
fortun	-3658
learly	-3659
▁chair	-3660
▁global	-3661
▁myself	-3662
▁propos	-3663
▁Clearly	-3664
▁Quarant	-3665
▁banning	-3666
▁dealing	-3667
▁Expanded	-3668
▁pressure	-3669
▁conclusion	-3670
if	-3671
yd	-3672
aba	-3673
ils	-3674
▁Ts	-3675
medi	-3676
zzzz	-3677
▁ser	-3678
inian	-3679
oming	-3680
▁Word	-3681
▁hope	-3682
▁aimed	-3683
nexture	-3684
▁Americ	-3685
▁Observ	-3686
▁acknow	-3687
ramework	-3688
▁details	-3689
▁literacy	-3690
▁affecting	-3691
▁Statistics	-3692
for	-3693
vel	-3694
▁Ko	-3695
▁fue	-3696
▁ter	-3697
urred	-3698
▁faec	-3699
ariffs	-3700
▁occup	-3701
▁pipes	-3702
▁afford	-3703
▁slaves	-3704
▁privile	-3705
▁officers	-3706
▁Intensive	-3707
▁heartfelt	-3708
▁professional	-3709
sc	-3710
eni	-3711
reet	-3712
▁Mad	-3713
▁tom	-3714
aries	-3715
▁anim	-3716
ridges	-3717
▁Asian	-3718
▁numer	-3719
▁resol	-3720
▁always	-3721
▁latest	-3722
▁sexual	-3723
fication	-3724
▁Centres	-3725
▁destroy	-3726
▁nearest	-3727
▁tourism	-3728
ordinated	-3729
programme	-3730
struction	-3731
▁campaign	-3732
▁managers	-3733
▁Elections	-3734
▁heartened	-3735
▁enterprises	-3736
▁Broadcasting	-3737
▁Administration	-3738
RS	-3739
els	-3740
lack	-3741
▁Bank	-3742
▁exch	-3743
▁pati	-3744
▁email	-3745
▁plans	-3746
▁relev	-3747
▁precau	-3748
▁receiv	-3749
▁Employe	-3750
▁morning	-3751
▁victity	-3752
▁appealed	-3753
▁appeared	-3754
▁tomorrow	-3755
▁requester	-3756
▁Employeeee	-3757
▁yourselves	-3758
▁enforcement	-3759
▁practitioner	-3760
▁Accommodation	-3761
ga	-3762
▁13	-3763
▁Law	-3764
▁son	-3765
isory	-3766
▁From	-3767
▁State	-3768
ourable	-3769
▁caused	-3770
▁murder	-3771
▁nature	-3772
ropriate	-3773
▁tariffs	-3774
▁tickets	-3775
▁identify	-3776
▁executive	-3777
▁interface	-3778
▁prompting	-3779
▁instructions	-3780
▁questionnages	-3781
lak	-3782
abor	-3783
cceed	-3784
itage	-3785
itness	-3786
▁equiv	-3787
stances	-3788
tionary	-3789
▁Corpor	-3790
▁labour	-3791
▁Technik	-3792
▁changes	-3793
▁contains	-3794
▁reviewed	-3795
▁committee	-3796
▁recognise	-3797
▁employment	-3798
participated	-3799
▁stakeholder	-3800
▁unnecessary	-3801
▁responsibility	-3802
rat	-3803
tra	-3804
ably	-3805
iger	-3806
ross	-3807
thly	-3808
▁fis	-3809
udget	-3810
▁Road	-3811
▁auto	-3812
▁Inter	-3813
▁begin	-3814
entific	-3815
▁mother	-3816
▁notify	-3817
ervation	-3818
otations	-3819
▁sponsor	-3820
▁Critical	-3821
▁violence	-3822
▁relevance	-3823
▁Honourable	-3824
▁heightened	-3825
▁Palestinian	-3826
▁conventions	-3827
▁increasingly	-3828
▁communicators	-3829
mon	-3830
old	-3831
cons	-3832
umal	-3833
▁Korea	-3834
▁grant	-3835
▁imper	-3836
▁demand	-3837
feration	-3838
▁Improve	-3839
▁coastal	-3840
▁firearm	-3841
▁succeed	-3842
▁witness	-3843
▁written	-3844
▁clothing	-3845
▁consumers	-3846
▁developed	-3847
▁promptors	-3848
▁stability	-3849
▁destination	-3850
▁investments	-3851
▁minimisation	-3852
▁stakeholders	-3853
▁precautionary	-3854
uma	-3855
aken	-3856
ched	-3857
ians	-3858
▁Mol	-3859
▁gas	-3860
icial	-3861
ufact	-3862
▁Prov	-3863
▁lack	-3864
▁poor	-3865
itated	-3866
tified	-3867
▁Niger	-3868
▁armed	-3869
▁gradu	-3870
▁Identi	-3871
▁remove	-3872
▁simple	-3873
▁Manager	-3874
▁passeng	-3875
▁utilise	-3876
▁Bafokeng	-3877
▁earnings	-3878
▁decisions	-3879
▁expertise	-3880
enterprises	-3881
▁categories	-3882
▁counselled	-3883
▁Application	-3884
▁Regulations	-3885
▁congruction	-3886
▁independent	-3887
▁mainstreams	-3888
▁misconceptions	-3889
hl	-3890
ken	-3891
▁Six	-3892
▁tell	-3893
Africa	-3894
▁1998.	-3895
▁Marri	-3896
▁Youth	-3897
▁eight	-3898
▁rules	-3899
▁searc	-3900
▁times	-3901
defence	-3902
▁amount	-3903
▁others	-3904
▁promot	-3905
▁Officer	-3906
▁confirm	-3907
▁percent	-3908
▁players	-3909
▁Bachelor	-3910
▁Everyone	-3911
▁directly	-3912
▁monetary	-3913
▁attention	-3914
▁advantages	-3915
▁contribute	-3916
),	-3917
IS	-3918
ock	-3919
▁wr	-3920
▁196	-3921
▁ANC	-3922
▁rad	-3923
istrar	-3924
▁asked	-3925
▁glass	-3926
▁monit	-3927
▁write	-3928
thekder	-3929
▁Anyway	-3930
▁oldest	-3931
umstances	-3932
▁stronger	-3933
▁Registrar	-3934
▁ecological	-3935
▁newsletter	-3936
NS	-3937
po	-3938
ara	-3939
ina	-3940
ipt	-3941
urn	-3942
fair	-3943
ites	-3944
ives	-3945
▁Env	-3946
▁lux	-3947
▁busy	-3948
▁seem	-3949
urning	-3950
▁River	-3951
ibility	-3952
▁played	-3953
▁explain	-3954
▁incurred	-3955
▁manufact	-3956
▁Detective	-3957
▁newspaper	-3958
▁supported	-3959
▁instructed	-3960
▁recreation	-3961
▁Environment	-3962
▁implicators	-3963
▁authorisation	-3964
edi	-3965
▁17	-3966
▁Cl	-3967
▁hon	-3968
▁rac	-3969
semin	-3970
▁Desp	-3971
active	-3972
▁Mapet	-3973
▁explo	-3974
▁facts	-3975
▁focus	-3976
▁wants	-3977
sperson	-3978
▁Mpumal	-3979
▁course	-3980
▁filled	-3981
▁threat	-3982
▁Despite	-3983
▁evolves	-3984
▁granted	-3985
▁measured	-3986
▁patients	-3987
▁previous	-3988
▁virology	-3989
▁turbuilding	-3990
▁experimental	-3991
tle	-3992
▁Ev	-3993
proli	-3994
tives	-3995
▁lapt	-3996
▁purs	-3997
▁placed	-3998
▁protect	-3999
▁annually	-4000
▁existing	-4001
▁prevention	-4002
▁scientific	-4003
▁Environmental	-4004
▁interventions	-4005
▁administrative	-4006
SS	-4007
ror	-4008
▁IC	-4009
rugg	-4010
ults	-4011
▁Bas	-4012
▁Emp	-4013
▁Kwa	-4014
▁guns	-4015
▁obst	-4016
▁paid	-4017
▁went	-4018
▁heard	-4019
taining	-4020
▁defend	-4021
▁fiscal	-4022
▁powers	-4023
▁sooner	-4024
▁strugg	-4025
dsperson	-4026
▁Mapetla	-4027
▁highest	-4028
ilitation	-4029
▁Strategy	-4030
▁solution	-4031
▁Marriages	-4032
▁Diplomatic	-4033
▁addressing	-4034
proliferation	-4035
RC	-4036
ams	-4037
aya	-4038
▁16	-4039
▁48	-4040
▁Ar	-4041
▁Pi	-4042
prov	-4043
▁pat	-4044
alent	-4045
entle	-4046
ships	-4047
▁Tshe	-4048
▁pers	-4049
▁taxi	-4050
ateral	-4051
lusive	-4052
certain	-4053
▁Mechan	-4054
▁change	-4055
▁guides	-4056
▁parent	-4057
▁racism	-4058
▁wanted	-4059
▁concept	-4060
▁harbour	-4061
▁heritage	-4062
▁southern	-4063
▁manufacture	-4064
▁Ombudsperson	-4065
▁intimidation	-4066
▁Reconciliation	-4067
co	-4068
▁NE	-4069
anga	-4070
ceed	-4071
ific	-4072
reci	-4073
▁goal	-4074
▁Those	-4075
artheid	-4076
ulating	-4077
▁luxury	-4078
▁search	-4079
utrition	-4080
fficiency	-4081
▁regional	-4082
▁signific	-4083
▁monitored	-4084
▁structure	-4085
▁Commercial	-4086
▁interested	-4087
▁Cooperatives	-4088
reg	-4089
▁Sw	-4090
hosa	-4091
▁DEA	-4092
▁Fact	-4093
▁below	-4094
▁inten	-4095
▁music	-4096
▁optim	-4097
▁remin	-4098
▁gentle	-4099
▁repair	-4100
▁appreci	-4101
▁confron	-4102
▁objects	-4103
▁studies	-4104
straction	-4105
▁Mechanism	-4106
▁Mpumalanga	-4107
▁centralised	-4108
▁construction	-4109
▁redistribution	-4110
ead	-4111
ipe	-4112
ney	-4113
▁Go	-4114
▁Two	-4115
ember	-4116
llers	-4117
ground	-4118
itised	-4119
▁amend	-4120
▁enhan	-4121
▁Holder	-4122
▁Safety	-4123
▁corner	-4124
▁indeed	-4125
▁obstac	-4126
▁remind	-4127
▁advised	-4128
▁anywhere	-4129
▁dissemin	-4130
▁presence	-4131
▁struggle	-4132
▁customary	-4133
▁indicates	-4134
▁proposals	-4135
▁significant	-4136
ug	-4137
▁By	-4138
keep	-4139
tein	-4140
▁198	-4141
▁Who	-4142
iring	-4143
▁weak	-4144
esting	-4145
▁Angth	-4146
▁Johan	-4147
▁lives	-4148
▁talks	-4149
▁celebr	-4150
▁receipt	-4151
▁criminal	-4152
▁hearings	-4153
▁scenario	-4154
▁expressed	-4155
▁graduates	-4156
▁contribution	-4157
RO	-4158
apo	-4159
▁50	-4160
ster	-4161
▁Nav	-4162
▁cur	-4163
▁grow	-4164
▁Cover	-4165
▁bottl	-4166
▁cease	-4167
▁exped	-4168
▁forms	-4169
▁medic	-4170
▁separ	-4171
dequate	-4172
▁points	-4173
▁stated	-4174
▁statis	-4175
ectorate	-4176
▁Economy	-4177
▁animals	-4178
▁arrived	-4179
▁incomes	-4180
▁weekend	-4181
▁benchmar	-4182
▁employed	-4183
▁supports	-4184
▁Protected	-4185
▁percentage	-4186
▁imperatives	-4187
▁accreditated	-4188
ME	-4189
buy	-4190
oti	-4191
▁35	-4192
▁Am	-4193
▁Bik	-4194
arful	-4195
▁2009	-4196
▁sold	-4197
etrole	-4198
ontein	-4199
▁plant	-4200
▁apolog	-4201
▁honour	-4202
mination	-4203
▁arrange	-4204
▁Regional	-4205
▁auditing	-4206
▁allegedly	-4207
▁protected	-4208
▁consulting	-4209
▁controlled	-4210
habilitation	-4211
▁neighbouring	-4212
ape	-4213
▁WC	-4214
hema	-4215
▁Mas	-4216
▁age	-4217
cript	-4218
llery	-4219
onses	-4220
▁1996	-4221
▁2000	-4222
▁Fair	-4223
tained	-4224
▁offer	-4225
▁Second	-4226
▁System	-4227
▁compon	-4228
▁stream	-4229
▁Tourism	-4230
▁fearful	-4231
▁managed	-4232
▁proceed	-4233
▁exchange	-4234
▁launched	-4235
▁detention	-4236
▁incidents	-4237
▁massively	-4238
IR	-4239
▁Ab	-4240
ging	-4241
▁sem	-4242
irmed	-4243
titud	-4244
▁sale	-4245
ducing	-4246
lessly	-4247
▁circu	-4248
▁incre	-4249
▁geared	-4250
▁driving	-4251
▁affected	-4252
▁expected	-4253
▁workforce	-4254
▁equivalent	-4255
▁passengers	-4256
▁Maputographics	-4257
jo	-4258
bed	-4259
loc	-4260
men	-4261
oms	-4262
rad	-4263
▁TB	-4264
esty	-4265
quor	-4266
▁Kha	-4267
▁fes	-4268
▁books	-4269
▁promin	-4270
▁circuit	-4271
▁contemp	-4272
▁practic	-4273
▁counsels	-4274
▁detected	-4275
▁enhanced	-4276
▁teaching	-4277
▁logistics	-4278
▁considered	-4279
▁incentives	-4280
▁negatively	-4281
▁circumstances	-4282
300	-4283
aka	-4284
▁29	-4285
▁DV	-4286
fire	-4287
ghti	-4288
lers	-4289
load	-4290
▁Clu	-4291
▁web	-4292
▁Even	-4293
▁disp	-4294
▁stop	-4295
illing	-4296
▁grief	-4297
▁seems	-4298
▁active	-4299
▁victim	-4300
▁looking	-4301
▁realised	-4302
▁separate	-4303
▁utilised	-4304
▁Municipal	-4305
▁emergency	-4306
▁impressive	-4307
▁anticipated	-4308
▁regulations	-4309
ama	-4310
ches	-4311
erve	-4312
iner	-4313
▁Che	-4314
▁Off	-4315
▁Sah	-4316
▁hyd	-4317
▁Pele	-4318
▁Rich	-4319
▁aims	-4320
▁town	-4321
▁paper	-4322
charges	-4323
develop	-4324
fontein	-4325
▁secure	-4326
▁sports	-4327
hematics	-4328
ritorial	-4329
▁Nigerian	-4330
▁achieved	-4331
▁conducted	-4332
▁maintained	-4333
▁statistics	-4334
▁experiences	-4335
▁individuals	-4336
▁contemplated	-4337
▁administrator	-4338
▁Communications	-4339
IO	-4340
ize	-4341
nes	-4342
urs	-4343
▁job	-4344
▁swe	-4345
▁tas	-4346
▁tru	-4347
anger	-4348
pping	-4349
▁bold	-4350
▁Batho	-4351
▁broad	-4352
▁joint	-4353
▁learn	-4354
▁multi	-4355
▁steps	-4356
▁Assist	-4357
▁Orange	-4358
▁proced	-4359
▁useful	-4360
▁winner	-4361
▁decided	-4362
▁embassy	-4363
▁tourist	-4364
▁mandated	-4365
▁practice	-4366
▁searched	-4367
▁transmit	-4368
▁harmonise	-4369
▁obstacles	-4370
▁continuous	-4371
▁transferred	-4372
▁interconnected	-4373
-1	-4374
ISA	-4375
ili	-4376
adic	-4377
ours	-4378
▁Bay	-4379
▁bro	-4380
▁tes	-4381
▁tre	-4382
adies	-4383
consu	-4384
ighti	-4385
ution	-4386
▁SARS	-4387
▁loss	-4388
▁walk	-4389
asters	-4390
▁Basel	-4391
▁Plant	-4392
▁deleg	-4393
▁funds	-4394
▁safeg	-4395
▁sight	-4396
ambling	-4397
▁Anyone	-4398
▁advise	-4399
▁prepar	-4400
▁weight	-4401
▁whites	-4402
otourism	-4403
▁borders	-4404
▁contact	-4405
▁doctors	-4406
▁meaning	-4407
▁response	-4408
▁inclusive	-4409
▁accurately	-4410
▁privileged	-4411
▁promenager	-4412
▁temporarily	-4413
▁representatives	-4414
nel	-4415
ony	-4416
pay	-4417
▁AZ	-4418
enue	-4419
▁May	-4420
▁OEC	-4421
▁enh	-4422
▁sol	-4423
ought	-4424
ounds	-4425
▁Anim	-4426
▁Biko	-4427
▁game	-4428
▁laws	-4429
▁stat	-4430
stones	-4431
▁Audit	-4432
▁hands	-4433
▁miles	-4434
related	-4435
▁danger	-4436
▁decide	-4437
▁object	-4438
▁recall	-4439
▁return	-4440
▁America	-4441
▁Produce	-4442
▁Quarter	-4443
▁applied	-4444
▁discuss	-4445
▁instead	-4446
▁related	-4447
▁Identify	-4448
▁customer	-4449
▁numerous	-4450
▁weakness	-4451
▁chemicals	-4452
▁retention	-4453
▁ecotourism	-4454
▁pertaining	-4455
▁youngsters	-4456
▁Effectively	-4457
▁Improvement	-4458
▁sponsorships	-4459
▁vigorousness	-4460
my	-4461
opo	-4462
war	-4463
▁Me	-4464
▁du	-4465
ison	-4466
itary	-4467
▁Care	-4468
▁IBSA	-4469
▁Soci	-4470
▁1997,	-4471
▁farms	-4472
▁girls	-4473
▁reach	-4474
keeping	-4475
▁Labour	-4476
▁Market	-4477
▁affects	-4478
▁clearly	-4479
▁complex	-4480
▁realise	-4481
▁cleaning	-4482
▁evolving	-4483
▁students	-4484
▁Othekwini	-4485
▁announced	-4486
▁uncertain	-4487
▁victority	-4488
▁Empowerment	-4489
▁maintaining	-4490
apitalisation	-4491
▁Applications	-4492
▁conservation	-4493
aria	-4494
enza	-4495
hole	-4496
▁Inc	-4497
▁clean	-4498
▁colle	-4499
▁lakes	-4500
▁white	-4501
atalyst	-4502
estrian	-4503
osition	-4504
▁budget	-4505
▁friend	-4506
▁robber	-4507
ervision	-4508
▁Foreign	-4509
▁Society	-4510
▁prioritised	-4511
▁recognising	-4512
▁statistical	-4513
▁variability	-4514
consufficiency	-4515
▁beneficiation	-4516
▁Ac	-4517
cked	-4518
▁Eff	-4519
▁Mat	-4520
icted	-4521
outes	-4522
stric	-4523
thier	-4524
▁Fail	-4525
▁Insp	-4526
▁Team	-4527
▁ecos	-4528
▁mean	-4529
action	-4530
coming	-4531
graphy	-4532
▁Intro	-4533
▁happy	-4534
▁parts	-4535
▁phone	-4536
▁purch	-4537
▁Indian	-4538
▁beings	-4539
▁Richard	-4540
▁Techner	-4541
▁bridges	-4542
▁fishing	-4543
▁ceasefire	-4544
▁ecosystem	-4545
▁exclusion	-4546
▁Technology	-4547
▁realization	-4548
▁transmitted	-4549
▁Technologies	-4550
▁cornerstones	-4551
LS	-4552
irl	-4553
▁My	-4554
▁Ng	-4555
▁Com	-4556
▁Fin	-4557
asson	-4558
▁adop	-4559
▁amaz	-4560
jected	-4561
▁Never	-4562
▁stair	-4563
▁Basson	-4564
▁Molapo	-4565
▁crimes	-4566
▁Failure	-4567
▁council	-4568
▁promise	-4569
▁reached	-4570
▁resolve	-4571
calledged	-4572
▁Question	-4573
▁gambling	-4574
▁intended	-4575
▁received	-4576
▁Political	-4577
▁Strategic	-4578
▁dangerous	-4579
▁detective	-4580
▁conducting	-4581
▁ecosystems	-4582
▁Commissioner	-4583
▁Introduction	-4584
▁historically	-4585
REA	-4586
uge	-4587
▁25	-4588
▁AU	-4589
ests	-4590
illa	-4591
oses	-4592
utes	-4593
▁Due	-4594
▁Pan	-4595
▁dou	-4596
▁mal	-4597
▁sen	-4598
light	-4599
mines	-4600
▁Siya	-4601
▁half	-4602
guards	-4603
oodley	-4604
▁First	-4605
▁Thank	-4606
▁causes	-4607
▁landsc	-4608
▁street	-4609
▁Factors	-4610
▁Maitder	-4611
▁sitting	-4612
▁storage	-4613
▁victims	-4614
▁Southern	-4615
▁examples	-4616
▁remember	-4617
▁repairing	-4618
▁satisfied	-4619
▁suspended	-4620
▁Convention	-4621
▁collective	-4622
▁harvesters	-4623
▁undertaken	-4624
▁territorial	-4625
▁arrangements	-4626
▁legislatures	-4627
MA	-4628
SC	-4629
ball	-4630
bule	-4631
sequ	-4632
employ	-4633
isters	-4634
▁Small	-4635
▁Third	-4636
▁boost	-4637
▁doesn	-4638
▁pleas	-4639
ulatory	-4640
▁crowds	-4641
▁duties	-4642
▁negoti	-4643
▁turned	-4644
▁unable	-4645
▁consequ	-4646
▁commonly	-4647
▁congested	-4648
▁databases	-4649
▁framework	-4650
▁Benchmarks	-4651
▁instrument	-4652
▁stormwater	-4653
▁composition	-4654
▁generations	-4655
▁integration	-4656
▁partnerships	-4657
itis	-4658
ivil	-4659
▁Jac	-4660
▁Sin	-4661
▁lab	-4662
cians	-4663
otion	-4664
▁Cong	-4665
▁Stop	-4666
lation	-4667
▁China	-4668
▁names	-4669
bearers	-4670
grounds	-4671
▁Excell	-4672
▁condol	-4673
▁organs	-4674
▁retail	-4675
▁vacant	-4676
▁centres	-4677
▁conglog	-4678
▁guiding	-4679
▁Criminal	-4680
▁Judicial	-4681
▁excluded	-4682
▁personal	-4683
▁pleasure	-4684
▁Technikon	-4685
▁assessing	-4686
▁objective	-4687
▁precluded	-4688
▁determined	-4689
▁protection	-4690
▁utilisation	-4691
▁Employeeeeeeee	-4692
bo	-4693
acu	-4694
ewe	-4695
ned	-4696
yto	-4697
▁Sc	-4698
Zulu	-4699
enew	-4700
reen	-4701
▁Eng	-4702
▁Ikh	-4703
▁rap	-4704
astic	-4705
eding	-4706
erely	-4707
lakal	-4708
organ	-4709
▁1993	-4710
▁Each	-4711
▁Sier	-4712
▁bank	-4713
iction	-4714
▁black	-4715
▁attend	-4716
▁ladies	-4717
▁unfair	-4718
▁experts	-4719
▁focused	-4720
▁increase	-4721
▁majority	-4722
▁matlakal	-4723
▁meetings	-4724
▁apologise	-4725
▁exercised	-4726
▁faecalled	-4727
▁introduce	-4728
▁prominent	-4729
▁regulated	-4730
▁afterwards	-4731
▁productive	-4732
▁Facilitates	-4733
▁condolences	-4734
▁contributed	-4735
▁institution	-4736
▁undertaking	-4737
▁constructively	-4738
19	-4739
pr	-4740
aps	-4741
ark	-4742
▁Es	-4743
▁Li	-4744
ctor	-4745
fill	-4746
mbul	-4747
more	-4748
▁Cla	-4749
▁Spe	-4750
▁mix	-4751
▁top	-4752
oting	-4753
▁Down	-4754
▁Post	-4755
▁Kuils	-4756
▁swear	-4757
▁trank	-4758
▁uncon	-4759
▁Immedi	-4760
▁Sahara	-4761
▁abroad	-4762
▁convey	-4763
▁events	-4764
▁taxpay	-4765
stricken	-4766
▁Reserve	-4767
▁intensi	-4768
▁located	-4769
▁incident	-4770
▁landfill	-4771
▁preclupt	-4772
▁purposes	-4773
▁Depending	-4774
▁delegates	-4775
▁frequency	-4776
▁gentlemen	-4777
▁pollution	-4778
▁residents	-4779
▁historical	-4780
▁literature	-4781
da	-4782
oo	-4783
lec	-4784
ria	-4785
san	-4786
sia	-4787
val	-4788
bels	-4789
hoto	-4790
pped	-4791
▁Ins	-4792
▁Met	-4793
▁lar	-4794
ghter	-4795
▁ABSA	-4796
▁rate	-4797
▁reli	-4798
▁sinc	-4799
▁soil	-4800
▁Their	-4801
▁along	-4802
▁evacu	-4803
▁roads	-4804
▁table	-4805
ishment	-4806
▁Online	-4807
▁Resour	-4808
▁killed	-4809
▁occurs	-4810
mbulance	-4811
sectoral	-4812
▁Petrole	-4813
▁Working	-4814
▁congrug	-4815
▁growing	-4816
▁organiz	-4817
▁Download	-4818
▁analyses	-4819
▁creating	-4820
▁exercise	-4821
▁operated	-4822
▁personnel	-4823
▁standards	-4824
▁influenary	-4825
▁operatives	-4826
▁distinction	-4827
▁performances	-4828
▁demonstration	-4829
BC	-4830
ED	-4831
MS	-4832
Sa	-4833
ha	-4834
▁.	-4835
ids	-4836
▁IR	-4837
grad	-4838
rive	-4839
▁Lia	-4840
▁sun	-4841
▁Oath	-4842
▁awar	-4843
▁elim	-4844
forced	-4845
▁Joint	-4846
▁beach	-4847
▁excpt	-4848
▁hours	-4849
▁Animal	-4850
▁compli	-4851
▁export	-4852
▁houses	-4853
▁medium	-4854
▁racial	-4855
▁routes	-4856
▁voters	-4857
▁airport	-4858
▁defined	-4859
▁disease	-4860
▁married	-4861
▁Chemical	-4862
▁counsell	-4863
▁awareness	-4864
▁disorders	-4865
▁recovered	-4866
▁sincerely	-4867
▁commitment	-4868
▁particulars	-4869
▁harmfulnessing	-4870
▁indistinctness	-4871
1,	-4872
1.	-4873
1)(	-4874
ray	-4875
▁AT	-4876
most	-4877
wood	-4878
acter	-4879
inary	-4880
ulate	-4881
▁Dist	-4882
▁elig	-4883
▁miti	-4884
mbassy	-4885
olding	-4886
ulated	-4887
▁impro	-4888
▁shown	-4889
▁Indeed	-4890
▁attrac	-4891
▁eradic	-4892
▁fulfil	-4893
▁laptop	-4894
▁lawful	-4895
▁soccer	-4896
▁congrat	-4897
▁nothing	-4898
▁remains	-4899
▁univers	-4900
▁chairman	-4901
▁faithful	-4902
▁Ombulance	-4903
▁acknowled	-4904
▁appointed	-4905
▁marketing	-4906
▁residence	-4907
▁subjected	-4908
▁Discharges	-4909
▁undertakes	-4910
▁incompetent	-4911
▁neighbourhoods	-4912
9.	-4913
IA	-4914
af	-4915
cy	-4916
rip	-4917
▁Na	-4918
▁Nt	-4919
ades	-4920
auti	-4921
foot	-4922
▁Sto	-4923
▁West	-4924
▁jewe	-4925
▁Amend	-4926
▁Asset	-4927
▁Prize	-4928
▁civil	-4929
▁earth	-4930
▁fuels	-4931
▁metro	-4932
▁telec	-4933
▁Integr	-4934
▁branch	-4935
▁cancer	-4936
▁excell	-4937
▁created	-4938
▁freight	-4939
▁letters	-4940
▁monthly	-4941
ronically	-4942
▁creation	-4943
▁district	-4944
▁equality	-4945
▁expensive	-4946
▁gathering	-4947
▁scenarios	-4948
▁electorate	-4949
▁influences	-4950
▁citizenship	-4951
▁newsletters	-4952
ko	-4953
PAD	-4954
bil	-4955
ker	-4956
lls	-4957
thu	-4958
▁Fe	-4959
▁sy	-4960
▁Sal	-4961
▁ame	-4962
▁ban	-4963
▁sim	-4964
month	-4965
▁Bure	-4966
▁Priv	-4967
▁acut	-4968
▁semi	-4969
cripts	-4970
icious	-4971
▁NEPAD	-4972
▁Plans	-4973
▁flood	-4974
▁renew	-4975
▁scaff	-4976
▁stage	-4977
▁veget	-4978
▁Commun	-4979
▁Intell	-4980
▁Search	-4981
▁Spirit	-4982
▁andary	-4983
▁beauti	-4984
▁former	-4985
▁govern	-4986
▁modern	-4987
▁opened	-4988
▁yester	-4989
▁amazing	-4990
▁changed	-4991
▁colleag	-4992
▁enhance	-4993
▁funding	-4994
▁however	-4995
▁partner	-4996
▁quicker	-4997
▁Computer	-4998
▁Johannes	-4999
▁designed	-5000
▁friendly	-5001
▁peaceful	-5002
▁acuteness	-5003
▁groundbre	-5004
▁inflation	-5005
▁intensify	-5006
▁involving	-5007
▁preceding	-5008
▁stairways	-5009
▁customised	-5010
▁settlement	-5011
▁throughout	-5012
▁Covertising	-5013
▁Intelligence	-5014
▁cooperatives	-5015
▁investigated	-5016
▁participants	-5017
▁safeguensive	-5018
▁professionalism	-5019
ns	-5020
ILS	-5021
bel	-5022
bon	-5023
gue	-5024
lam	-5025
▁ID	-5026
▁PA	-5027
▁kg	-5028
▁tw	-5029
ille	-5030
ipei	-5031
uite	-5032
▁bar	-5033
▁pil	-5034
▁rev	-5035
▁too	-5036
essel	-5037
iting	-5038
start	-5039
urers	-5040
▁Head	-5041
▁Areas	-5042
▁entre	-5043
▁photo	-5044
▁radio	-5045
▁shows	-5046
▁whole	-5047
▁Associ	-5048
▁Maitzi	-5049
▁conver	-5050
▁define	-5051
▁extend	-5052
▁legend	-5053
▁Thirdly	-5054
▁buffers	-5055
▁entered	-5056
▁ongoing	-5057
▁operate	-5058
▁treated	-5059
▁airports	-5060
▁safeguar	-5061
▁committed	-5062
▁confident	-5063
▁instances	-5064
▁jewellery	-5065
▁submitted	-5066
▁Agreements	-5067
▁Zimbabwean	-5068
▁associated	-5069
▁incomplete	-5070
▁mitigation	-5071
ommunication	-5072
▁specialised	-5073
▁Johannesburg	-5074
▁conglogation	-5075
▁entrepreneur	-5076
▁independence	-5077
IN	-5078
hu	-5079
hla	-5080
▁Ge	-5081
acks	-5082
comp	-5083
ilar	-5084
raft	-5085
▁Ope	-5086
▁Hope	-5087
▁Isra	-5088
▁conv	-5089
▁decl	-5090
▁remo	-5091
gaight	-5092
▁deriv	-5093
▁heads	-5094
▁match	-5095
▁votes	-5096
ootball	-5097
▁Tshepo	-5098
▁extent	-5099
▁refuge	-5100
▁Station	-5101
▁Subject	-5102
▁parking	-5103
▁plastic	-5104
▁District	-5105
▁indirect	-5106
▁Agreement	-5107
▁Amendment	-5108
▁amegaight	-5109
▁yesterday	-5110
▁approaches	-5111
▁harnessing	-5112
▁procedures	-5113
▁properties	-5114
▁provisions	-5115
▁quotations	-5116
▁structures	-5117
▁Communities	-5118
▁Benchmarking	-5119
▁relationship	-5120
▁strengthening	-5121
26	-5122
50	-5123
90	-5124
VI	-5125
▁0	-5126
enn	-5127
▁AB	-5128
▁Ed	-5129
▁US	-5130
aker	-5131
ogue	-5132
vene	-5133
▁loc	-5134
celer	-5135
class	-5136
hlets	-5137
▁conn	-5138
▁task	-5139
titute	-5140
▁depos	-5141
▁looks	-5142
▁memor	-5143
▁mobil	-5144
▁whose	-5145
centred	-5146
ivision	-5147
▁detain	-5148
▁pursue	-5149
▁raised	-5150
atalysts	-5151
sanitary	-5152
▁Captain	-5153
▁acceler	-5154
fications	-5155
▁Election	-5156
▁concerns	-5157
▁corridor	-5158
▁taxpayer	-5159
▁unfairly	-5160
▁unfortun	-5161
▁authority	-5162
▁beginning	-5163
▁clearance	-5164
▁excellent	-5165
▁harvested	-5166
▁intention	-5167
▁legendary	-5168
appropriate	-5169
▁meaningful	-5170
▁travelling	-5171
▁Association	-5172
▁financially	-5173
▁consequences	-5174
▁recreational	-5175
▁rehabilitation	-5176
PO	-5177
▁x	-5178
MEs	-5179
ani	-5180
wer	-5181
yal	-5182
▁Sy	-5183
▁ey	-5184
aran	-5185
▁Ten	-5186
▁bod	-5187
▁bre	-5188
inner	-5189
itors	-5190
owers	-5191
rison	-5192
▁pack	-5193
around	-5194
hodist	-5195
respon	-5196
ressed	-5197
▁Award	-5198
▁Oside	-5199
▁asset	-5200
▁buypt	-5201
▁choir	-5202
▁relig	-5203
▁share	-5204
▁tried	-5205
▁venue	-5206
ialogue	-5207
pective	-5208
ultural	-5209
▁Arabic	-5210
▁apture	-5211
▁termin	-5212
ilateral	-5213
▁Quartbe	-5214
▁calling	-5215
▁electri	-5216
▁inciner	-5217
▁advisory	-5218
▁followed	-5219
▁instruct	-5220
▁Corporate	-5221
▁acquiring	-5222
▁highlight	-5223
▁interview	-5224
▁regularly	-5225
▁assessment	-5226
▁commercial	-5227
▁exclusions	-5228
▁indirectly	-5229
▁infections	-5230
▁Legislature	-5231
▁association	-5232
▁safegulatory	-5233
▁transforming	-5234
roc	-5235
▁Um	-5236
gate	-5237
▁Sch	-5238
▁She	-5239
▁era	-5240
inese	-5241
oring	-5242
▁Host	-5243
▁WCED	-5244
▁kick	-5245
▁urge	-5246
idency	-5247
▁Brian	-5248
▁Clair	-5249
▁Corre	-5250
▁Malaw	-5251
▁Since	-5252
▁again	-5253
▁embra	-5254
▁gates	-5255
▁mirls	-5256
▁Office	-5257
▁vision	-5258
engineer	-5259
ointment	-5260
▁Chinese	-5261
▁Firstly	-5262
▁Liaison	-5263
▁claimed	-5264
▁erected	-5265
▁festive	-5266
▁pillars	-5267
▁robbery	-5268
▁selling	-5269
▁surface	-5270
abilities	-5271
▁compared	-5272
▁resulted	-5273
▁Interface	-5274
▁bilateral	-5275
▁eradicate	-5276
▁extensive	-5277
▁temporary	-5278
▁Developing	-5279
▁concerning	-5280
▁confidence	-5281
▁internship	-5282
▁preventing	-5283
▁respective	-5284
▁alternatives	-5285
▁celebrations	-5286
"""	-5287
hol	-5288
lum	-5289
▁La	-5290
▁Us	-5291
kers	-5292
▁500	-5293
▁Mon	-5294
▁imm	-5295
apter	-5296
istic	-5297
ridge	-5298
▁Form	-5299
▁SADC	-5300
▁Supp	-5301
▁idea	-5302
▁item	-5303
▁Beach	-5304
▁Catch	-5305
▁Swart	-5306
▁blood	-5307
▁large	-5308
▁pharm	-5309
▁print	-5310
estyles	-5311
ributed	-5312
▁launch	-5313
▁politi	-5314
▁recomm	-5315
ordinary	-5316
▁Further	-5317
▁subsidy	-5318
▁afforded	-5319
▁database	-5320
▁explored	-5321
▁reminded	-5322
▁teachers	-5323
▁Financial	-5324
▁accidents	-5325
▁intensive	-5326
▁nutrition	-5327
▁Presidency	-5328
▁suspicious	-5329
▁Facilitator	-5330
▁engineering	-5331
▁perspective	-5332
▁valuability	-5333
▁Construction	-5334
▁appreciation	-5335
▁intelligence	-5336
▁practitioners	-5337
▁qualifications	-5338
59	-5339
LA	-5340
eep	-5341
hob	-5342
oko	-5343
set	-5344
▁23	-5345
▁38	-5346
cted	-5347
▁Bra	-5348
▁Cer	-5349
▁Dec	-5350
▁Mod	-5351
▁Mos	-5352
▁Per	-5353
▁che	-5354
▁dam	-5355
▁por	-5356
brate	-5357
▁1994	-5358
▁Rail	-5359
▁fall	-5360
▁sent	-5361
▁sugg	-5362
astern	-5363
lative	-5364
ograph	-5365
utical	-5366
▁Apply	-5367
▁Mayor	-5368
▁Minim	-5369
▁Three	-5370
▁Would	-5371
reasury	-5372
▁Agenda	-5373
▁Season	-5374
▁aparty	-5375
▁living	-5376
▁runner	-5377
cription	-5378
▁Conduct	-5379
▁quickly	-5380
▁streets	-5381
▁Advisory	-5382
▁advising	-5383
▁founders	-5384
▁harmness	-5385
▁literary	-5386
▁regulate	-5387
▁Marketing	-5388
▁addressed	-5389
▁beautiful	-5390
▁character	-5391
▁implicate	-5392
▁satisfact	-5393
development	-5394
partnership	-5395
▁attractive	-5396
▁discussion	-5397
▁lifeguards	-5398
▁principals	-5399
▁safegument	-5400
▁suggesting	-5401
▁suggestion	-5402
governmental	-5403
▁acknowledge	-5404
▁counsellors	-5405
▁foundations	-5406
▁highlighted	-5407
▁participate	-5408
▁contributing	-5409
aud	-5410
ese	-5411
ham	-5412
hot	-5413
kei	-5414
ums	-5415
▁Gu	-5416
ffer	-5417
fron	-5418
lope	-5419
▁24-	-5420
▁Can	-5421
▁Coc	-5422
▁Key	-5423
▁Back	-5424
▁Club	-5425
▁High	-5426
▁then	-5427
ansion	-5428
enberg	-5429
▁2002,	-5430
▁Metro	-5431
▁apart	-5432
▁colon	-5433
▁helps	-5434
▁ideas	-5435
▁phyto	-5436
▁bottle	-5437
▁discri	-5438
▁easier	-5439
▁fields	-5440
▁listed	-5441
▁spread	-5442
▁status	-5443
fficient	-5444
particip	-5445
thcoming	-5446
▁Account	-5447
▁Worders	-5448
▁contrad	-5449
▁gangway	-5450
▁legally	-5451
▁soldier	-5452
▁piloting	-5453
▁purchase	-5454
▁quarters	-5455
▁reducing	-5456
▁suppress	-5457
▁Emergency	-5458
▁celebrate	-5459
▁expansion	-5460
▁initiated	-5461
▁presently	-5462
▁Integrated	-5463
▁acceptance	-5464
▁frequently	-5465
▁turnaround	-5466
▁perceptions	-5467
▁mainstreamed	-5468
▁Capitalisation	-5469
RA	-5470
ana	-5471
tal	-5472
eter	-5473
sure	-5474
▁Bal	-5475
▁Est	-5476
▁ISS	-5477
▁Nel	-5478
▁Oct	-5479
▁RSA	-5480
▁Tod	-5481
▁bat	-5482
dults	-5483
erset	-5484
inger	-5485
ville	-5486
▁Simp	-5487
▁near	-5488
establ	-5489
icians	-5490
▁faced	-5491
▁inade	-5492
▁light	-5493
▁resil	-5494
▁speed	-5495
▁total	-5496
▁Common	-5497
▁Malawi	-5498
▁Quaran	-5499
▁Review	-5500
▁Supply	-5501
▁bodies	-5502
▁giving	-5503
▁peoples	-5504
▁portion	-5505
aceutical	-5506
▁chemical	-5507
▁election	-5508
▁messages	-5509
▁movement	-5510
▁sporting	-5511
▁telephon	-5512
▁Institute	-5513
▁finalised	-5514
▁harmonses	-5515
▁landmines	-5516
▁presented	-5517
▁Operations	-5518
▁components	-5519
▁inadequate	-5520
▁inspection	-5521
▁resilience	-5522
▁supplement	-5523
▁discussions	-5524
▁Minimisation	-5525
▁congrugation	-5526
▁distribution	-5527
▁incinerators	-5528
▁communication	-5529
▁pharmaceutical	-5530
DF	-5531
fo	-5532
irt	-5533
lig	-5534
olu	-5535
▁78	-5536
▁Ny	-5537
▁tl	-5538
ands	-5539
lors	-5540
nels	-5541
yser	-5542
▁Ell	-5543
▁Out	-5544
▁Rev	-5545
▁Win	-5546
▁den	-5547
▁Ward	-5548
▁Well	-5549
▁Wesg	-5550
▁2008,	-5551
▁Panel	-5552
▁bound	-5553
▁rapid	-5554
▁reaff	-5555
▁swept	-5556
thening	-5557
▁Mapome	-5558
▁Report	-5559
▁Spring	-5560
▁across	-5561
▁driver	-5562
▁really	-5563
▁states	-5564
▁Moodley	-5565
▁deposit	-5566
▁payment	-5567
▁Congress	-5568
▁Cultural	-5569
▁Provided	-5570
▁Somerset	-5571
▁concepts	-5572
▁dialogue	-5573
▁operator	-5574
▁produced	-5575
▁Apartheid	-5576
▁buffeters	-5577
▁correspon	-5578
▁organised	-5579
▁performed	-5580
▁commission	-5581
▁Mathematics	-5582
▁Zimbabweans	-5583
▁announcement	-5584
600	-5585
cts	-5586
nie	-5587
ula	-5588
uti	-5589
omin	-5590
ycot	-5591
▁Whe	-5592
▁gre	-5593
▁mil	-5594
▁uni	-5595
▁xen	-5596
akers	-5597
estry	-5598
letes	-5599
▁Jaco	-5600
▁trip	-5601
arante	-5602
bulela	-5603
erness	-5604
uesday	-5605
▁Advoc	-5606
▁Basic	-5607
▁Cross	-5608
▁homes	-5609
▁patro	-5610
▁seats	-5611
▁soles	-5612
▁throw	-5613
▁vacan	-5614
▁Doctor	-5615
▁charge	-5616
▁entail	-5617
▁little	-5618
formance	-5619
▁Effects	-5620
▁Stadium	-5621
▁attitud	-5622
▁empower	-5623
▁initial	-5624
▁refuses	-5625
▁streams	-5626
▁thereof	-5627
apartheid	-5628
▁detailed	-5629
▁guarante	-5630
▁normally	-5631
▁undermin	-5632
▁unemploy	-5633
▁Mapenager	-5634
▁evacuated	-5635
▁fatalysts	-5636
▁medicines	-5637
▁prevented	-5638
▁providers	-5639
▁Employeees	-5640
▁Performance	-5641
▁transformed	-5642
▁negotiations	-5643
IC	-5644
700	-5645
hos	-5646
kom	-5647
sex	-5648
▁Er	-5649
▁IP	-5650
▁es	-5651
▁ru	-5652
bran	-5653
cles	-5654
comm	-5655
olar	-5656
osed	-5657
prof	-5658
ques	-5659
ugby	-5660
urch	-5661
▁Ram	-5662
▁pas	-5663
acies	-5664
aping	-5665
ening	-5666
erves	-5667
imate	-5668
itles	-5669
ously	-5670
rench	-5671
▁1990	-5672
▁Febr	-5673
▁Mill	-5674
▁Mine	-5675
▁mill	-5676
▁trop	-5677
riment	-5678
▁Ellis	-5679
▁north	-5680
▁sense	-5681
▁space	-5682
▁Establ	-5683
▁baruti	-5684
▁boycot	-5685
▁intend	-5686
▁metros	-5687
▁pollut	-5688
▁showed	-5689
▁Phillip	-5690
▁Provide	-5691
▁healthy	-5692
▁helpful	-5693
▁walking	-5694
▁Division	-5695
▁February	-5696
▁Quarters	-5697
▁attended	-5698
▁currency	-5699
▁eligible	-5700
▁occupied	-5701
ppropriate	-5702
▁capturers	-5703
▁enjoyment	-5704
▁expedited	-5705
▁formation	-5706
crimination	-5707
▁Quotations	-5708
▁agreements	-5709
▁confronted	-5710
▁instructor	-5711
▁sufficient	-5712
▁supporting	-5713
▁Learnership	-5714
▁groundwater	-5715
▁Registration	-5716
▁satisfactory	-5717
▁universities	-5718
▁accountability	-5719
22	-5720
IP	-5721
ux	-5722
bor	-5723
iry	-5724
law	-5725
zet	-5726
zil	-5727
▁(7	-5728
▁CC	-5729
▁CK	-5730
▁MP	-5731
aans	-5732
arti	-5733
zizi	-5734
▁Car	-5735
▁Mbu	-5736
▁Ste	-5737
▁len	-5738
▁mir	-5739
anced	-5740
atern	-5741
enior	-5742
riots	-5743
thest	-5744
▁Aids	-5745
▁Main	-5746
▁Once	-5747
▁emer	-5748
▁mist	-5749
▁trib	-5750
iaries	-5751
profit	-5752
▁Exper	-5753
▁Today	-5754
▁advis	-5755
▁banks	-5756
▁board	-5757
▁leave	-5758
▁passw	-5759
ingerpr	-5760
▁Angthy	-5761
▁Bureau	-5762
▁Philli	-5763
▁disapp	-5764
▁editor	-5765
▁equity	-5766
▁higher	-5767
▁lights	-5768
▁sexism	-5769
▁vibran	-5770
▁Masters	-5771
▁capital	-5772
▁charged	-5773
▁headway	-5774
▁optimal	-5775
omination	-5776
ributions	-5777
▁Advocate	-5778
▁activity	-5779
▁fingerpr	-5780
▁harderly	-5781
▁harmonth	-5782
▁implicit	-5783
▁legacies	-5784
▁millions	-5785
▁powerful	-5786
▁resident	-5787
tification	-5788
▁Afrikaans	-5789
▁Athekwini	-5790
▁attitudes	-5791
▁Holderness	-5792
▁designated	-5793
▁observance	-5794
▁achievement	-5795
▁Legislatures	-5796
▁communicated	-5797
▁contradiction	-5798
▁contributions	-5799
ps	-5800
va	-5801
hon	-5802
yna	-5803
▁AP	-5804
▁Bi	-5805
▁Ik	-5806
eder	-5807
tail	-5808
ylum	-5809
▁Col	-5810
▁Log	-5811
▁MEC	-5812
▁PSC	-5813
▁Pau	-5814
▁jud	-5815
▁sal	-5816
adier	-5817
atial	-5818
beare	-5819
eries	-5820
level	-5821
▁meat	-5822
▁prem	-5823
▁spok	-5824
▁unit	-5825
▁wind	-5826
illars	-5827
istics	-5828
nology	-5829
rement	-5830
▁Broad	-5831
▁Elect	-5832
▁Heads	-5833
▁India	-5834
▁Judge	-5835
▁Stock	-5836
▁cause	-5837
▁model	-5838
▁pages	-5839
▁sound	-5840
▁third	-5841
inition	-5842
ritical	-5843
viation	-5844
▁Awards	-5845
▁Govern	-5846
▁Nation	-5847
▁Titles	-5848
▁Wesgro	-5849
▁butter	-5850
▁faecal	-5851
▁fought	-5852
▁lenyal	-5853
▁liquor	-5854
▁precin	-5855
▁stayed	-5856
▁temper	-5857
▁Chapter	-5858
▁Mapight	-5859
▁Product	-5860
▁afterno	-5861
▁attacks	-5862
▁curtail	-5863
▁install	-5864
▁Internet	-5865
▁Research	-5866
▁bottlene	-5867
▁linkages	-5868
▁passport	-5869
▁promoted	-5870
▁scarcity	-5871
▁sexually	-5872
▁Clairwood	-5873
▁Framework	-5874
▁hardering	-5875
▁proactive	-5876
▁townships	-5877
▁definition	-5878
▁difficulty	-5879
▁pollutants	-5880
▁precinctly	-5881
▁vegetation	-5882
▁Corporation	-5883
▁description	-5884
▁scaffolding	-5885
▁Entrepreneurs	-5886
▁entertainment	-5887
▁phytosanitary	-5888
hy	-5889
ews	-5890
iba	-5891
inc	-5892
ins	-5893
rea	-5894
▁76	-5895
▁Du	-5896
▁EP	-5897
▁Ra	-5898
▁tr	-5899
baba	-5900
enec	-5901
ient	-5902
irms	-5903
time	-5904
▁IEC	-5905
▁NEC	-5906
▁fra	-5907
buhle	-5908
hobia	-5909
ially	-5910
ptics	-5911
shore	-5912
toria	-5913
▁Gate	-5914
▁Good	-5915
▁Mole	-5916
▁Naid	-5917
▁Opel	-5918
▁Over	-5919
▁SABC	-5920
▁Year	-5921
▁boys	-5922
▁dign	-5923
cience	-5924
▁later	-5925
▁pursu	-5926
▁truth	-5927
located	-5928
▁Liquor	-5929
▁dispos	-5930
▁meters	-5931
▁places	-5932
▁recent	-5933
▁seeker	-5934
▁Capital	-5935
▁Support	-5936
▁appears	-5937
▁comment	-5938
▁convene	-5939
▁minutes	-5940
▁persist	-5941
▁thanked	-5942
▁usually	-5943
▁Employee	-5944
▁Products	-5945
▁conclude	-5946
▁firearms	-5947
▁humanity	-5948
▁reported	-5949
ologically	-5950
▁Assistant	-5951
▁attempted	-5952
▁condition	-5953
▁convicted	-5954
▁detriment	-5955
▁literally	-5956
▁religious	-5957
▁victories	-5958
▁correspond	-5959
▁insulating	-5960
▁usefulness	-5961
▁Corrections	-5962
▁backgrounds	-5963
▁correctness	-5964
▁improvement	-5965
▁measurement	-5966
▁represented	-5967
▁turningside	-5968
▁uncertainty	-5969
▁incapacitate	-5970
▁significantly	-5971
▁acknowledgement	-5972
HA	-5973
ek	-5974
ago	-5975
exp	-5976
▁OP	-5977
▁Ob	-5978
▁bl	-5979
▁kw	-5980
ames	-5981
eded	-5982
ober	-5983
omed	-5984
rupt	-5985
▁600	-5986
▁EIA	-5987
▁End	-5988
▁cam	-5989
▁lea	-5990
▁sup	-5991
abled	-5992
ander	-5993
andum	-5994
arity	-5995
chair	-5996
cohol	-5997
front	-5998
lands	-5999
phone	-6000
▁Asia	-6001
▁Look	-6002
▁Oway	-6003
▁Prix	-6004
▁quan	-6005
▁Black	-6006
▁Nobel	-6007
▁adver	-6008
▁quote	-6009
▁south	-6010
ecurity	-6011
▁arrest	-6012
▁asylum	-6013
▁excuse	-6014
▁making	-6015
▁refuse	-6016
▁tribun	-6017
▁vessel	-6018
▁window	-6019
thurning	-6020
▁Gateway	-6021
▁Mineral	-6022
▁Offices	-6023
▁Village	-6024
▁alcohol	-6025
▁possess	-6026
▁serious	-6027
▁testing	-6028
▁analysed	-6029
▁bringing	-6030
▁colonial	-6031
▁entirety	-6032
▁examined	-6033
▁instance	-6034
▁obtained	-6035
▁policies	-6036
▁Attention	-6037
▁inclusion	-6038
▁materials	-6039
▁testified	-6040
▁Facilities	-6041
▁Increasing	-6042
▁inspectors	-6043
▁alleviation	-6044
▁collections	-6045
▁facilitates	-6046
▁learnership	-6047
▁requirement	-6048
▁respondents	-6049
▁acknowledged	-6050
▁capabilities	-6051
▁inconvenence	-6052
▁organizations	-6053
▁investigations	-6054
▁sustainability	-6055
ki	-6056
AEA	-6057
fod	-6058
los	-6059
ume	-6060
▁il	-6061
case	-6062
ides	-6063
olid	-6064
tier	-6065
▁Ape	-6066
▁Bac	-6067
▁Eli	-6068
▁Mit	-6069
▁Not	-6070
▁Siy	-6071
ishes	-6072
▁2004	-6073
▁Symp	-6074
▁cash	-6075
▁comb	-6076
▁outc	-6077
▁told	-6078
▁wage	-6079
graphs	-6080
irates	-6081
ittees	-6082
placed	-6083
titude	-6084
▁Plain	-6085
▁illeg	-6086
▁index	-6087
▁urges	-6088
▁xenop	-6089
▁Street	-6090
▁Tenner	-6091
▁border	-6092
▁curric	-6093
▁engine	-6094
▁images	-6095
▁multil	-6096
▁shared	-6097
distance	-6098
idential	-6099
▁Justice	-6100
▁Traffic	-6101
▁Without	-6102
▁markets	-6103
▁Planning	-6104
▁Training	-6105
▁Transkei	-6106
▁believes	-6107
▁interact	-6108
▁location	-6109
▁organise	-6110
▁Petroleum	-6111
▁bottlenec	-6112
▁discussed	-6113
▁precising	-6114
▁Quarantine	-6115
▁benchmarks	-6116
▁difference	-6117
▁engagement	-6118
▁industries	-6119
▁reasonably	-6120
▁Operational	-6121
▁photographs	-6122
▁preventable	-6123
▁congratulate	-6124
▁installation	-6125
▁Comprehensive	-6126
▁inconveniences	-6127
▁reconstruction	-6128
▁understandably	-6129
9,	-6130
OO	-6131
aN	-6132
bt	-6133
999	-6134
idi	-6135
ief	-6136
mel	-6137
▁EC	-6138
▁IT	-6139
AIDS	-6140
ales	-6141
bric	-6142
eees	-6143
rary	-6144
size	-6145
uven	-6146
▁Kar	-6147
▁sav	-6148
ensed	-6149
▁Aust	-6150
▁Clin	-6151
▁Four	-6152
▁Port	-6153
▁cold	-6154
▁lost	-6155
▁ment	-6156
▁rank	-6157
ennium	-6158
orient	-6159
strate	-6160
tility	-6161
▁Eskom	-6162
▁cable	-6163
▁oblig	-6164
▁unlaw	-6165
eastern	-6166
▁Doring	-6167
▁Techni	-6168
▁double	-6169
▁immedi	-6170
▁resolu	-6171
▁senior	-6172
▁series	-6173
▁survey	-6174
▁treaty	-6175
ghtighti	-6176
▁becomes	-6177
▁capable	-6178
▁creates	-6179
▁dispose	-6180
▁elected	-6181
▁ensuite	-6182
▁imparti	-6183
▁student	-6184
▁vacancy	-6185
catchment	-6186
renchment	-6187
▁advanced	-6188
▁collabor	-6189
▁contacts	-6190
▁distinct	-6191
▁prepared	-6192
▁prompted	-6193
▁reliable	-6194
▁tribunal	-6195
▁visitors	-6196
raordinary	-6197
▁Methodist	-6198
▁Resources	-6199
▁component	-6200
▁converted	-6201
▁expanding	-6202
▁suggested	-6203
▁trankness	-6204
▁typically	-6205
▁Electronic	-6206
▁Excellency	-6207
▁beachfront	-6208
▁boundaries	-6209
▁counseline	-6210
▁fulfilling	-6211
▁Immediately	-6212
▁demonstrate	-6213
▁encouraging	-6214
▁broadcasting	-6215
▁examinations	-6216
▁multilateral	-6217
▁Organisations	-6218
▁groundbreaking	-6219
▁electrification	-6220
29	-6221
TS	-6222
cs	-6223
ada	-6224
ops	-6225
orn	-6226
uru	-6227
▁65	-6228
Zuma	-6229
ador	-6230
cill	-6231
cost	-6232
hore	-6233
lief	-6234
outs	-6235
sing	-6236
swer	-6237
▁229	-6238
▁Abb	-6239
▁IDP	-6240
▁Mbe	-6241
▁Wou	-6242
▁ped	-6243
aging	-6244
build	-6245
ikeng	-6246
iture	-6247
▁Free	-6248
▁Thab	-6249
▁fore	-6250
▁hero	-6251
▁jour	-6252
▁spec	-6253
anging	-6254
vision	-6255
▁Ababa	-6256
▁Addis	-6257
▁Table	-6258
▁camer	-6259
▁engul	-6260
▁legis	-6261
▁mixes	-6262
ctional	-6263
timates	-6264
trained	-6265
▁Madiba	-6266
▁Social	-6267
▁annual	-6268
▁buzzzz	-6269
▁circle	-6270
▁clause	-6271
▁confis	-6272
▁copies	-6273
▁elabor	-6274
▁gunman	-6275
▁leader	-6276
▁learnt	-6277
▁seeing	-6278
▁spouse	-6279
▁thanks	-6280
aissance	-6281
ordinate	-6282
▁Embassy	-6283
▁drivers	-6284
▁greater	-6285
▁hosting	-6286
▁numbers	-6287
▁posters	-6288
▁reduced	-6289
ventional	-6290
▁Baseline	-6291
▁Football	-6292
▁affirmed	-6293
▁analysis	-6294
▁attracts	-6295
▁mobilise	-6296
▁password	-6297
▁premises	-6298
▁receives	-6299
▁unnecess	-6300
▁Ministers	-6301
▁collector	-6302
▁directive	-6303
▁innerning	-6304
▁receiving	-6305
▁responses	-6306
▁secondary	-6307
▁travelled	-6308
ighbourhood	-6309
▁administra	-6310
▁collecting	-6311
▁impression	-6312
▁legitimate	-6313
▁presenting	-6314
▁supporters	-6315
▁complainant	-6316
▁legislative	-6317
▁experiential	-6318
▁internationally	-6319
6,	-6320
75	-6321
AS	-6322
In	-6323
200	-6324
TAR	-6325
akh	-6326
ala	-6327
bra	-6328
eli	-6329
err	-6330
fam	-6331
urt	-6332
wed	-6333
▁SM	-6334
bted	-6335
lier	-6336
ming	-6337
oker	-6338
pati	-6339
pper	-6340
▁Ath	-6341
▁DFA	-6342
▁GDP	-6343
▁Koe	-6344
▁Pil	-6345
▁Wyn	-6346
▁inj	-6347
▁net	-6348
rooms	-6349
times	-6350
tival	-6351
▁Fees	-6352
▁Kati	-6353
▁Navy	-6354
▁gaps	-6355
enburg	-6356
erated	-6357
estone	-6358
ftware	-6359
lderly	-6360
rought	-6361
umping	-6362
▁1998;	-6363
▁Baloy	-6364
▁Coast	-6365
▁Enjoy	-6366
▁added	-6367
▁track	-6368
orthern	-6369
▁Ensure	-6370
▁Mitche	-6371
▁Within	-6372
▁Wouter	-6373
▁appeal	-6374
▁deaths	-6375
▁expend	-6376
▁funded	-6377
▁geyser	-6378
▁stable	-6379
enforced	-6380
▁Privity	-6381
▁Special	-6382
▁affairs	-6383
▁brought	-6384
▁buyzzzz	-6385
▁collect	-6386
▁consent	-6387
▁elderly	-6388
▁ensures	-6389
▁pirates	-6390
▁savings	-6391
▁Adequate	-6392
▁Ethekder	-6393
▁Pretoria	-6394
▁buffeted	-6395
▁comments	-6396
▁councill	-6397
▁earthest	-6398
▁headline	-6399
▁judicial	-6400
▁tourists	-6401
roadcaster	-6402
▁Abuilding	-6403
▁construct	-6404
▁promoting	-6405
▁sanctions	-6406
▁Experience	-6407
▁appreciate	-6408
▁attainment	-6409
▁harmonious	-6410
▁insecurity	-6411
▁recognises	-6412
▁valuations	-6413
▁weathering	-6414
▁confiscated	-6415
▁politicians	-6416
▁suppression	-6417
▁disseminated	-6418
▁documentation	-6419
▁discrimination	-6420
▁representative	-6421
'.	-6422
28	-6423
BL	-6424
II	-6425
sy	-6426
126	-6427
PSC	-6428
alo	-6429
bit	-6430
eal	-6431
qui	-6432
son	-6433
una	-6434
▁36	-6435
▁CD	-6436
fies	-6437
rich	-6438
▁Sel	-6439
▁Sib	-6440
▁Sim	-6441
▁Swa	-6442
▁Tax	-6443
▁Tsh	-6444
▁haz	-6445
▁hum	-6446
aster	-6447
ields	-6448
inate	-6449
irway	-6450
orary	-6451
uries	-6452
▁Zulu	-6453
▁girl	-6454
▁port	-6455
▁rela	-6456
▁test	-6457
▁true	-6458
mptoms	-6459
ticles	-6460
urring	-6461
▁2004.	-6462
▁Chest	-6463
▁Legal	-6464
▁Paull	-6465
▁incub	-6466
▁juven	-6467
▁spray	-6468
logical	-6469
monthly	-6470
poverty	-6471
quiries	-6472
tension	-6473
vellers	-6474
▁Accomm	-6475
▁Barney	-6476
▁Inform	-6477
▁actual	-6478
▁answer	-6479
▁damage	-6480
▁degrad	-6481
▁expiry	-6482
▁fabric	-6483
▁phones	-6484
▁runway	-6485
▁saving	-6486
▁transp	-6487
examined	-6488
products	-6489
▁October	-6490
▁Whether	-6491
▁aillage	-6492
▁editors	-6493
▁evident	-6494
▁killing	-6495
▁pursuit	-6496
▁reflect	-6497
▁tracked	-6498
▁urgency	-6499
▁Phillipi	-6500
▁Treasury	-6501
▁becoming	-6502
▁changing	-6503
▁detained	-6504
▁explains	-6505
▁forestry	-6506
▁infected	-6507
▁numeracy	-6508
▁occupier	-6509
▁Commander	-6510
▁allocated	-6511
▁completed	-6512
▁correctly	-6513
▁directors	-6514
▁estimates	-6515
▁gratitude	-6516
▁infection	-6517
▁observing	-6518
▁preparing	-6519
▁sometimes	-6520
▁autography	-6521
▁connection	-6522
▁developing	-6523
▁exercising	-6524
▁officially	-6525
▁priorities	-6526
▁respondent	-6527
▁weaknesses	-6528
▁councillors	-6529
▁Constraction	-6530
▁demonstrates	-6531
▁learnerships	-6532
▁independently	-6533
▁Administrative	-6534
▁Discrimination	-6535
▁reconciliation	-6536
,"	-6537
2)	-6538
2,	-6539
25	-6540
4-	-6541
RM	-6542
ae	-6543
Iny	-6544
arr	-6545
kay	-6546
pei	-6547
▁Ox	-6548
▁WA	-6549
▁fi	-6550
ader	-6551
ders	-6552
lelo	-6553
leng	-6554
onia	-6555
oung	-6556
step	-6557
veld	-6558
▁300	-6559
▁Bio	-6560
▁Ent	-6561
▁JOC	-6562
▁Mkh	-6563
▁PRO	-6564
▁Sit	-6565
▁Use	-6566
▁clu	-6567
▁ele	-6568
▁flu	-6569
▁jur	-6570
▁sch	-6571
erved	-6572
owned	-6573
thers	-6574
tract	-6575
▁Cerv	-6576
▁Khal	-6577
▁Leon	-6578
▁Only	-6579
▁Prom	-6580
▁cord	-6581
▁duty	-6582
▁eigh	-6583
▁eman	-6584
▁eyes	-6585
▁gard	-6586
▁oath	-6587
▁pros	-6588
▁runo	-6589
▁tool	-6590
olving	-6591
orough	-6592
ridged	-6593
saving	-6594
▁Goven	-6595
▁Immed	-6596
▁Portu	-6597
▁doubt	-6598
▁immun	-6599
▁walks	-6600
ightier	-6601
private	-6602
sterism	-6603
▁arrive	-6604
▁broken	-6605
▁endors	-6606
▁legacy	-6607
▁likely	-6608
▁prison	-6609
▁reward	-6610
▁saying	-6611
▁sounds	-6612
▁spring	-6613
▁suffer	-6614
▁Israeli	-6615
▁Springb	-6616
▁benefit	-6617
▁burning	-6618
▁illegal	-6619
▁malaria	-6620
▁scholar	-6621
▁Aprilway	-6622
▁Commonwe	-6623
▁Engineer	-6624
▁Speaking	-6625
▁civilian	-6626
▁expedite	-6627
▁standing	-6628
▁symptoms	-6629
▁Operation	-6630
▁Therefore	-6631
▁conflicts	-6632
▁depending	-6633
▁juveniles	-6634
▁reflected	-6635
▁relatives	-6636
▁requested	-6637
▁utilising	-6638
renaissance	-6639
▁advantaged	-6640
▁assistants	-6641
▁authorised	-6642
▁memorandum	-6643
▁resolution	-6644
▁submitting	-6645
▁Furthermore	-6646
▁chairperson	-6647
▁expenditure	-6648
▁gangsterism	-6649
▁suggestions	-6650
▁distinctness	-6651
▁ecologically	-6652
▁improvements	-6653
▁successfully	-6654
▁transmission	-6655
▁Communication	-6656
▁beneficiaries	-6657
▁subsidisation	-6658
▁unnecessarily	-6659
▁questionnabuck	-6660
79	-6661
ES	-6662
RL	-6663
ij	-6664
ka	-6665
vo	-6666
buc	-6667
den	-6668
nys	-6669
▁08	-6670
▁62	-6671
▁AN	-6672
▁CP	-6673
▁Ju	-6674
▁fl	-6675
▁Apt	-6676
▁DHA	-6677
▁Hol	-6678
▁REC	-6679
▁Sax	-6680
▁Sex	-6681
▁Val	-6682
▁fif	-6683
▁hop	-6684
▁pic	-6685
elled	-6686
izela	-6687
rocar	-6688
stone	-6689
▁Airp	-6690
▁Jann	-6691
▁Saud	-6692
▁Wood	-6693
▁fapt	-6694
▁gear	-6695
▁migh	-6696
▁miss	-6697
▁user	-6698
▁virt	-6699
▁wide	-6700
ardous	-6701
charge	-6702
regate	-6703
▁1994.	-6704
▁2007.	-6705
▁Chief	-6706
▁Islam	-6707
▁Labor	-6708
▁Young	-6709
▁champ	-6710
▁cover	-6711
▁manus	-6712
▁newly	-6713
▁serve	-6714
▁solid	-6715
▁surve	-6716
assador	-6717
aughter	-6718
bearing	-6719
▁Budget	-6720
▁Future	-6721
▁Height	-6722
▁Katiza	-6723
▁Mkhize	-6724
▁Recogn	-6725
▁faster	-6726
ediments	-6727
training	-6728
▁Sitting	-6729
▁Workers	-6730
▁boycott	-6731
▁climate	-6732
▁customs	-6733
▁describ	-6734
▁enables	-6735
▁network	-6736
▁optimum	-6737
▁package	-6738
▁produce	-6739
▁Evidence	-6740
▁approval	-6741
▁attempts	-6742
▁depicted	-6743
▁directed	-6744
▁entities	-6745
▁improved	-6746
▁refugees	-6747
▁tenacity	-6748
▁transpar	-6749
▁welcomed	-6750
commercial	-6751
ordination	-6752
▁Organised	-6753
▁buildings	-6754
▁confronts	-6755
▁harmonial	-6756
▁hazardous	-6757
▁improving	-6758
▁objection	-6759
▁preclucts	-6760
▁privilege	-6761
▁suspected	-6762
▁valuators	-6763
▁victorial	-6764
▁worldwide	-6765
established	-6766
▁accelerate	-6767
▁farreignty	-6768
▁solidarity	-6769
▁annuallyary	-6770
▁elimination	-6771
▁mathematics	-6772
▁obligations	-6773
▁safekeeping	-6774
▁counterparty	-6775
▁denomination	-6776
▁retrenchment	-6777
▁Technological	-6778
▁investigative	-6779
▁Rehabilitation	-6780
▁demonstrations	-6781
▁representation	-6782
',	-6783
QF	-6784
gg	-6785
fat	-6786
jud	-6787
oor	-6788
phy	-6789
ses	-6790
spe	-6791
urb	-6792
▁CR	-6793
▁Ir	-6794
▁MT	-6795
▁Mc	-6796
▁UI	-6797
▁ng	-6798
Oder	-6799
oder	-6800
oted	-6801
rors	-6802
sebe	-6803
▁201	-6804
▁900	-6805
▁Bam	-6806
▁Lib	-6807
▁Pot	-6808
▁hij	-6809
▁war	-6810
aNews	-6811
atlak	-6812
duces	-6813
ional	-6814
owner	-6815
rives	-6816
▁Crit	-6817
▁Jord	-6818
▁Kock	-6819
▁PREA	-6820
▁Peer	-6821
▁Poor	-6822
▁Zuma	-6823
▁enro	-6824
▁muse	-6825
▁save	-6826
▁tens	-6827
▁tick	-6828
niques	-6829
opping	-6830
orship	-6831
oubted	-6832
rances	-6833
rorism	-6834
▁1991,	-6835
▁1996,	-6836
▁Green	-6837
▁Maput	-6838
▁Mbeki	-6839
▁Oight	-6840
▁Roads	-6841
▁SMMEs	-6842
▁costs	-6843
▁fails	-6844
▁fraud	-6845
▁galle	-6846
▁lease	-6847
iliated	-6848
▁Corrid	-6849
▁Courts	-6850
▁Diplom	-6851
▁Mosian	-6852
▁assume	-6853
▁cooper	-6854
▁destin	-6855
▁dispar	-6856
▁longer	-6857
▁screen	-6858
▁tabled	-6859
▁upgrad	-6860
▁walked	-6861
▁wealth	-6862
▁wishes	-6863
atlakane	-6864
▁Indians	-6865
▁Regular	-6866
▁differs	-6867
▁dignity	-6868
▁heading	-6869
▁imposed	-6870
▁pattern	-6871
▁qualify	-6872
▁removed	-6873
▁slavery	-6874
▁testify	-6875
▁windows	-6876
▁entirely	-6877
▁outcomes	-6878
▁presents	-6879
▁situated	-6880
▁terminal	-6881
▁validity	-6882
bubuilding	-6883
▁cordially	-6884
▁displaced	-6885
▁economies	-6886
▁extension	-6887
▁musicians	-6888
▁requiring	-6889
▁witnesses	-6890
▁Accounting	-6891
▁Applicants	-6892
▁Committees	-6893
▁Millennium	-6894
▁developers	-6895
▁groundwork	-6896
▁television	-6897
▁undermined	-6898
▁xenophobia	-6899
▁Maintenance	-6900
▁Ramatlakane	-6901
▁supervision	-6902
▁Commonwealth	-6903
▁globalisation	-6904
▁disappointment	-6905
▁electronically	-6906
▁underpartments	-6907
IK	-6908
bi	-6909
ea	-6910
ox	-6911
abe	-6912
asa	-6913
aur	-6914
cep	-6915
ikh	-6916
siz	-6917
sts	-6918
uba	-6919
xic	-6920
zee	-6921
▁63	-6922
▁CM	-6923
▁OK	-6924
▁TE	-6925
▁vo	-6926
cean	-6927
rans	-6928
roup	-6929
shop	-6930
teen	-6931
▁Les	-6932
▁Mah	-6933
▁Raj	-6934
▁bit	-6935
▁dit	-6936
khaya	-6937
ruger	-6938
▁Curr	-6939
▁Resp	-6940
▁SAFA	-6941
▁SANC	-6942
▁bong	-6943
▁join	-6944
▁reti	-6945
chives	-6946
forces	-6947
watern	-6948
▁2009,	-6949
▁Hleng	-6950
▁cares	-6951
▁class	-6952
▁fauna	-6953
▁maize	-6954
▁ready	-6955
▁unity	-6956
alidity	-6957
habilit	-6958
▁Invest	-6959
▁deputy	-6960
▁guests	-6961
▁promen	-6962
▁stress	-6963
▁theary	-6964
▁topics	-6965
regional	-6966
ruptions	-6967
▁Bapturu	-6968
▁Fairway	-6969
▁Morning	-6970
▁Similar	-6971
▁anybody	-6972
▁dumping	-6973
▁earlier	-6974
▁exclude	-6975
▁faction	-6976
▁gunshot	-6977
▁harried	-6978
▁overall	-6979
▁planned	-6980
▁realner	-6981
▁revenue	-6982
▁similar	-6983
▁Clinical	-6984
▁Geograph	-6985
▁Neverthe	-6986
▁adoption	-6987
▁apturing	-6988
▁attached	-6989
▁complied	-6990
▁complies	-6991
▁festival	-6992
▁offences	-6993
▁thorough	-6994
▁visiting	-6995
▁Mitchells	-6996
▁catchment	-6997
▁governing	-6998
▁incurring	-6999
▁landscape	-7000
▁producing	-7001
▁recommend	-7002
▁reduction	-7003
▁searching	-7004
▁succeeded	-7005
▁accredited	-7006
▁attributed	-7007
▁completion	-7008
▁contractor	-7009
▁finalising	-7010
▁guidelines	-7011
▁Observision	-7012
▁administers	-7013
▁considering	-7014
▁examination	-7015
▁fabrication	-7016
▁unfortunate	-7017
▁Championship	-7018
▁Excellencies	-7019
▁accuratement	-7020
▁certificates	-7021
▁economically	-7022
▁scholarships	-7023
▁establishment	-7024
▁relationships	-7025
▁Entrepreneurial	-7026
18	-7027
ZN	-7028
bj	-7029
OAR	-7030
Pro	-7031
ert	-7032
hib	-7033
ien	-7034
▁Ce	-7035
▁MD	-7036
▁NW	-7037
▁TT	-7038
▁WS	-7039
erry	-7040
lock	-7041
tile	-7042
ynam	-7043
▁Bro	-7044
▁Gen	-7045
▁Mid	-7046
▁Mof	-7047
▁Mor	-7048
▁lay	-7049
▁psy	-7050
▁tro	-7051
▁urg	-7052
Savel	-7053
arter	-7054
artet	-7055
awini	-7056
borne	-7057
guese	-7058
hever	-7059
illas	-7060
onven	-7061
▁(1)(	-7062
▁000.	-7063
▁Hous	-7064
▁More	-7065
▁whic	-7066
fikeng	-7067
ishing	-7068
makers	-7069
oliday	-7070
racial	-7071
uction	-7072
▁Natal	-7073
▁diplo	-7074
▁dynam	-7075
▁habit	-7076
▁hydro	-7077
▁kgwed	-7078
▁story	-7079
▁veter	-7080
lorence	-7081
redible	-7082
▁Access	-7083
▁Forums	-7084
▁Winnie	-7085
▁adults	-7086
▁dinner	-7087
▁dishon	-7088
▁engulf	-7089
▁option	-7090
▁passed	-7091
▁statut	-7092
▁talked	-7093
▁though	-7094
▁underp	-7095
▁voting	-7096
athology	-7097
lamation	-7098
partners	-7099
uitement	-7100
▁Library	-7101
▁Pillage	-7102
▁emerged	-7103
▁enjoyed	-7104
▁entails	-7105
▁focuses	-7106
▁holiday	-7107
▁popular	-7108
▁quartet	-7109
▁reading	-7110
▁revital	-7111
▁vibrant	-7112
▁vigible	-7113
▁Corridor	-7114
▁Govender	-7115
▁Ithekder	-7116
▁Resource	-7117
▁Secondly	-7118
▁Sections	-7119
▁accessed	-7120
▁advisors	-7121
▁empowers	-7122
▁historic	-7123
▁hospital	-7124
▁launches	-7125
▁medicine	-7126
▁patterns	-7127
▁addresses	-7128
▁countless	-7129
▁entrances	-7130
▁installed	-7131
▁landowner	-7132
▁prospects	-7133
▁turnstile	-7134
▁Detectives	-7135
▁Portuguese	-7136
▁disruption	-7137
▁explaining	-7138
▁indicators	-7139
▁techniques	-7140
▁Accordingly	-7141
▁Broadcaster	-7142
▁inspections	-7143
▁localillage	-7144
▁manuscripts	-7145
▁uncontained	-7146
▁Geographical	-7147
▁benchmarking	-7148
▁correctional	-7149
▁developments	-7150
▁preparedness	-7151
▁proclamation	-7152
▁disseminating	-7153
▁correspondence	-7154
AI	-7155
NK	-7156
Os	-7157
Vs	-7158
hi	-7159
ja	-7160
kt	-7161
"",	-7162
100	-7163
500	-7164
MOC	-7165
col	-7166
oer	-7167
ona	-7168
oto	-7169
que	-7170
thy	-7171
wan	-7172
▁26	-7173
▁44	-7174
▁66	-7175
▁98	-7176
▁CS	-7177
▁DC	-7178
▁NF	-7179
▁hy	-7180
Iser	-7181
apes	-7182
atic	-7183
cope	-7184
date	-7185
deav	-7186
emed	-7187
four	-7188
gies	-7189
gypt	-7190
mels	-7191
ophy	-7192
reed	-7193
shes	-7194
stop	-7195
thro	-7196
▁218	-7197
▁Des	-7198
▁Els	-7199
▁FET	-7200
▁Ina	-7201
▁Sur	-7202
▁ill	-7203
▁jus	-7204
▁lin	-7205
anges	-7206
ggage	-7207
hways	-7208
rigin	-7209
▁Also	-7210
▁Make	-7211
▁Trad	-7212
▁airc	-7213
▁anci	-7214
▁cast	-7215
▁hurt	-7216
▁keep	-7217
▁meth	-7218
▁reit	-7219
▁rich	-7220
▁stim	-7221
▁viol	-7222
Nature	-7223
crimin	-7224
ration	-7225
ultane	-7226
▁Explo	-7227
▁Leone	-7228
▁Mathe	-7229
▁Water	-7230
▁rates	-7231
▁recru	-7232
issions	-7233
lations	-7234
tracted	-7235
▁batter	-7236
▁factor	-7237
▁formal	-7238
▁garden	-7239
▁hijack	-7240
▁listen	-7241
▁moment	-7242
▁monies	-7243
▁online	-7244
▁robbed	-7245
▁runoff	-7246
provided	-7247
regation	-7248
▁Austral	-7249
▁Counter	-7250
▁Railway	-7251
▁Worship	-7252
▁beaches	-7253
▁deliver	-7254
▁farmers	-7255
▁influen	-7256
▁intimid	-7257
▁luggage	-7258
▁manages	-7259
▁refugee	-7260
developed	-7261
▁Certific	-7262
▁Technini	-7263
▁conveyor	-7264
▁develops	-7265
▁injuries	-7266
▁position	-7267
▁relation	-7268
▁retained	-7269
▁Benchitis	-7270
▁Petroleam	-7271
▁Sierorage	-7272
▁Similarly	-7273
▁depressed	-7274
▁promotion	-7275
▁realities	-7276
▁simultane	-7277
▁statutory	-7278
▁Accommount	-7279
▁Inspectors	-7280
▁Siyabulela	-7281
▁acceptable	-7282
▁beneficial	-7283
▁colleagues	-7284
▁congregate	-7285
▁contracted	-7286
▁foreigners	-7287
▁generating	-7288
▁nationally	-7289
▁pedestrian	-7290
▁promptable	-7291
▁regulating	-7292
▁Darfursters	-7293
▁accountable	-7294
▁advertising	-7295
▁congestions	-7296
▁detrimental	-7297
▁disparities	-7298
▁disruptions	-7299
▁fingerprint	-7300
▁frequencies	-7301
▁Facilitators	-7302
▁conventional	-7303
▁misconducted	-7304
▁peacekeeping	-7305
▁representing	-7306
▁Maputographic	-7307
▁Parliamentary	-7308
▁collaboration	-7309
▁investigation	-7310
▁congressivegate	-7311
OU	-7312
RP	-7313
bun	-7314
chi	-7315
elo	-7316
emy	-7317
iph	-7318
lar	-7319
nal	-7320
raw	-7321
▁1,	-7322
▁ET	-7323
▁NH	-7324
emoc	-7325
exic	-7326
irty	-7327
reme	-7328
trol	-7329
▁228	-7330
▁Cll	-7331
▁DRC	-7332
▁Mab	-7333
▁Mog	-7334
▁Nai	-7335
▁Sup	-7336
▁Toy	-7337
▁dur	-7338
▁lod	-7339
▁sum	-7340
anish	-7341
cting	-7342
gment	-7343
ipped	-7344
ktron	-7345
orter	-7346
riger	-7347
under	-7348
velty	-7349
welet	-7350
zette	-7351
▁Coet	-7352
▁Disc	-7353
▁Oxny	-7354
▁Rams	-7355
▁Stud	-7356
▁door	-7357
▁fuel	-7358
▁herb	-7359
▁mort	-7360
▁pamp	-7361
▁radi	-7362
▁sche	-7363
▁uses	-7364
airway	-7365
▁Democ	-7366
▁Evalu	-7367
▁Mapzi	-7368
▁Mexic	-7369
▁Names	-7370
▁equal	-7371
▁falls	-7372
▁weigh	-7373
ductive	-7374
ktronik	-7375
renades	-7376
umption	-7377
▁Israel	-7378
▁Mabuza	-7379
▁Powers	-7380
▁assign	-7381
▁endeav	-7382
▁errors	-7383
▁ideals	-7384
▁leaves	-7385
▁origin	-7386
▁rising	-7387
▁speech	-7388
▁stands	-7389
aticians	-7390
licensed	-7391
▁Islamic	-7392
▁Ngadier	-7393
▁Science	-7394
▁Supreme	-7395
▁Through	-7396
▁illness	-7397
▁intends	-7398
▁patrols	-7399
▁pointed	-7400
▁restaur	-7401
▁restric	-7402
▁uniform	-7403
mployment	-7404
▁Honorary	-7405
▁approves	-7406
▁believed	-7407
▁birthday	-7408
▁endorsed	-7409
▁mistaken	-7410
▁openings	-7411
▁promotes	-7412
▁variable	-7413
ordinating	-7414
production	-7415
▁Currently	-7416
▁Quarterly	-7417
▁accompany	-7418
▁certainly	-7419
▁destroyed	-7420
▁disasters	-7421
▁guarantee	-7422
▁misconcep	-7423
▁somewhere	-7424
▁accessible	-7425
▁adultdults	-7426
▁apartments	-7427
▁attracting	-7428
▁benefiting	-7429
▁confirming	-7430
▁elektronik	-7431
▁empowering	-7432
▁harvestors	-7433
▁incubators	-7434
▁reasonable	-7435
▁regulatory	-7436
▁strategies	-7437
▁telephonic	-7438
▁transition	-7439
▁Certificate	-7440
▁degradation	-7441
▁fearfulness	-7442
▁stimulating	-7443
▁thebuilding	-7444
▁Conservation	-7445
▁Inspectorate	-7446
▁demonstrated	-7447
▁greatestrian	-7448
▁Neighbourhood	-7449
▁accommodation	-7450
▁harmonisation	-7451
-9	-7452
1)	-7453
2.	-7454
IG	-7455
Mo	-7456
RSA	-7457
apa	-7458
bos	-7459
equ	-7460
eti	-7461
liz	-7462
odi	-7463
ola	-7464
put	-7465
▁Nq	-7466
▁ke	-7467
▁sm	-7468
buya	-7469
elet	-7470
emen	-7471
ilos	-7472
lows	-7473
ulum	-7474
wise	-7475
▁(7)	-7476
▁Ann	-7477
▁Ban	-7478
▁Dip	-7479
▁Kny	-7480
▁Mak	-7481
▁Nep	-7482
▁Pay	-7483
▁Pho	-7484
▁Sep	-7485
▁TRC	-7486
▁Tik	-7487
▁Van	-7488
▁art	-7489
▁hot	-7490
▁lim	-7491
▁syn	-7492
▁via	-7493
ademy	-7494
ageng	-7495
erman	-7496
essor	-7497
media	-7498
parti	-7499
redit	-7500
rides	-7501
riter	-7502
tiliz	-7503
▁Coca	-7504
▁Conf	-7505
▁Dark	-7506
▁Erit	-7507
▁Holy	-7508
▁Mabu	-7509
▁Nove	-7510
▁Wild	-7511
▁bias	-7512
▁free	-7513
▁mirl	-7514
▁tlwa	-7515
buning	-7516
engine	-7517
income	-7518
judice	-7519
making	-7520
unting	-7521
▁Check	-7522
▁accum	-7523
▁analy	-7524
▁asses	-7525
▁camps	-7526
▁clamp	-7527
▁faway	-7528
▁links	-7529
▁tasks	-7530
▁users	-7531
ecution	-7532
ominant	-7533
▁Appeal	-7534
▁Dinner	-7535
▁Forces	-7536
▁Hostel	-7537
▁Reserv	-7538
▁agreed	-7539
▁assets	-7540
▁colder	-7541
▁paying	-7542
▁philos	-7543
▁player	-7544
▁salute	-7545
▁severe	-7546
▁sought	-7547
▁tables	-7548
rigation	-7549
ritories	-7550
▁Control	-7551
▁Housing	-7552
▁Ramsing	-7553
▁Reviews	-7554
▁Speaker	-7555
▁ability	-7556
▁chronic	-7557
▁closing	-7558
▁explore	-7559
▁impover	-7560
▁minimum	-7561
▁printed	-7562
▁species	-7563
▁staying	-7564
fortunate	-7565
ructuring	-7566
▁Capacity	-7567
▁Pienager	-7568
▁declined	-7569
▁driveway	-7570
▁suffered	-7571
▁tropical	-7572
▁workshop	-7573
distribute	-7574
enaissance	-7575
estruction	-7576
▁Buildings	-7577
▁amendment	-7578
▁avoidable	-7579
▁buffetder	-7580
▁certified	-7581
▁contacted	-7582
▁emanating	-7583
▁gentleman	-7584
▁influenza	-7585
▁milestone	-7586
▁mortality	-7587
▁otherwise	-7588
▁positions	-7589
▁whichever	-7590
▁witnessed	-7591
▁conference	-7592
▁curriculum	-7593
▁discipline	-7594
▁exceptions	-7595
▁governance	-7596
▁invalidity	-7597
▁multiparty	-7598
▁philosophy	-7599
▁reaffirmed	-7600
▁retirement	-7601
▁unemployed	-7602
▁unlicensed	-7603
▁Conventions	-7604
▁Identifying	-7605
▁Investments	-7606
▁Reservision	-7607
▁Traditional	-7608
▁educational	-7609
▁identifying	-7610
▁importantly	-7611
▁interaction	-7612
participation	-7613
▁advancements	-7614
▁solesreignty	-7615
▁personalities	-7616
▁unfortunately	-7617
▁organizational	-7618
▁simultaneously	-7619
▁questionnaction	-7620
▁supplementation	-7621
70	-7622
AU	-7623
BM	-7624
Ps	-7625
RU	-7626
So	-7627
ky	-7628
"".	-7629
adi	-7630
asi	-7631
ips	-7632
isa	-7633
iso	-7634
olo	-7635
osp	-7636
sph	-7637
▁85	-7638
▁AC	-7639
▁AL	-7640
▁Di	-7641
▁HL	-7642
oned	-7643
vaal	-7644
▁ABM	-7645
▁Att	-7646
▁Cre	-7647
▁ELA	-7648
▁Esi	-7649
▁Fax	-7650
▁Mus	-7651
▁Nom	-7652
▁Sir	-7653
▁Syd	-7654
▁Zum	-7655
▁ess	-7656
▁seg	-7657
board	-7658
isted	-7659
ively	-7660
opopo	-7661
oster	-7662
oured	-7663
ropri	-7664
skill	-7665
tocol	-7666
twork	-7667
▁000,	-7668
▁Most	-7669
▁NWMS	-7670
▁aris	-7671
▁arti	-7672
▁bath	-7673
▁deep	-7674
▁kept	-7675
▁load	-7676
▁milk	-7677
▁spot	-7678
▁wood	-7679
arning	-7680
bearer	-7681
bubuza	-7682
gators	-7683
inning	-7684
sebeza	-7685
stream	-7686
thouse	-7687
tities	-7688
▁Anglo	-7689
▁Basin	-7690
▁Egypt	-7691
▁Khazi	-7692
▁Prime	-7693
▁alien	-7694
▁check	-7695
▁depth	-7696
▁meets	-7697
▁resid	-7698
▁scale	-7699
▁sensi	-7700
▁tools	-7701
▁toxic	-7702
▁twant	-7703
achment	-7704
atering	-7705
compair	-7706
extiles	-7707
itoring	-7708
patient	-7709
▁Brazil	-7710
▁Molewa	-7711
▁almost	-7712
▁animal	-7713
▁grants	-7714
▁labels	-7715
▁marine	-7716
▁namely	-7717
▁retain	-7718
▁troops	-7719
etroleum	-7720
▁BuaNews	-7721
▁Gazette	-7722
▁Quarton	-7723
▁Results	-7724
▁advises	-7725
▁airline	-7726
▁arising	-7727
▁artwork	-7728
▁fuelled	-7729
▁grounds	-7730
▁history	-7731
▁holders	-7732
▁manager	-7733
▁permits	-7734
▁playing	-7735
▁renewal	-7736
▁strides	-7737
atchments	-7738
ordinates	-7739
▁Aprility	-7740
▁Fourthly	-7741
▁Newlands	-7742
▁Together	-7743
▁accustom	-7744
▁champion	-7745
▁disposal	-7746
▁equipped	-7747
▁frequent	-7748
▁managing	-7749
▁metering	-7750
▁missiles	-7751
▁misunder	-7752
▁precinly	-7753
▁searches	-7754
▁severely	-7755
▁shopping	-7756
▁studying	-7757
ederations	-7758
▁Audiciary	-7759
▁Companies	-7760
▁Democracy	-7761
▁Springbok	-7762
▁compounds	-7763
▁connected	-7764
▁countlers	-7765
▁described	-7766
▁eliminate	-7767
▁enquiries	-7768
▁exchanges	-7769
▁excptated	-7770
▁explained	-7771
▁galleries	-7772
▁importing	-7773
▁kgwedider	-7774
▁motorists	-7775
▁petroleum	-7776
▁policemen	-7777
▁prejudice	-7778
▁reference	-7779
▁resulting	-7780
▁reviewing	-7781
▁tradition	-7782
▁virtually	-7783
▁watchment	-7784
▁Monitoring	-7785
▁Quarantity	-7786
▁amendments	-7787
▁analytical	-7788
▁diplomatic	-7789
▁incredible	-7790
▁transcript	-7791
▁translated	-7792
▁undermines	-7793
▁consultants	-7794
▁experiments	-7795
▁landscaping	-7796
▁preparation	-7797
▁reliability	-7798
▁transcripts	-7799
▁congressment	-7800
▁consignments	-7801
▁constraction	-7802
▁destinations	-7803
▁misconceptic	-7804
▁revitalising	-7805
▁unemployment	-7806
▁influxability	-7807
▁investigating	-7808
▁characteristics	-7809
-2	-7810
76	-7811
Ds	-7812
ER	-7813
PP	-7814
QA	-7815
YE	-7816
ms	-7817
▁,	-7818
adu	-7819
com	-7820
het	-7821
ify	-7822
lim	-7823
ora	-7824
orp	-7825
oza	-7826
sey	-7827
▁11	-7828
▁75	-7829
▁EE	-7830
▁EM	-7831
▁Em	-7832
▁MK	-7833
▁OF	-7834
▁TV	-7835
▁fo	-7836
auty	-7837
eleg	-7838
iary	-7839
ized	-7840
oles	-7841
orit	-7842
vers	-7843
▁Blo	-7844
▁Her	-7845
▁Kho	-7846
▁Mel	-7847
▁Ner	-7848
▁Sip	-7849
▁VIP	-7850
▁akh	-7851
▁ath	-7852
▁bur	-7853
▁fas	-7854
▁sig	-7855
▁sto	-7856
chiat	-7857
idity	-7858
ither	-7859
leloc	-7860
lment	-7861
riday	-7862
suite	-7863
udies	-7864
▁2003	-7865
▁Bazi	-7866
▁Darr	-7867
▁July	-7868
▁Lack	-7869
▁Ntle	-7870
▁Prof	-7871
▁Rock	-7872
▁Self	-7873
▁acts	-7874
▁adul	-7875
▁coal	-7876
▁stab	-7877
▁thir	-7878
▁whir	-7879
enning	-7880
pelled	-7881
ransit	-7882
reased	-7883
▁2010.	-7884
▁2014.	-7885
▁Karoo	-7886
▁Madik	-7887
▁Neigh	-7888
▁Order	-7889
▁affir	-7890
▁artis	-7891
▁dirty	-7892
▁donor	-7893
▁guard	-7894
▁image	-7895
▁rooms	-7896
▁unexp	-7897
atriots	-7898
bulence	-7899
ception	-7900
elegile	-7901
etitive	-7902
gations	-7903
ountain	-7904
ousands	-7905
partite	-7906
ranches	-7907
unction	-7908
▁Anhole	-7909
▁Bridge	-7910
▁Follow	-7911
▁Jacobs	-7912
▁Salope	-7913
▁Theary	-7914
▁beauty	-7915
▁carbon	-7916
▁closed	-7917
▁crimin	-7918
▁driven	-7919
▁embark	-7920
▁fourth	-7921
▁hearts	-7922
▁openly	-7923
▁owners	-7924
▁	-7925
e	-7926
t	-7927
i	-7928
n	-7929
o	-7930
a	-7931
r	-7932
s	-7933
h	-7934
c	-7935
l	-7936
u	-7937
d	-7938
f	-7939
m	-7940
p	-7941
y	-7942
g	-7943
w	-7944
b	-7945
v	-7946
.	-7947
,	-7948
T	-7949
k	-7950
q	-7951
-	-7952
A	-7953
I	-7954
D	-7955
C	-7956
S	-7957
E	-7958
M	-7959
x	-7960
P	-7961
'	-7962
"	-7963
J	-7964
B	-7965
W	-7966
N	-7967
0	-7968
:	-7969
O	-7970
?	-7971
R	-7972
1	-7973
j	-7974
9	-7975
H	-7976
2	-7977
z	-7978
F	-7979
L	-7980
G	-7981
Y	-7982
U	-7983
8	-7984
K	-7985
;	-7986
3	-7987
5	-7988
Z	-7989
6	-7990
)	-7991
(	-7992
7	-7993
4	-7994
V	-7995
Q	-7996
