<unk>	0
<s>	0
</s>	0
▁n	-0
▁k	-1
la	-2
le	-3
wa	-4
▁t	-5
▁ku	-6
an	-7
▁h	-8
ka	-9
▁v	-10
▁y	-11
ri	-12
▁m	-13
▁s	-14
wi	-15
lo	-16
▁x	-17
is	-18
mb	-19
na	-20
▁le	-21
▁e	-22
▁na	-23
▁hi	-24
ng	-25
rh	-26
▁ya	-27
ko	-28
ti	-29
▁ti	-30
▁xi	-31
nd	-32
▁swi	-33
ha	-34
▁a	-35
yi	-36
▁va	-37
▁ng	-38
ke	-39
wu	-40
ku	-41
▁ka	-42
▁nga	-43
▁wa	-44
▁ma	-45
mbe	-46
ni	-47
▁vu	-48
we	-49
▁eka	-50
hu	-51
ts	-52
▁la	-53
▁ri	-54
ele	-55
▁ta	-56
ndz	-57
ho	-58
▁b	-59
isa	-60
▁les	-61
ona	-62
▁lo	-63
ela	-64
ma	-65
▁f	-66
isi	-67
fu	-68
▁yi	-69
ana	-70
ya	-71
▁M	-72
elo	-73
▁xa	-74
wana	-75
lu	-76
mu	-77
▁u	-78
▁mi	-79
va	-80
dz	-81
ki	-82
rhi	-83
▁N	-84
▁mu	-85
ra	-86
hi	-87
si	-88
he	-89
waku	-90
ngu	-91
hla	-92
ta	-93
sa	-94
riwa	-95
▁p	-96
wo	-97
xi	-98
▁swa	-99
li	-100
mi	-101
▁leswaku	-102
▁ko	-103
to	-104
yo	-105
mo	-106
▁kumbe	-107
▁ha	-108
▁K	-109
tirh	-110
▁X	-111
▁H	-112
vu	-113
ang	-114
▁fan	-115
▁leyi	-116
▁bya	-117
▁V	-118
en	-119
▁end	-120
▁yo	-121
▁wu	-122
me	-123
▁tirh	-124
▁leswi	-125
ngo	-126
lela	-127
ani	-128
▁fanele	-129
▁ni	-130
▁hu	-131
ye	-132
▁hla	-133
▁ra	-134
te	-135
oko	-136
dzi	-137
iso	-138
▁loko	-139
kwa	-140
▁Xi	-141
ve	-142
wona	-143
▁L	-144
▁T	-145
▁A	-146
▁S	-147
▁ts	-148
▁Ku	-149
karhi	-150
haka	-151
▁nd	-152
isiwa	-153
▁lowu	-154
weke	-155
xa	-156
nge	-157
hle	-158
vi	-159
▁lava	-160
mba	-161
and	-162
▁Ma	-163
ena	-164
ano	-165
vo	-166
mbi	-167
nwana	-168
ro	-169
tsa	-170
wile	-171
▁no	-172
tirho	-173
▁nyi	-174
▁si	-175
▁i	-176
weni	-177
▁van	-178
▁pfu	-179
▁Vu	-180
han	-181
▁su	-182
▁min	-183
nga	-184
nkwa	-185
▁lexi	-186
▁1	-187
▁ndzi	-188
▁wo	-189
▁hinkwa	-190
eke	-191
▁vona	-192
pfu	-193
awu	-194
nhu	-195
▁d	-196
yondz	-197
elela	-198
▁tsa	-199
▁endla	-200
▁leri	-201
▁kona	-202
fa	-203
▁vula	-204
fumo	-205
swi	-206
ndzu	-207
▁R	-208
▁yena	-209
▁ndlela	-210
kela	-211
▁Hi	-212
▁xiko	-213
▁-	-214
▁we	-215
▁nkarhi	-216
▁(	-217
kulu	-218
ngi	-219
lwa	-220
▁laha	-221
eka	-222
▁vanhu	-223
▁Ti	-224
▁mati	-225
swona	-226
lelo	-227
▁byi	-228
tshu	-229
▁naswona	-230
▁loyi	-231
▁swin	-232
mbu	-233
pi	-234
▁"	-235
▁Mu	-236
▁fi	-237
yis	-238
▁rh	-239
hlo	-240
eri	-241
▁P	-242
ala	-243
re	-244
mhaka	-245
ene	-246
▁wena	-247
hen	-248
▁c	-249
▁swo	-250
yimo	-251
▁D	-252
ndza	-253
fan	-254
▁munhu	-255
▁fa	-256
mbana	-257
▁Loko	-258
andla	-259
yenge	-260
mbelo	-261
▁2	-262
▁leti	-263
kho	-264
ongo	-265
tela	-266
xo	-267
▁tin	-268
▁Swi	-269
▁tl	-270
▁kho	-271
eki	-272
melo	-273
▁nts	-274
tl	-275
xaka	-276
kan	-277
no	-278
▁E	-279
▁xo	-280
▁nhla	-281
▁sungu	-282
mbisa	-283
fanelo	-284
byi	-285
▁nko	-286
tirhi	-287
rimi	-288
▁Nawu	-289
eni	-290
lula	-291
anga	-292
in	-293
hawu	-294
rho	-295
▁ema	-296
▁Va	-297
mele	-298
lawu	-299
olo	-300
fri	-301
onga	-302
▁tiko	-303
tshuriwa	-304
▁I	-305
ngan	-306
hungu	-307
▁kambe	-308
▁xiyimo	-309
lweni	-310
▁ntirho	-311
frika	-312
▁nyika	-313
andz	-314
▁ndz	-315
▁tirha	-316
▁kahle	-317
▁mfumo	-318
▁hlamu	-319
tla	-320
▁tlh	-321
ula	-322
▁hambana	-323
ne	-324
▁nkoka	-325
▁tirhisa	-326
mbis	-327
hleke	-328
se	-329
▁to	-330
▁tani	-331
▁langu	-332
dyondz	-333
▁amu	-334
▁vuti	-335
▁tala	-336
▁endli	-337
leri	-338
hwa	-339
▁xikombelo	-340
▁karhi	-341
▁Ri	-342
00	-343
risa	-344
▁vaa	-345
zonga	-346
▁sungula	-347
▁vo	-348
▁faneleke	-349
▁mb	-350
leka	-351
▁lama	-352
angu	-353
zi	-354
enhla	-355
su	-356
▁nawu	-357
ge	-358
yela	-359
▁landz	-360
▁henhla	-361
▁B	-362
mela	-363
di	-364
▁U	-365
mbo	-366
▁timhaka	-367
lave	-368
▁xitshuriwa	-369
mbela	-370
laveko	-371
▁swinene	-372
xoko	-373
▁en	-374
▁xiyenge	-375
▁mahungu	-376
▁he	-377
▁kuma	-378
rhu	-379
hlweni	-380
▁ro	-381
▁Le	-382
tu	-383
ndzha	-384
▁Afrika	-385
▁vi	-386
▁mhaka	-387
yana	-388
▁lebyi	-389
keri	-390
honi	-391
▁xin	-392
▁byo	-393
ngano	-394
▁tsha	-395
phe	-396
wini	-397
andle	-398
wis	-399
▁hina	-400
▁kombisa	-401
▁Mi	-402
▁swona	-403
▁tind	-404
kiwa	-405
tara	-406
▁exi	-407
laho	-408
ngomelo	-409
▁nghen	-410
▁yona	-411
tsongo	-412
so	-413
▁19	-414
▁yin	-415
mbulu	-416
▁fike	-417
▁bo	-418
▁yini	-419
rito	-420
kaka	-421
▁mfanelo	-422
pa	-423
siwa	-424
▁Dzonga	-425
▁tirhisiwa	-426
▁mali	-427
end	-428
▁pa	-429
▁emahlweni	-430
hloko	-431
bo	-432
▁Xana	-433
▁khu	-434
ndzi	-435
▁dyondz	-436
mp	-437
luvu	-438
melela	-439
▁mintirho	-440
▁swilaveko	-441
▁ngo	-442
mend	-443
▁ririmi	-444
yisa	-445
▁han	-446
▁Ndz	-447
tiwa	-448
tani	-449
▁kota	-450
fi	-451
awulo	-452
ndzhaku	-453
on	-454
sela	-455
kwalaho	-456
hansi	-457
▁mpfu	-458
hlamu	-459
▁matsa	-460
▁ngopfu	-461
mbirhi	-462
▁ho	-463
pha	-464
tiso	-465
mbisi	-466
fn	-467
▁milawu	-468
▁C	-469
▁matirh	-470
mbiwa	-471
▁ehansi	-472
mende	-473
▁tiyis	-474
▁endliwa	-475
fisi	-476
bu	-477
kwe	-478
▁masi	-479
telo	-480
swo	-481
tshwa	-482
▁ntsena	-483
▁siku	-484
vis	-485
▁fana	-486
▁katsa	-487
▁matimba	-488
▁twis	-489
kweni	-490
ngana	-491
▁tu	-492
▁xivu	-493
xe	-494
luvuk	-495
▁nhloko	-496
▁huma	-497
▁tla	-498
▁vaaki	-499
▁tlhela	-500
▁Hu	-501
khu	-502
pala	-503
ndzeni	-504
ehleke	-505
ca	-506
▁swivu	-507
▁Leswi	-508
▁vatirhi	-509
rile	-510
▁amuke	-511
▁tanihi	-512
riweke	-513
▁hlawu	-514
yu	-515
▁landza	-516
▁tshama	-517
▁3	-518
riwile	-519
kelo	-520
vela	-521
▁mina	-522
misa	-523
phemu	-524
▁swiko	-525
hlawu	-526
dyondzi	-527
."	-528
gi	-529
kambe	-530
▁Ndzi	-531
isiwile	-532
▁endzhaku	-533
go	-534
lembe	-535
yiso	-536
bye	-537
▁kongo	-538
kha	-539
▁het	-540
▁G	-541
za	-542
ba	-543
noko	-544
leni	-545
▁tumbulu	-546
▁marito	-547
ehleketo	-548
vula	-549
ngiri	-550
▁tiva	-551
angi	-552
van	-553
mbhoni	-554
man	-555
▁an	-556
▁tip	-557
eketela	-558
swiko	-559
▁kutani	-560
▁twa	-561
▁nti	-562
nkulu	-563
▁Ha	-564
mali	-565
tano	-566
ngiriko	-567
▁eku	-568
mis	-569
▁ndhawu	-570
hoxo	-571
jisi	-572
▁teka	-573
▁loku	-574
▁fikelela	-575
leriwa	-576
tana	-577
wihi	-578
▁handle	-579
yelo	-580
▁tsala	-581
▁fanela	-582
▁se	-583
▁ants	-584
▁pfuna	-585
▁unwana	-586
▁yinwana	-587
▁wona	-588
tsha	-589
▁tiyisisa	-590
▁kume	-591
▁200	-592
swikoti	-593
ce	-594
nyana	-595
jisitara	-596
mbiso	-597
undzu	-598
▁tiv	-599
▁hlamula	-600
mbeko	-601
▁lave	-602
▁lembe	-603
▁cin	-604
mfumo	-605
meri	-606
▁Y	-607
melelo	-608
riwaka	-609
▁suka	-610
).	-611
▁kha	-612
▁fika	-613
▁lawa	-614
do	-615
leke	-616
▁xifu	-617
▁hansi	-618
isava	-619
tisa	-620
▁W	-621
ngele	-622
lamu	-623
▁vutivi	-624
▁man	-625
tho	-626
iselo	-627
▁veki	-628
▁andla	-629
▁rhu	-630
▁lula	-631
veni	-632
▁rin	-633
hani	-634
indzu	-635
▁tim	-636
,"	-637
tlho	-638
boho	-639
▁un	-640
hiki	-641
▁rihan	-642
▁Eka	-643
chu	-644
yisi	-645
▁nhlokomhaka	-646
velo	-647
▁wun	-648
▁swilo	-649
miwa	-650
▁Huvo	-651
twa	-652
xokoxoko	-653
▁malembe	-654
▁humelela	-655
rha	-656
miti	-657
lwana	-658
▁Kho	-659
▁o	-660
▁xikongomelo	-661
▁Van	-662
▁seketela	-663
▁miehleketo	-664
vha	-665
▁nge	-666
xini	-667
ente	-668
▁swihoxo	-669
▁nh	-670
▁enge	-671
▁swe	-672
hlangano	-673
▁Ka	-674
▁mpfumelelo	-675
▁rixaka	-676
▁vana	-677
▁exikarhi	-678
kuva	-679
▁hume	-680
ense	-681
▁vun	-682
luvukiso	-683
▁sa	-684
▁tindzi	-685
▁nyikiwa	-686
▁pfuma	-687
▁Ndzawulo	-688
sati	-689
▁rhe	-690
yelana	-691
▁tlula	-692
▁ba	-693
fuwo	-694
▁199	-695
▁fambela	-696
tlawa	-697
▁hinkwayo	-698
▁hinkwavo	-699
omo	-700
teri	-701
ganga	-702
▁xiti	-703
..	-704
▁nhlamu	-705
ji	-706
vuko	-707
▁xona	-708
mbiselo	-709
▁Min	-710
▁timali	-711
▁mutirhi	-712
tiko	-713
elaka	-714
vabyi	-715
weti	-716
▁tlaku	-717
fambisi	-718
havuko	-719
▁misava	-720
▁mayelana	-721
▁hinkwaswo	-722
▁Vumbiwa	-723
er	-724
▁tano	-725
dya	-726
loko	-727
▁mp	-728
tso	-729
▁masiku	-730
▁ringana	-731
▁hinkwawo	-732
hlamuleri	-733
nene	-734
▁F	-735
▁xiphemu	-736
▁hikuva	-737
nguha	-738
▁r	-739
▁olo	-740
mana	-741
▁Xiko	-742
▁twisisa	-743
wisa	-744
▁matsalwa	-745
una	-746
▁swirho	-747
▁kan	-748
▁Rixaka	-749
ci	-750
▁Holo	-751
▁vuxokoxoko	-752
kile	-753
▁hava	-754
cha	-755
▁vutihlamuleri	-756
▁mo	-757
khe	-758
alamende	-759
▁vulavula	-760
▁mani	-761
tsi	-762
▁5	-763
▁kwa	-764
andzu	-765
▁wunwana	-766
yimeri	-767
harhu	-768
▁pula	-769
▁tshe	-770
tlha	-771
▁tindlela	-772
mile	-773
tswa	-774
hambana	-775
yili	-776
▁ringan	-777
iseka	-778
▁timfanelo	-779
▁4	-780
▁swivutiso	-781
pho	-782
▁teki	-783
▁hambi	-784
rhele	-785
▁nka	-786
▁hundza	-787
▁matiko	-788
▁famba	-789
▁'	-790
henhla	-791
isiweke	-792
▁xivi	-793
mha	-794
niwa	-795
▁kombela	-796
tirhisiwa	-797
xt	-798
▁vuswikoti	-799
tomi	-800
▁hikwalaho	-801
sipala	-802
▁<	-803
ngho	-804
▁hundz	-805
</	-806
txt	-807
▁tshi	-808
▁yisa	-809
laka	-810
▁te	-811
pila	-812
▁eti	-813
▁Holobye	-814
fambiselo	-815
chumu	-816
chi	-817
sungu	-818
▁nghe	-819
▁matirhiselo	-820
vang	-821
aha	-822
▁amukeleka	-823
▁tho	-824
▁teke	-825
▁ge	-826
ris	-827
▁cha	-828
xiweke	-829
tolo	-830
▁hungu	-831
▁endlelo	-832
▁hundzu	-833
▁hlamusela	-834
▁vuge	-835
▁ehleke	-836
▁ehenhla	-837
ndla	-838
▁hake	-839
▁tindhawu	-840
▁cinca	-841
▁tlhelo	-842
vangelo	-843
...	-844
mboro	-845
▁heri	-846
Xi	-847
teriwa	-848
hlengele	-849
▁vumbhoni	-850
▁rihanyo	-851
phi	-852
▁rona	-853
selo	-854
helo	-855
vandla	-856
lisi	-857
▁wihi	-858
resi	-859
▁Palamende	-860
rhang	-861
▁amukela	-862
rasi	-863
xiwa	-864
hlangan	-865
keni	-866
▁nhlangano	-867
isaveni	-868
▁nkhu	-869
▁Mfumo	-870
▁kombe	-871
▁Ko	-872
lele	-873
ungu	-874
▁vutomi	-875
▁maend	-876
▁swinwana	-877
kisi	-878
wakudya	-879
▁lemu	-880
▁tsundzu	-881
▁tindzimi	-882
▁landzelaka	-883
thori	-884
▁landzelela	-885
munhu	-886
yisiwa	-887
▁dyondzo	-888
pimo	-889
▁vuko	-890
▁xiha	-891
▁ximfumo	-892
ga	-893
▁tsakela	-894
▁xik	-895
ofisi	-896
▁bu	-897
nomi	-898
▁lawu	-899
▁fambelana	-900
▁tsalwa	-901
holisi	-902
▁andlariwile	-903
ongonoko	-904
▁hlangan	-905
▁nyike	-906
▁xinwana	-907
rhokeri	-908
yisense	-909
▁nyiki	-910
▁6	-911
resid	-912
rhangeri	-913
the	-914
laha	-915
▁hlayisa	-916
▁vundzeni	-917
hlengeletano	-918
▁hlo	-919
holo	-920
tshi	-921
khonomi	-922
tsari	-923
▁nandzu	-924
10	-925
tele	-926
residente	-927
▁switirhisiwa	-928
▁ringe	-929
▁swiyenge	-930
▁swiyimo	-931
isela	-932
leswi	-933
▁nghena	-934
pu	-935
vhi	-936
hele	-937
▁hela	-938
▁engetela	-939
.2	-940
tayili	-941
ise	-942
ndzhan	-943
▁nchumu	-944
gingiriko	-945
ndzhankulu	-946
▁xiboho	-947
laya	-948
▁ntiyiso	-949
phorisa	-950
de	-951
DP	-952
▁kambis	-953
▁swakudya	-954
▁Tsa	-955
leriso	-956
▁hlaya	-957
▁nhluvukiso	-958
angala	-959
▁Hambi	-960
▁ndza	-961
leteri	-962
▁mbangu	-963
▁nongo	-964
farhu	-965
▁kala	-966
▁pfumele	-967
kaya	-968
▁vito	-969
▁tirhisiwile	-970
wuri	-971
▁mafambiselo	-972
▁nkhulu	-973
venga	-974
▁komba	-975
▁Misaveni	-976
▁tsandz	-977
engo	-978
kisa	-979
sungulo	-980
▁hakela	-981
tirhweni	-982
nyi	-983
wina	-984
kumbe	-985
▁kusu	-986
pimelo	-987
▁thoni	-988
▁tivisa	-989
lawuri	-990
viwa	-991
▁xitsa	-992
hlayis	-993
▁huvo	-994
▁re	-995
▁tiyi	-996
▁,	-997
▁sime	-998
▁vulawuri	-999
▁khoto	-1000
),	-1001
▁ikhonomi	-1002
tshala	-1003
▁muganga	-1004
hingiriko	-1005
Ma	-1006
▁fomo	-1007
▁sweswi	-1008
▁nakambe	-1009
▁rinwana	-1010
▁pfa	-1011
▁landzele	-1012
▁nghenelela	-1013
Afrika	-1014
▁matsalelo	-1015
▁xikan	-1016
▁kongoma	-1017
▁xihatla	-1018
hana	-1019
▁Xiyenge	-1020
▁phe	-1021
▁nongonoko	-1022
viso	-1023
▁antswisa	-1024
▁Dyondz	-1025
tshila	-1026
▁xirho	-1027
▁humele	-1028
▁vutisa	-1029
ntshwa	-1030
mban	-1031
andza	-1032
tolovelo	-1033
mhakeni	-1034
goza	-1035
erile	-1036
handle	-1037
xik	-1038
twan	-1039
▁on	-1040
▁hilaha	-1041
▁pi	-1042
isisa	-1043
▁vukorhokeri	-1044
yangu	-1045
▁kumeka	-1046
▁maendlelo	-1047
ed	-1048
qo	-1049
▁tona	-1050
po	-1051
▁pfumelela	-1052
visa	-1053
▁olova	-1054
▁yihi	-1055
▁Na	-1056
pe	-1057
fhu	-1058
phiqo	-1059
tswari	-1060
▁nj	-1061
▁bindzu	-1062
▁hinkwato	-1063
▁xana	-1064
▁migingiriko	-1065
hakelo	-1066
▁hofisi	-1067
▁endlela	-1068
hundzu	-1069
kelano	-1070
▁Presidente	-1071
isana	-1072
da	-1073
▁khale	-1074
hela	-1075
▁Tirh	-1076
▁Vanhu	-1077
▁nkhulukelano	-1078
paxo	-1079
kokwalaho	-1080
▁nhlamulo	-1081
▁bi	-1082
▁dya	-1083
▁tekiwa	-1084
▁sukela	-1085
tiki	-1086
fe	-1087
hweti	-1088
▁Ta	-1089
twanano	-1090
▁xivumbeko	-1091
▁ke	-1092
visiso	-1093
▁langut	-1094
▁mpimo	-1095
▁lavaka	-1096
tile	-1097
▁maku	-1098
▁swipimelo	-1099
▁leha	-1100
▁kunguha	-1101
miso	-1102
chini	-1103
ofisiri	-1104
kana	-1105
▁tlakusa	-1106
▁ndhavuko	-1107
basa	-1108
▁dyondza	-1109
▁laveka	-1110
▁mudyondzi	-1111
nti	-1112
seke	-1113
sele	-1114
▁Kha	-1115
tirhis	-1116
▁Kambe	-1117
▁khumb	-1118
▁minkarhi	-1119
▁lu	-1120
▁gezi	-1121
vumbeko	-1122
▁pfune	-1123
▁languta	-1124
Dzonga	-1125
▁vekiwa	-1126
▁xandla	-1127
▁xopaxo	-1128
.1	-1129
mila	-1130
ulani	-1131
▁fu	-1132
kati	-1133
▁pro	-1134
risi	-1135
▁tse	-1136
kanyo	-1137
bindzu	-1138
hlokweni	-1139
▁nghenisa	-1140
tshun	-1141
ngen	-1142
▁nya	-1143
▁ehandle	-1144
▁veka	-1145
yan	-1146
▁Mabasa	-1147
▁masipala	-1148
▁matirhelo	-1149
kanelo	-1150
▁fambisa	-1151
▁ntsengo	-1152
▁swifu	-1153
▁pulana	-1154
yengen	-1155
▁lemuka	-1156
▁Dyondzo	-1157
▁ehleketa	-1158
▁emhakeni	-1159
▁IDP	-1160
▁Hlamu	-1161
▁Munhu	-1162
▁kwihi	-1163
▁kambela	-1164
▁emi	-1165
▁mim	-1166
▁mpfa	-1167
▁rhejisitara	-1168
▁Yi	-1169
lowo	-1170
teme	-1171
▁tshu	-1172
tlangu	-1173
▁lulamisa	-1174
tirhela	-1175
▁lavekaka	-1176
▁enela	-1177
▁hleriwa	-1178
▁vugevenga	-1179
010	-1180
tsong	-1181
▁vekiweke	-1182
▁Mati	-1183
▁khoma	-1184
tumbulu	-1185
▁ringeta	-1186
von	-1187
▁anga	-1188
▁yela	-1189
▁hlangana	-1190
▁enhlokweni	-1191
▁swikongomelo	-1192
▁g	-1193
fike	-1194
▁masungulo	-1195
▁mbi	-1196
▁ying	-1197
valeni	-1198
yengentsongo	-1199
tha	-1200
▁xis	-1201
tirhisi	-1202
rhijisitara	-1203
▁7	-1204
vets	-1205
▁tlu	-1206
pfuno	-1207
▁tumbuluxa	-1208
sirhele	-1209
▁xopaxopi	-1210
▁vadyondzi	-1211
kovets	-1212
▁pfumala	-1213
▁tirhisiwaka	-1214
▁vumbiwa	-1215
▁hambanahambana	-1216
▁nt	-1217
▁kote	-1218
▁mav	-1219
▁pha	-1220
▁hluvuk	-1221
▁vuleteri	-1222
letelo	-1223
rhelela	-1224
!"	-1225
▁tikho	-1226
▁wolowo	-1227
▁xivutiso	-1228
tlhokovets	-1229
▁No	-1230
dela	-1231
▁yima	-1232
▁minhlangano	-1233
▁Pa	-1234
niki	-1235
▁yimela	-1236
rhela	-1237
qa	-1238
▁laya	-1239
▁mintlawa	-1240
▁rito	-1241
▁hakeriwa	-1242
▁layisense	-1243
tiwile	-1244
ntsongo	-1245
▁tika	-1246
▁hangala	-1247
▁fikela	-1248
▁hlawula	-1249
jeke	-1250
yele	-1251
▁aka	-1252
nawana	-1253
▁tivi	-1254
tiweke	-1255
▁tata	-1256
▁movha	-1257
5.	-1258
marito	-1259
▁Xitayili	-1260
▁hundzulu	-1261
▁SA	-1262
▁ve	-1263
huvo	-1264
▁kusuhi	-1265
▁Xitshuriwa	-1266
▁nhlamuselo	-1267
▁vele	-1268
▁Tsala	-1269
▁humesa	-1270
▁tsandzeka	-1271
tati	-1272
or	-1273
dza	-1274
▁vurimi	-1275
▁xileriso	-1276
▁La	-1277
huro	-1278
▁vanga	-1279
▁pfuneta	-1280
▁tihakelo	-1281
▁katsi	-1282
tshungu	-1283
tsonga	-1284
▁endlaka	-1285
▁Xivumbeko	-1286
▁amukeriwa	-1287
Ndzi	-1288
▁von	-1289
▁Tirhisa	-1290
wulo	-1291
▁nkha	-1292
▁ntolovelo	-1293
hlu	-1294
hlayiseki	-1295
▁xitsalwana	-1296
▁8	-1297
hiwa	-1298
▁tirhi	-1299
▁endzeni	-1300
▁Xikombiso	-1301
Vu	-1302
yen	-1303
▁vang	-1304
▁Ririmi	-1305
bi	-1306
▁Ng	-1307
khodo	-1308
▁Sa	-1309
isiteme	-1310
▁eAfrika	-1311
▁nyikiweke	-1312
▁mbu	-1313
ndzo	-1314
hala	-1315
▁Nyi	-1316
faniso	-1317
mpfarhu	-1318
tsundzu	-1319
▁nhlayo	-1320
▁sivela	-1321
▁rhumela	-1322
isile	-1323
▁vuvabyi	-1324
▁vulavu	-1325
▁etikweni	-1326
▁tindz	-1327
NG	-1328
tion	-1329
▁Si	-1330
▁vumba	-1331
▁l	-1332
okodela	-1333
tsakanyo	-1334
ankulu	-1335
▁vaaka	-1336
▁xihlawu	-1337
cho	-1338
qato	-1339
raka	-1340
▁Mintirho	-1341
▁nkhaqato	-1342
mun	-1343
demo	-1344
▁vukati	-1345
▁yelana	-1346
hisi	-1347
▁riki	-1348
lulami	-1349
▁ndzavisiso	-1350
▁j	-1351
tlhelo	-1352
▁xitiviso	-1353
fana	-1354
lomu	-1355
▁hanya	-1356
tlhan	-1357
▁tirhaka	-1358
wara	-1359
▁mavon	-1360
▁muthori	-1361
▁xiswona	-1362
ete	-1363
▁wan	-1364
▁vutshila	-1365
▁th	-1366
dyondzo	-1367
kunguha	-1368
tima	-1369
▁hetiseka	-1370
aka	-1371
byo	-1372
vanyisi	-1373
▁minongonoko	-1374
jis	-1375
▁Nd	-1376
misiwa	-1377
▁xifundza	-1378
▁tihlangan	-1379
IV	-1380
▁00	-1381
▁10	-1382
mani	-1383
▁kun	-1384
kwana	-1385
mbuyelo	-1386
▁swivulwa	-1387
qi	-1388
▁/	-1389
visi	-1390
▁nyama	-1391
▁nomboro	-1392
▁Vumbhoni	-1393
▁Vuswikoti	-1394
thi	-1395
▁vava	-1396
▁vuye	-1397
risiwa	-1398
▁vonaka	-1399
▁swimila	-1400
▁Nhlangano	-1401
dyondzisi	-1402
▁tirhisana	-1403
▁Nh	-1404
▁ndzimana	-1405
▁sayi	-1406
ndle	-1407
tulu	-1408
ekile	-1409
▁kane	-1410
▁mongo	-1411
▁ntlawa	-1412
vhe	-1413
▁rhandza	-1414
▁swivangelo	-1415
▁Hlaya	-1416
▁sirhelela	-1417
▁hele	-1418
▁tinyi	-1419
SA	-1420
▁9	-1421
tlhanu	-1422
▁xivulwa	-1423
▁antswa	-1424
xeko	-1425
▁hetelela	-1426
▁tumbuluxiweke	-1427
▁Tiko	-1428
-2	-1429
liki	-1430
▁eri	-1431
▁byela	-1432
ndlu	-1433
▁ndla	-1434
▁Bo	-1435
▁nsati	-1436
▁swivi	-1437
▁pholisi	-1438
▁hinkwaro	-1439
mukeri	-1440
tshe	-1441
▁tlhe	-1442
▁Khomi	-1443
▁xidemo	-1444
nsi	-1445
kombe	-1446
lwini	-1447
▁ekho	-1448
fhumba	-1449
fiketi	-1450
seriwa	-1451
▁njhani	-1452
▁papila	-1453
mbisiwa	-1454
▁hlawuleka	-1455
▁hle	-1456
▁Milawu	-1457
▁vuxaka	-1458
▁maphorisa	-1459
▁nghingiriko	-1460
lani	-1461
mbuli	-1462
▁Ntirho	-1463
▁swiboho	-1464
eli	-1465
▁ana	-1466
neto	-1467
rungu	-1468
▁fambis	-1469
ndzankulu	-1470
▁vufambisi	-1471
▁Nhluvukiso	-1472
yiwa	-1473
hlovo	-1474
▁xikolo	-1475
▁mabindzu	-1476
endli	-1477
▁di	-1478
hika	-1479
kani	-1480
misela	-1481
andlalelo	-1482
▁tia	-1483
ngopfu	-1484
▁rihanyu	-1485
▁ximunhu	-1486
▁vatswari	-1487
▁tihlanganisa	-1488
▁nwi	-1489
03	-1490
MS	-1491
wiri	-1492
risana	-1493
muntlha	-1494
▁xihlawuhlawu	-1495
▁vanwana	-1496
▁kaya	-1497
hawini	-1498
▁tsariwa	-1499
▁Re	-1500
maki	-1501
meriwa	-1502
▁hunguta	-1503
▁mavabyi	-1504
tirhisano	-1505
bed	-1506
tsu	-1507
▁12	-1508
010-	-1509
▁kurisa	-1510
▁vuhlayiseki	-1511
talo	-1512
tivo	-1513
.2010-	-1514
▁198	-1515
▁HIV	-1516
▁hatl	-1517
▁ngho	-1518
▁endleka	-1519
▁xikarhi	-1520
▁ndzawulo	-1521
▁xivilelo	-1522
wane	-1523
▁kasi	-1524
tekanelo	-1525
▁nhundzu	-1526
▁nhlayiso	-1527
▁muxaka	-1528
▁vaamukeri	-1529
kwama	-1530
▁muholo	-1531
▁tidyondzo	-1532
▁xiyengentsongo	-1533
leyo	-1534
▁vuriwa	-1535
aki	-1536
kanya	-1537
▁Laha	-1538
▁xihi	-1539
▁mfuwo	-1540
ati	-1541
celwa	-1542
komberi	-1543
▁vandla	-1544
▁15	-1545
kona	-1546
ramu	-1547
▁mbilu	-1548
avanyisi	-1549
▁swiphiqo	-1550
▁30	-1551
▁the	-1552
▁nhlengeletano	-1553
▁vup	-1554
▁veke	-1555
▁endle	-1556
▁erivaleni	-1557
▁entirhweni	-1558
▁Khoto	-1559
oli	-1560
onal	-1561
▁Hikwalaho	-1562
▁dz	-1563
kamberi	-1564
kunguhato	-1565
▁Hlamusela	-1566
GO	-1567
▁Mb	-1568
▁mimb	-1569
hofisi	-1570
▁Nkarhi	-1571
▁ndzhaka	-1572
▁xivangelo	-1573
▁vama	-1574
▁lavi	-1575
▁...	-1576
▁mahlo	-1577
▁khumbe	-1578
▁hikokwalaho	-1579
tlhokovetselo	-1580
yeto	-1581
▁sweswo	-1582
▁kumekaka	-1583
▁endliweke	-1584
▁fanelangi	-1585
▁pas	-1586
▁Mutirhi	-1587
▁khomiwa	-1588
tshunguri	-1589
▁hluvukisa	-1590
▁Hambileswi	-1591
▁maandlalelo	-1592
vito	-1593
hikiz	-1594
▁vuxo	-1595
▁ntsha	-1596
▁amukeri	-1597
tsundzuxo	-1598
tumbuluko	-1599
ndlamu	-1600
▁mpfampfarhu	-1601
eko	-1602
tori	-1603
▁voni	-1604
fungho	-1605
▁magoza	-1606
rungulwana	-1607
▁Byi	-1608
eriwa	-1609
▁hlayis	-1610
GOV	-1611
-25.	-1612
▁tis	-1613
03-25.	-1614
▁ntwanano	-1615
.2010-03-25.	-1616
▁hlu	-1617
tlhon	-1618
▁Nyika	-1619
ulu	-1620
▁xe	-1621
▁Siku	-1622
▁xava	-1623
▁tekela	-1624
▁Timhaka	-1625
▁henhlanyana	-1626
▁xopaxopiwile	-1627
▁20	-1628
ngolo	-1629
▁tshika	-1630
▁muofisiri	-1631
▁xikombiso	-1632
Ku	-1633
godi	-1634
▁000	-1635
▁xan	-1636
qingho	-1637
seketelo	-1638
▁kwalomu	-1639
▁twisiseka	-1640
seri	-1641
▁tikombisa	-1642
▁tindzawulo	-1643
▁XI	-1644
fula	-1645
▁tihuvo	-1646
▁Endzhaku	-1647
▁kamberiwa	-1648
▁ringanela	-1649
▁wonge	-1650
▁tinwana	-1651
▁vululami	-1652
▁moya	-1653
▁tila	-1654
▁twan	-1655
ndzele	-1656
tsariso	-1657
▁mbuyelo	-1658
▁xifundzhankulu	-1659
ngani	-1660
vhani	-1661
▁miri	-1662
▁mirhi	-1663
▁swipfuno	-1664
▁fambisana	-1665
▁kunguhatiwile	-1666
LA	-1667
Mi	-1668
▁tisa	-1669
hlamulo	-1670
▁vulaka	-1671
tshalatshala	-1672
lehi	-1673
vele	-1674
▁dla	-1675
ngela	-1676
▁xihu	-1677
chovhani	-1678
tlhontlho	-1679
▁mimbangu	-1680
▁vumbirhi	-1681
▁swikombelo	-1682
▁mahan	-1683
▁pulani	-1684
▁et	-1685
yeri	-1686
▁mune	-1687
▁ntshun	-1688
▁Machovhani	-1689
ID	-1690
▁So	-1691
hile	-1692
yang	-1693
▁rha	-1694
▁vut	-1695
mbiko	-1696
▁navela	-1697
▁nghozi	-1698
▁tik	-1699
thelo	-1700
ulavu	-1701
keriwa	-1702
▁lawula	-1703
▁ntumbuluko	-1704
▁swikombiso	-1705
▁fambelanaka	-1706
mula	-1707
wela	-1708
▁mapa	-1709
▁nyiko	-1710
lwambiko	-1711
▁sisiteme	-1712
IS	-1713
nt	-1714
▁O	-1715
▁rejis	-1716
▁yisiwa	-1717
▁thoriwa	-1718
▁ala	-1719
mbewu	-1720
▁mana	-1721
▁cinci	-1722
▁rhang	-1723
xina	-1724
fambo	-1725
▁koti	-1726
phakelo	-1727
▁nyiketa	-1728
▁Khomixini	-1729
▁mimbuyelo	-1730
Hi	-1731
▁ndyangu	-1732
riwi	-1733
▁patu	-1734
▁tikha	-1735
▁tiyisa	-1736
▁Vundzeni	-1737
▁tindzimana	-1738
▁xip	-1739
hensa	-1740
▁nwana	-1741
▁Mudyondzi	-1742
▁vugembuli	-1743
▁.	-1744
ase	-1745
▁Nts	-1746
▁nxa	-1747
▁boha	-1748
▁riva	-1749
▁tive	-1750
▁miganga	-1751
▁tinxaka	-1752
▁Vulawuri	-1753
▁hlayisiwa	-1754
hli	-1755
▁Wa	-1756
loye	-1757
sume	-1758
▁tima	-1759
▁Endla	-1760
▁swiha	-1761
▁madyondz	-1762
tere	-1763
▁vayimeri	-1764
▁hinkwabyo	-1765
▁matekanelo	-1766
▁GE	-1767
mbye	-1768
miweke	-1769
▁pfumeleriwa	-1770
phakeri	-1771
hlamuselo	-1772
tatimende	-1773
▁ntirhisano	-1774
yani	-1775
viwile	-1776
▁swiphemu	-1777
hlanganisi	-1778
▁namuntlha	-1779
▁nseketelo	-1780
hatwa	-1781
▁langute	-1782
▁pfumaleka	-1783
▁hlanganisa	-1784
▁xitifiketi	-1785
▁1996	-1786
▁taka	-1787
▁ekaya	-1788
▁xiviko	-1789
▁ntlhanu	-1790
fomo	-1791
vulwa	-1792
▁lavis	-1793
▁mahika	-1794
kamberiwa	-1795
▁boxiweke	-1796
▁fanerile	-1797
▁hlama	-1798
▁Vatirhi	-1799
▁swifuwo	-1800
▁herisa	-1801
▁mambirhi	-1802
▁velekiwa	-1803
nya	-1804
ran	-1805
▁Ga	-1806
▁li	-1807
▁GEMS	-1808
▁xina	-1809
ndzuku	-1810
▁Komiti	-1811
▁lahleke	-1812
nko	-1813
▁mila	-1814
▁sala	-1815
▁Swiko	-1816
▁Xitsa	-1817
▁angarhela	-1818
yoni	-1819
▁Tim	-1820
ekeke	-1821
▁vile	-1822
▁pfuniwa	-1823
▁humesiwa	-1824
▁do	-1825
enti	-1826
mpani	-1827
▁mind	-1828
▁dlaya	-1829
hurojeke	-1830
wiritano	-1831
▁herisiwa	-1832
▁tivisiwa	-1833
▁matshalatshala	-1834
movha	-1835
▁Ndza	-1836
▁biha	-1837
▁tolo	-1838
▁Swifu	-1839
▁tlheri	-1840
▁mukomberi	-1841
▁ndzhavuko	-1842
▁pfuxe	-1843
▁hakona	-1844
▁ntsariso	-1845
mbiswiritano	-1846
waka	-1847
fikhe	-1848
manga	-1849
tivomarito	-1850
men	-1851
tivi	-1852
▁komiti	-1853
▁mpfuneto	-1854
▁yingisela	-1855
▁tlha	-1856
▁nkulu	-1857
▁yakwe	-1858
tirheli	-1859
▁kombisi	-1860
▁ntlangu	-1861
▁pfumela	-1862
▁mahlweni	-1863
▁khan	-1864
olitiki	-1865
▁ndzhawu	-1866
▁0	-1867
mabu	-1868
▁lwa	-1869
anana	-1870
▁kula	-1871
asesele	-1872
karhini	-1873
▁vumaki	-1874
▁mphakelo	-1875
▁xilaveko	-1876
▁ndlandlamu	-1877
▁kambisisiwile	-1878
▁Timfanelo	-1879
▁Ba	-1880
▁sw	-1881
redi	-1882
▁Tani	-1883
hasipala	-1884
▁tsakelaka	-1885
▁xirungulwana	-1886
▁xitlhokovetselo	-1887
IR	-1888
▁gi	-1889
mente	-1890
▁rihi	-1891
▁kwala	-1892
▁tinyike	-1893
▁tipolitiki	-1894
haku	-1895
▁Hla	-1896
▁nuna	-1897
▁Nomboro	-1898
▁tikomba	-1899
▁madyondza	-1900
▁tsariweke	-1901
4.	-1902
riwe	-1903
▁tirhana	-1904
▁mahikaha	-1905
▁nhlawulo	-1906
▁xika	-1907
misaveni	-1908
▁sirhele	-1909
▁vutshunguri	-1910
ngh	-1911
▁bohe	-1912
▁thya	-1913
▁eneri	-1914
▁endliwaka	-1915
shi	-1916
▁hin	-1917
winyi	-1918
▁vangi	-1919
▁Xikongomelo	-1920
▁amukelekaka	-1921
IDS	-1922
▁pho	-1923
▁Boxa	-1924
▁kayi	-1925
tsongwa	-1926
▁vuyimeri	-1927
▁hlamuseri	-1928
▁tsundzuka	-1929
1.	-1930
hina	-1931
kumu	-1932
▁map	-1933
swaku	-1934
▁laman	-1935
▁kondle	-1936
▁tshike	-1937
▁hundzeke	-1938
▁vavasati	-1939
▁xihundla	-1940
▁emisaveni	-1941
▁pfumalaka	-1942
ako	-1943
vhinsi	-1944
▁Langu	-1945
▁timbirhi	-1946
tte	-1947
▁timi	-1948
▁antswi	-1949
▁wanuna	-1950
▁kayivela	-1951
9.	-1952
▁ii	-1953
vice	-1954
▁nono	-1955
▁Nongonoko	-1956
▁murhijisitara	-1957
▁1.	-1958
▁ivi	-1959
▁mafu	-1960
▁nyan	-1961
chayeri	-1962
hikizano	-1963
▁muthelo	-1964
▁tirhela	-1965
tsongwana	-1966
▁swicelwa	-1967
▁mahanyelo	-1968
lungu	-1969
▁Mhaka	-1970
▁makungu	-1971
▁komberiwa	-1972
▁varhangeri	-1973
7.	-1974
NA	-1975
nghana	-1976
fikheti	-1977
▁Rhu	-1978
▁chu	-1979
visisi	-1980
▁vahla	-1981
▁katsiwa	-1982
▁dokodela	-1983
▁fanelanga	-1984
▁mutirhisi	-1985
▁swiletelo	-1986
▁mpfampfarhutiwa	-1987
▁Tin	-1988
▁muchini	-1989
▁tsundzuxa	-1990
Swi	-1991
siku	-1992
▁tiku	-1993
▁mavito	-1994
▁pfunaka	-1995
▁nyiketiwa	-1996
th	-1997
▁18	-1998
phab	-1999
lenge	-2000
yense	-2001
siwana	-2002
▁tiawara	-2003
▁tshemba	-2004
▁tshamaka	-2005
▁Mo	-2006
▁fo	-2007
loji	-2008
kwerhu	-2009
phabliki	-2010
kimi	-2011
▁Swa	-2012
▁humaka	-2013
▁tsarisa	-2014
▁of	-2015
▁seke	-2016
▁khume	-2017
▁hakeri	-2018
▁manana	-2019
▁tikweni	-2020
▁mavandla	-2021
▁vantshwa	-2022
▁langutisa	-2023
▁mahikahatelo	-2024
tsongwatsongwana	-2025
▁2.	-2026
kane	-2027
rini	-2028
▁bye	-2029
khomi	-2030
▁vuya	-2031
▁yele	-2032
ungula	-2033
▁Vantima	-2034
▁swivandla	-2035
pfarhu	-2036
▁Swirho	-2037
▁khombo	-2038
▁kunene	-2039
▁mavoko	-2040
jhe	-2041
▁xu	-2042
krasi	-2043
▁koma	-2044
▁rhula	-2045
▁siviwile	-2046
▁mutirhela	-2047
Byi	-2048
▁po	-2049
mpfi	-2050
▁Ser	-2051
isele	-2052
▁rifu	-2053
risano	-2054
▁yeleyo	-2055
▁Mahungu	-2056
▁matikho	-2057
▁khumbhaka	-2058
WA	-2059
st	-2060
mpi	-2061
manana	-2062
▁Matirh	-2063
bya	-2064
▁Vi	-2065
▁vuxop	-2066
▁michini	-2067
jisitarata	-2068
▁Nawumbisi	-2069
▁fambelani	-2070
▁Hikokwalaho	-2071
nu	-2072
handz	-2073
▁kandzi	-2074
▁hlengele	-2075
▁switirho	-2076
▁hlawuriwa	-2077
▁swimbirhi	-2078
kumba	-2079
▁ntsa	-2080
▁xixi	-2081
khombo	-2082
kumende	-2083
▁rimbewu	-2084
▁Seketela	-2085
yini	-2086
▁evu	-2087
▁vavis	-2088
▁vhiki	-2089
iseriwa	-2090
▁matimu	-2091
▁simeka	-2092
▁Service	-2093
▁burisana	-2094
▁nkatsakanyo	-2095
▁nsi	-2096
▁mimovha	-2097
▁simekiwa	-2098
▁langutana	-2099
xiya	-2100
▁phu	-2101
▁Mpfu	-2102
▁byin	-2103
mbano	-2104
▁2002	-2105
▁tsema	-2106
sirhelelo	-2107
▁mufambisi	-2108
▁fikelelangi	-2109
▁16	-2110
▁Lo	-2111
seka	-2112
▁tib	-2113
▁goza	-2114
▁rivi	-2115
▁wakwe	-2116
▁khumba	-2117
▁voniwa	-2118
▁mitirho	-2119
▁swinawana	-2120
tic	-2121
▁mpa	-2122
▁xig	-2123
▁Xifu	-2124
xu	-2125
buku	-2126
leki	-2127
tand	-2128
kirasi	-2129
kolweni	-2130
▁hatlisa	-2131
▁manwana	-2132
▁milandzu	-2133
▁swivilelo	-2134
▁humelelaka	-2135
rikhu	-2136
▁hoxa	-2137
▁vika	-2138
tekani	-2139
▁yoloye	-2140
▁endleke	-2141
▁tirhisi	-2142
▁lavisisa	-2143
▁mavonelo	-2144
▁nkunguhato	-2145
▁tilayisense	-2146
▁cela	-2147
▁xexo	-2148
ulavulo	-2149
▁vuenti	-2150
▁xavisa	-2151
▁khumbhe	-2152
▁xikanwe	-2153
▁nghenisiwa	-2154
▁lahlekeriwa	-2155
nda	-2156
tli	-2157
▁Ho	-2158
amba	-2159
hosi	-2160
vuri	-2161
▁Vaaki	-2162
▁piman	-2163
rikhulamu	-2164
▁tikomiti	-2165
▁rhumeriwa	-2166
kulo	-2167
piman	-2168
sweti	-2169
▁heta	-2170
▁vuyi	-2171
▁lerisa	-2172
▁vurhangeri	-2173
3.	-2174
fo	-2175
▁Se	-2176
liyoni	-2177
▁Nkwama	-2178
▁Vulehi	-2179
▁ndzeni	-2180
▁xitalo	-2181
▁Ndzhaka	-2182
▁kotekaka	-2183
▁tekeriwa	-2184
▁humelerisa	-2185
▁Ge	-2186
▁ye	-2187
kete	-2188
endlo	-2189
kangi	-2190
khale	-2191
kheta	-2192
▁karha	-2193
▁pheji	-2194
▁tatana	-2195
▁mutsari	-2196
▁tiphina	-2197
▁tsakisa	-2198
▁Swivulwa	-2199
▁vuxoperi	-2200
▁langutela	-2201
▁provhinsi	-2202
0.	-2203
▁khe	-2204
ngiki	-2205
▁mufi	-2206
▁Misava	-2207
▁nhweti	-2208
▁tshemb	-2209
▁etlhelo	-2210
leti	-2211
ngha	-2212
riso	-2213
noloji	-2214
▁yaleyo	-2215
leriweke	-2216
▁milenge	-2217
▁Miehleketo	-2218
▁antswisiwa	-2219
▁ntshunxeko	-2220
▁w	-2221
▁susa	-2222
▁vukheta	-2223
Xitshuriwa	-2224
poto	-2225
hangu	-2226
▁Nhla	-2227
▁Hlawu	-2228
▁thola	-2229
▁tshun	-2230
▁rivilo	-2231
▁swifaniso	-2232
▁fikeleriwa	-2233
▁swifundzhankulu	-2234
▁hlan	-2235
kiniki	-2236
▁switi	-2237
▁tipro	-2238
▁tinhweti	-2239
▁vuriwaka	-2240
▁kongomisa	-2241
▁xivo	-2242
tlhari	-2243
▁swihi	-2244
▁Xiyimo	-2245
▁khensa	-2246
▁mahala	-2247
▁emakumu	-2248
▁riqingho	-2249
katsakanyo	-2250
▁fe	-2251
▁palu	-2252
▁muhla	-2253
▁ekhoto	-2254
▁tlangela	-2255
▁exikolweni	-2256
▁switsundzuxo	-2257
▁xifundzankulu	-2258
ty	-2259
▁Vula	-2260
▁amba	-2261
▁onha	-2262
kelelo	-2263
▁nyikana	-2264
▁hundzuka	-2265
▁endhawini	-2266
▁tsarisiwa	-2267
▁by	-2268
toko	-2269
▁humi	-2270
nyingi	-2271
▁ngati	-2272
▁tiphe	-2273
▁enkarhini	-2274
▁tiyimisela	-2275
▁langutisisa	-2276
▁xitsalwambiko	-2277
be	-2278
mpfu	-2279
yeta	-2280
ngelo	-2281
▁Tind	-2282
▁ntila	-2283
▁tshuka	-2284
▁mavonele	-2285
▁Hambiswiritano	-2286
ch	-2287
ter	-2288
▁Co	-2289
refu	-2290
sile	-2291
tini	-2292
khawu	-2293
▁koka	-2294
▁hetis	-2295
▁kaneta	-2296
▁kumiwa	-2297
▁tshiki	-2298
▁be	-2299
▁eP	-2300
teko	-2301
iseki	-2302
▁onge	-2303
▁xiba	-2304
▁chava	-2305
isiwaka	-2306
▁vatirhisi	-2307
▁languteriwa	-2308
tiho	-2309
▁tido	-2310
phepha	-2311
▁Papila	-2312
▁Pholisi	-2313
▁tumbuluxiwa	-2314
)?	-2315
uni	-2316
koka	-2317
▁emu	-2318
nkomiso	-2319
▁xitulu	-2320
▁matirhele	-2321
▁mindyangu	-2322
▁Gi	-2323
▁du	-2324
meke	-2325
▁muyimeri	-2326
▁nghenela	-2327
▁hinkwerhu	-2328
thu	-2329
weta	-2330
tshami	-2331
veriwa	-2332
bukwana	-2333
▁Hofisi	-2334
▁Timali	-2335
▁Xikombelo	-2336
▁Xitsalwana	-2337
▁nkarhinyana	-2338
ja	-2339
ur	-2340
inca	-2341
▁Mali	-2342
▁vala	-2343
bumabu	-2344
▁khomi	-2345
▁titwa	-2346
▁letela	-2347
▁vanghana	-2348
▁yelanaka	-2349
▁khumbekaka	-2350
IM	-2351
▁11	-2352
khan	-2353
▁ntu	-2354
▁hlamban	-2355
YE	-2356
kele	-2357
mawulo	-2358
vanyisa	-2359
▁hlohlo	-2360
hundzulu	-2361
▁Hlawula	-2362
▁xiphiqo	-2363
hlawulelo	-2364
▁tumbuluxi	-2365
▁vulavisisi	-2366
▁landzeleriwa	-2367
.?	-2368
RM	-2369
▁hox	-2370
mbula	-2371
▁endz	-2372
▁lomu	-2373
▁khopi	-2374
▁Tanihi	-2375
▁susiwa	-2376
▁tibuku	-2377
▁vusweti	-2378
▁swiharhi	-2379
▁tinharhu	-2380
▁hlamuseriweke	-2381
NGE	-2382
vhele	-2383
▁Xiti	-2384
▁boxa	-2385
▁tirhe	-2386
▁twala	-2387
ational	-2388
simende	-2389
▁vonelo	-2390
▁vuntshwa	-2391
iseri	-2392
nghozi	-2393
▁Tikho	-2394
▁Manana	-2395
▁hamban	-2396
▁kumile	-2397
▁saseka	-2398
▁xikaya	-2399
National	-2400
khawunti	-2401
▁longolo	-2402
▁tshungu	-2403
▁rhekhodo	-2404
▁kombisiwa	-2405
▁xifundzha	-2406
▁14	-2407
▁Ne	-2408
bula	-2409
▁vumu	-2410
▁Kombisa	-2411
▁Riphabliki	-2412
▁xidemokirasi	-2413
▁Murhijisitara	-2414
▁tinhlengeletano	-2415
Nawu	-2416
khwa	-2417
siweke	-2418
▁ololo	-2419
▁vambirhi	-2420
▁nyikiwile	-2421
ar	-2422
NRM	-2423
▁Fu	-2424
andzi	-2425
▁buku	-2426
▁tiya	-2427
tivisi	-2428
▁xihla	-2429
▁hundzi	-2430
pfarhuto	-2431
▁Hlamula	-2432
▁kunwana	-2433
▁kombisaka	-2434
▁sungurile	-2435
▁vamasipala	-2436
BNRM	-2437
rali	-2438
dyana	-2439
▁hala	-2440
handzu	-2441
visiwa	-2442
shimbye	-2443
▁susume	-2444
▁tindlu	-2445
▁vilela	-2446
▁muendli	-2447
▁ndzhaku	-2448
▁nkomiso	-2449
▁vamanana	-2450
▁dyondzisa	-2451
▁hangalasa	-2452
ct	-2453
ist	-2454
▁Mbu	-2455
▁tsu	-2456
thara	-2457
olonga	-2458
▁byona	-2459
▁emati	-2460
▁Hinkwa	-2461
▁fikele	-2462
▁kongom	-2463
▁nyikaka	-2464
▁ndzingano	-2465
▁mphikizano	-2466
evu	-2467
ila	-2468
teka	-2469
▁Nyen	-2470
▁voko	-2471
▁wadi	-2472
▁Mathe	-2473
▁kwalaho	-2474
▁mavhiki	-2475
▁lulamisiwa	-2476
-1	-2477
co	-2478
▁Lu	-2479
Loko	-2480
▁196	-2481
fhuka	-2482
hliwa	-2483
▁Mina	-2484
▁kana	-2485
▁mafa	-2486
▁Matiko	-2487
▁khampani	-2488
▁vupulani	-2489
▁xifaniso	-2490
▁Mashimbye	-2491
▁endliwile	-2492
▁sunguleni	-2493
▁vatirhela	-2494
doro	-2495
keke	-2496
siwile	-2497
▁CBNRM	-2498
Xitsonga	-2499
▁vumunhu	-2500
▁vaviseka	-2501
▁hambiloko	-2502
▁vaakatiko	-2503
▁Vuxokoxoko	-2504
▁landzelerile	-2505
".	-2506
8.	-2507
hata	-2508
keta	-2509
▁nwa	-2510
▁xia	-2511
▁muti	-2512
▁lungh	-2513
▁Tatana	-2514
▁Matimba	-2515
▁endlile	-2516
sirheleri	-2517
▁Services	-2518
▁xivandla	-2519
bumabumelo	-2520
▁maasesele	-2521
▁swileriso	-2522
▁vutirheli	-2523
▁tshikelela	-2524
▁hlanganisiwa	-2525
▁XA	-2526
▁eG	-2527
▁End	-2528
ngeta	-2529
▁titi	-2530
purasi	-2531
▁pfula	-2532
ndzweni	-2533
▁makaya	-2534
▁Mafambiselo	-2535
al	-2536
age	-2537
▁De	-2538
▁vho	-2539
angan	-2540
eleke	-2541
mbile	-2542
rhala	-2543
▁miyela	-2544
pimanyeto	-2545
▁mapapila	-2546
▁switsongo	-2547
▁khumbhekaka	-2548
▁23	-2549
▁ga	-2550
▁go	-2551
vala	-2552
wala	-2553
▁Gaz	-2554
kungu	-2555
▁Vito	-2556
▁tino	-2557
ambalo	-2558
hovelo	-2559
tlembe	-2560
▁Rihan	-2561
▁tiyimis	-2562
▁lemukisa	-2563
▁tipholisi	-2564
▁tlakusiwa	-2565
▁xidemokrasi	-2566
200	-2567
▁vuve	-2568
▁fikile	-2569
▁Xiphemu	-2570
▁mfungho	-2571
▁ntshaho	-2572
▁manharhu	-2573
▁hundzisela	-2574
▁nsirhelelo	-2575
▁vutitivisi	-2576
ane	-2577
pfa	-2578
mpfa	-2579
yuni	-2580
yingi	-2581
▁lova	-2582
tokoto	-2583
▁anama	-2584
▁fambe	-2585
▁ntivo	-2586
▁tlhele	-2587
▁mikarhi	-2588
▁lamanene	-2589
▁vuyeriwa	-2590
rtic	-2591
tirhiso	-2592
▁mpahla	-2593
▁nhlayis	-2594
▁yintshwa	-2595
▁twisiseki	-2596
▁kondletela	-2597
▁Ntivomarito	-2598
gu	-2599
khi	-2600
▁rero	-2601
▁yaka	-2602
vetiso	-2603
rhumiwa	-2604
▁hlongo	-2605
▁katsaka	-2606
▁Language	-2607
▁engetele	-2608
▁fambiselo	-2609
▁fambisiwa	-2610
▁muphakeri	-2611
▁Mahlawulelo	-2612
▁kombisiweke	-2613
▁ximunhuhatwa	-2614
rhe	-2615
▁Wu	-2616
xisa	-2617
hlele	-2618
▁pfun	-2619
rticle	-2620
xinara	-2621
▁xinka	-2622
ntiraka	-2623
▁etlela	-2624
▁tiviwa	-2625
▁pfhumba	-2626
▁swiviko	-2627
▁vunharhu	-2628
▁tinhlamulo	-2629
▁hlamuseriwa	-2630
kis	-2631
▁in	-2632
▁malu	-2633
vanuna	-2634
xandla	-2635
▁Mfuwo	-2636
Article	-2637
▁papala	-2638
▁simeki	-2639
▁yindlu	-2640
▁hinkwaxo	-2641
▁murhangeri	-2642
▁nhlayiseko	-2643
▁hlawuriweke	-2644
▁Di	-2645
xavi	-2646
yeni	-2647
▁nyu	-2648
▁ndhu	-2649
misisa	-2650
sipoto	-2651
sundzu	-2652
▁Cinca	-2653
enthara	-2654
▁helela	-2655
▁xiviri	-2656
bedhlele	-2657
▁Sungula	-2658
andzelela	-2659
▁tirhisaka	-2660
▁hundzuluxa	-2661
uku	-2662
▁21	-2663
ango	-2664
nghe	-2665
yile	-2666
▁mas	-2667
▁yan	-2668
YENGE	-2669
tshan	-2670
▁mavu	-2671
tswalo	-2672
▁dzaha	-2673
tshunxo	-2674
▁sungule	-2675
▁vafambisi	-2676
Ri	-2677
▁''	-2678
▁17	-2679
▁PA	-2680
▁Tl	-2681
▁Ts	-2682
kiso	-2683
wadi	-2684
▁Tata	-2685
▁Xivi	-2686
▁tibo	-2687
tshama	-2688
▁secha	-2689
▁rhanga	-2690
▁tshembe	-2691
▁mudyondzisi	-2692
IN	-2693
kara	-2694
lana	-2695
▁The	-2696
chisi	-2697
▁nomo	-2698
hiweke	-2699
▁xintu	-2700
tsoniwa	-2701
▁emirini	-2702
kwetlembe	-2703
▁swifambo	-2704
▁nyikiwaka	-2705
▁tlherisela	-2706
▁kambisisiweke	-2707
''	-2708
xan	-2709
▁Ro	-2710
▁Vuge	-2711
▁avela	-2712
▁mambe	-2713
▁tsutsu	-2714
▁Tsundzu	-2715
▁Mufambisi	-2716
▁langutiwa	-2717
▁rejistara	-2718
▁vadyondzisi	-2719
kwetlembetano	-2720
▁25	-2721
tila	-2722
▁Swe	-2723
▁rila	-2724
▁wela	-2725
ririmi	-2726
▁ntshu	-2727
hlampfi	-2728
▁Kutani	-2729
▁Endlelo	-2730
▁50	-2731
▁Me	-2732
▁Xa	-2733
▁ki	-2734
hoxa	-2735
ment	-2736
vile	-2737
▁Vup	-2738
edulu	-2739
▁Vuko	-2740
▁nwina	-2741
▁pfala	-2742
▁tekana	-2743
▁tifomo	-2744
hofisini	-2745
▁xinawana	-2746
▁andlariweke	-2747
nyu	-2748
nile	-2749
siti	-2750
yere	-2751
▁rhi	-2752
▁kule	-2753
▁voya	-2754
▁awara	-2755
▁rinwe	-2756
hlawule	-2757
▁Ndlela	-2758
▁swihla	-2759
▁XIYENGE	-2760
▁vumbano	-2761
thekiniki	-2762
▁lawuriwa	-2763
▁vutlhari	-2764
▁Mathebula	-2765
▁Muofisiri	-2766
▁ringanisa	-2767
▁:	-2768
rayi	-2769
ngiwa	-2770
▁male	-2771
▁xilo	-2772
▁kavan	-2773
kweleti	-2774
mbisele	-2775
vokweni	-2776
▁koteka	-2777
▁kumaka	-2778
▁phepha	-2779
▁vitana	-2780
chuchisi	-2781
yangwini	-2782
▁matlhelo	-2783
▁vuriweke	-2784
▁swivumbeko	-2785
4,	-2786
kiki	-2787
▁jaha	-2788
▁xiya	-2789
angeni	-2790
▁Xirho	-2791
▁kondza	-2792
▁kotaka	-2793
▁wansati	-2794
▁nkambelo	-2795
▁Masungulo	-2796
▁Swilaveko	-2797
▁ematikweni	-2798
▁xopaxopiweke	-2799
meni	-2800
▁che	-2801
▁Lava	-2802
▁eswi	-2803
yisisa	-2804
▁fanaka	-2805
▁vathori	-2806
kulukumba	-2807
▁akhawunti	-2808
tlhokovetseri	-2809
▁KU	-2810
eris	-2811
fund	-2812
anile	-2813
▁kumi	-2814
▁Matsa	-2815
▁khuta	-2816
▁ntshi	-2817
Vulawuri	-2818
kinoloji	-2819
seketeri	-2820
▁Xitsonga	-2821
▁timaraka	-2822
▁Nhlamuselo	-2823
▁Nhlengeletano	-2824
Ka	-2825
tre	-2826
iseke	-2827
▁ndzo	-2828
luvuko	-2829
tlangi	-2830
▁muaka	-2831
▁tlanga	-2832
▁endlwini	-2833
▁lowukulu	-2834
▁Mhasipala	-2835
▁Kharikhulamu	-2836
▁swibumabumelo	-2837
▁Swifundzhankulu	-2838
AT	-2839
HO	-2840
▁TB	-2841
▁Pha	-2842
▁Pro	-2843
▁mig	-2844
▁madz	-2845
▁ntli	-2846
henisa	-2847
xavisi	-2848
endzele	-2849
▁Vurimi	-2850
fundhisi	-2851
▁Mbuyelo	-2852
▁Mfanelo	-2853
▁fikeleri	-2854
▁maphepha	-2855
▁mutswari	-2856
▁tikeriwa	-2857
▁vusiwana	-2858
▁mukamberi	-2859
▁Nghingiriko	-2860
▁Xiyengentsongo	-2861
PS	-2862
dl	-2863
bsi	-2864
hari	-2865
riki	-2866
▁Xik	-2867
▁nhlo	-2868
▁yime	-2869
▁bangi	-2870
▁lavan	-2871
leswaku	-2872
▁Vutshila	-2873
▁byinwana	-2874
▁maendlele	-2875
▁swifundza	-2876
kh	-2877
▁so	-2878
bedl	-2879
▁197	-2880
▁Nka	-2881
▁2010	-2882
▁tivu	-2883
kunene	-2884
pikara	-2885
▁hlula	-2886
▁livhi	-2887
▁murhi	-2888
▁tivaka	-2889
▁rivaleni	-2890
▁ntshovelo	-2891
▁pfumelelana	-2892
FA	-2893
es	-2894
▁(1	-2895
▁Go	-2896
▁II	-2897
▁da	-2898
jaha	-2899
limi	-2900
rese	-2901
▁mat	-2902
kwembu	-2903
▁swiri	-2904
▁boheka	-2905
▁mimpfu	-2906
▁endzela	-2907
endzeleki	-2908
tirhisani	-2909
▁leteriwa	-2910
▁tinhloko	-2911
▁swiambalo	-2912
▁mpfapfarhuto	-2913
xana	-2914
▁nku	-2915
ngeni	-2916
▁Vana	-2917
▁Xiya	-2918
▁koxa	-2919
▁yile	-2920
mendhe	-2921
▁xixima	-2922
▁yoleyo	-2923
ilankulu	-2924
kanetano	-2925
tlhavelo	-2926
▁swikolo	-2927
▁tlakuka	-2928
hlayiselo	-2929
▁kambisisa	-2930
ry	-2931
Ndza	-2932
meta	-2933
▁mud	-2934
▁hosi	-2935
▁tele	-2936
▁wisa	-2937
mphani	-2938
nganyi	-2939
selara	-2940
▁byala	-2941
▁pimiwa	-2942
▁sayina	-2943
▁tatiwa	-2944
▁thyaka	-2945
hwanyana	-2946
▁ntokoto	-2947
▁vantima	-2948
▁swihlovo	-2949
▁vatekani	-2950
▁xitatimende	-2951
TS	-2952
suhi	-2953
▁twi	-2954
angha	-2955
▁AIDS	-2956
▁kuva	-2957
▁vaka	-2958
▁timine	-2959
dokodela	-2960
ongoloko	-2961
▁khandzi	-2962
▁twanana	-2963
▁vangaka	-2964
▁xifambo	-2965
▁kumisisa	-2966
▁munghana	-2967
▁xitifikheti	-2968
CD	-2969
anu	-2970
▁Pfu	-2971
▁khi	-2972
▁Afri	-2973
▁muhe	-2974
visela	-2975
▁khodi	-2976
▁khome	-2977
▁tipha	-2978
hangala	-2979
kulobye	-2980
▁byalwa	-2981
▁kumeke	-2982
▁chayela	-2983
▁tipulani	-2984
▁Swikombelo	-2985
▁Mukamberiwa	-2986
▁ntshikelelo	-2987
▁tinyiketela	-2988
▁mintlhontlho	-2989
WU	-2990
du	-2991
il	-2992
pp	-2993
ermi	-2994
wani	-2995
wevo	-2996
bsite	-2997
byeni	-2998
bohiwa	-2999
telelo	-3000
▁Rimba	-3001
▁ntalo	-3002
▁tinyu	-3003
rhandzu	-3004
vulavuri	-3005
▁nghenele	-3006
▁Matirhiselo	-3007
▁hangalasiwa	-3008
▁sirheleriwa	-3009
Ha	-3010
▁13	-3011
haxi	-3012
luka	-3013
▁Act	-3014
▁Ina	-3015
▁Reg	-3016
ngula	-3017
▁hefe	-3018
▁kuce	-3019
▁tihi	-3020
▁xiri	-3021
tshamo	-3022
vutiso	-3023
▁Ndzima	-3024
▁Nhloko	-3025
▁makumu	-3026
▁gembula	-3027
▁ntlimbo	-3028
▁landzela	-3029
▁tihofisi	-3030
▁xitayili	-3031
▁Vadyondzi	-3032
rhalanganyi	-3033
un	-3034
▁NA	-3035
▁Wan	-3036
▁emin	-3037
wisana	-3038
xamelo	-3039
▁rimba	-3040
mbeleri	-3041
▁nkwama	-3042
▁Tikhoto	-3043
▁chavisa	-3044
▁tibyela	-3045
▁lawulaka	-3046
▁xikambelo	-3047
▁Vukorhokeri	-3048
▁Ntsendzeleki	-3049
BE	-3050
KA	-3051
▁BI	-3052
ranti	-3053
▁bodo	-3054
▁bolo	-3055
▁tile	-3056
telela	-3057
wisisa	-3058
▁tshamis	-3059
▁phurojeke	-3060
▁seketelaka	-3061
▁vulavuriwaka	-3062
▁tumbuluxiwile	-3063
rs	-3064
enge	-3065
mbhu	-3066
riya	-3067
sini	-3068
tala	-3069
pfune	-3070
▁basa	-3071
▁teng	-3072
kandzi	-3073
tsweni	-3074
▁tumbe	-3075
▁hetisa	-3076
▁lehile	-3077
▁mugodi	-3078
▁swinwe	-3079
▁tikuma	-3080
▁tiwadi	-3081
▁avelana	-3082
▁cinciwa	-3083
▁mimfumo	-3084
▁ematshan	-3085
▁kanetana	-3086
▁swiendlo	-3087
▁vavanuna	-3088
▁muchayeri	-3089
▁mafambisele	-3090
▁YA	-3091
▁me	-3092
muka	-3093
ndlo	-3094
▁siya	-3095
▁wahi	-3096
▁tsarisi	-3097
▁maletere	-3098
hundzuluxi	-3099
tatimendhe	-3100
▁Maphorisa	-3101
▁andlariwa	-3102
▁tsariwile	-3103
▁matikhomelo	-3104
▁vuhlanganisi	-3105
bin	-3106
sti	-3107
▁hl	-3108
▁Phe	-3109
▁Shi	-3110
▁nci	-3111
isiwe	-3112
▁mang	-3113
▁tsevu	-3114
▁hetile	-3115
▁miholo	-3116
bedlhele	-3117
nganyeto	-3118
▁masangu	-3119
▁phemiti	-3120
▁tinghozi	-3121
▁xiletelo	-3122
▁kontiraka	-3123
▁ringanelangi	-3124
IA	-3125
LO	-3126
oni	-3127
▁Xo	-3128
deni	-3129
taka	-3130
zani	-3131
▁Eku	-3132
▁holo	-3133
▁nomu	-3134
xikaya	-3135
▁etind	-3136
▁sindz	-3137
▁yinwe	-3138
hlawulo	-3139
▁koloko	-3140
▁nhluvuko	-3141
▁byintshwa	-3142
▁sunguriwa	-3143
▁tidokumende	-3144
▁ndlandlamuxa	-3145
sw	-3146
IDP	-3147
tan	-3148
AIDS	-3149
▁kuri	-3150
▁vayi	-3151
binete	-3152
▁miako	-3153
▁tihlo	-3154
▁Tsalwa	-3155
▁migodi	-3156
▁Twisisa	-3157
▁Swiyenge	-3158
munhuhatwa	-3159
▁byitsongo	-3160
▁hungutiwa	-3161
▁tinhlamuselo	-3162
che	-3163
mes	-3164
▁2:	-3165
▁Fe	-3166
gira	-3167
wati	-3168
xela	-3169
yina	-3170
zini	-3171
istra	-3172
▁Mavu	-3173
▁hatla	-3174
lembeni	-3175
tandati	-3176
▁rifuwo	-3177
miliyoni	-3178
▁hanyaka	-3179
▁hlohlotela	-3180
▁xinavetiso	-3181
0,	-3182
ru	-3183
huku	-3184
yeka	-3185
▁ICD	-3186
▁ena	-3187
▁muni	-3188
nghezi	-3189
▁Tindzi	-3190
▁ambala	-3191
▁faneke	-3192
teriweke	-3193
▁Rhulani	-3194
▁Rihanyo	-3195
▁Ringeta	-3196
▁ekusuhi	-3197
▁twanani	-3198
▁Masipala	-3199
▁mihandzu	-3200
▁vuvekisi	-3201
▁hlamarisa	-3202
▁humeleleke	-3203
'.	-3204
ly	-3205
▁q	-3206
can	-3207
▁1:	-3208
▁He	-3209
ngub	-3210
tisi	-3211
▁emo	-3212
rhana	-3213
▁hafu	-3214
▁hisa	-3215
▁mbala	-3216
▁swiki	-3217
▁swiku	-3218
rayivhe	-3219
▁Xandla	-3220
▁Xedulu	-3221
▁nonoha	-3222
▁varimi	-3223
mhasipala	-3224
▁khumbeka	-3225
▁leyikulu	-3226
▁Tsundzuka	-3227
▁mintlangu	-3228
▁swinharhu	-3229
nkatsakanyo	-3230
▁seketeriwa	-3231
cu	-3232
ton	-3233
wan	-3234
▁60	-3235
▁co	-3236
xeri	-3237
▁Hlo	-3238
▁bas	-3239
▁tisi	-3240
roniki	-3241
▁1996.	-3242
▁nwini	-3243
▁makume	-3244
▁rivala	-3245
▁tiveka	-3246
▁mukhomi	-3247
▁tipheji	-3248
▁vangiwa	-3249
rayivhete	-3250
▁tlhelela	-3251
▁ehofisini	-3252
▁mbulavulo	-3253
▁tinomboro	-3254
▁vumundzuku	-3255
▁kombetiweke	-3256
▁matirhisele	-3257
▁mukamberiwa	-3258
11	-3259
mangi	-3260
vambu	-3261
▁1998	-3262
▁Kaya	-3263
kanjhe	-3264
meleke	-3265
▁laviwa	-3266
▁xitori	-3267
▁tikhoto	-3268
▁khumbaka	-3269
▁mhasipala	-3270
▁Nkunguhato	-3271
▁hlengeleta	-3272
▁leyintshwa	-3273
▁xinkadyana	-3274
ss	-3275
▁31	-3276
beni	-3277
muzi	-3278
teni	-3279
ziva	-3280
▁onhi	-3281
▁tsho	-3282
▁yexe	-3283
▁yuni	-3284
dyambu	-3285
holobye	-3286
▁yimisa	-3287
▁lwisana	-3288
▁Shivambu	-3289
▁xanisiwa	-3290
kandziyiso	-3291
▁rirhandzu	-3292
▁mighingiriko	-3293
▁tlheriseriwa	-3294
",	-3295
.'	-3296
for	-3297
▁de	-3298
kano	-3299
▁Kwa	-3300
▁Nko	-3301
anisa	-3302
hanga	-3303
mbuka	-3304
▁Mand	-3305
▁vuli	-3306
yeriwa	-3307
▁Dziva	-3308
▁nxavo	-3309
▁vabya	-3310
▁Xiviko	-3311
▁ololoxa	-3312
▁mamiliyoni	-3313
▁swihlawule	-3314
▁nkwetlembetano	-3315
2.	-3316
enda	-3317
leko	-3318
xeni	-3319
gramu	-3320
▁mahe	-3321
▁marha	-3322
vhixini	-3323
▁dyambu	-3324
Masipala	-3325
▁kombaka	-3326
▁mumanga	-3327
▁pfuxeta	-3328
▁xivongo	-3329
▁lokukulu	-3330
▁rhendzele	-3331
▁etindhawini	-3332
▁mintolovelo	-3333
ET	-3334
nah	-3335
▁Bu	-3336
ende	-3337
teki	-3338
▁Exi	-3339
▁nsa	-3340
▁whi	-3341
tweni	-3342
▁2009	-3343
▁lero	-3344
▁leyo	-3345
▁xisa	-3346
hurofe	-3347
kisano	-3348
▁hlela	-3349
▁tsaka	-3350
▁Gezani	-3351
▁komisa	-3352
fikelelo	-3353
▁xitirho	-3354
▁Nhlamulo	-3355
▁tiyisiwa	-3356
▁Bilankulu	-3357
▁Mimbuyelo	-3358
▁tiprojeke	-3359
▁xihlamban	-3360
▁tiphurojeke	-3361
7,	-3362
MA	-3363
Ina	-3364
▁24	-3365
▁SW	-3366
▁wi	-3367
ette	-3368
loyi	-3369
pulo	-3370
▁fuma	-3371
▁love	-3372
▁poso	-3373
▁risi	-3374
▁ting	-3375
▁vule	-3376
▁vuxi	-3377
cation	-3378
dzidzi	-3379
fanele	-3380
henisi	-3381
taniwa	-3382
▁Khodi	-3383
▁ntshe	-3384
▁swiba	-3385
▁Handle	-3386
▁Sweswi	-3387
▁mufana	-3388
▁ntungu	-3389
▁Nakambe	-3390
▁hluleka	-3391
▁mpfhuka	-3392
▁Matsalwa	-3393
▁Xinghezi	-3394
▁lamakulu	-3395
▁hlayiseka	-3396
▁pfuxetiwa	-3397
▁xitlhavelo	-3398
▁hundziseriwa	-3399
dyu	-3400
▁Li	-3401
byen	-3402
hung	-3403
zana	-3404
▁App	-3405
famba	-3406
twini	-3407
gazini	-3408
▁hakelo	-3409
▁ndzilo	-3410
▁nyimpi	-3411
▁paluxa	-3412
byenkulu	-3413
▁Mutsari	-3414
▁ntikelo	-3415
▁website	-3416
▁Tindhawu	-3417
▁papalata	-3418
▁Khabinete	-3419
▁xibukwana	-3420
Ntivomarito	-3421
▁ntlhontlho	-3422
▁vulavulaka	-3423
▁tiyimiserile	-3424
HA	-3425
Le	-3426
Mb	-3427
RS	-3428
.""	-3429
ndi	-3430
tse	-3431
meka	-3432
mesa	-3433
▁Cha	-3434
qweta	-3435
▁cinc	-3436
▁kuya	-3437
▁njhe	-3438
▁siva	-3439
ndziso	-3440
tional	-3441
▁hloni	-3442
▁hluvu	-3443
▁minxa	-3444
▁vukho	-3445
▁bohiwa	-3446
▁hetele	-3447
▁nawini	-3448
▁ntsako	-3449
Xitayili	-3450
▁Mandela	-3451
▁enawini	-3452
▁kusuhani	-3453
▁tintswalo	-3454
andzelelano	-3455
▁hambileswi	-3456
▁madzolonga	-3457
▁vuavanyisi	-3458
▁vulavurisana	-3459
Ti	-3460
▁WA	-3461
Mina	-3462
khodi	-3463
▁Hosi	-3464
▁gega	-3465
▁xisi	-3466
▁kungu	-3467
nganile	-3468
▁vonile	-3469
muzilimi	-3470
▁Tihakelo	-3471
▁Tikomiti	-3472
▁anakanya	-3473
▁vuyerisa	-3474
▁tihlampfi	-3475
▁tiyisisiwa	-3476
▁matikhomele	-3477
DC	-3478
cas	-3479
andi	-3480
huna	-3481
huti	-3482
yeke	-3483
kanisa	-3484
tukulu	-3485
xitulu	-3486
▁Kumbe	-3487
vhesiti	-3488
▁Vutivi	-3489
▁mapele	-3490
▁ntsevu	-3491
▁nyanyu	-3492
▁xihoxo	-3493
kungundz	-3494
▁andlala	-3495
▁Vululami	-3496
▁hetisisa	-3497
▁hinkwako	-3498
▁mbalango	-3499
▁Ndzhavuko	-3500
▁hatlisisa	-3501
▁hetisekeke	-3502
▁lulamisela	-3503
▁mintwanano	-3504
▁hundzuluxiwa	-3505
50	-3506
EC	-3507
▁In	-3508
Mbhe	-3509
rene	-3510
▁Mim	-3511
iseni	-3512
ngeri	-3513
▁khor	-3514
▁mako	-3515
▁ntsu	-3516
gangeni	-3517
longolo	-3518
▁Tihuvo	-3519
dzidziha	-3520
ondzweni	-3521
▁leyinene	-3522
▁muhehliwa	-3523
▁xiphorisa	-3524
▁Muavanyisi	-3525
Va	-3526
je	-3527
rk	-3528
▁5.	-3529
▁Ly	-3530
▁pf	-3531
▁pu	-3532
ensi	-3533
leve	-3534
walo	-3535
▁100	-3536
▁xite	-3537
hanele	-3538
mbyeni	-3539
▁rhurh	-3540
▁xiave	-3541
▁Tafula	-3542
ngubyisa	-3543
▁tiyimela	-3544
▁ringanana	-3545
▁vaMasipala	-3546
▁emintirhweni	-3547
▁mimpfumawulo	-3548
NGU	-3549
▁Ya	-3550
wele	-3551
▁men	-3552
mhala	-3553
▁Vona	-3554
▁khwa	-3555
▁rini	-3556
▁phasa	-3557
▁Xikaya	-3558
▁gondzo	-3559
▁khutaza	-3560
▁muhlovo	-3561
▁tsalela	-3562
▁xigwevo	-3563
▁rhangela	-3564
▁tolovele	-3565
▁yimisiwa	-3566
▁Mbulavulo	-3567
▁ntshuxeko	-3568
▁pimanisiwa	-3569
dzidziharisi	-3570
kanjhekisano	-3571
▁amukeriwile	-3572
AC	-3573
KO	-3574
rt	-3575
IRH	-3576
nwa	-3577
dlhe	-3578
jete	-3579
nisa	-3580
onto	-3581
▁nsu	-3582
▁1999	-3583
▁Mana	-3584
▁pasi	-3585
▁unwe	-3586
khwati	-3587
misoko	-3588
yelani	-3589
▁Hungu	-3590
▁muako	-3591
▁Lamela	-3592
▁rhandz	-3593
▁vuhaxi	-3594
▁xikimi	-3595
Mbhedlhe	-3596
dorobeni	-3597
▁African	-3598
▁Gazette	-3599
▁swikili	-3600
▁hileswaku	-3601
▁langutile	-3602
▁nsindziso	-3603
▁thoriweke	-3604
▁eGondzweni	-3605
▁ePalamende	-3606
▁ekhotsweni	-3607
▁mpimanyeto	-3608
▁swifundzankulu	-3609
HU	-3610
Mu	-3611
rd	-3612
▁Fo	-3613
▁nu	-3614
inyi	-3615
mete	-3616
▁Xin	-3617
▁tswa	-3618
kisiwa	-3619
sumeto	-3620
▁kwale	-3621
▁wunwe	-3622
hengele	-3623
lulamis	-3624
▁Xikimi	-3625
▁heleni	-3626
▁tekile	-3627
▁xinawu	-3628
▁xipano	-3629
Vumbhoni	-3630
▁Ntsengo	-3631
▁Xipikara	-3632
▁mundzuku	-3633
▁exibedhlele	-3634
▁Xitatimendhe	-3635
WE	-3636
ral	-3637
▁90	-3638
▁ji	-3639
ames	-3640
meli	-3641
▁ene	-3642
▁tsh	-3643
ereke	-3644
isiwi	-3645
mbilu	-3646
▁Fomo	-3647
▁pima	-3648
angiki	-3649
▁Maend	-3650
pfuneti	-3651
▁Giredi	-3652
▁Humesa	-3653
▁hiloko	-3654
▁lavaku	-3655
▁onhaka	-3656
▁minkoka	-3657
▁sayense	-3658
tsundzuxi	-3659
▁Mavundza	-3660
▁tekiweke	-3661
▁Maasesele	-3662
▁Ximuzilimi	-3663
▁Dzivamisoko	-3664
▁hluvukisiwa	-3665
▁vusirheleri	-3666
6.	-3667
dy	-3668
▁pe	-3669
kepe	-3670
mala	-3671
xelo	-3672
yila	-3673
khuva	-3674
nthan	-3675
▁Kasi	-3676
▁tlho	-3677
yelela	-3678
▁rakwe	-3679
▁tenga	-3680
▁tiend	-3681
▁vuhla	-3682
▁xikho	-3683
ekitara	-3684
▁Tifomo	-3685
▁mbango	-3686
▁vafana	-3687
▁Muthori	-3688
▁Nyenyan	-3689
▁mimpfuno	-3690
▁swikumiwa	-3691
ehleketweni	-3692
▁fikeleleka	-3693
▁vukungundz	-3694
▁Holobyenkulu	-3695
▁vv	-3696
yiki	-3697
zela	-3698
▁Lexi	-3699
▁Vama	-3700
▁avan	-3701
▁tali	-3702
toloki	-3703
▁Irene	-3704
▁Makwa	-3705
▁Sambo	-3706
▁rihla	-3707
▁vuaka	-3708
▁vumbi	-3709
▁vuyis	-3710
▁xicha	-3711
chudeni	-3712
erminah	-3713
▁mbirhi	-3714
▁pasisa	-3715
hikilelo	-3716
hurisano	-3717
purasini	-3718
▁kherefu	-3719
▁tirheni	-3720
▁twisisi	-3721
▁vuxirho	-3722
▁Miyelani	-3723
▁Ntwanano	-3724
▁khumbana	-3725
▁timinete	-3726
▁voyamela	-3727
▁hlambanya	-3728
▁tshungula	-3729
▁vaphakeri	-3730
▁mahetelelo	-3731
▁phurayivhete	-3732
▁swirhalanganyi	-3733
CO	-3734
el	-3735
uth	-3736
▁22	-3737
▁Pi	-3738
diyo	-3739
▁iii	-3740
endzi	-3741
nette	-3742
▁swip	-3743
▁vuka	-3744
direse	-3745
xisati	-3746
▁Lucas	-3747
▁byihi	-3748
▁hamba	-3749
▁Lemuka	-3750
▁Ntlawa	-3751
▁bohaka	-3752
▁evuton	-3753
andzhaka	-3754
nthanete	-3755
▁Dyondza	-3756
▁hlayela	-3757
▁mimfuwo	-3758
▁nkateko	-3759
▁xikhale	-3760
▁Rhumbuka	-3761
▁Tindzimi	-3762
▁kucetela	-3763
▁lunghisa	-3764
▁Vutirheli	-3765
▁khomiweke	-3766
▁tirhekhodo	-3767
▁tsemakanya	-3768
▁minongoloko	-3769
▁tinyungubyisa	-3770
""	-3771
',	-3772
.1.	-3773
ono	-3774
▁jo	-3775
khek	-3776
kolo	-3777
rans	-3778
roba	-3779
▁dyi	-3780
▁lulam	-3781
kambelo	-3782
ngiseri	-3783
patwini	-3784
thoriwa	-3785
trexini	-3786
vhayisi	-3787
▁hlohle	-3788
▁tshunx	-3789
▁Lynette	-3790
ndzamhala	-3791
▁Vupulani	-3792
▁yimelaka	-3793
▁amukeleki	-3794
▁dokumende	-3795
▁khandziya	-3796
▁mfikelelo	-3797
mpfampfarhu	-3798
▁hakeriwaka	-3799
▁vukhongeri	-3800
▁Nyenyankulu	-3801
▁amukeriweke	-3802
▁hlayisekile	-3803
▁majisitarata	-3804
▁swidzidziharisi	-3805
▁Do	-3806
▁RO	-3807
▁To	-3808
cara	-3809
mara	-3810
voni	-3811
xeto	-3812
xika	-3813
xile	-3814
hluri	-3815
isaka	-3816
kwavo	-3817
vongo	-3818
cetelo	-3819
papila	-3820
▁Tindz	-3821
manyana	-3822
nguteri	-3823
seriwaka	-3824
▁Sayense	-3825
▁emutini	-3826
▁Makwakwa	-3827
▁Mulawuri	-3828
▁Xikwembu	-3829
▁minchumu	-3830
▁vekeriwa	-3831
▁engeteleka	-3832
▁tshikilela	-3833
▁26	-3834
▁Fa	-3835
▁Tu	-3836
bura	-3837
▁tha	-3838
hleri	-3839
vanti	-3840
▁masa	-3841
merile	-3842
zamula	-3843
▁pfuni	-3844
eriweke	-3845
▁herile	-3846
▁mindzi	-3847
▁nkombo	-3848
▁tiyuni	-3849
▁vunene	-3850
khumente	-3851
▁mafurha	-3852
▁ntswalo	-3853
▁vahlayi	-3854
▁Mabindzu	-3855
▁Magazini	-3856
▁lexikulu	-3857
▁mutshami	-3858
▁tivutisa	-3859
ulavurisano	-3860
▁tikisiweke	-3861
▁tikhasimende	-3862
fer	-3863
▁3.	-3864
▁201	-3865
▁chi	-3866
gwati	-3867
hloti	-3868
▁2003	-3869
▁Malu	-3870
▁Xiha	-3871
▁nhle	-3872
helezi	-3873
▁Ntivo	-3874
▁South	-3875
enerali	-3876
erisano	-3877
nganiso	-3878
▁xibalo	-3879
▁hileswi	-3880
▁twalaka	-3881
▁ntsakelo	-3882
▁tiyisela	-3883
▁Khazamula	-3884
▁endlekaka	-3885
▁katsiwile	-3886
▁muhlayisi	-3887
▁Minhlangano	-3888
▁vatirhisani	-3889
▁xithekiniki	-3890
▁nandzelelano	-3891
▁tindziminyingi	-3892
of	-3893
amu	-3894
phu	-3895
tavu	-3896
yamu	-3897
▁Vun	-3898
henha	-3899
pheka	-3900
witsi	-3901
▁Rito	-3902
▁xele	-3903
girafu	-3904
hunghu	-3905
tarata	-3906
tiwaka	-3907
▁xinwe	-3908
kanyana	-3909
▁talela	-3910
▁tiboha	-3911
▁tlange	-3912
▁vusiku	-3913
tavuxika	-3914
xanisiwa	-3915
▁ntsongo	-3916
▁nyikile	-3917
▁Registra	-3918
▁hakelela	-3919
▁hakunene	-3920
▁hefemula	-3921
▁laviwaka	-3922
Miehleketo	-3923
▁Matirhelo	-3924
▁Vaholobye	-3925
▁dyondzela	-3926
▁vukamberi	-3927
wendzamhala	-3928
▁emavokweni	-3929
▁Vuhlayiseki	-3930
▁landzelerisa	-3931
MBE	-3932
nta	-3933
matsi	-3934
weswo	-3935
▁fole	-3936
tswana	-3937
▁Swivi	-3938
▁byele	-3939
▁nyawu	-3940
▁tingu	-3941
thayere	-3942
tshembi	-3943
▁Ndhawu	-3944
▁malume	-3945
▁hlamala	-3946
▁Xifundza	-3947
▁lulamile	-3948
▁ndzindza	-3949
▁vatukulu	-3950
▁inthanete	-3951
▁mapfhumba	-3952
▁nkongomelo	-3953
▁vuyimbeleri	-3954
▁emiehleketweni	-3955
▁swihlawulekisi	-3956
swa	-3957
▁kh	-3958
reyi	-3959
▁Goza	-3960
▁lowo	-3961
▁nave	-3962
ration	-3963
tisisa	-3964
vulavu	-3965
▁Khapu	-3966
▁durha	-3967
▁hleka	-3968
▁mathe	-3969
▁Fumani	-3970
▁Hikuva	-3971
▁muhoxa	-3972
▁ndhuma	-3973
▁vukona	-3974
▁mahlamu	-3975
▁mimpimo	-3976
▁phorisa	-3977
▁rivanti	-3978
▁timbilu	-3979
▁Vuleteri	-3980
▁hundzile	-3981
▁pimiweke	-3982
▁rhurhela	-3983
▁tshamela	-3984
▁tsutsuma	-3985
khekhelezi	-3986
▁mimfungho	-3987
▁swihlahla	-3988
▁hlanganaka	-3989
▁Khotavuxika	-3990
▁languteriweke	-3991
nin	-3992
son	-3993
▁27	-3994
▁36	-3995
▁40	-3996
teke	-3997
xisi	-3998
▁vug	-3999
hlayo	-4000
▁meno	-4001
▁voxe	-4002
burari	-4003
▁Phela	-4004
▁tsana	-4005
▁tshin	-4006
▁yimbe	-4007
▁Pulani	-4008
▁Yindlu	-4009
▁ndlala	-4010
▁tisiwa	-4011
▁welaka	-4012
▁Swihoxo	-4013
▁dyondzi	-4014
▁phakela	-4015
▁tirhiwa	-4016
▁Exikarhi	-4017
▁Nghunghu	-4018
▁xavisiwa	-4019
▁kavanyeta	-4020
▁rhandzana	-4021
▁ringetile	-4022
▁talelangi	-4023
▁tindzhawu	-4024
▁twisisaka	-4025
▁tirhisiweke	-4026
Na	-4027
▁Su	-4028
▁WU	-4029
hoti	-4030
hoxi	-4031
lena	-4032
▁1.1	-4033
▁Ema	-4034
▁ang	-4035
▁SARS	-4036
▁tiho	-4037
▁yiva	-4038
henelo	-4039
yiweke	-4040
▁ntima	-4041
▁tinsi	-4042
▁vinyi	-4043
▁xirha	-4044
▁kotile	-4045
▁lovile	-4046
▁mhangu	-4047
▁nhungu	-4048
▁vaxavi	-4049
▁xanisa	-4050
lication	-4051
mbilwini	-4052
teleriwa	-4053
yiburari	-4054
▁enerisa	-4055
▁kombeta	-4056
▁tikhoma	-4057
▁tsaleke	-4058
▁fanekele	-4059
▁Hambiloko	-4060
▁Hinkwaswo	-4061
▁Vugembuli	-4062
▁divhayisi	-4063
▁nxaxamelo	-4064
▁xikweleti	-4065
▁engeteriwa	-4066
▁pasisiweke	-4067
▁tisisiteme	-4068
▁Minongonoko	-4069
▁hlamuseriwaka	-4070
ER	-4071
RA	-4072
jo	-4073
CIS	-4074
IMI	-4075
dyo	-4076
ker	-4077
▁En	-4078
▁Mp	-4079
▁Ra	-4080
lila	-4081
▁RIR	-4082
▁dza	-4083
hwalo	-4084
khegu	-4085
▁lehe	-4086
▁maha	-4087
liniki	-4088
yisiso	-4089
▁hahani	-4090
▁veleki	-4091
▁xivono	-4092
▁yimile	-4093
▁tsakisi	-4094
▁fanelaka	-4095
▁hlantswa	-4096
▁kumiweke	-4097
▁lerikulu	-4098
▁mitlangu	-4099
▁muxavisi	-4100
▁senthara	-4101
▁ntirhweni	-4102
▁tirhiseka	-4103
▁swintsongo	-4104
▁Mkhekhelezi	-4105
▁kongomisiwa	-4106
▁nkandziyiso	-4107
▁thekinoloji	-4108
▁tsandzekile	-4109
SAL	-4110
sta	-4111
▁ca	-4112
hisa	-4113
aneke	-4114
hluvi	-4115
kanga	-4116
▁Mawu	-4117
▁kari	-4118
yelelo	-4119
▁thele	-4120
yanyana	-4121
▁Vandla	-4122
▁ndziho	-4123
anakanyo	-4124
teriwaka	-4125
▁Nyenyen	-4126
▁Swiyimo	-4127
▁dlayiwa	-4128
▁tintiho	-4129
▁vukhale	-4130
▁kongoman	-4131
▁misaveni	-4132
▁pasisiwa	-4133
▁tindleve	-4134
kanerisano	-4135
▁tirhisiwi	-4136
▁vatsoniwa	-4137
▁Nkulukumba	-4138
▁switirhiso	-4139
▁Application	-4140
▁tsundzukiwa	-4141
▁xitirhisiwa	-4142
▁ngopfungopfu	-4143
▁rejistrexini	-4144
▁Nghunghunyana	-4145
▁swimunhuhatwa	-4146
▁vukungundzwana	-4147
MP	-4148
tor	-4149
ver	-4150
▁Khan	-4151
▁Wena	-4152
▁huwa	-4153
▁kulu	-4154
▁2009.	-4155
▁Lembe	-4156
▁leswo	-4157
eriwile	-4158
isisiwa	-4159
▁RIRIMI	-4160
▁bumabu	-4161
▁hlants	-4162
▁loveke	-4163
▁maxaka	-4164
▁xivula	-4165
▁Hunguta	-4166
▁tlulela	-4167
tumbuluxi	-4168
▁Nghenisa	-4169
▁heleleke	-4170
▁lavakulu	-4171
▁nkhuluko	-4172
▁tshamile	-4173
▁vatlangi	-4174
▁vunyingi	-4175
▁Kavanyisa	-4176
▁Switandati	-4177
▁humelerile	-4178
▁muavanyisi	-4179
▁simekiweke	-4180
▁minkanetano	-4181
▁vutitshembi	-4182
▁mpfampfarhuto	-4183
▁mutlhokovetseri	-4184
zo	-4185
gri	-4186
▁08	-4187
▁FI	-4188
meko	-4189
rate	-4190
wama	-4191
▁WUA	-4192
▁and	-4193
▁ava	-4194
▁mbe	-4195
▁ngi	-4196
hwana	-4197
pfuni	-4198
▁SAPS	-4199
▁cuku	-4200
▁huwe	-4201
▁xipi	-4202
ongori	-4203
▁khulu	-4204
ferense	-4205
▁Rhanga	-4206
▁foramu	-4207
▁mitila	-4208
▁tikhan	-4209
lawulele	-4210
▁levhele	-4211
▁ntsumbu	-4212
▁waranti	-4213
hangalasi	-4214
▁Ndzindza	-4215
▁Swicelwa	-4216
▁Vantshwa	-4217
▁tshembha	-4218
lulamiselo	-4219
swikolweni	-4220
▁fambisaka	-4221
▁kongomeke	-4222
▁nhwanyana	-4223
▁ntshikilelo	-4224
▁kandziyisiwa	-4225
UN	-4226
hya	-4227
pro	-4228
▁80	-4229
bazi	-4230
hati	-4231
keto	-4232
mbho	-4233
▁Phu	-4234
▁for	-4235
▁tit	-4236
▁1994	-4237
▁lavo	-4238
tshuri	-4239
yangwa	-4240
yisile	-4241
▁Nkoka	-4242
▁aviwa	-4243
▁dyiwa	-4244
▁olovi	-4245
▁pfuka	-4246
▁tlang	-4247
▁Masiku	-4248
▁kanela	-4249
▁nhlana	-4250
▁tilula	-4251
▁hlayiwa	-4252
▁ntangha	-4253
▁yingisa	-4254
sirheleli	-4255
▁Minkarhi	-4256
▁avanyisa	-4257
▁huwelela	-4258
▁hakerisiwa	-4259
▁kandziyisa	-4260
▁lavantshwa	-4261
▁mapeletelo	-4262
▁Ntivoririmi	-4263
▁pfumeleriweke	-4264
12	-4265
PF	-4266
mpo	-4267
▁Vo	-4268
bunu	-4269
filu	-4270
gers	-4271
hini	-4272
keti	-4273
mpyu	-4274
▁(1)	-4275
anisi	-4276
▁Ying	-4277
▁vako	-4278
miseko	-4279
▁2001.	-4280
▁chavi	-4281
▁lwela	-4282
▁twile	-4283
▁vhota	-4284
▁Tlhela	-4285
▁humile	-4286
▁koteki	-4287
▁rhwala	-4288
▁vurile	-4289
▁xikepe	-4290
Mapapila	-4291
▁Mitirho	-4292
▁averiwa	-4293
▁mudende	-4294
▁phomete	-4295
▁vuxongi	-4296
▁bohiweke	-4297
▁humelele	-4298
▁khorwisa	-4299
▁ntshungu	-4300
▁timakete	-4301
▁vitaniwa	-4302
▁Namuntlha	-4303
▁nkucetelo	-4304
▁pfaleriwa	-4305
▁hakeleriwa	-4306
▁lowuntshwa	-4307
▁lawuleriweke	-4308
▁swiringanyeto	-4309
NGA	-4310
ber	-4311
tlu	-4312
▁1,	-4313
:...	-4314
▁Bri	-4315
▁XIN	-4316
▁thu	-4317
Nkulu	-4318
khala	-4319
khume	-4320
▁Vuti	-4321
▁lang	-4322
▁vurh	-4323
isteme	-4324
komile	-4325
leriwe	-4326
xupulo	-4327
▁alela	-4328
▁chela	-4329
hubyeni	-4330
thicara	-4331
▁kereke	-4332
▁ndzima	-4333
angameri	-4334
▁Phakela	-4335
▁byerile	-4336
▁kambirhi	-4337
▁sayiniwa	-4338
▁Maendlelo	-4339
▁endleleni	-4340
▁sungulaka	-4341
▁mbhurisano	-4342
▁hlamuselaka	-4343
▁miyelanyana	-4344
▁pfumeleriwi	-4345
▁andlariwangi	-4346
LS	-4347
ad	-4348
au	-4349
rg	-4350
ven	-4351
▁Ca	-4352
▁Pu	-4353
▁eK	-4354
▁nk	-4355
Xana	-4356
heka	-4357
yula	-4358
▁DAC	-4359
dziyi	-4360
kwini	-4361
socha	-4362
▁Loyi	-4363
▁andz	-4364
▁bale	-4365
▁mala	-4366
▁vone	-4367
yetana	-4368
yiwile	-4369
▁Movha	-4370
▁Swile	-4371
▁exitu	-4372
▁swite	-4373
▁tshwu	-4374
ntlhanu	-4375
sungula	-4376
▁Hundzu	-4377
▁Levele	-4378
▁Marito	-4379
▁khumbi	-4380
▁nkhuvo	-4381
▁purasi	-4382
▁siviwa	-4383
▁vuyele	-4384
▁vuyelo	-4385
▁xelexo	-4386
▁xinuna	-4387
▁xirilo	-4388
▁Leswaku	-4389
▁endlaku	-4390
▁minxavo	-4391
▁nkhwati	-4392
▁ntukulu	-4393
▁valungu	-4394
▁vangela	-4395
▁National	-4396
▁programu	-4397
▁Huvonkulu	-4398
▁Registrar	-4399
▁Tindzawulo	-4400
▁mianakanyo	-4401
▁Migingiriko	-4402
▁eswikolweni	-4403
▁hambiswiritano	-4404
ES	-4405
gh	-4406
ju	-4407
mpu	-4408
▁4.	-4409
▁LA	-4410
lawo	-4411
nima	-4412
tiwi	-4413
▁MEC	-4414
▁Nku	-4415
jhere	-4416
▁FIFA	-4417
▁bohi	-4418
▁enta	-4419
▁muyi	-4420
▁swig	-4421
▁tihu	-4422
▁xaka	-4423
velela	-4424
yetiwa	-4425
▁Vaaka	-4426
▁mpfuno	-4427
▁nonoka	-4428
▁phikiz	-4429
▁rendzo	-4430
▁yaloye	-4431
▁Hlangan	-4432
▁fambile	-4433
▁karhata	-4434
▁rejista	-4435
▁switulu	-4436
Nhlangano	-4437
khandziyi	-4438
▁Mpfuneto	-4439
▁Swakudya	-4440
▁humesela	-4441
▁vutshamo	-4442
▁Vugevenga	-4443
▁endleriwa	-4444
▁Mpfumelelo	-4445
▁avanyisiwa	-4446
▁ntshamiseko	-4447
▁xitsundzuxo	-4448
▁switatimende	-4449
▁kongomisiweke	-4450
et	-4451
ms	-4452
!""	-4453
ELO	-4454
tle	-4455
▁2,	-4456
bilu	-4457
deyi	-4458
kota	-4459
lexo	-4460
lisa	-4461
sani	-4462
sayi	-4463
siwi	-4464
▁mua	-4465
▁nho	-4466
tlaku	-4467
▁Hina	-4468
▁biwa	-4469
▁hamb	-4470
▁njho	-4471
ntirho	-4472
tiwaku	-4473
xinari	-4474
▁Sonto	-4475
▁akiwa	-4476
▁kunwe	-4477
▁nyana	-4478
▁pfuki	-4479
▁vurho	-4480
dyuhari	-4481
▁giredi	-4482
▁khohlo	-4483
▁rhamba	-4484
▁ximila	-4485
jahatana	-4486
ninjhere	-4487
▁byeriwa	-4488
▁khomile	-4489
▁lulamis	-4490
▁switori	-4491
▁kanakana	-4492
▁tivekaka	-4493
▁vaxisati	-4494
▁fambelena	-4495
▁etimhakeni	-4496
▁dyondzisiwa	-4497
▁rhijisitara	-4498
5,	-4499
Se	-4500
ld	-4501
qu	-4502
COP	-4503
cin	-4504
zwi	-4505
▁29	-4506
▁eT	-4507
WANA	-4508
bihi	-4509
mari	-4510
moya	-4511
rand	-4512
tiro	-4513
▁Rhi	-4514
chang	-4515
ntima	-4516
onisa	-4517
▁bazi	-4518
▁nama	-4519
▁paka	-4520
▁xuma	-4521
hawula	-4522
lerile	-4523
ndlela	-4524
reyidi	-4525
kangiki	-4526
▁byakwe	-4527
▁tekaka	-4528
▁tlhava	-4529
▁vativi	-4530
▁vekela	-4531
wisiselo	-4532
▁Valungu	-4533
▁matsavu	-4534
▁rhandzi	-4535
▁tikarha	-4536
▁Ikhonomi	-4537
▁Mutshama	-4538
▁Nhlayiso	-4539
▁Vayimeri	-4540
▁Xivutiso	-4541
▁ehubyeni	-4542
▁hoxekile	-4543
▁lavekaku	-4544
▁valawuri	-4545
▁yimeriwa	-4546
▁hambanisa	-4547
▁vurhumiwa	-4548
kunguhatelo	-4549
▁vuvulavuri	-4550
▁Khomixinara	-4551
▁kambisisiwa	-4552
▁vuhlayiselo	-4553
▁kharikhulamu	-4554
▁malulamiselo	-4555
ck	-4556
oo	-4557
dak	-4558
▁Un	-4559
gare	-4560
kuri	-4561
leyi	-4562
luve	-4563
mini	-4564
ngwa	-4565
ozwi	-4566
reni	-4567
jenda	-4568
▁Memo	-4569
▁SADC	-4570
hlahla	-4571
riwaku	-4572
vileri	-4573
▁korho	-4574
▁tsake	-4575
ngetelo	-4576
▁Bafana	-4577
▁Foramu	-4578
▁Solani	-4579
▁bajete	-4580
▁doroba	-4581
▁humela	-4582
▁kombis	-4583
▁muxavi	-4584
tshiozwi	-4585
▁Naswona	-4586
▁Pfhumba	-4587
▁Xikhegu	-4588
▁endleni	-4589
▁fambaka	-4590
▁ndzhuti	-4591
▁swikoxo	-4592
▁tikhopi	-4593
▁tirhaku	-4594
▁tluriwa	-4595
▁xihlovo	-4596
longoloxa	-4597
▁Xiletelo	-4598
▁lerinene	-4599
▁nhlangan	-4600
▁sivelaka	-4601
▁tekiwaka	-4602
▁timhangu	-4603
▁vonakaka	-4604
ndzavisiso	-4605
▁Nhlangula	-4606
▁langutele	-4607
▁njhongelo	-4608
▁tirhisile	-4609
▁Ndzavisiso	-4610
▁Swifundzha	-4611
▁hlanganile	-4612
▁hundzuluka	-4613
▁mufundhisi	-4614
▁Vulongoloxa	-4615
▁langutisiwa	-4616
▁mbulavurisano	-4617
ds	-4618
cil	-4619
ent	-4620
qhi	-4621
▁(2	-4622
▁43	-4623
▁An	-4624
▁NI	-4625
UNGU	-4626
wayi	-4627
yala	-4628
▁Khu	-4629
▁Sta	-4630
▁yim	-4631
thisi	-4632
▁Tiva	-4633
▁mago	-4634
▁mavi	-4635
hakeri	-4636
kelana	-4637
metiwa	-4638
tanato	-4639
tsumbu	-4640
wisiso	-4641
yivelo	-4642
▁Thoni	-4643
▁khadi	-4644
▁mhani	-4645
▁ngulu	-4646
▁rhavi	-4647
▁xiavo	-4648
gevenga	-4649
kanelwa	-4650
ringani	-4651
▁baleka	-4652
▁vonele	-4653
▁vurhon	-4654
▁vuxisi	-4655
▁xipanu	-4656
Xivumbeko	-4657
▁Tindlela	-4658
▁elembeni	-4659
▁mpfumelo	-4660
▁mubohiwa	-4661
▁sindzisa	-4662
▁timbhoni	-4663
▁xiyaxiya	-4664
▁xiyisisa	-4665
▁Yingisela	-4666
▁amukerile	-4667
▁hlamusele	-4668
▁kunguhata	-4669
▁phikizana	-4670
▁tirhanaka	-4671
tumbuluxeri	-4672
▁Matekanelo	-4673
▁Netshiozwi	-4674
▁tiyisisaka	-4675
▁tirhisiwangi	-4676
20	-4677
DF	-4678
▁eM	-4679
heti	-4680
luxa	-4681
pula	-4682
▁500	-4683
byana	-4684
dakti	-4685
uncil	-4686
▁2000	-4687
▁Kota	-4688
▁Xixu	-4689
▁bula	-4690
▁mabi	-4691
▁mata	-4692
▁pasa	-4693
▁tifa	-4694
tikili	-4695
▁Komba	-4696
▁Vumba	-4697
▁endzi	-4698
▁fambi	-4699
▁ncini	-4700
▁tihan	-4701
▁tlhon	-4702
olotiki	-4703
▁Rogers	-4704
▁Vumaki	-4705
▁Wanuna	-4706
▁Xiboho	-4707
▁fungha	-4708
▁khwiri	-4709
▁lulama	-4710
▁risima	-4711
▁sayizi	-4712
▁tafula	-4713
▁vumune	-4714
▁Kwalaho	-4715
▁xiendlo	-4716
▁hlonipha	-4717
▁lowunene	-4718
▁embilwini	-4719
▁mathayere	-4720
▁tshembeka	-4721
▁Varhangeri	-4722
▁exitulwini	-4723
▁nhlanganelo	-4724
▁vamhasipala	-4725
▁fikeleriwile	-4726
▁Xitsalwambiko	-4727
▁mumangaleriwa	-4728
▁Muavanyisinkulu	-4729
▁vutitumbuluxeri	-4730
./	-4731
6,	-4732
8,	-4733
KI	-4734
YA	-4735
ence	-4736
teng	-4737
vana	-4738
weto	-4739
▁3.1	-4740
▁mag	-4741
Hambi	-4742
▁PAIA	-4743
▁file	-4744
▁kolo	-4745
▁kopi	-4746
▁lung	-4747
▁swit	-4748
▁xita	-4749
leleni	-4750
ngwane	-4751
valala	-4752
▁manyu	-4753
▁timha	-4754
▁titsa	-4755
leketli	-4756
mpfhuka	-4757
▁Baloyi	-4758
▁Bindzu	-4759
▁Vutomi	-4760
▁basisa	-4761
▁boxiwa	-4762
▁laveki	-4763
▁tswala	-4764
risiweke	-4765
▁ntshamo	-4766
▁talangi	-4767
▁tengiwa	-4768
▁tirhile	-4769
▁vunwini	-4770
▁xiharhi	-4771
▁Matanato	-4772
▁Mutshami	-4773
▁nghenisi	-4774
▁nyanyuko	-4775
▁susumeta	-4776
▁titimela	-4777
▁tiyindlu	-4778
▁xivuriso	-4779
▁Swiletelo	-4780
▁enerisiwa	-4781
▁katsakanya	-4782
▁tiyimeleke	-4783
▁Nkatsakanyo	-4784
▁vahlayisiwa	-4785
▁Majisitarata	-4786
▁pfumeleriwaka	-4787
wn	-4788
hop	-4789
mpe	-4790
▁Da	-4791
▁VU	-4792
mati	-4793
sino	-4794
vila	-4795
vona	-4796
xihi	-4797
yaka	-4798
yiwe	-4799
▁Tla	-4800
▁1992	-4801
▁2001	-4802
▁bela	-4803
▁hola	-4804
▁kome	-4805
▁luma	-4806
▁maka	-4807
▁tsan	-4808
khamba	-4809
▁Mbilu	-4810
▁Gazete	-4811
▁Hukuri	-4812
▁Nhlayo	-4813
▁Tihosi	-4814
▁hlwela	-4815
▁mabazi	-4816
▁ntloko	-4817
▁vukulu	-4818
▁Thawula	-4819
▁mutshama	-4820
▁rhekhodi	-4821
dyandzhaka	-4822
▁hlayisaka	-4823
▁khamphani	-4824
▁mavumbelo	-4825
▁ringaneke	-4826
▁hundziseri	-4827
▁mpfumawulo	-4828
▁sunguriwile	-4829
▁vutumbuluxi	-4830
▁ehleketisisa	-4831
▁landzelelana	-4832
▁tikhanselara	-4833
PA	-4834
PI	-4835
ll	-4836
..?	-4837
ISO	-4838
▁35	-4839
▁eB	-4840
ONGA	-4841
mixo	-4842
stri	-4843
veli	-4844
yama	-4845
▁Tha	-4846
▁ngu	-4847
▁nyo	-4848
hlelo	-4849
sente	-4850
vatli	-4851
▁Ndla	-4852
▁Yuni	-4853
khotso	-4854
kixini	-4855
mbyana	-4856
ndleni	-4857
thonsi	-4858
tiyiso	-4859
▁ekule	-4860
mbisiso	-4861
▁Hasani	-4862
▁Hiloko	-4863
▁hlahlu	-4864
▁hlamba	-4865
▁onhiwa	-4866
▁talaka	-4867
▁vileri	-4868
▁vubihi	-4869
ragirafu	-4870
▁Kambela	-4871
▁karhele	-4872
▁nyamala	-4873
▁Khansele	-4874
▁Matixisa	-4875
▁lexinene	-4876
▁makhombo	-4877
▁ntlokola	-4878
▁ritshuri	-4879
▁vonakala	-4880
▁vurhongo	-4881
▁Hlongwane	-4882
▁Swihlahla	-4883
▁Xixurhana	-4884
▁hangalaka	-4885
▁nkayivelo	-4886
▁nsusumeto	-4887
▁tengisiwa	-4888
▁tinguluve	-4889
▁vuhlayisi	-4890
▁Mpimanyeto	-4891
▁ekhombyeni	-4892
▁tlangeriwa	-4893
▁vayingiseri	-4894
▁Switirhisiwa	-4895
rec	-4896
▁Du	-4897
▁ny	-4898
cato	-4899
fida	-4900
jini	-4901
mbhe	-4902
mbhi	-4903
misi	-4904
weki	-4905
wena	-4906
▁Con	-4907
▁III	-4908
▁TIM	-4909
▁YIN	-4910
▁gwe	-4911
▁tso	-4912
dzeni	-4913
hluli	-4914
mbasi	-4915
vheni	-4916
yiphi	-4917
▁2004	-4918
▁GCIS	-4919
▁hlwe	-4920
▁tint	-4921
▁tise	-4922
▁toko	-4923
▁xidi	-4924
▁yoxe	-4925
heriwa	-4926
kateko	-4927
sitere	-4928
tolove	-4929
xinali	-4930
▁lahle	-4931
▁murhu	-4932
▁tikhe	-4933
dyaxihi	-4934
khanana	-4935
▁Henhla	-4936
▁Vuxaka	-4937
▁rinoko	-4938
▁vamani	-4939
▁yingis	-4940
andzhaku	-4941
ndleteri	-4942
▁Matikho	-4943
▁nghenile	-4944
▁rivalela	-4945
▁vuyelela	-4946
▁hunguteka	-4947
▁tshembisa	-4948
▁vupfuneti	-4949
▁hlanganeke	-4950
▁lerintshwa	-4951
▁muchuchisi	-4952
▁Xitatimende	-4953
▁tsarisiweke	-4954
▁twisisekaka	-4955
▁Phuresidente	-4956
▁mampfampfarhu	-4957
60	-4958
LG	-4959
dlo	-4960
fen	-4961
flu	-4962
min	-4963
ner	-4964
nse	-4965
▁38	-4966
file	-4967
fumu	-4968
gula	-4969
ngwe	-4970
rata	-4971
xeke	-4972
▁Com	-4973
▁Uni	-4974
▁eRi	-4975
aniwa	-4976
nsati	-4977
wheti	-4978
▁Muda	-4979
▁NCOP	-4980
▁Yena	-4981
▁luya	-4982
▁xiki	-4983
foramu	-4984
ngwini	-4985
terile	-4986
tshaho	-4987
▁Swilo	-4988
▁lahla	-4989
▁munyi	-4990
▁munyu	-4991
▁rhume	-4992
▁tinta	-4993
hlawuri	-4994
▁etlele	-4995
▁fekisi	-4996
▁mixini	-4997
▁rifumo	-4998
▁vasati	-4999
▁xisati	-5000
Mathonsi	-5001
ngarhela	-5002
yisiwile	-5003
▁aleriwa	-5004
▁katsiwi	-5005
▁malungh	-5006
▁ndlwini	-5007
▁nyikela	-5008
▁valanga	-5009
▁vamanga	-5010
▁vuhleri	-5011
▁Tiyisisa	-5012
▁Vuyimeri	-5013
▁lavekiki	-5014
▁ndzhwalo	-5015
▁tinhlayo	-5016
hurofexini	-5017
▁Mudyaxihi	-5018
▁Ndzingano	-5019
▁Swivilelo	-5020
▁Vufambisi	-5021
▁Xibukwana	-5022
▁Xihahluli	-5023
▁vangiwaka	-5024
▁vumbiwile	-5025
▁vuphorisa	-5026
▁Swikombiso	-5027
▁Xitifiketi	-5028
▁khasimende	-5029
▁lavatsongo	-5030
▁tivisiwile	-5031
▁vudokodela	-5032
▁fambisanaka	-5033
▁nkhwatihata	-5034
▁xihlambanyiso	-5035
1)	-5036
He	-5037
Wa	-5038
lla	-5039
xin	-5040
▁(3	-5041
▁3,	-5042
▁6.	-5043
▁CC	-5044
hula	-5045
▁dzi	-5046
▁xim	-5047
chiwa	-5048
eleni	-5049
hlula	-5050
isisi	-5051
jensi	-5052
oneka	-5053
tholi	-5054
▁Kuma	-5055
▁Leyi	-5056
▁hoxe	-5057
▁tilo	-5058
TSONGA	-5059
hisiwa	-5060
kereke	-5061
lekeke	-5062
valela	-5063
yisisi	-5064
▁2002.	-5065
▁lomba	-5066
▁malwa	-5067
▁mints	-5068
▁nenge	-5069
▁themi	-5070
ngomana	-5071
pfumala	-5072
▁embasi	-5073
▁kariha	-5074
▁mpfula	-5075
▁tihosi	-5076
▁tshaha	-5077
▁vuyile	-5078
▁ximali	-5079
vumbirhi	-5080
▁emoyeni	-5081
▁hlundzu	-5082
▁kongome	-5083
▁pfariwa	-5084
▁tshwuka	-5085
▁xichavo	-5086
▁Xitiviso	-5087
▁Xiyaxiya	-5088
▁emovheni	-5089
▁epatwini	-5090
▁pasipoto	-5091
▁tivisile	-5092
▁xavisela	-5093
▁Makhanana	-5094
▁Mukamberi	-5095
▁khomiwile	-5096
▁leswinene	-5097
▁matsalana	-5098
▁minkanelo	-5099
▁swisiwana	-5100
▁tinyiketa	-5101
▁vadyuhari	-5102
▁manghenelo	-5103
▁xivulavuri	-5104
▁makongomana	-5105
▁rhendzeleka	-5106
▁tikhamphani	-5107
▁tshembekeke	-5108
▁Ndzindzakhombo	-5109
▁Tinhlengeletano	-5110
34	-5111
VU	-5112
:00	-5113
dla	-5114
ina	-5115
orm	-5116
▁ID	-5117
▁iv	-5118
bulu	-5119
ndze	-5120
ship	-5121
welo	-5122
ziwa	-5123
▁194	-5124
▁Ivi	-5125
▁Man	-5126
▁Rin	-5127
▁Yin	-5128
▁nto	-5129
chara	-5130
harhi	-5131
hwazi	-5132
mbolo	-5133
mpopo	-5134
phabu	-5135
stitu	-5136
▁Ntsa	-5137
▁Teka	-5138
▁cope	-5139
▁kale	-5140
▁mari	-5141
▁sesi	-5142
▁teto	-5143
▁tiba	-5144
▁tigi	-5145
▁tisu	-5146
▁xaxa	-5147
mariya	-5148
▁Khopi	-5149
▁ekama	-5150
▁norho	-5151
▁xakwe	-5152
iselelo	-5153
troniki	-5154
▁sayiti	-5155
▁vavisa	-5156
▁xaviwa	-5157
▁xifuwo	-5158
Swivulwa	-5159
leriwile	-5160
▁Mimpimo	-5161
▁Nkanelo	-5162
▁emakaya	-5163
▁endliwe	-5164
▁kokwana	-5165
▁nkhensa	-5166
▁pfuleka	-5167
▁pfuneka	-5168
▁tirheka	-5169
▁vaendzi	-5170
sunguleni	-5171
▁hlongola	-5172
▁ndziriso	-5173
▁ntirhiso	-5174
▁tiyuniti	-5175
▁xinghana	-5176
▁kombisile	-5177
▁hlayanyana	-5178
▁hlohletela	-5179
▁kanakanisa	-5180
▁tshembheka	-5181
▁vuangameri	-5182
▁kongomaneke	-5183
-9	-5184
ys	-5185
gov	-5186
kom	-5187
lle	-5188
non	-5189
ree	-5190
▁3:	-5191
▁MA	-5192
lomo	-5193
▁Khe	-5194
▁nxi	-5195
▁phi	-5196
pfalo	-5197
tanga	-5198
vengo	-5199
▁1987	-5200
▁Agri	-5201
▁Ndzo	-5202
▁kats	-5203
▁kaye	-5204
▁sele	-5205
▁vevu	-5206
▁xipe	-5207
garete	-5208
khumbi	-5209
kiweke	-5210
nharhu	-5211
nimamu	-5212
▁2003.	-5213
▁2010.	-5214
▁Gemba	-5215
▁kokwa	-5216
▁manga	-5217
▁swima	-5218
▁twali	-5219
ngulano	-5220
▁Boneka	-5221
▁Magoza	-5222
▁beyili	-5223
▁joyina	-5224
▁kamara	-5225
▁saleke	-5226
▁tihomu	-5227
▁tshame	-5228
▁vikiwa	-5229
▁Tsavula	-5230
▁mangala	-5231
▁swivula	-5232
▁vaendli	-5233
phabuliki	-5234
▁mimbirhi	-5235
▁tinwheti	-5236
▁vekiwile	-5237
▁vutisiwa	-5238
▁Chavalala	-5239
▁Swivutiso	-5240
▁Xifundzha	-5241
▁Mufundhisi	-5242
▁malawulele	-5243
▁minhlawulo	-5244
▁swifundzha	-5245
▁swikweleti	-5246
▁xikhongelo	-5247
▁endyangwini	-5248
▁hlayisekeke	-5249
▁komberiweke	-5250
▁tirhiseriwa	-5251
▁xihlambanyo	-5252
▁tilulamisela	-5253
▁kambisisiwaka	-5254
▁Mutlhokovetseri	-5255
tal	-5256
▁ju	-5257
WULA	-5258
pisi	-5259
wiwa	-5260
▁Hlu	-5261
▁MAT	-5262
▁Nxa	-5263
▁WHO	-5264
▁nan	-5265
kahle	-5266
▁1993	-5267
▁mita	-5268
▁ndze	-5269
▁rhwa	-5270
lelani	-5271
maleko	-5272
pulani	-5273
▁Ameri	-5274
▁Humbu	-5275
▁Mahlo	-5276
▁swihu	-5277
▁swina	-5278
rekhodo	-5279
▁Kunene	-5280
▁Ntsena	-5281
▁heleke	-5282
▁hoxeka	-5283
▁mpfilu	-5284
▁veleka	-5285
▁xolexo	-5286
kandzeni	-5287
yisiweke	-5288
▁Mikarhi	-5289
▁Phemiti	-5290
wangulano	-5291
witsirisi	-5292
▁Xileriso	-5293
▁Xivandla	-5294
▁hundzaka	-5295
▁hundzela	-5296
▁lontshwa	-5297
▁ntshembo	-5298
▁ringanye	-5299
▁tirhandi	-5300
▁wuntshwa	-5301
▁Swinawana	-5302
▁hambanile	-5303
▁makanelwa	-5304
▁nkanetano	-5305
▁tshunxiwa	-5306
▁vahlayisi	-5307
▁Ndlandlamu	-5308
▁humesiweke	-5309
▁khumbekaku	-5310
▁tikhampani	-5311
▁vaseketeri	-5312
▁langutaneke	-5313
▁swintshunxo	-5314
▁tsundzuxana	-5315
▁kunguhatiweke	-5316
▁minkanerisano	-5317
▁pfumeleriwile	-5318
▁vutihlanganisi	-5319
52	-5320
IT	-5321
Ta	-5322
ARA	-5323
IRI	-5324
ble	-5325
lic	-5326
per	-5327
ria	-5328
▁7.	-5329
▁Wo	-5330
▁YO	-5331
▁eS	-5332
.1.1	-5333
liti	-5334
mepe	-5335
mune	-5336
▁Nte	-5337
▁Per	-5338
▁Tis	-5339
▁pri	-5340
Leswi	-5341
isara	-5342
tsiwa	-5343
▁Cape	-5344
▁Mbho	-5345
▁Nkhu	-5346
▁Sara	-5347
▁Tsha	-5348
▁heli	-5349
▁tava	-5350
▁tife	-5351
▁wexe	-5352
ndhawu	-5353
ntraka	-5354
vasati	-5355
xiwile	-5356
▁2014.	-5357
▁Nkulu	-5358
▁Xikan	-5359
▁lerin	-5360
▁mbewu	-5361
▁venga	-5362
andleka	-5363
kombiso	-5364
ofisara	-5365
rhandzi	-5366
▁Xibunu	-5367
▁copeta	-5368
▁hlanga	-5369
▁huhula	-5370
▁kusuka	-5371
▁mapatu	-5372
▁mbhoni	-5373
▁vahoxi	-5374
▁xeweta	-5375
▁xitici	-5376
valelano	-5377
▁Makungu	-5378
▁dlayela	-5379
▁gingiri	-5380
▁hlayeka	-5381
▁nxupulo	-5382
▁rivengo	-5383
▁tirhelo	-5384
tirhiselo	-5385
▁Vatsonga	-5386
▁letikulu	-5387
▁tifanele	-5388
▁vhengele	-5389
▁Muchayeri	-5390
▁Swipimelo	-5391
▁lebyinene	-5392
▁mbuyelelo	-5393
▁ringanaka	-5394
▁tshembisi	-5395
▁herisiwile	-5396
▁heteleleni	-5397
▁lerisiweke	-5398
▁simekiwile	-5399
▁vulavuriwa	-5400
▁amukeriwaka	-5401
▁longoloxiwa	-5402
▁ndzingetelo	-5403
▁thelevhixini	-5404
▁tiyisisiweke	-5405
TI	-5406
ELA	-5407
bok	-5408
ger	-5409
rei	-5410
▁4,	-5411
▁UI	-5412
gadi	-5413
jeni	-5414
keki	-5415
kula	-5416
lose	-5417
wisi	-5418
▁DHA	-5419
▁NER	-5420
▁Rhe	-5421
IRHIS	-5422
gingi	-5423
isani	-5424
kanhi	-5425
leswo	-5426
mpuli	-5427
yangi	-5428
▁1995	-5429
▁bile	-5430
▁buti	-5431
▁demo	-5432
▁lamo	-5433
▁mave	-5434
▁mula	-5435
▁sola	-5436
▁tama	-5437
Vulehi	-5438
katini	-5439
kelani	-5440
lekile	-5441
riseni	-5442
zayini	-5443
▁KUMBE	-5444
▁Pfuxe	-5445
▁Sungu	-5446
▁endza	-5447
▁mahla	-5448
▁sweka	-5449
matsini	-5450
▁majaha	-5451
▁makete	-5452
▁nharhu	-5453
▁nimixo	-5454
▁sayini	-5455
▁tiyeke	-5456
▁vulehi	-5457
▁xikoxo	-5458
▁Nkomiso	-5459
▁Ntekele	-5460
▁Rihanyu	-5461
▁Rintiho	-5462
▁Vathori	-5463
▁kaneris	-5464
▁khumbha	-5465
▁mintila	-5466
▁nguluve	-5467
▁nothisi	-5468
▁tsemiwa	-5469
▁tumbeta	-5470
▁vupfile	-5471
tifikheti	-5472
tshunxeko	-5473
▁fikeleli	-5474
▁heleketa	-5475
▁hundziki	-5476
▁sekitara	-5477
▁xivindzi	-5478
kambelwana	-5479
▁humanyana	-5480
▁machudeni	-5481
▁tikhasino	-5482
▁yimbelela	-5483
▁mintirhweni	-5484
▁ndzinganiso	-5485
▁rejistariwa	-5486
▁vuhundzuluxi	-5487
NC	-5488
oe	-5489
>11	-5490
NGO	-5491
nyo	-5492
▁As	-5493
▁Be	-5494
▁KA	-5495
cial	-5496
port	-5497
▁300	-5498
▁Bra	-5499
▁Kan	-5500
▁NLS	-5501
▁mad	-5502
ARAKA	-5503
eleta	-5504
ndara	-5505
▁Madi	-5506
▁fani	-5507
▁gang	-5508
▁kali	-5509
▁mabo	-5510
▁sula	-5511
▁tiso	-5512
hawuri	-5513
▁2008.	-5514
▁chapu	-5515
▁eyuni	-5516
▁mbono	-5517
▁xavis	-5518
khegula	-5519
▁Matimu	-5520
▁mimepe	-5521
▁mucato	-5522
▁tikela	-5523
▁tlhari	-5524
kerekeni	-5525
khalabye	-5526
lilasini	-5527
luvukisa	-5528
teriwile	-5529
wayitela	-5530
▁Kombela	-5531
▁Mhawuri	-5532
▁Phanele	-5533
▁khompyu	-5534
▁nyangwa	-5535
▁vunyiki	-5536
▁yanwana	-5537
tshembiso	-5538
▁Hinkwavo	-5539
▁Ndzimana	-5540
▁TIMARAKA	-5541
▁Vatswari	-5542
▁kumiwaka	-5543
▁tshikile	-5544
▁vunwinyi	-5545
▁vutoloki	-5546
▁xihlangi	-5547
▁xintshwa	-5548
khanselara	-5549
▁komberile	-5550
▁languteka	-5551
▁mavokweni	-5552
▁nhlengelo	-5553
▁rhandzaka	-5554
▁tikarhata	-5555
▁xitshunxo	-5556
▁Landzelela	-5557
▁vanghenisi	-5558
▁vulavuleni	-5559
▁vuyerisaka	-5560
▁Milawumbisi	-5561
▁fanelangiki	-5562
▁theminoloji	-5563
▁tsundzuxiwa	-5564
▁vakhandziyi	-5565
▁languteriwaka	-5566
);	-5567
us	-5568
10,	-5569
dop	-5570
isu	-5571
pri	-5572
tro	-5573
yop	-5574
▁32	-5575
/200	-5576
Kasi	-5577
bert	-5578
lson	-5579
muni	-5580
seve	-5581
siso	-5582
siye	-5583
tswe	-5584
vaza	-5585
xeka	-5586
▁RHU	-5587
▁Swo	-5588
▁gon	-5589
▁qhi	-5590
dyoho	-5591
nghen	-5592
ngiku	-5593
rhelo	-5594
▁Mafa	-5595
▁Tolo	-5596
▁leto	-5597
▁tipa	-5598
▁wili	-5599
doroba	-5600
heleni	-5601
jisita	-5602
kangan	-5603
kanile	-5604
sosiye	-5605
▁2007.	-5606
▁Mudau	-5607
▁Nwana	-5608
▁hikwa	-5609
▁khexe	-5610
▁lorha	-5611
▁nkala	-5612
▁swila	-5613
▁ticha	-5614
▁Unwana	-5615
▁lamala	-5616
▁tihuku	-5617
andyangu	-5618
▁Vumbano	-5619
▁Wansati	-5620
▁cincile	-5621
▁hlasela	-5622
▁mavunwa	-5623
▁mihloti	-5624
▁novhele	-5625
▁olovisa	-5626
▁tumbela	-5627
eladyambu	-5628
▁Vavasati	-5629
▁hakelaka	-5630
▁maAfrika	-5631
▁mulawuri	-5632
▁nyanyula	-5633
▁timitara	-5634
▁xikandza	-5635
▁korhokela	-5636
▁longoloxa	-5637
▁sunguleke	-5638
▁xikambela	-5639
Matirhiselo	-5640
▁Vuavanyisi	-5641
▁lamantshwa	-5642
▁lamatsongo	-5643
▁nkulukumba	-5644
▁tiphesente	-5645
▁xibedhlele	-5646
▁Nyenyenyani	-5647
▁Thekinoloji	-5648
▁langutisela	-5649
▁leswitsongo	-5650
▁pfumelelaka	-5651
▁ematshanwini	-5652
▁hlamuseriwile	-5653
▁langutisisiwa	-5654
Yi	-5655
,''	-5656
▁Ac	-5657
▁Cl	-5658
▁ne	-5659
BIRI	-5660
heni	-5661
jeko	-5662
neni	-5663
pilo	-5664
poli	-5665
reme	-5666
tiwe	-5667
ximo	-5668
▁Amu	-5669
▁Deu	-5670
▁aku	-5671
▁dzu	-5672
▁nta	-5673
▁vhe	-5674
khadi	-5675
reira	-5676
rheni	-5677
▁Bodo	-5678
▁Lowu	-5679
▁Mang	-5680
▁Tiyi	-5681
▁fung	-5682
▁jika	-5683
▁khen	-5684
▁tidi	-5685
▁tifu	-5686
▁xupu	-5687
▁yimi	-5688
BIRIKI	-5689
gadier	-5690
halaki	-5691
ndzela	-5692
verile	-5693
wutiso	-5694
▁Mbeki	-5695
▁exifu	-5696
▁hlaka	-5697
▁leyin	-5698
▁lumbe	-5699
▁tluli	-5700
▁vhoti	-5701
endliwa	-5702
hantlha	-5703
kankulu	-5704
milenge	-5705
randamu	-5706
▁Feyisi	-5707
▁LAWULA	-5708
▁Nelson	-5709
▁Phepha	-5710
▁hefemu	-5711
▁koxiwa	-5712
▁talele	-5713
▁tshova	-5714
▁vuyisa	-5715
▁yuniti	-5716
ntwisiso	-5717
▁manyala	-5718
▁nsimeko	-5719
▁ripfalo	-5720
▁tihlamu	-5721
▁tingana	-5722
▁tshinya	-5723
▁Mavandla	-5724
▁XITSONGA	-5725
▁kutsongo	-5726
▁mavulavu	-5727
▁mutekani	-5728
▁tekeriwi	-5729
▁tolovela	-5730
▁tshamaku	-5731
sosiyexini	-5732
▁Brigadier	-5733
▁Mukomberi	-5734
▁RHUBIRIKI	-5735
▁edorobeni	-5736
▁leswikulu	-5737
▁nyamalala	-5738
▁tlhontlha	-5739
▁Vamasipala	-5740
▁mabiliyoni	-5741
▁swikambelo	-5742
▁tipolotiki	-5743
▁tisekitara	-5744
▁tshamiseka	-5745
▁tshinelela	-5746
▁vaavanyisi	-5747
▁xinkarhana	-5748
▁Xitifikheti	-5749
▁kunguhatiwa	-5750
▁mahlamulelo	-5751
▁tanihileswi	-5752
▁tsarisiwile	-5753
ehleketeleriwa	-5754
▁Makunguhatelo	-5755
LU	-5756
cy	-5757
ee	-5758
ef	-5759
WAF	-5760
dze	-5761
lwe	-5762
ted	-5763
▁Ad	-5764
▁CO	-5765
▁Fi	-5766
▁HL	-5767
▁LE	-5768
▁ad	-5769
▁ej	-5770
▁ww	-5771
beri	-5772
foni	-5773
maka	-5774
ndli	-5775
rofe	-5776
seni	-5777
taba	-5778
wiki	-5779
zane	-5780
▁Han	-5781
▁Maa	-5782
▁Mbo	-5783
▁nag	-5784
▁www	-5785
rhisi	-5786
secho	-5787
sithi	-5788
tsevu	-5789
vhiti	-5790
▁Kapa	-5791
▁RONA	-5792
▁mbha	-5793
▁miti	-5794
▁sale	-5795
hompfu	-5796
lamula	-5797
mekelo	-5798
tlhela	-5799
yeleti	-5800
zaneen	-5801
▁Mavha	-5802
▁Vhiki	-5803
▁Xihla	-5804
▁cheke	-5805
▁emasi	-5806
▁exiti	-5807
▁phuts	-5808
▁provi	-5809
▁rungu	-5810
▁tihla	-5811
ndastri	-5812
▁Madiba	-5813
▁Mavito	-5814
▁Migodi	-5815
▁Muxaka	-5816
▁anakan	-5817
▁angula	-5818
▁bihile	-5819
▁ndzawu	-5820
▁ntlaku	-5821
▁tivona	-5822
▁yimele	-5823
IRHISELO	-5824
kanyingi	-5825
vhesithi	-5826
▁Miganga	-5827
▁Vuvabyi	-5828
▁mukhuva	-5829
▁nyikeke	-5830
▁pfuriwa	-5831
▁rintiho	-5832
▁vatsari	-5833
▁Dokodela	-5834
▁Mintlawa	-5835
▁Ndhavuko	-5836
▁hetelele	-5837
▁marhambu	-5838
▁navelaka	-5839
▁tlhaviwa	-5840
▁vabohiwa	-5841
▁Mavhavaza	-5842
▁gingiriko	-5843
▁huvonkulu	-5844
▁kombelaka	-5845
▁mahanyele	-5846
▁matikweni	-5847
▁swintshwa	-5848
▁tintambhu	-5849
▁tshunxeka	-5850
▁vutsoniwa	-5851
▁Ntirhisano	-5852
▁bumabumela	-5853
▁hlongoriwa	-5854
▁mavhengele	-5855
▁mindhavuko	-5856
▁vuseketeri	-5857
▁vuyeleriwa	-5858
▁MATIRHISELO	-5859
▁Mudyondzisi	-5860
▁exibedlhele	-5861
▁exikandzeni	-5862
▁matwisiselo	-5863
▁ringanisiwa	-5864
▁tisirhelela	-5865
▁tshunguriwa	-5866
▁Nwendzamhala	-5867
▁hlohloteriwa	-5868
▁mindzavisiso	-5869
▁swihoxonyana	-5870
▁sirheleriweke	-5871
▁vamajisitarata	-5872
MB	-5873
Vi	-5874
ue	-5875
.2.	-5876
100	-5877
ish	-5878
▁33	-5879
▁48	-5880
▁eD	-5881
IRHI	-5882
kusa	-5883
vani	-5884
wexe	-5885
xani	-5886
▁195	-5887
▁400	-5888
▁Feb	-5889
▁Mas	-5890
▁Par	-5891
▁vhi	-5892
▁xii	-5893
hlela	-5894
khoda	-5895
kithi	-5896
ngasi	-5897
tsano	-5898
zweni	-5899
▁Vala	-5900
▁enko	-5901
▁helo	-5902
▁kufu	-5903
▁ntlu	-5904
▁tixe	-5905
▁vuhu	-5906
maneni	-5907
ndzula	-5908
risile	-5909
sayiti	-5910
▁1996?	-5911
▁2000.	-5912
▁State	-5913
▁chefu	-5914
▁chele	-5915
▁maqhi	-5916
▁matit	-5917
▁ndzhe	-5918
▁tikhi	-5919
▁twiwa	-5920
▁vakwe	-5921
mhakana	-5922
nership	-5923
theriya	-5924
tsanana	-5925
▁Tindlu	-5926
▁Vutisa	-5927
▁kholwa	-5928
▁matsha	-5929
▁maxelo	-5930
▁ngheni	-5931
▁onhaki	-5932
▁siyile	-5933
▁vutshe	-5934
▁xifuva	-5935
handzuri	-5936
▁Deutshe	-5937
▁Ntshaho	-5938
▁angarha	-5939
▁chukele	-5940
▁cincana	-5941
▁kombiwa	-5942
▁masocha	-5943
▁ringani	-5944
▁swibalo	-5945
▁tikatsa	-5946
▁tikombi	-5947
▁tsakile	-5948
▁tsariwe	-5949
▁vavabyi	-5950
fidavhiti	-5951
▁Mawuwani	-5952
▁Mbhokota	-5953
▁Mpfuxeto	-5954
▁Vamanana	-5955
▁kusukela	-5956
▁muongori	-5957
▁muvileri	-5958
▁siveriwa	-5959
▁tshikiwa	-5960
▁voniwaka	-5961
▁xisweswo	-5962
▁Enkarhini	-5963
▁Humbulani	-5964
▁ekerekeni	-5965
▁hlawurile	-5966
▁mugangeni	-5967
▁nongoloko	-5968
▁tirhelaka	-5969
▁tumbuluka	-5970
▁vaofisiri	-5971
▁emalembeni	-5972
▁madokodela	-5973
hurofexinali	-5974
▁sunguriweke	-5975
▁vatsundzuxi	-5976
▁switandzhaku	-5977
▁tidokhumente	-5978
▁longoloxiweke	-5979
▁Xifundzhankulu	-5980
>9	-5981
Hu	-5982
ME	-5983
gy	-5984
ETI	-5985
ght	-5986
nts	-5987
oro	-5988
ust	-5989
▁1?	-5990
▁IV	-5991
▁RA	-5992
▁eL	-5993
▁nc	-5994
▁ph	-5995
>934	-5996
cini	-5997
hamu	-5998
luva	-5999
timi	-6000
▁2.1	-6001
▁SMS	-6002
▁rho	-6003
▁tie	-6004
dzana	-6005
endzo	-6006
hleni	-6007
kwele	-6008
nipho	-6009
▁1980	-6010
▁2008	-6011
▁Nhle	-6012
▁Yisa	-6013
▁adop	-6014
▁tswo	-6015
▁vuso	-6016
▁xile	-6017
anyana	-6018
chavis	-6019
kiwile	-6020
metela	-6021
neneni	-6022
riweni	-6023
vulelo	-6024
yiseka	-6025
▁2004,	-6026
▁Tlula	-6027
▁kamba	-6028
▁lwisa	-6029
▁pongo	-6030
▁tivon	-6031
dzaberi	-6032
mahungu	-6033
ndyangu	-6034
yenyana	-6035
▁kangan	-6036
▁khoman	-6037
▁leswin	-6038
▁ndhuna	-6039
▁tshami	-6040
▁xinene	-6041
vuyeriwa	-6042
yangweni	-6043
ziphepha	-6044
▁Council	-6045
▁Mukhomi	-6046
▁Ntiyiso	-6047
▁Sunguti	-6048
▁Tirhelo	-6049
▁chuluka	-6050
▁endlele	-6051
▁makwavo	-6052
▁mikhuva	-6053
▁muhlayi	-6054
▁mukwana	-6055
▁nyikiwe	-6056
▁rihlaza	-6057
▁swirilo	-6058
▁tivhoti	-6059
▁xigangu	-6060
chaviseki	-6061
▁Hakunene	-6062
▁hundzisa	-6063
▁khotsiwa	-6064
▁nghenaka	-6065
▁rhambiwa	-6066
▁tekanile	-6067
▁tintshwa	-6068
▁vukhamba	-6069
▁vuyisela	-6070
▁xaniseka	-6071
▁Tihlangan	-6072
▁amukeriwi	-6073
▁ekamareni	-6074
▁exineneni	-6075
▁hlawuleke	-6076
▁hluvukaka	-6077
▁nsawutiso	-6078
▁palamende	-6079
▁pfunetaka	-6080
tsalwambiko	-6081
▁susumetiwa	-6082
▁tinghenisa	-6083
▁Timhasipala	-6084
▁khulukelana	-6085
▁vuhangalasi	-6086
▁Swikongomelo	-6087
▁tipharagirafu	-6088
▁hundzuluxiweke	-6089
▁malunghiselelo	-6090
4)	-6091
PP	-6092
as	-6093
by	-6094
ban	-6095
bwe	-6096
ids	-6097
ndo	-6098
rch	-6099
ses	-6100
tri	-6101
▁--	-6102
▁Es	-6103
▁FA	-6104
▁UN	-6105
▁em	-6106
Form	-6107
cisi	-6108
hila	-6109
hoto	-6110
imba	-6111
kali	-6112
lava	-6113
mbha	-6114
mise	-6115
▁Mug	-6116
▁Tho	-6117
▁oma	-6118
Kambe	-6119
ekela	-6120
elero	-6121
henso	-6122
itori	-6123
kwena	-6124
tangi	-6125
xangu	-6126
▁1983	-6127
▁DWAF	-6128
▁Swin	-6129
▁ahlu	-6130
▁fela	-6131
▁musi	-6132
▁phen	-6133
▁tana	-6134
vetela	-6135
▁1994,	-6136
▁Eskom	-6137
▁Mirhi	-6138
▁Nyiko	-6139
▁hemba	-6140
▁hunga	-6141
▁langa	-6142
▁swixa	-6143
▁tivis	-6144
andleni	-6145
endleko	-6146
imbabwe	-6147
nhundzu	-6148
▁Xidemo	-6149
▁Xikolo	-6150
▁humesi	-6151
▁lahaya	-6152
▁landzi	-6153
▁relero	-6154
▁tatisa	-6155
▁titshe	-6156
▁xikimu	-6157
alamente	-6158
▁Ehandle	-6159
▁Xihluvi	-6160
▁endleki	-6161
▁khomisa	-6162
▁muntima	-6163
▁nkululo	-6164
▁nyawula	-6165
▁swihari	-6166
▁tirhele	-6167
▁vusopfa	-6168
▁Nhlawulo	-6169
▁Nkambelo	-6170
▁Xinawana	-6171
▁madoroba	-6172
▁navetisa	-6173
▁vilerisa	-6174
▁Vaakatiko	-6175
▁Vatirhisi	-6176
▁khutaziwa	-6177
▁kongomile	-6178
▁murhumeri	-6179
▁muthoriwa	-6180
▁phasipoto	-6181
▁swihalaki	-6182
▁swihlangi	-6183
▁Muchuchisi	-6184
▁lexintshwa	-6185
▁mpfumaleko	-6186
▁tiphayiphi	-6187
▁yimisiwile	-6188
▁Puresidente	-6189
▁Vadyondzisi	-6190
▁twananiweke	-6191
▁ndlandlamuka	-6192
2,	-6193
77	-6194
Ne	-6195
▁28	-6196
▁IR	-6197
▁Ie	-6198
▁NK	-6199
▁Po	-6200
▁ja	-6201
SALB	-6202
lesa	-6203
maku	-6204
musi	-6205
orpo	-6206
ropa	-6207
teli	-6208
▁120	-6209
▁436	-6210
▁Dla	-6211
▁Khi	-6212
▁Pan	-6213
▁dyo	-6214
▁eMa	-6215
▁vua	-6216
eriwe	-6217
phili	-6218
tions	-6219
wenya	-6220
▁2007	-6221
▁bulu	-6222
▁lesw	-6223
▁nxan	-6224
▁swik	-6225
▁tiMP	-6226
▁tiha	-6227
helela	-6228
kahata	-6229
mpfilu	-6230
ngwana	-6231
qivela	-6232
rhandz	-6233
teleka	-6234
vusiku	-6235
▁1999.	-6236
▁2009,	-6237
▁Dyana	-6238
▁Futhi	-6239
▁Tikha	-6240
▁nambu	-6241
▁nkaye	-6242
▁pfuxa	-6243
▁vumbe	-6244
Xiphemu	-6245
▁boxeke	-6246
▁entshe	-6247
▁kokiwa	-6248
▁mitara	-6249
▁ntwela	-6250
▁rivali	-6251
▁tifeme	-6252
▁vonana	-6253
▁xidimo	-6254
Vundzeni	-6255
politiki	-6256
veriweke	-6257
viselano	-6258
▁Mimfumo	-6259
▁Nkateko	-6260
▁Tlakusa	-6261
▁adirese	-6262
▁amukele	-6263
▁nyawuli	-6264
▁projeke	-6265
▁rhadiyo	-6266
▁riendli	-6267
▁tihlawu	-6268
▁timbewu	-6269
▁tlulaka	-6270
▁tlulele	-6271
▁tshembi	-6272
▁tsoniwa	-6273
▁xichava	-6274
arnership	-6275
fanyetana	-6276
rhandziwa	-6277
▁Vulavula	-6278
▁Xivilelo	-6279
▁khansele	-6280
▁kumekile	-6281
▁lerisiwa	-6282
▁rihisiwa	-6283
▁susiwile	-6284
▁tshamise	-6285
▁xiximiwa	-6286
▁yisiweke	-6287
Hambileswi	-6288
kanganyisi	-6289
▁Angarhela	-6290
▁Hluvukisa	-6291
▁Tirekhodo	-6292
▁Vatirhela	-6293
▁nhlonipho	-6294
▁talanyana	-6295
▁vandyangu	-6296
▁vathoriwa	-6297
▁tanihilaha	-6298
▁tisenthara	-6299
▁tivisiweke	-6300
▁vuhandzuri	-6301
▁Xitsundzuxo	-6302
▁emitirhweni	-6303
▁endzimaneni	-6304
▁mahlamusele	-6305
▁tumbuluxile	-6306
▁nghenisiwaku	-6307
▁landzelelangi	-6308
HI	-6309
PLG	-6310
cal	-6311
ffi	-6312
vhu	-6313
▁HI	-6314
▁Wi	-6315
▁eC	-6316
▁ek	-6317
.200	-6318
blic	-6319
cece	-6320
luko	-6321
nela	-6322
rowa	-6323
▁(2)	-6324
▁108	-6325
▁EIA	-6326
▁Ntu	-6327
▁Pre	-6328
▁mab	-6329
▁mha	-6330
▁mpf	-6331
▁pfi	-6332
vhoti	-6333
▁Enge	-6334
▁Nuna	-6335
▁Regi	-6336
▁haha	-6337
▁hiku	-6338
▁hono	-6339
▁kuna	-6340
▁lovo	-6341
▁mimp	-6342
▁misa	-6343
▁vuhi	-6344
khavha	-6345
leriwi	-6346
risaka	-6347
wexemu	-6348
▁1998.	-6349
▁Direc	-6350
▁Sarah	-6351
▁Xintu	-6352
▁makho	-6353
▁marhu	-6354
▁tithe	-6355
jistara	-6356
▁Kurisa	-6357
▁Mbango	-6358
▁basile	-6359
▁mutivi	-6360
▁nhwana	-6361
▁xinkwa	-6362
kixinari	-6363
nghozini	-6364
▁Hletelo	-6365
▁Kokwana	-6366
▁Limpopo	-6367
▁Tumbulu	-6368
▁Xikarhi	-6369
▁amukeli	-6370
▁ePitori	-6371
▁khomeke	-6372
▁khomela	-6373
▁khwatsi	-6374
▁musecho	-6375
▁pfunana	-6376
▁rungula	-6377
▁thayere	-6378
▁tsandza	-6379
▁vafamba	-6380
▁vumbaka	-6381
▁vuthori	-6382
jistarata	-6383
khavhambe	-6384
▁Muyimeri	-6385
▁hetisiwa	-6386
▁hundzuke	-6387
▁khohlola	-6388
▁mbhasiso	-6389
▁muhakeri	-6390
▁tinhenha	-6391
▁vuriwaku	-6392
▁yisiwile	-6393
hlawuhlawu	-6394
ndyangwini	-6395
orporation	-6396
▁Layisense	-6397
▁Mutirhela	-6398
▁enghozini	-6399
▁epurasini	-6400
▁langutane	-6401
▁lebyikulu	-6402
▁ntshembho	-6403
▁rhijisita	-6404
▁vuchayeri	-6405
▁Khotonkulu	-6406
▁langhiweke	-6407
▁mahakelelo	-6408
▁masimekelo	-6409
▁muxanisiwa	-6410
▁xijahatana	-6411
▁Vutshunguri	-6412
▁asosiyexini	-6413
▁Ximunhuhatwa	-6414
▁ekusunguleni	-6415
▁mindyangwini	-6416
▁vahundzuluxi	-6417
▁landzeleriwile	-6418
▁vatirhikulobye	-6419
.3	-6420
19	-6421
RC	-6422
UT	-6423
Xa	-6424
uk	-6425
BEE	-6426
HLA	-6427
IMB	-6428
nde	-6429
rov	-6430
tis	-6431
▁Bi	-6432
▁PS	-6433
PFUN	-6434
PILA	-6435
huma	-6436
meki	-6437
vono	-6438
▁Nsi	-6439
▁Xip	-6440
▁ele	-6441
▁maa	-6442
▁thi	-6443
anani	-6444
eriso	-6445
olori	-6446
qambi	-6447
thovu	-6448
tleni	-6449
toria	-6450
venue	-6451
yanyi	-6452
▁1997	-6453
▁Pasi	-6454
▁Tutu	-6455
▁enon	-6456
▁have	-6457
▁lela	-6458
▁lexo	-6459
VUPFUN	-6460
eneral	-6461
kelela	-6462
liyamu	-6463
meyili	-6464
▁1980.	-6465
▁Mpimo	-6466
▁gongo	-6467
▁kanwe	-6468
▁mfana	-6469
▁minsi	-6470
▁ngana	-6471
▁nguva	-6472
▁nkulo	-6473
▁nsalo	-6474
▁nthya	-6475
▁nyoka	-6476
▁swoxe	-6477
▁takwe	-6478
▁vhela	-6479
▁vucha	-6480
kumente	-6481
mbiwile	-6482
ngeleni	-6483
▁PAPILA	-6484
▁Sejeni	-6485
▁Vukati	-6486
▁heriki	-6487
▁hundze	-6488
▁kotara	-6489
▁mapula	-6490
▁maraka	-6491
▁nyanya	-6492
▁rhurhu	-6493
▁risimu	-6494
▁swinon	-6495
▁tiviki	-6496
▁vitani	-6497
▁wundla	-6498
▁yiviwa	-6499
changana	-6500
vusiwana	-6501
▁Vukhume	-6502
▁andzisa	-6503
▁karhala	-6504
▁mangani	-6505
▁tiendla	-6506
▁tisunga	-6507
VUPFUNETI	-6508
hlamusela	-6509
▁MaAfrika	-6510
▁Xifaniso	-6511
▁ambarile	-6512
▁dzolonga	-6513
▁heleriwa	-6514
▁hikahata	-6515
▁mantshwa	-6516
▁mavekelo	-6517
▁minimamu	-6518
▁rhangisa	-6519
▁tlhandle	-6520
▁yelanisa	-6521
▁Mimfungho	-6522
▁amukeleke	-6523
▁chavisiwa	-6524
▁dyondzile	-6525
▁evukatini	-6526
▁tiendlela	-6527
▁tilevhele	-6528
▁tsemelela	-6529
▁Mintwanano	-6530
▁etlilasini	-6531
▁eximatsini	-6532
▁hakeriwile	-6533
▁kanetanaka	-6534
▁nkambisiso	-6535
▁provhixini	-6536
▁swihangala	-6537
▁switandati	-6538
▁tinhlampfi	-6539
▁tiyimisele	-6540
▁tsariwangi	-6541
▁tsutsumela	-6542
▁velekiwile	-6543
▁xibedlhele	-6544
hundzuluxeri	-6545
▁Maandlalelo	-6546
▁Riphabuliki	-6547
▁Vusirheleri	-6548
▁hlawuriwile	-6549
▁muhlayisiwa	-6550
▁eyunivhesiti	-6551
▁Xifundzankulu	-6552
1,	-6553
3,	-6554
DO	-6555
TA	-6556
ph	-6557
ATO	-6558
ISA	-6559
Mza	-6560
gra	-6561
kei	-6562
lia	-6563
nes	-6564
ssi	-6565
▁70	-6566
779.	-6567
HATO	-6568
burg	-6569
gidi	-6570
hlwa	-6571
hovo	-6572
pela	-6573
suna	-6574
zulu	-6575
▁250	-6576
▁Gro	-6577
▁VAT	-6578
▁kwe	-6579
▁twe	-6580
langu	-6581
ngulo	-6582
ukrov	-6583
yivhi	-6584
▁000.	-6585
▁0860	-6586
▁COID	-6587
▁ehen	-6588
▁hoyo	-6589
▁khon	-6590
▁kulo	-6591
▁papi	-6592
▁vahi	-6593
anguva	-6594
hariva	-6595
kuzana	-6596
lekano	-6597
wundlo	-6598
▁Nyama	-6599
▁Thabo	-6600
▁Trans	-6601
▁hleke	-6602
▁matho	-6603
▁nkosi	-6604
▁phoko	-6605
▁phuro	-6606
▁tekan	-6607
▁twaka	-6608
▁twela	-6609
Mzamani	-6610
hikithi	-6611
jumbana	-6612
▁26779.	-6613
▁Mbangu	-6614
▁Mthovu	-6615
▁NKUNGU	-6616
▁hanyis	-6617
▁honisa	-6618
▁mirini	-6619
▁misavu	-6620
▁nghohe	-6621
▁sukile	-6622
▁thlelo	-6623
▁tisela	-6624
▁tshuki	-6625
▁vekiwe	-6626
▁vuhoxa	-6627
▁vununa	-6628
hisimusi	-6629
ndzawini	-6630
toloveta	-6631
▁Mavabyi	-6632
▁Nyiketa	-6633
▁atikili	-6634
▁dlayisa	-6635
▁pfangan	-6636
▁sisteme	-6637
▁swandla	-6638
▁thekisi	-6639
▁tikhodi	-6640
▁vapfuni	-6641
▁Hundzulu	-6642
▁Mawuwana	-6643
▁Netiweke	-6644
▁Swipfuno	-6645
▁funghiwa	-6646
▁kumekaku	-6647
▁manyunyu	-6648
▁mutlangi	-6649
▁swoleswo	-6650
▁tindhuna	-6651
▁titsonga	-6652
▁tlangiwa	-6653
▁xipikara	-6654
▁xirhambo	-6655
sungulweni	-6656
▁Langutisa	-6657
▁Mindyangu	-6658
▁Swivandla	-6659
▁cinciwile	-6660
▁karhateka	-6661
▁mathekisi	-6662
▁nthyakiso	-6663
▁tikonkulu	-6664
andlekaloko	-6665
▁Mininjhere	-6666
▁Murhangeri	-6667
▁NKUNGUHATO	-6668
▁Ntshunxeko	-6669
▁ehleketaka	-6670
▁emapatwini	-6671
▁humeseriwa	-6672
▁Musirheleli	-6673
▁Nhlokomhaka	-6674
▁Vuhlayiselo	-6675
▁nyiketiwaku	-6676
▁Vuhlanganisi	-6677
▁engeteriweke	-6678
▁titsongahata	-6679
▁xiringanyeto	-6680
▁mahlamuselelo	-6681
▁vamangalelani	-6682
▁Matshalatshala	-6683
-7	-6684
9,	-6685
ou	-6686
000	-6687
500	-6688
lli	-6689
tlo	-6690
▁eN	-6691
anda	-6692
buli	-6693
iswi	-6694
khwe	-6695
leto	-6696
lipi	-6697
sula	-6698
veka	-6699
ziti	-6700
▁(3)	-6701
▁2.2	-6702
▁eKa	-6703
▁eta	-6704
March	-6705
aneni	-6706
bangi	-6707
elelo	-6708
eleri	-6709
kwenu	-6710
lopfu	-6711
mbani	-6712
velop	-6713
▁Lawa	-6714
▁Mani	-6715
▁Mpfa	-6716
▁Musi	-6717
▁Tala	-6718
▁cata	-6719
▁gasi	-6720
▁huku	-6721
▁mats	-6722
▁ncha	-6723
▁nchu	-6724
▁pfin	-6725
malani	-6726
risela	-6727
sekile	-6728
xinuna	-6729
▁Khale	-6730
▁Tambo	-6731
▁mindz	-6732
▁minka	-6733
▁mukho	-6734
▁nhova	-6735
▁nkata	-6736
▁phewa	-6737
▁tinya	-6738
▁xikhi	-6739
▁yanga	-6740
▁yinga	-6741
mbanisa	-6742
mboloka	-6743
tlharhi	-6744
zongeni	-6745
▁Hakela	-6746
▁Letaba	-6747
▁Ndhuna	-6748
▁byebyo	-6749
▁gqweta	-6750
▁komile	-6751
▁mbitsi	-6752
▁nakona	-6753
▁nghene	-6754
▁ntombi	-6755
▁swibye	-6756
▁tendzo	-6757
▁tixere	-6758
▁vuleke	-6759
▁walowo	-6760
▁xikhwa	-6761
▁xipiri	-6762
Misaveni	-6763
busayiti	-6764
khayivhi	-6765
risiwile	-6766
▁Develop	-6767
▁Malembe	-6768
▁Muganga	-6769
▁PanSALB	-6770
▁Swandla	-6771
▁endlisa	-6772
▁endzaku	-6773
▁kavanye	-6774
▁lwandle	-6775
▁mutholi	-6776
▁namarhe	-6777
▁nkhumbo	-6778
▁nyikiwi	-6779
▁papilla	-6780
▁pfumeli	-6781
▁tinsimu	-6782
▁tlurisa	-6783
▁ximatsi	-6784
▁ximfumu	-6785
vuntlhanu	-6786
xikombiso	-6787
▁Hlupheka	-6788
▁madyambu	-6789
▁minharhu	-6790
▁mpfuxeto	-6791
▁navelela	-6792
▁tiqingho	-6793
▁tivonela	-6794
▁tswariwa	-6795
▁Hlamalani	-6796
▁Kumbexana	-6797
▁Mugqivela	-6798
▁Vafambisi	-6799
▁Vupfhumba	-6800
▁amukelaka	-6801
▁cinciweke	-6802
▁endleriwe	-6803
▁swihundla	-6804
▁thoriwile	-6805
▁tinhompfu	-6806
▁tinhundzu	-6807
▁tintangha	-6808
▁tirhiseke	-6809
▁ximhakana	-6810
▁Nsirhelelo	-6811
▁dokhumente	-6812
▁emugangeni	-6813
▁engetelela	-6814
▁hundzisiwa	-6815
▁kanerisana	-6816
▁lavisisiwa	-6817
▁lawuriwaka	-6818
▁rhekhodiwa	-6819
▁tiyisisile	-6820
▁vuyiseriwa	-6821
▁xitiyisiso	-6822
▁Nkarhinyana	-6823
▁eRiphabliki	-6824
▁langutaniwa	-6825
▁murhandziwa	-6826
▁tithekiniki	-6827
▁Tihlanganise	-6828
▁ndzivalelano	-6829
▁Vutihlamuleri	-6830
▁tinhlokomhaka	-6831
▁Applicationfor	-6832
▁ndlandlamuxiwa	-6833
HL	-6834
MC	-6835
MU	-6836
XA	-6837
ks	-6838
ENA	-6839
ETA	-6840
lwi	-6841
pte	-6842
ste	-6843
▁(5	-6844
▁51	-6845
▁DO	-6846
doku	-6847
giri	-6848
jere	-6849
mbya	-6850
nelo	-6851
sard	-6852
sema	-6853
tlhe	-6854
weka	-6855
yara	-6856
▁Eti	-6857
▁FAL	-6858
▁PDF	-6859
▁PSC	-6860
▁Pla	-6861
▁Tia	-6862
▁Von	-6863
▁ari	-6864
▁lot	-6865
▁tid	-6866
▁xwa	-6867
.2009	-6868
alani	-6869
bambu	-6870
lorho	-6871
mbala	-6872
mboni	-6873
rhisa	-6874
tiono	-6875
weswi	-6876
▁000,	-6877
▁Free	-6878
▁Musu	-6879
▁Yana	-6880
▁hale	-6881
▁holi	-6882
▁liya	-6883
▁madu	-6884
▁vata	-6885
▁vini	-6886
▁vulo	-6887
girafi	-6888
heleto	-6889
litara	-6890
rateji	-6891
tekile	-6892
wiseni	-6893
▁2004.	-6894
▁kakwe	-6895
▁nkolo	-6896
▁tshwa	-6897
anisiwa	-6898
byariwa	-6899
hlayisi	-6900
khirasi	-6901
mbukelo	-6902
rungula	-6903
ulamiso	-6904
▁Africa	-6905
▁Kanela	-6906
▁Ndzati	-6907
▁Paluxa	-6908
▁Robert	-6909
▁Sweswo	-6910
▁bokisi	-6911
▁fikaka	-6912
▁hlanta	-6913
▁khungu	-6914
▁misisi	-6915
▁petiro	-6916
▁rivoni	-6917
▁suriwa	-6918
▁tiveki	-6919
▁tiyela	-6920
▁vekaka	-6921
▁vileli	-6922
▁vonaki	-6923
▁vutisi	-6924
▁vuveki	-6925
▁xedulu	-6926
tsheketo	-6927
▁Khirefu	-6928
▁Manager	-6929
▁Mulungu	-6930
▁Ndzhati	-6931
▁Ntlangu	-6932
▁Revenue	-6933
▁Ximunhu	-6934
▁kombise	-6935
▁sagwati	-6936
▁sampuli	-6937
▁tlheris	-6938
▁tsakeli	-6939
▁Maafrika	-6940
▁Mphakelo	-6941
▁Ntsakisi	-6942
▁Samariya	-6943
▁gireyidi	-6944
▁lavekeki	-6945
▁pimanisa	-6946
▁rhikhodo	-6947
▁tekiwile	-6948
▁timbyana	-6949
▁tiyisile	-6950
▁vanharhu	-6951
▁xitarata	-6952
▁yirisiwa	-6953
▁yitsongo	-6954
▁Tidyondzo	-6955
▁Xivangelo	-6956
▁endliwaku	-6957
▁endliweni	-6958
▁enerisiwi	-6959
▁fambisani	-6960
▁hambanaka	-6961
▁hanyisana	-6962
▁kongomana	-6963
▁rihlampfu	-6964
▁twisisile	-6965
▁varhumiwa	-6966
▁vuhirhisi	-6967
▁vutiolori	-6968
Nekhavhambe	-6969
longoloxelo	-6970
▁Mphikizano	-6971
▁cukumetiwa	-6972
▁enyangweni	-6973
▁lavambirhi	-6974
▁mapurasini	-6975
▁swigevenga	-6976
▁tiprodakti	-6977
▁Development	-6978
▁Nyenyenyana	-6979
▁Pfuxetiweke	-6980
▁kavanyetiwa	-6981
▁khomixinara	-6982
▁swibedlhele	-6983
▁switifiketi	-6984
▁tihlamulela	-6985
▁vanhwanyana	-6986
▁yingiseriwa	-6987
▁Xihlawuhlawu	-6988
▁humelerisiwa	-6989
▁lulamisiweke	-6990
▁tsemakanyaka	-6991
▁xiphemunyana	-6992
▁Vamajisitarata	-6993
-(	-6994
.5	-6995
ii	-6996
RDC	-6997
rin	-6998
▁7,	-6999
▁Al	-7000
▁Dz	-7001
▁We	-7002
▁Yo	-7003
alth	-7004
enza	-7005
gono	-7006
hena	-7007
kise	-7008
kiti	-7009
leli	-7010
lowu	-7011
nete	-7012
reki	-7013
vulo	-7014
▁11.	-7015
▁3.2	-7016
▁Gau	-7017
▁NTS	-7018
▁Nov	-7019
▁SWA	-7020
▁mah	-7021
▁tat	-7022
amela	-7023
ermit	-7024
hluvo	-7025
mbeni	-7026
vhiki	-7027
▁Bolo	-7028
▁Indi	-7029
▁LRDC	-7030
▁Yima	-7031
▁endl	-7032
▁muko	-7033
▁nasw	-7034
▁nyen	-7035
▁wana	-7036
yakayo	-7037
▁1994.	-7038
▁2002,	-7039
▁Mavon	-7040
▁Minxa	-7041
▁Moses	-7042
▁Mpilo	-7043
▁Piman	-7044
▁byeli	-7045
▁eKapa	-7046
▁ntiko	-7047
▁nyuku	-7048
▁ondza	-7049
▁swipi	-7050
▁vuana	-7051
▁vuthu	-7052
fluenza	-7053
pfuneta	-7054
pfuniwa	-7055
tsakelo	-7056
ustrali	-7057
wananga	-7058
▁Khombo	-7059
▁Mbambu	-7060
▁Nandzu	-7061
▁Pitori	-7062
▁Tekela	-7063
▁ajenda	-7064
▁bohile	-7065
▁byanyi	-7066
▁eKhoto	-7067
▁haleno	-7068
▁kopiwa	-7069
▁kotiki	-7070
▁lumeka	-7071
▁mapasi	-7072
▁mujeko	-7073
▁nkongo	-7074
▁peleta	-7075
▁rhurha	-7076
▁risuna	-7077
▁swikha	-7078
▁timpfu	-7079
▁tirhis	-7080
▁tisola	-7081
▁tiyile	-7082
▁vukosi	-7083
▁vuxiya	-7084
▁yalawo	-7085
dyuharhi	-7086
handzeni	-7087
khwezana	-7088
ktroniki	-7089
lulamisi	-7090
▁Amerika	-7091
▁Rimbewu	-7092
▁Vavabyi	-7093
▁kanakan	-7094
▁katsaku	-7095
▁makhadi	-7096
▁maribye	-7097
▁mitlawa	-7098
▁nyizela	-7099
▁phanele	-7100
▁rhelela	-7101
▁swibamu	-7102
▁thenisi	-7103
▁vakhomi	-7104
▁vavhoti	-7105
▁vugangu	-7106
▁xungeta	-7107
gondzweni	-7108
hampfhuka	-7109
stituxini	-7110
tirhisele	-7111
twananisi	-7112
yimbeleri	-7113
▁Mikateko	-7114
▁Ntsariso	-7115
▁Perreira	-7116
▁Programu	-7117
▁Regional	-7118
▁Sisiteme	-7119
▁hlahluva	-7120
▁hundzula	-7121
▁kufumela	-7122
▁mafumelo	-7123
▁miliyoni	-7124
▁nyanyisa	-7125
▁paluxiwa	-7126
▁prodakti	-7127
▁tindzawu	-7128
▁vonisisa	-7129
▁xipimelo	-7130
▁Hambanisa	-7131
▁Vupfumala	-7132
▁dyondziwa	-7133
▁homboloka	-7134
▁kantsongo	-7135
▁kumbexana	-7136
▁languteri	-7137
▁malwandla	-7138
▁nkayakayo	-7139
▁switiviso	-7140
▁tinqingho	-7141
▁vuthicara	-7142
▁xisayense	-7143
▁madorobeni	-7144
▁mukhalabye	-7145
▁ndzulamiso	-7146
▁tekeriwaka	-7147
▁titoloveta	-7148
▁vavulavuri	-7149
▁webusayiti	-7150
▁xintshunxo	-7151
▁xitekiniki	-7152
▁yirisiweke	-7153
▁Matikhomele	-7154
▁kongomisiwe	-7155
▁tsandzekaka	-7156
▁vulanguteri	-7157
▁yingiselela	-7158
▁Applicationfo	-7159
▁emindyangwini	-7160
▁kongomisiwile	-7161
▁Swifundzankulu	-7162
▁hlanganisiweke	-7163
!'	-7164
ND	-7165
ot	-7166
04.	-7167
Han	-7168
dzu	-7169
kra	-7170
ovo	-7171
▁34	-7172
▁Ni	-7173
▁Pe	-7174
Bila	-7175
Wena	-7176
ance	-7177
balo	-7178
jara	-7179
kazi	-7180
kini	-7181
lero	-7182
loxa	-7183
tifi	-7184
wali	-7185
▁Chi	-7186
▁Imp	-7187
▁Kun	-7188
▁Rho	-7189
▁bro	-7190
▁eho	-7191
▁fon	-7192
▁kon	-7193
▁lan	-7194
▁qha	-7195
▁tsi	-7196
▁vii	-7197
hwane	-7198
lumbe	-7199
ngile	-7200
tlisa	-7201
vhara	-7202
xidzi	-7203
▁Beau	-7204
▁Leri	-7205
▁Mada	-7206
▁NAMC	-7207
▁Nkul	-7208
▁Rifu	-7209
▁miye	-7210
▁pyop	-7211
▁rima	-7212
▁tifi	-7213
▁tiki	-7214
▁yelo	-7215
Ririmi	-7216
biliki	-7217
hilazi	-7218
hlwana	-7219
lamuri	-7220
langwa	-7221
mitara	-7222
miwile	-7223
riseke	-7224
vetisi	-7225
▁1999,	-7226
▁Livhi	-7227
▁Mahla	-7228
▁ariwa	-7229
▁dyela	-7230
▁ejele	-7231
▁minko	-7232
▁ntamu	-7233
▁swaku	-7234
▁titli	-7235
▁vunwa	-7236
eriwaka	-7237
khixini	-7238
ngiweke	-7239
thixini	-7240
▁Ehansi	-7241
▁Malume	-7242
▁Papala	-7243
▁Xitulu	-7244
▁adrese	-7245
▁byongo	-7246
▁fumaka	-7247
▁handza	-7248
▁hlonga	-7249
▁hoxela	-7250
▁lovola	-7251
▁mbyana	-7252
▁muteki	-7253
▁nyanga	-7254
▁thlela	-7255
▁tsongo	-7256
▁valavo	-7257
▁votala	-7258
▁vuhosi	-7259
▁vukari	-7260
▁yotala	-7261
khwameni	-7262
lungwini	-7263
mundzuku	-7264
▁Vutsevu	-7265
▁Xikweni	-7266
▁gweviwa	-7267
▁hlalela	-7268
▁holobye	-7269
▁muhehli	-7270
▁muvabyi	-7271
▁ntshava	-7272
▁nxaniso	-7273
▁nxapulo	-7274
▁nxaviso	-7275
▁sechiwa	-7276
▁swikimi	-7277
▁swipano	-7278
▁swipanu	-7279
▁tibyele	-7280
▁tinyiko	-7281
▁tirheki	-7282
▁tlakula	-7283
▁tsemele	-7284
▁vuqambi	-7285
phoriseni	-7286
▁Dzongeni	-7287
▁Tiforamu	-7288
▁Tolovele	-7289
▁emhlweni	-7290
▁hoyozela	-7291
▁khorwisi	-7292
▁kumekeke	-7293
▁magondzo	-7294
▁provinsi	-7295
▁purasini	-7296
▁rintshwa	-7297
▁sasekile	-7298
▁tshembis	-7299
▁vatshami	-7300
▁vaxavisi	-7301
▁vayimela	-7302
▁xupuriwa	-7303
▁yimbirhi	-7304
wamabindzu	-7305
wamapurasi	-7306
▁Garingani	-7307
▁Phasipoto	-7308
▁enerisaka	-7309
▁hlevetela	-7310
▁hlundzuka	-7311
▁khomekaka	-7312
▁mathicara	-7313
▁mintsumbu	-7314
▁ololoxiwa	-7315
▁pfumerile	-7316
▁swikoweto	-7317
▁swikwembu	-7318
▁tifambela	-7319
▁twananiwa	-7320
▁ehleketele	-7321
▁hetisisiwa	-7322
▁hlanganela	-7323
▁ringanyeta	-7324
▁exikhwameni	-7325
▁setifikheti	-7326
▁Xirungulwana	-7327
▁ehleketelela	-7328
▁handlekaloko	-7329
▁kondleteriwa	-7330
▁mahlanganisi	-7331
▁mavulavulelo	-7332
▁timhakankulu	-7333
▁malongoloxelo	-7334
▁swikambelwana	-7335
▁xirhalanganyi	-7336
▁vuhundzuluxeri	-7337
-3	-7338
Md	-7339
YI	-7340
ny	-7341
HWA	-7342
cen	-7343
lue	-7344
rea	-7345
reg	-7346
rek	-7347
▁45	-7348
▁5,	-7349
▁Is	-7350
▁Te	-7351
▁Yu	-7352
▁eA	-7353
▁eh	-7354
hezi	-7355
neta	-7356
nexu	-7357
nhla	-7358
nuku	-7359
rala	-7360
ress	-7361
ting	-7362
tive	-7363
ture	-7364
yino	-7365
▁1.3	-7366
▁192	-7367
▁Ben	-7368
▁DOD	-7369
▁Pri	-7370
▁Rha	-7371
▁Sat	-7372
▁Wor	-7373
▁esi	-7374
andli	-7375
fenhe	-7376
iseli	-7377
khixi	-7378
khoma	-7379
lopho	-7380
mbele	-7381
tlelo	-7382
tseka	-7383
▁3.1.	-7384
▁Heyi	-7385
▁Mafu	-7386
▁SAFA	-7387
▁Town	-7388
▁dili	-7389
▁fula	-7390
▁haye	-7391
▁mavo	-7392
▁misi	-7393
▁mpha	-7394
▁mudy	-7395
▁niko	-7396
▁rhwe	-7397
▁xits	-7398
Sweswo	-7399
giramu	-7400
kerile	-7401
kisini	-7402
nexure	-7403
teleni	-7404
yisiwi	-7405
▁2000,	-7406
▁Bangi	-7407
▁Famba	-7408
▁Longo	-7409
▁Swiri	-7410
▁dyisa	-7411
▁lwile	-7412
▁maphe	-7413
▁sirha	-7414
▁tiche	-7415
▁timpa	-7416
▁tipfu	-7417
▁twisa	-7418
▁vutsa	-7419
IMBIRHI	-7420
Mdanisi	-7421
andlato	-7422
andzela	-7423
angwini	-7424
bukwini	-7425
kweletu	-7426
tlulelo	-7427
▁Divila	-7428
▁Ejensi	-7429
▁Giyani	-7430
▁ahlula	-7431
▁aphili	-7432
▁feyila	-7433
▁holaka	-7434
▁kalaka	-7435
▁langha	-7436
▁mifumo	-7437
▁pasile	-7438
▁rolero	-7439
▁salela	-7440
▁siyiwa	-7441
▁switso	-7442
▁tekiwi	-7443
▁tikaka	-7444
▁vekisa	-7445
▁vuyeni	-7446
▁walawo	-7447
▁yeloye	-7448
▁yikulu	-7449
hundleni	-7450
indastri	-7451
▁AgriBEE	-7452
▁Amukela	-7453
▁Gauteng	-7454
▁Hlayisa	-7455
▁Kwalomu	-7456
▁Languta	-7457
▁Mboxani	-7458
▁Swiviko	-7459
▁ematiko	-7460
▁enerisi	-7461
▁khomana	-7462
▁lahliwa	-7463
▁lombisa	-7464
▁mithelo	-7465
▁nkavelo	-7466
▁nsayino	-7467
▁nxiximo	-7468
▁swikoti	-7469
▁tiphuro	-7470
▁tirheke	-7471
▁tirhise	-7472
▁tshunxa	-7473
▁vanyiki	-7474
▁vhotela	-7475
▁vukhume	-7476
▁xivungu	-7477
ndzhawini	-7478
ndzungulo	-7479
phabiliki	-7480
▁Papalata	-7481
▁Switirho	-7482
▁Tihofisi	-7483
▁adopxini	-7484
▁hakeriwi	-7485
▁humeleli	-7486
▁kumiwile	-7487
▁makhumbi	-7488
▁muahluri	-7489
▁nkatsano	-7490
▁ntshunxa	-7491
▁pulaniwa	-7492
▁tigiredi	-7493
▁tikumela	-7494
▁tiviwaka	-7495
▁tlangisa	-7496
▁tlhandla	-7497
▁vahariva	-7498
▁vekiwaka	-7499
▁vutisile	-7500
▁vuyimana	-7501
▁xibakele	-7502
▁Nxaxamelo	-7503
▁Tsundzuxa	-7504
▁hlamuriwa	-7505
▁mintsengo	-7506
▁muofisara	-7507
▁nhlahluvo	-7508
▁pfumeleli	-7509
▁tivumbela	-7510
▁tumbuluxe	-7511
▁xijumbana	-7512
▁Hakanyingi	-7513
▁Madokodela	-7514
▁Ntlhontlho	-7515
▁Xirhonkulu	-7516
▁fikelelaka	-7517
▁hakeriwaku	-7518
▁matshamelo	-7519
▁museketeri	-7520
▁nghenisaka	-7521
▁timinerali	-7522
▁vaxanisiwa	-7523
▁xipolitiki	-7524
▁Matirhisele	-7525
▁Memorandamu	-7526
▁Xidemokrasi	-7527
▁kavanyetaka	-7528
▁komberiwile	-7529
▁kombisiwile	-7530
▁mahlayiselo	-7531
▁phephahungu	-7532
▁tshunxekile	-7533
▁hlanganeriwa	-7534
▁lulamisiwile	-7535
▁mudyandzhaka	-7536
▁muhundzuluxi	-7537
▁swihangalasa	-7538
▁tilayiburari	-7539
▁endzhakunyana	-7540
▁kumpfampfarhu	-7541
▁Mutshamaxitulu	-7542
▁Switsalwambiko	-7543
▁hlanganisiwile	-7544
▁swihlawulekiso	-7545
▁Tolovelekangiki	-7546
▁Xitlhokovetselo	-7547
Ba	-7548
Lu	-7549
SW	-7550
Ts	-7551
-16	-7552
ISI	-7553
NDF	-7554
ONA	-7555
Swa	-7556
ard	-7557
cia	-7558
ers	-7559
ery	-7560
gen	-7561
mer	-7562
mpa	-7563
nsa	-7564
pen	-7565
ser	-7566
sia	-7567
vii	-7568
▁cu	-7569
ding	-7570
hang	-7571
hene	-7572
keli	-7573
muri	-7574
nara	-7575
reji	-7576
ruku	-7577
sovo	-7578
thwa	-7579
veke	-7580
veri	-7581
voya	-7582
xali	-7583
xiwi	-7584
▁190	-7585
▁30.	-7586
▁ANC	-7587
▁Oli	-7588
▁SWI	-7589
▁Thu	-7590
▁mpi	-7591
dzahi	-7592
gerho	-7593
hlolo	-7594
kanyi	-7595
khoto	-7596
ngeto	-7597
ntswa	-7598
qingo	-7599
theni	-7600
tural	-7601
yanga	-7602
yenga	-7603
yirek	-7604
▁1986	-7605
▁4367	-7606
▁Lula	-7607
▁Xisu	-7608
▁cina	-7609
▁lexa	-7610
▁miko	-7611
▁onhe	-7612
▁vani	-7613
▁vupf	-7614
angunu	-7615
mbheki	-7616
meriwe	-7617
mixini	-7618
ndzulo	-7619
nsepte	-7620
siliti	-7621
vekisi	-7622
vuriwa	-7623
▁Kahle	-7624
▁Katsa	-7625
▁Kungu	-7626
▁Regis	-7627
▁Talaq	-7628
▁fonto	-7629
▁kombi	-7630
▁kotla	-7631
▁mbuti	-7632
▁ndzhu	-7633
▁ningi	-7634
▁swile	-7635
fularha	-7636
▁Ajenda	-7637
▁Beauty	-7638
▁Hakelo	-7639
▁Muholo	-7640
▁Tshika	-7641
▁Xivono	-7642
▁fayili	-7643
▁khongo	-7644
▁kuyisa	-7645
▁magidi	-7646
▁masivi	-7647
▁nwinyi	-7648
▁swirha	-7649
▁tekeke	-7650
▁tisaka	-7651
▁xavaka	-7652
▁xibamu	-7653
▁xikalo	-7654
▁yisaka	-7655
engeteri	-7656
melelano	-7657
onheriwa	-7658
sulavoya	-7659
tleketli	-7660
▁Madambi	-7661
▁Masocha	-7662
▁Vakhomi	-7663
▁Vanwana	-7664
▁gangisa	-7665
▁imeyili	-7666
▁khomaka	-7667
▁kombele	-7668
▁kumangi	-7669
▁nkanelo	-7670
▁ntshunx	-7671
▁swiluva	-7672
▁timboni	-7673
▁xipfuno	-7674
Bilankulu	-7675
▁Makhotso	-7676
▁Swihlovo	-7677
▁Vavanuna	-7678
▁basisiwa	-7679
▁byelebyo	-7680
▁fananisa	-7681
▁khansela	-7682
▁lulamela	-7683
▁mafumele	-7684
▁ncheleto	-7685
▁ndleleni	-7686
▁ndzetelo	-7687
▁ntlakuso	-7688
▁rhekhoda	-7689
▁sigarete	-7690
▁simekiwe	-7691
▁tatiweke	-7692
▁tiforamu	-7693
▁tinyimpi	-7694
▁xibalesa	-7695
▁xisihala	-7696
▁yimerile	-7697
ndzulamiso	-7698
▁Longoloxa	-7699
▁Palamente	-7700
▁Swintshwa	-7701
▁garingani	-7702
▁hlawulaka	-7703
▁karhataka	-7704
▁khomixini	-7705
▁kombetela	-7706
▁kombetiwa	-7707
▁matshungu	-7708
▁mumangari	-7709
▁swinonisi	-7710
▁thoriwaka	-7711
▁tsakisaka	-7712
▁vaakitiko	-7713
▁xigevenga	-7714
▁xikolweni	-7715
▁Tindzimana	-7716
▁humesiwaka	-7717
▁hundzukile	-7718
▁landzeriwa	-7719
▁lunghisiwa	-7720
▁mihlangano	-7721
▁mintlulelo	-7722
▁mintsakelo	-7723
▁pasisiwile	-7724
▁rhurhumela	-7725
▁swibyariwa	-7726
▁xopaxopiwa	-7727
▁Matikhomelo	-7728
▁endleriweke	-7729
▁lebyintshwa	-7730
▁ringaneleke	-7731
▁tirhisanaka	-7732
▁hlengeletana	-7733
▁makumembirhi	-7734
▁nghenelerisa	-7735
▁nghenisiwile	-7736
▁seketeriweke	-7737
▁timhakanyana	-7738
▁vukanganyisi	-7739
▁swirungulwana	-7740
▁xiphurofexini	-7741
▁ndzindzakhombo	-7742
▁rhijisitariweke	-7743
▁xiphurofexinali	-7744
GA	-7745
RI	-7746
VA	-7747
XI	-7748
od	-7749
lly	-7750
nto	-7751
pla	-7752
plo	-7753
por	-7754
tin	-7755
▁59	-7756
▁81	-7757
▁DR	-7758
▁Ex	-7759
▁LU	-7760
10-1	-7761
Hayi	-7762
IVUT	-7763
bour	-7764
cinc	-7765
hato	-7766
iswa	-7767
kezi	-7768
lasi	-7769
miwe	-7770
nani	-7771
niso	-7772
sesa	-7773
work	-7774
▁2.3	-7775
▁Ana	-7776
▁CPA	-7777
▁HLA	-7778
▁IRP	-7779
▁Lwa	-7780
▁Pho	-7781
▁Sto	-7782
▁ban	-7783
▁cho	-7784
▁eGi	-7785
2005.	-7786
2006.	-7787
TSHWA	-7788
fenya	-7789
hambi	-7790
iseve	-7791
kanwe	-7792
mband	-7793
miflu	-7794
nyiwa	-7795
tandi	-7796
thala	-7797
twana	-7798
▁2005	-7799
▁Buku	-7800
▁Gezi	-7801
▁Mala	-7802
▁Miri	-7803
▁Ngho	-7804
▁Risi	-7805
▁data	-7806
▁homu	-7807
▁kuti	-7808
▁lori	-7809
▁mada	-7810
▁pela	-7811
▁sase	-7812
▁siye	-7813
▁siyi	-7814
▁thwa	-7815
▁woxe	-7816
holovo	-7817
kelaka	-7818
mikali	-7819
ngweni	-7820
nkarhi	-7821
tamini	-7822
tifica	-7823
tsalwa	-7824
tshuxo	-7825
tukezi	-7826
yeriwe	-7827
yiketi	-7828
▁1996,	-7829
▁1998,	-7830
▁Mavis	-7831
▁Nghen	-7832
▁dlayi	-7833
▁leswa	-7834
▁letin	-7835
▁nandz	-7836
▁nkuma	-7837
▁ribye	-7838
▁swita	-7839
▁thala	-7840
▁tleke	-7841
▁tlule	-7842
▁vitan	-7843
▁vutla	-7844
▁xiphe	-7845
IVUTISO	-7846
Swikolo	-7847
leketlo	-7848
ngomiwa	-7849
xikarhi	-7850
▁Ehleke	-7851
▁Hahani	-7852
▁Health	-7853
▁NTSENA	-7854
▁Phapha	-7855
▁Tiyuni	-7856
▁beriwa	-7857
▁dirowa	-7858
▁fikisa	-7859
▁helaka	-7860
▁hetise	-7861
▁khonti	-7862
▁leswku	-7863
▁maketa	-7864
▁mavele	-7865
▁mayini	-7866
▁minhla	-7867
▁minkhu	-7868
▁mixaka	-7869
▁miyeta	-7870
▁nhenha	-7871
▁printa	-7872
▁siveli	-7873
▁yirisa	-7874
bokisana	-7875
ndletela	-7876
sitereni	-7877
tshilani	-7878
▁Communi	-7879
▁Endzeni	-7880
▁Ndzhawu	-7881
▁Pfumela	-7882
▁Sathana	-7883
▁Swikolo	-7884
▁Tamiflu	-7885
▁Xisuthu	-7886
▁cincela	-7887
▁eGiyani	-7888
▁eneleke	-7889
▁fambeni	-7890
▁khomeka	-7891
▁khomele	-7892
▁mafenya	-7893
▁marhavi	-7894
▁maxangu	-7895
▁mulungu	-7896
▁riendzo	-7897
▁ringeti	-7898
▁tikhilo	-7899
▁timovha	-7900
▁titwisa	-7901
▁tluriki	-7902
▁tsanile	-7903
dyondzeki	-7904
fikhexini	-7905
lumbetiwa	-7906
yirektara	-7907
▁Malukelo	-7908
▁Nhlangan	-7909
▁Pakanisa	-7910
▁Senthara	-7911
▁Swiphiqo	-7912
▁cukumeta	-7913
▁dizayini	-7914
▁fikixini	-7915
▁humesile	-7916
▁kandziya	-7917
▁khumbiwa	-7918
▁masalela	-7919
▁minsinya	-7920
▁muyimela	-7921
▁ndlariwa	-7922
▁	-7923
a	-7924
i	-7925
n	-7926
e	-7927
k	-7928
l	-7929
u	-7930
o	-7931
h	-7932
w	-7933
s	-7934
t	-7935
m	-7936
y	-7937
r	-7938
v	-7939
g	-7940
b	-7941
x	-7942
d	-7943
.	-7944
f	-7945
z	-7946
,	-7947
p	-7948
M	-7949
N	-7950
'	-7951
-	-7952
A	-7953
c	-7954
K	-7955
V	-7956
H	-7957
X	-7958
?	-7959
S	-7960
0	-7961
L	-7962
T	-7963
1	-7964
"	-7965
I	-7966
2	-7967
D	-7968
R	-7969
P	-7970
j	-7971
E	-7972
(	-7973
)	-7974
/	-7975
9	-7976
U	-7977
B	-7978
3	-7979
:	-7980
5	-7981
C	-7982
;	-7983
G	-7984
4	-7985
6	-7986
W	-7987
8	-7988
q	-7989
7	-7990
O	-7991
<	-7992
>	-7993
!	-7994
Y	-7995
F	-7996
