<unk>	0
<s>	0
</s>	0
▁t	-0
go	-1
le	-2
▁a	-3
▁b	-4
he	-5
la	-6
di	-7
▁go	-8
▁m	-9
▁k	-10
re	-11
on	-12
▁s	-13
▁y	-14
lo	-15
wa	-16
▁le	-17
tš	-18
▁o	-19
▁the	-20
in	-21
en	-22
▁di	-23
an	-24
at	-25
▁ka	-26
▁ya	-27
▁e	-28
ga	-29
▁tš	-30
▁p	-31
er	-32
we	-33
▁n	-34
▁f	-35
or	-36
▁of	-37
▁ba	-38
it	-39
▁se	-40
se	-41
ha	-42
om	-43
ion	-44
▁mo	-45
is	-46
▁c	-47
ro	-48
nd	-49
▁w	-50
ba	-51
▁ma	-52
▁M	-53
ho	-54
ic	-55
ka	-56
es	-57
▁in	-58
▁and	-59
▁re	-60
te	-61
▁ga	-62
▁T	-63
al	-64
▁bo	-65
ge	-66
▁to	-67
iš	-68
▁tša	-69
▁be	-70
ent	-71
▁ye	-72
ra	-73
pe	-74
ou	-75
ing	-76
▁wa	-77
me	-78
▁A	-79
il	-80
▁th	-81
▁h	-82
▁la	-83
▁S	-84
▁d	-85
ko	-86
na	-87
ct	-88
st	-89
▁tše	-90
ar	-91
ation	-92
mo	-93
ut	-94
etš	-95
ng	-96
ve	-97
ong	-98
▁ke	-99
▁B	-100
▁me	-101
ke	-102
ment	-103
ri	-104
▁K	-105
▁sa	-106
▁D	-107
ed	-108
▁bj	-109
ot	-110
▁I	-111
▁gore	-112
▁G	-113
ona	-114
ele	-115
tša	-116
▁i	-117
eng	-118
▁C	-119
▁na	-120
▁P	-121
▁The	-122
et	-123
▁bja	-124
th	-125
▁kgo	-126
lwa	-127
fe	-128
ur	-129
po	-130
ana	-131
pa	-132
▁for	-133
ya	-134
ce	-135
▁is	-136
bo	-137
šo	-138
▁ha	-139
▁tla	-140
▁Mo	-141
▁dit	-142
ile	-143
▁pro	-144
šom	-145
ma	-146
hla	-147
▁L	-148
tše	-149
▁ge	-150
▁(	-151
▁goba	-152
du	-153
▁ts	-154
ane	-155
wan	-156
gwa	-157
tšo	-158
ers	-159
fa	-160
id	-161
▁N	-162
▁that	-163
ts	-164
ith	-165
tšwe	-166
kgo	-167
be	-168
ir	-169
▁yeo	-170
▁as	-171
un	-172
ter	-173
ly	-174
ate	-175
▁g	-176
etše	-177
tši	-178
▁fa	-179
▁you	-180
li	-181
▁are	-182
▁or	-183
gwe	-184
hlo	-185
tšha	-186
▁con	-187
▁R	-188
▁we	-189
▁po	-190
▁Af	-191
pp	-192
ill	-193
mp	-194
▁E	-195
res	-196
iša	-197
▁de	-198
the	-199
ša	-200
hi	-201
▁on	-202
ta	-203
▁su	-204
ela	-205
▁Ma	-206
▁Go	-207
lic	-208
▁swan	-209
▁u	-210
ver	-211
ci	-212
▁hlo	-213
ity	-214
ted	-215
to	-216
▁te	-217
..	-218
iti	-219
ul	-220
lao	-221
olo	-222
tho	-223
▁with	-224
▁1	-225
op	-226
išo	-227
ne	-228
ano	-229
▁com	-230
any	-231
nt	-232
▁O	-233
▁ne	-234
▁will	-235
sa	-236
▁ta	-237
ction	-238
▁..	-239
lela	-240
▁swanetše	-241
ch	-242
▁hla	-243
lha	-244
ric	-245
si	-246
ust	-247
▁an	-248
ire	-249
▁he	-250
so	-251
long	-252
▁st	-253
▁wo	-254
ble	-255
phe	-256
▁tse	-257
▁al	-258
qu	-259
ula	-260
mme	-261
▁tšeo	-262
tšhaba	-263
▁Se	-264
▁ex	-265
▁pa	-266
um	-267
▁by	-268
▁it	-269
ago	-270
▁W	-271
▁tšwe	-272
dimo	-273
▁Di	-274
rom	-275
▁wh	-276
▁have	-277
▁Le	-278
tion	-279
▁yo	-280
▁šom	-281
ure	-282
▁pe	-283
▁not	-284
▁tshe	-285
ist	-286
▁H	-287
tšwa	-288
art	-289
kwa	-290
▁Ka	-291
gat	-292
▁en	-293
ol	-294
ngwe	-295
lelo	-296
atho	-297
gh	-298
▁man	-299
▁bona	-300
hle	-301
ilwe	-302
▁fi	-303
no	-304
▁nya	-305
ušo	-306
▁bjalo	-307
tšwego	-308
▁at	-309
▁gomme	-310
▁ngwa	-311
ces	-312
sed	-313
ld	-314
ti	-315
▁ti	-316
▁pele	-317
hu	-318
▁Re	-319
ort	-320
▁ao	-321
▁mat	-322
us	-323
ding	-324
▁2	-325
fic	-326
▁F	-327
▁r	-328
▁gona	-329
elo	-330
▁app	-331
as	-332
▁tlo	-333
ther	-334
▁fet	-335
for	-336
▁dira	-337
▁š	-338
▁dik	-339
▁wor	-340
fo	-341
▁bao	-342
▁In	-343
▁-	-344
etša	-345
▁v	-346
▁dir	-347
▁Afric	-348
▁batho	-349
kolo	-350
▁was	-351
▁been	-352
▁Bo	-353
baka	-354
de	-355
▁lo	-356
tle	-357
▁must	-358
our	-359
▁phe	-360
▁ku	-361
▁ac	-362
ata	-363
rika	-364
ume	-365
ena	-366
pi	-367
▁Ba	-368
▁ile	-369
šomo	-370
hom	-371
pha	-372
lete	-373
▁has	-374
00	-375
erm	-376
lago	-377
ive	-378
▁lego	-379
wana	-380
▁this	-381
ad	-382
▁prov	-383
ant	-384
tla	-385
one	-386
cial	-387
im	-388
▁moka	-389
rolo	-390
▁res	-391
etšo	-392
▁mm	-393
▁Afrika	-394
and	-395
ich	-396
▁seo	-397
tšego	-398
▁De	-399
ll	-400
išwa	-401
outh	-402
orwa	-403
▁which	-404
ub	-405
▁fe	-406
erv	-407
ry	-408
▁kga	-409
▁Ge	-410
ilego	-411
ses	-412
mb	-413
end	-414
▁from	-415
velo	-416
▁ca	-417
emo	-418
ys	-419
kare	-420
ene	-421
atla	-422
uta	-423
iši	-424
▁hwe	-425
▁exp	-426
▁setšhaba	-427
▁do	-428
gan	-429
ru	-430
▁ho	-431
ution	-432
ak	-433
▁mor	-434
ome	-435
eri	-436
▁can	-437
▁South	-438
lwe	-439
▁tl	-440
oro	-441
ments	-442
ni	-443
ja	-444
▁tlha	-445
tha	-446
ran	-447
▁who	-448
felo	-449
ational	-450
▁bon	-451
▁Ke	-452
she	-453
▁fo	-454
sion	-455
▁tšwa	-456
▁kudu	-457
▁your	-458
ny	-459
▁gago	-460
▁19	-461
diš	-462
ilwego	-463
ervic	-464
velop	-465
▁ra	-466
▁our	-467
▁kgope	-468
loko	-469
▁tšwele	-470
con	-471
▁imp	-472
▁no	-473
▁so	-474
ves	-475
ated	-476
▁yona	-477
up	-478
ations	-479
▁sub	-480
ang	-481
▁mong	-482
▁gagwe	-483
kgwa	-484
pho	-485
lu	-486
▁mme	-487
llo	-488
▁am	-489
swa	-490
form	-491
▁part	-492
gago	-493
ki	-494
tse	-495
▁Kgo	-496
kelo	-497
▁Act	-498
▁inc	-499
▁comp	-500
▁any	-501
red	-502
helete	-503
▁whe	-504
hwa	-505
▁leb	-506
ence	-507
leng	-508
▁Molao	-509
▁Borwa	-510
▁leo	-511
▁motho	-512
▁li	-513
gra	-514
▁gape	-515
ities	-516
▁ad	-517
ok	-518
ren	-519
vern	-520
▁Th	-521
belo	-522
▁Y	-523
ctor	-524
▁din	-525
▁comm	-526
stit	-527
▁rena	-528
ite	-529
irelo	-530
ip	-531
▁pla	-532
▁Ga	-533
▁bohlo	-534
pedi	-535
▁mola	-536
od	-537
ph	-538
▁ch	-539
▁maba	-540
cil	-541
kga	-542
▁Com	-543
eny	-544
▁male	-545
anyo	-546
ente	-547
edi	-548
ig	-549
▁ro	-550
▁work	-551
ine	-552
ild	-553
bot	-554
▁moo	-555
▁morago	-556
▁ban	-557
fatša	-558
).	-559
▁godimo	-560
ary	-561
▁kge	-562
ina	-563
▁nngwe	-564
▁all	-565
ši	-566
▁bjo	-567
stitution	-568
▁nako	-569
▁African	-570
ical	-571
▁"	-572
wn	-573
▁U	-574
wi	-575
min	-576
rd	-577
ople	-578
▁gare	-579
▁akare	-580
▁other	-581
ult	-582
▁karolo	-583
▁Pro	-584
aneo	-585
▁mai	-586
▁ri	-587
▁fela	-588
▁dikgo	-589
engwa	-590
▁people	-591
▁dipo	-592
fi	-593
▁mon	-594
ount	-595
je	-596
cess	-597
▁Con	-598
dimošo	-599
ght	-600
▁requ	-601
▁It	-602
vernment	-603
ide	-604
▁ab	-605
letšo	-606
kom	-607
ay	-608
▁l	-609
est	-610
ublic	-611
▁cont	-612
▁ntle	-613
▁3	-614
▁bohlokwa	-615
ance	-616
velopment	-617
erson	-618
moge	-619
▁applic	-620
▁nyaka	-621
▁meet	-622
▁co	-623
pele	-624
▁J	-625
▁mabapi	-626
botse	-627
golo	-628
▁Min	-629
oun	-630
▁hwetša	-631
▁rec	-632
▁pre	-633
▁mošomo	-634
▁lebaka	-635
▁nago	-636
han	-637
ense	-638
lego	-639
▁dume	-640
ervice	-641
▁they	-642
▁mmušo	-643
▁Me	-644
ss	-645
int	-646
keng	-647
reng	-648
▁199	-649
▁also	-650
▁term	-651
gis	-652
ku	-653
▁len	-654
ps	-655
▁un	-656
▁their	-657
▁mongwe	-658
ab	-659
cu	-660
wer	-661
ies	-662
▁dingwe	-663
▁bu	-664
ration	-665
nder	-666
▁child	-667
▁mohla	-668
lf	-669
phelo	-670
▁tshedimošo	-671
▁thu	-672
che	-673
uto	-674
ffe	-675
▁200	-676
ous	-677
kgoni	-678
▁qu	-679
wago	-680
▁šoma	-681
▁dire	-682
▁dina	-683
▁late	-684
▁kgopelo	-685
letša	-686
▁sho	-687
▁Comm	-688
▁may	-689
ue	-690
loy	-691
▁cons	-692
▁maemo	-693
cy	-694
sure	-695
cted	-696
▁under	-697
ca	-698
geng	-699
▁Africa	-700
▁ph	-701
▁naga	-702
led	-703
mogo	-704
▁lefe	-705
age	-706
spe	-707
▁inclu	-708
▁ditš	-709
▁tsela	-710
▁maleba	-711
▁bego	-712
kologo	-713
▁swana	-714
▁kgona	-715
pon	-716
use	-717
kiš	-718
ven	-719
▁tra	-720
kan	-721
▁Na	-722
formation	-723
▁acc	-724
ber	-725
ms	-726
mi	-727
part	-728
jo	-729
▁kgwe	-730
uti	-731
anego	-732
▁dis	-733
▁terms	-734
▁dite	-735
ks	-736
bedi	-737
▁kop	-738
▁kno	-739
ission	-740
▁molao	-741
▁dika	-742
pro	-743
petšo	-744
ress	-745
ud	-746
▁were	-747
▁We	-748
othe	-749
huta	-750
▁thom	-751
cts	-752
▁year	-753
▁Dit	-754
▁bole	-755
lla	-756
▁To	-757
▁amoge	-758
▁efe	-759
kgat	-760
als	-761
tain	-762
▁tšona	-763
out	-764
rou	-765
tlo	-766
bja	-767
▁tho	-768
▁its	-769
ree	-770
rans	-771
▁maatla	-772
vent	-773
▁tsen	-774
▁her	-775
▁sego	-776
▁memb	-777
very	-778
mploy	-779
low	-780
duc	-781
per	-782
ari	-783
ess	-784
ision	-785
▁feta	-786
▁kgone	-787
▁tloga	-788
king	-789
tshe	-790
▁if	-791
▁inter	-792
▁sepe	-793
lis	-794
fer	-795
icip	-796
ola	-797
tšwele	-798
▁Mr	-799
able	-800
▁dinya	-801
gelo	-802
▁Tš	-803
kong	-804
tions	-805
ould	-806
galo	-807
▁require	-808
▁ar	-809
▁tšhelete	-810
▁This	-811
cal	-812
▁lefa	-813
kh	-814
ual	-815
▁gabotse	-816
▁pha	-817
zi	-818
tšatši	-819
▁Pa	-820
rero	-821
▁there	-822
▁person	-823
▁mokgwa	-824
),	-825
▁tee	-826
pport	-827
port	-828
gi	-829
▁ensure	-830
▁his	-831
mm	-832
▁spe	-833
▁about	-834
▁If	-835
▁swa	-836
kon	-837
▁kgat	-838
▁count	-839
ign	-840
ors	-841
▁form	-842
▁SA	-843
▁polic	-844
gala	-845
ouncil	-846
bela	-847
▁taolo	-848
ates	-849
polo	-850
▁Kgoro	-851
▁tšea	-852
haba	-853
▁mengwa	-854
elelo	-855
ctions	-856
▁af	-857
▁know	-858
miš	-859
▁akaretša	-860
etšwe	-861
▁fao	-862
▁Po	-863
▁new	-864
ining	-865
kara	-866
▁dita	-867
ged	-868
all	-869
em	-870
▁St	-871
pana	-872
▁Mola	-873
▁commun	-874
▁tlho	-875
ledi	-876
tšu	-877
les	-878
ck	-879
▁offic	-880
wo	-881
kala	-882
nyane	-883
▁government	-884
▁ele	-885
conom	-886
▁fase	-887
hlopha	-888
xt	-889
▁medi	-890
kemiš	-891
▁maga	-892
lwago	-893
šomi	-894
fense	-895
yste	-896
ds	-897
▁time	-898
▁Q	-899
her	-900
pego	-901
ithuti	-902
▁thuša	-903
▁hlalo	-904
▁tseba	-905
▁tha	-906
▁docu	-907
▁fihle	-908
▁kgolo	-909
gisla	-910
▁kgon	-911
▁kwe	-912
▁use	-913
am	-914
omo	-915
ener	-916
bi	-917
tšho	-918
▁nyake	-919
▁eng	-920
▁such	-921
bollo	-922
▁provin	-923
pedišo	-924
▁phetha	-925
vi	-926
homo	-927
ved	-928
engwe	-929
fn	-930
▁where	-931
resid	-932
sadi	-933
upša	-934
▁ditirelo	-935
gy	-936
ach	-937
ora	-938
▁information	-939
eta	-940
bil	-941
▁maloko	-942
▁da	-943
▁bolela	-944
▁mana	-945
▁one	-946
gilego	-947
lega	-948
▁well	-949
▁us	-950
ures	-951
▁fin	-952
▁lebele	-953
▁meetse	-954
uld	-955
▁service	-956
▁application	-957
otheo	-958
ition	-959
▁j	-960
mit	-961
▁ag	-962
medi	-963
kgatlo	-964
▁Council	-965
▁dint	-966
omi	-967
▁hloka	-968
ati	-969
stru	-970
▁polelo	-971
▁mešomo	-972
ctive	-973
▁boi	-974
hip	-975
▁should	-976
▁tume	-977
▁bile	-978
ffic	-979
▁would	-980
▁ngwaga	-981
▁bana	-982
partment	-983
of	-984
gement	-985
phodi	-986
▁nete	-987
▁bi	-988
▁into	-989
bu	-990
diša	-991
išano	-992
▁maf	-993
▁pres	-994
alth	-995
its	-996
▁rega	-997
hlan	-998
sela	-999
med	-1000
ners	-1001
▁gro	-1002
▁respon	-1003
bile	-1004
▁but	-1005
ning	-1006
isi	-1007
▁legisla	-1008
▁perm	-1009
▁woo	-1010
▁fol	-1011
lele	-1012
ourt	-1013
▁dec	-1014
phodisa	-1015
pelo	-1016
phetho	-1017
▁had	-1018
▁trans	-1019
▁bokgoni	-1020
gist	-1021
▁appro	-1022
▁development	-1023
▁tseb	-1024
kany	-1025
enti	-1026
▁per	-1027
ality	-1028
su	-1029
ting	-1030
▁section	-1031
▁cha	-1032
▁V	-1033
▁tlase	-1034
ast	-1035
▁Constitution	-1036
▁pho	-1037
lwana	-1038
▁Cha	-1039
▁Par	-1040
▁when	-1041
▁imple	-1042
▁mabaka	-1043
▁tšweletša	-1044
ced	-1045
ye	-1046
▁Ca	-1047
cho	-1048
fore	-1049
kgotla	-1050
len	-1051
▁within	-1052
▁aga	-1053
▁tikologo	-1054
der	-1055
ural	-1056
▁produ	-1057
setšhaba	-1058
kgolo	-1059
▁what	-1060
▁4	-1061
▁diti	-1062
▁sp	-1063
gile	-1064
▁kot	-1065
▁gan	-1066
▁lefelo	-1067
fsa	-1068
▁syste	-1069
eno	-1070
▁see	-1071
▁pay	-1072
va	-1073
▁ob	-1074
▁plan	-1075
▁Ad	-1076
karabelo	-1077
▁You	-1078
uring	-1079
▁sta	-1080
▁out	-1081
era	-1082
▁foko	-1083
▁feto	-1084
▁num	-1085
▁No	-1086
▁regard	-1087
▁national	-1088
MS	-1089
ngwa	-1090
▁set	-1091
mela	-1092
▁Setš	-1093
▁eupša	-1094
▁follow	-1095
▁progra	-1096
▁employ	-1097
cture	-1098
ges	-1099
▁ap	-1100
▁these	-1101
▁yena	-1102
▁thoma	-1103
lam	-1104
isation	-1105
▁lenaneo	-1106
▁magareng	-1107
dir	-1108
▁em	-1109
hire	-1110
▁dip	-1111
dišo	-1112
cc	-1113
konomi	-1114
▁yoo	-1115
ila	-1116
▁dilo	-1117
ervices	-1118
▁tšwela	-1119
▁Setšhaba	-1120
udi	-1121
hlatse	-1122
▁right	-1123
▁ass	-1124
chool	-1125
▁after	-1126
lwetši	-1127
ali	-1128
ini	-1129
▁Ex	-1130
▁dula	-1131
nete	-1132
▁maphelo	-1133
▁inte	-1134
▁than	-1135
nolo	-1136
▁kwa	-1137
▁throu	-1138
gano	-1139
kedi	-1140
▁rom	-1141
▁National	-1142
▁like	-1143
▁fiwa	-1144
▁He	-1145
▁rep	-1146
ries	-1147
day	-1148
▁šomiša	-1149
▁Mm	-1150
ani	-1151
▁bjale	-1152
ice	-1153
▁bet	-1154
cep	-1155
▁Mot	-1156
▁awa	-1157
▁pos	-1158
▁dith	-1159
ving	-1160
kišišo	-1161
▁swanetšego	-1162
▁dirwa	-1163
▁tokelo	-1164
▁mar	-1165
▁fihla	-1166
▁happ	-1167
▁public	-1168
▁him	-1169
▁hum	-1170
ditše	-1171
▁country	-1172
pri	-1173
enyi	-1174
▁thi	-1175
tern	-1176
▁dipa	-1177
ner	-1178
▁lear	-1179
▁phethaga	-1180
ency	-1181
reat	-1182
▁required	-1183
▁ditšhelete	-1184
▁more	-1185
▁members	-1186
seng	-1187
▁tšhom	-1188
▁bangwe	-1189
▁did	-1190
▁pri	-1191
iše	-1192
lan	-1193
rit	-1194
▁including	-1195
▁karo	-1196
▁number	-1197
rest	-1198
▁ith	-1199
kane	-1200
▁As	-1201
▁tir	-1202
▁Development	-1203
išene	-1204
▁dinyakwa	-1205
▁following	-1206
lia	-1207
uage	-1208
ans	-1209
▁effe	-1210
rin	-1211
▁here	-1212
redi	-1213
▁rea	-1214
okelo	-1215
kemišetšo	-1216
cti	-1217
▁role	-1218
01	-1219
cri	-1220
fied	-1221
sible	-1222
▁leba	-1223
▁kgwebo	-1224
▁two	-1225
karetšo	-1226
ase	-1227
rate	-1228
etšego	-1229
▁taba	-1230
▁netefatša	-1231
gato	-1232
▁5	-1233
conomic	-1234
ided	-1235
rat	-1236
▁ditshe	-1237
ono	-1238
▁prom	-1239
▁nakong	-1240
▁Molaotheo	-1241
▁tumelelo	-1242
vir	-1243
▁ngwana	-1244
put	-1245
▁ve	-1246
tšišo	-1247
pala	-1248
▁Tlha	-1249
▁mma	-1250
▁latelago	-1251
bjalo	-1252
lelwa	-1253
ulo	-1254
irst	-1255
▁said	-1256
▁ofe	-1257
še	-1258
▁ques	-1259
▁There	-1260
man	-1261
▁Qu	-1262
tlalo	-1263
rent	-1264
komelo	-1265
▁kgoro	-1266
▁Un	-1267
tšhe	-1268
ganyo	-1269
▁through	-1270
▁ent	-1271
ister	-1272
▁diko	-1273
▁nt	-1274
hata	-1275
vin	-1276
▁Commission	-1277
▁mela	-1278
▁dijo	-1279
hwan	-1280
liament	-1281
SA	-1282
theo	-1283
▁gam	-1284
ord	-1285
▁many	-1286
▁kaona	-1287
▁khu	-1288
▁letšatši	-1289
unicip	-1290
▁mathomo	-1291
dress	-1292
eneral	-1293
▁area	-1294
▁both	-1295
▁lemo	-1296
tee	-1297
kego	-1298
senyi	-1299
tso	-1300
uth	-1301
▁mas	-1302
hola	-1303
▁bus	-1304
bopego	-1305
hireletšo	-1306
ken	-1307
▁Ta	-1308
▁kgetho	-1309
▁6	-1310
ents	-1311
kge	-1312
▁mang	-1313
▁made	-1314
tsheko	-1315
▁Cape	-1316
atlala	-1317
▁Department	-1318
▁implement	-1319
▁ame	-1320
ended	-1321
kha	-1322
▁op	-1323
▁maikarabelo	-1324
igh	-1325
▁mehla	-1326
▁system	-1327
▁bea	-1328
▁setšo	-1329
▁botlalo	-1330
ty	-1331
▁Tona	-1332
graph	-1333
▁fele	-1334
ety	-1335
▁mengwaga	-1336
▁diriša	-1337
▁first	-1338
ular	-1339
▁peri	-1340
▁Tra	-1341
ked	-1342
onment	-1343
ls	-1344
▁bašomi	-1345
▁Parliament	-1346
▁est	-1347
▁conc	-1348
▁kweš	-1349
▁boit	-1350
kano	-1351
vention	-1352
set	-1353
▁For	-1354
▁conf	-1355
▁management	-1356
▁legislation	-1357
▁bodi	-1358
cip	-1359
hek	-1360
iness	-1361
ff	-1362
kut	-1363
▁law	-1364
bele	-1365
▁meas	-1366
▁GE	-1367
▁contin	-1368
▁Set	-1369
akanyo	-1370
tšhi	-1371
fatšo	-1372
▁dipe	-1373
▁thušo	-1374
za	-1375
▁thuto	-1376
vironment	-1377
▁Tshe	-1378
▁period	-1379
▁develop	-1380
elwa	-1381
▁sengwe	-1382
ath	-1383
TI	-1384
inst	-1385
▁ditaba	-1386
▁ebile	-1387
tšweletši	-1388
ten	-1389
▁world	-1390
▁assist	-1391
▁organ	-1392
▁want	-1393
▁document	-1394
rong	-1395
ism	-1396
sive	-1397
▁health	-1398
gela	-1399
▁min	-1400
▁land	-1401
alwa	-1402
self	-1403
▁tle	-1404
▁temo	-1405
▁over	-1406
▁lebo	-1407
ful	-1408
ori	-1409
▁lefelong	-1410
▁gi	-1411
▁id	-1412
section	-1413
▁lengwe	-1414
hie	-1415
▁fun	-1416
▁bago	-1417
▁used	-1418
▁sector	-1419
▁children	-1420
▁my	-1421
▁need	-1422
▁issu	-1423
und	-1424
▁inves	-1425
▁botse	-1426
tšwago	-1427
gale	-1428
▁don	-1429
▁ok	-1430
▁mekgwa	-1431
hen	-1432
ish	-1433
ablis	-1434
▁gammogo	-1435
▁hlokom	-1436
▁mafelo	-1437
sele	-1438
hl	-1439
▁process	-1440
etšwa	-1441
laodi	-1442
▁Service	-1443
▁reg	-1444
▁take	-1445
▁Minister	-1446
gwebo	-1447
▁Mma	-1448
▁tshepedišo	-1449
ew	-1450
▁Ind	-1451
▁sephetho	-1452
▁Mmušo	-1453
▁areas	-1454
▁Te	-1455
▁rela	-1456
▁Public	-1457
beng	-1458
▁rele	-1459
ditšwego	-1460
gana	-1461
▁before	-1462
▁diphe	-1463
sepala	-1464
▁kgeth	-1465
sp	-1466
▁mangwe	-1467
▁support	-1468
ON	-1469
▁mohuta	-1470
anya	-1471
▁stud	-1472
ragalo	-1473
yo	-1474
pos	-1475
▁des	-1476
▁dintlha	-1477
ard	-1478
▁itšego	-1479
▁state	-1480
▁pur	-1481
▁provincial	-1482
▁gu	-1483
ather	-1484
▁prin	-1485
▁dipho	-1486
▁laetša	-1487
▁Z	-1488
▁ut	-1489
▁leloko	-1490
▁motheo	-1491
▁bobedi	-1492
▁import	-1493
▁Did	-1494
▁vari	-1495
▁And	-1496
▁inf	-1497
▁provide	-1498
▁bjang	-1499
▁tlago	-1500
▁happen	-1501
▁services	-1502
▁Government	-1503
vers	-1504
iz	-1505
▁bolo	-1506
▁hlohle	-1507
arch	-1508
▁days	-1509
▁lona	-1510
ern	-1511
ween	-1512
▁Ngwa	-1513
ined	-1514
▁GEMS	-1515
ily	-1516
▁sha	-1517
▁between	-1518
▁cer	-1519
melwa	-1520
▁only	-1521
▁wona	-1522
▁water	-1523
gaka	-1524
▁school	-1525
▁tšweletšo	-1526
▁inv	-1527
bility	-1528
dition	-1529
ory	-1530
▁maikemišetšo	-1531
ped	-1532
▁fapana	-1533
▁kat	-1534
ron	-1535
cut	-1536
▁educ	-1537
▁palo	-1538
tšweletšwa	-1539
▁tswa	-1540
uswi	-1541
▁beak	-1542
pre	-1543
▁nnete	-1544
▁vi	-1545
co	-1546
▁An	-1547
kana	-1548
▁nageng	-1549
▁30	-1550
dudi	-1551
▁ask	-1552
▁permit	-1553
▁princip	-1554
▁kala	-1555
ute	-1556
▁ntši	-1557
ally	-1558
▁ditho	-1559
▁bontši	-1560
▁mathata	-1561
▁leka	-1562
gn	-1563
wane	-1564
▁Mna	-1565
ganya	-1566
▁šomišwa	-1567
fy	-1568
khu	-1569
▁beca	-1570
▁establis	-1571
wor	-1572
▁non	-1573
eni	-1574
pportun	-1575
cur	-1576
tswa	-1577
▁sona	-1578
ote	-1579
šwa	-1580
mana	-1581
▁impro	-1582
▁Presid	-1583
▁opportun	-1584
▁tlhokomelo	-1585
▁lao	-1586
▁provision	-1587
minist	-1588
let	-1589
▁mananeo	-1590
▁bat	-1591
▁how	-1592
▁lef	-1593
ract	-1594
▁years	-1595
▁ev	-1596
▁wena	-1597
▁tsebe	-1598
▁tirelo	-1599
▁ditla	-1600
rame	-1601
dic	-1602
▁long	-1603
dišano	-1604
ens	-1605
▁dinaga	-1606
▁environment	-1607
▁metho	-1608
▁order	-1609
▁proje	-1610
curity	-1611
▁melao	-1612
▁ithuta	-1613
psha	-1614
felong	-1615
▁fana	-1616
▁gwa	-1617
▁tsena	-1618
▁local	-1619
▁fihlelela	-1620
▁kakaretšo	-1621
▁tlhabollo	-1622
▁day	-1623
▁working	-1624
by	-1625
ee	-1626
letše	-1627
oto	-1628
▁oper	-1629
kiša	-1630
chnolo	-1631
pano	-1632
▁col	-1633
▁gae	-1634
▁bene	-1635
▁refer	-1636
ited	-1637
▁Batho	-1638
▁ama	-1639
▁very	-1640
hed	-1641
▁cor	-1642
nye	-1643
▁subsection	-1644
idence	-1645
irs	-1646
ulu	-1647
▁pedi	-1648
▁bohlatse	-1649
▁Pe	-1650
▁phi	-1651
DI	-1652
▁Bja	-1653
foko	-1654
lle	-1655
▁community	-1656
▁Provin	-1657
▁mohlala	-1658
▁du	-1659
kela	-1660
▁tlwa	-1661
ban	-1662
din	-1663
oper	-1664
▁member	-1665
▁gat	-1666
▁hloko	-1667
▁ditokelo	-1668
▁Chair	-1669
▁tšhireletšo	-1670
txt	-1671
ising	-1672
diši	-1673
▁Ch	-1674
▁dikolo	-1675
▁kgauswi	-1676
emong	-1677
▁diri	-1678
▁court	-1679
▁mantšu	-1680
▁beilwego	-1681
get	-1682
▁ngwala	-1683
▁ekonomi	-1684
ating	-1685
omiti	-1686
▁Sa	-1687
▁amogela	-1688
hout	-1689
▁mpsha	-1690
▁La	-1691
▁baithuti	-1692
ecut	-1693
hansele	-1694
▁place	-1695
emedi	-1696
lit	-1697
gon	-1698
seb	-1699
lošo	-1700
panego	-1701
GO	-1702
des	-1703
išin	-1704
omen	-1705
ecutive	-1706
▁mmalwa	-1707
▁social	-1708
orm	-1709
omoro	-1710
▁rece	-1711
lin	-1712
vant	-1713
▁leko	-1714
▁ava	-1715
▁bosenyi	-1716
▁far	-1717
lelana	-1718
▁human	-1719
lamente	-1720
▁bophelo	-1721
▁sur	-1722
▁police	-1723
▁availa	-1724
▁group	-1725
▁kgopela	-1726
▁En	-1727
▁mmogo	-1728
bre	-1729
▁Mat	-1730
▁give	-1731
▁'	-1732
▁modi	-1733
IV	-1734
ghts	-1735
▁basadi	-1736
▁lefase	-1737
▁bontšha	-1738
▁available	-1739
bolo	-1740
▁phatlala	-1741
▁tšhomišo	-1742
So	-1743
lho	-1744
▁tsebo	-1745
▁maphodisa	-1746
▁Man	-1747
▁facil	-1748
hlala	-1749
▁baka	-1750
▁They	-1751
▁molato	-1752
▁relevant	-1753
ented	-1754
▁Indust	-1755
▁tshwan	-1756
▁profense	-1757
▁val	-1758
▁thek	-1759
bed	-1760
ative	-1761
▁able	-1762
Le	-1763
▁during	-1764
▁thekgo	-1765
▁HIV	-1766
dirišwa	-1767
hlelelo	-1768
▁merero	-1769
▁7	-1770
▁swara	-1771
▁Tirelo	-1772
hlanong	-1773
▁Phe	-1774
wego	-1775
mmušo	-1776
hlego	-1777
▁nnyane	-1778
gistration	-1779
ret	-1780
▁kae	-1781
▁care	-1782
▁hlogo	-1783
▁rata	-1784
▁them	-1785
▁suspe	-1786
▁sehlopha	-1787
▁because	-1788
kanyo	-1789
eletšo	-1790
▁šetše	-1791
-2	-1792
▁nat	-1793
▁ditlha	-1794
▁mehuta	-1795
ources	-1796
▁akaretšwa	-1797
ason	-1798
ditšwe	-1799
▁dirišwa	-1800
▁perform	-1801
▁particip	-1802
▁tele	-1803
▁tema	-1804
fairs	-1805
000	-1806
sta	-1807
▁ful	-1808
▁put	-1809
2)	-1810
▁laola	-1811
ili	-1812
ills	-1813
llwa	-1814
▁Dire	-1815
▁capa	-1816
▁does	-1817
▁result	-1818
▁selo	-1819
▁Len	-1820
▁dumele	-1821
▁cur	-1822
rence	-1823
▁against	-1824
rs	-1825
ady	-1826
▁up	-1827
▁tlhahlo	-1828
▁programme	-1829
▁seka	-1830
▁implementation	-1831
gether	-1832
▁mafelong	-1833
▁men	-1834
ics	-1835
ings	-1836
▁lang	-1837
▁lead	-1838
▁8	-1839
▁eme	-1840
▁training	-1841
ket	-1842
telele	-1843
pla	-1844
gatšo	-1845
▁tshepetšo	-1846
cus	-1847
▁Bosetšhaba	-1848
mpa	-1849
▁Dikgo	-1850
▁month	-1851
ink	-1852
▁just	-1853
ound	-1854
▁speci	-1855
wantšho	-1856
anta	-1857
phara	-1858
▁Industry	-1859
rime	-1860
ID	-1861
mon	-1862
▁(1	-1863
▁Jo	-1864
▁badi	-1865
▁nna	-1866
▁Polic	-1867
▁kgahlanong	-1868
ulation	-1869
▁Be	-1870
▁šu	-1871
▁amana	-1872
▁each	-1873
▁Ag	-1874
▁apply	-1875
por	-1876
▁economic	-1877
▁Palamente	-1878
bs	-1879
▁intern	-1880
▁amended	-1881
etapele	-1882
padi	-1883
010	-1884
▁dihla	-1885
▁semmušo	-1886
mber	-1887
▁kotsi	-1888
etšwego	-1889
▁question	-1890
▁expres	-1891
▁dinyakišišo	-1892
ep	-1893
kutlo	-1894
▁together	-1895
hono	-1896
▁partic	-1897
▁President	-1898
ft	-1899
par	-1900
urg	-1901
▁bala	-1902
ale	-1903
▁measures	-1904
▁sebopego	-1905
▁sk	-1906
▁disa	-1907
▁tlhago	-1908
▁cre	-1909
▁Lang	-1910
▁methopo	-1911
▁9	-1912
rego	-1913
oropo	-1914
▁seri	-1915
▁policy	-1916
bana	-1917
pafa	-1918
▁provided	-1919
▁Wh	-1920
▁karolwana	-1921
▁name	-1922
come	-1923
▁mmu	-1924
hlako	-1925
▁Affairs	-1926
▁cla	-1927
▁own	-1928
▁boka	-1929
▁dibjalo	-1930
▁bro	-1931
▁clo	-1932
šomong	-1933
▁filwego	-1934
▁matšatši	-1935
▁kgoka	-1936
▁fokotša	-1937
▁dife	-1938
▁matla	-1939
▁cho	-1940
▁good	-1941
▁municip	-1942
išitšwego	-1943
▁words	-1944
▁tshwanelo	-1945
▁10	-1946
▁les	-1947
išitšwe	-1948
▁particular	-1949
▁sit	-1950
▁leve	-1951
▁Lekgotla	-1952
▁Let	-1953
▁wit	-1954
▁fapafa	-1955
work	-1956
gase	-1957
▁purpo	-1958
mano	-1959
longwa	-1960
ital	-1961
kwana	-1962
▁att	-1963
▁ref	-1964
▁underst	-1965
gae	-1966
uku	-1967
▁three	-1968
▁ona	-1969
eletša	-1970
▁commit	-1971
▁sengwa	-1972
▁Ho	-1973
mes	-1974
išago	-1975
▁dipro	-1976
▁sekolo	-1977
ial	-1978
pola	-1979
weng	-1980
nyegelo	-1981
▁rights	-1982
ture	-1983
entre	-1984
▁latela	-1985
▁App	-1986
▁documents	-1987
▁hlaloša	-1988
▁regis	-1989
▁nyakegago	-1990
kome	-1991
fat	-1992
▁bophara	-1993
▁kelo	-1994
▁dipotšišo	-1995
gwedi	-1996
▁effect	-1997
▁kh	-1998
▁chal	-1999
tšhabatšhaba	-2000
▁ru	-2001
▁mabo	-2002
LE	-2003
▁dipha	-2004
▁šire	-2005
hwaro	-2006
▁soci	-2007
▁submit	-2008
▁Ra	-2009
galago	-2010
▁maš	-2011
▁tax	-2012
▁some	-2013
▁tšwelela	-2014
kgopedi	-2015
ete	-2016
ctiv	-2017
irit	-2018
▁,	-2019
ebe	-2020
ufa	-2021
molao	-2022
mphan	-2023
▁amegago	-2024
ward	-2025
▁grow	-2026
ministration	-2027
year	-2028
▁sebaka	-2029
▁bas	-2030
enya	-2031
▁indu	-2032
General	-2033
residente	-2034
gatša	-2035
▁ditsela	-2036
▁tšho	-2037
▁bosetšhaba	-2038
▁given	-2039
▁substitution	-2040
ters	-2041
ME	-2042
tific	-2043
▁consult	-2044
▁Director	-2045
urn	-2046
rabo	-2047
legae	-2048
▁house	-2049
ordin	-2050
▁Court	-2051
gany	-2052
▁Mai	-2053
kile	-2054
▁000	-2055
▁lemoga	-2056
▁indust	-2057
os	-2058
ze	-2059
▁auth	-2060
▁kgale	-2061
▁Maloko	-2062
lano	-2063
▁took	-2064
▁kua	-2065
cting	-2066
▁demo	-2067
▁security	-2068
▁achie	-2069
▁kaonafatša	-2070
▁make	-2071
▁business	-2072
homišene	-2073
gwer	-2074
▁def	-2075
tšeke	-2076
▁access	-2077
▁sto	-2078
▁identi	-2079
▁era	-2080
ded	-2081
ight	-2082
athi	-2083
▁Mop	-2084
relo	-2085
▁Wor	-2086
▁car	-2087
▁Executive	-2088
▁dia	-2089
tered	-2090
▁maikutlo	-2091
▁bong	-2092
▁concern	-2093
nso	-2094
ched	-2095
ides	-2096
▁dithoto	-2097
▁priv	-2098
▁hlola	-2099
bon	-2100
▁bothata	-2101
▁improve	-2102
rwa	-2103
hlela	-2104
▁morero	-2105
▁det	-2106
bjale	-2107
▁report	-2108
koto	-2109
▁bor	-2110
▁tso	-2111
▁kgonth	-2112
▁respe	-2113
▁hlokomela	-2114
Af	-2115
ind	-2116
▁jo	-2117
▁exa	-2118
▁Gape	-2119
▁reco	-2120
▁decision	-2121
orago	-2122
mphani	-2123
orong	-2124
▁nyakago	-2125
kra	-2126
▁hereby	-2127
tšhabeng	-2128
▁various	-2129
▁mekgatlo	-2130
tra	-2131
▁Karolo	-2132
▁Khansele	-2133
ledge	-2134
▁deli	-2135
▁pheto	-2136
▁account	-2137
▁complete	-2138
ased	-2139
utha	-2140
▁case	-2141
▁student	-2142
IDS	-2143
▁para	-2144
gatong	-2145
▁phihlelelo	-2146
.2	-2147
elelong	-2148
mong	-2149
▁foromo	-2150
otshe	-2151
▁šupa	-2152
▁referred	-2153
com	-2154
mer	-2155
▁fam	-2156
tšing	-2157
▁tharo	-2158
▁self	-2159
▁kaone	-2160
▁mengwe	-2161
▁Fa	-2162
wano	-2163
▁being	-2164
▁activ	-2165
▁suc	-2166
▁infra	-2167
▁mafelelo	-2168
ek	-2169
ange	-2170
ists	-2171
▁tal	-2172
ring	-2173
▁kha	-2174
kanywa	-2175
▁monna	-2176
▁skills	-2177
hlankedi	-2178
▁cle	-2179
structure	-2180
ultural	-2181
▁swanela	-2182
▁last	-2183
išitše	-2184
▁tliša	-2185
▁mokgatlo	-2186
dula	-2187
ority	-2188
▁appe	-2189
letšwa	-2190
▁fapanego	-2191
▁communities	-2192
odi	-2193
▁every	-2194
▁office	-2195
▁dipolelo	-2196
lie	-2197
getho	-2198
▁hist	-2199
atives	-2200
wed	-2201
▁end	-2202
rested	-2203
▁institution	-2204
▁So	-2205
▁bolwetši	-2206
▁lebakeng	-2207
▁bola	-2208
gwera	-2209
ato	-2210
▁Acc	-2211
▁equ	-2212
ready	-2213
▁stru	-2214
ancial	-2215
icle	-2216
reed	-2217
▁diffe	-2218
▁peakanyo	-2219
▁int	-2220
mmes	-2221
ances	-2222
▁already	-2223
thing	-2224
▁expen	-2225
▁Rep	-2226
round	-2227
▁resources	-2228
tšhwa	-2229
▁nepa	-2230
▁comple	-2231
▁hel	-2232
▁life	-2233
▁hloma	-2234
▁call	-2235
ues	-2236
▁Hlo	-2237
▁moya	-2238
▁repres	-2239
elela	-2240
▁investi	-2241
ording	-2242
".	-2243
▁kgotso	-2244
▁technolo	-2245
▁ide	-2246
Borwa	-2247
uation	-2248
ventions	-2249
oura	-2250
▁dikga	-2251
▁leina	-2252
rib	-2253
▁off	-2254
▁proble	-2255
rol	-2256
▁obje	-2257
▁let	-2258
▁record	-2259
▁adv	-2260
▁Language	-2261
▁fetilego	-2262
PS	-2263
▁Mon	-2264
ats	-2265
▁thekga	-2266
▁way	-2267
ators	-2268
onelwa	-2269
▁integ	-2270
▁Minist	-2271
keiti	-2272
kes	-2273
▁magato	-2274
ere	-2275
cept	-2276
▁Bot	-2277
▁dits	-2278
kho	-2279
▁tirišo	-2280
▁programmes	-2281
lon	-2282
▁ans	-2283
person	-2284
▁mosadi	-2285
▁kgontšha	-2286
tšh	-2287
▁come	-2288
▁mala	-2289
antoro	-2290
▁issued	-2291
▁didirišwa	-2292
tim	-2293
term	-2294
▁lapa	-2295
▁phethagatša	-2296
setulo	-2297
▁Republic	-2298
▁selegae	-2299
▁lebelela	-2300
▁hlohleletša	-2301
▁Ti	-2302
▁tiiš	-2303
▁These	-2304
▁dikgopolo	-2305
▁environmental	-2306
gare	-2307
▁main	-2308
▁countries	-2309
fala	-2310
▁deta	-2311
▁data	-2312
▁Khomišene	-2313
▁hlag	-2314
▁polo	-2315
▁sign	-2316
▁think	-2317
▁tlale	-2318
here	-2319
▁kho	-2320
fatana	-2321
▁indic	-2322
fikeiti	-2323
TE	-2324
isa	-2325
▁kgetha	-2326
bj	-2327
▁polit	-2328
▁šomago	-2329
▁Sele	-2330
▁thibela	-2331
aka	-2332
▁ša	-2333
lamo	-2334
▁same	-2335
▁eba	-2336
▁design	-2337
urs	-2338
▁cop	-2339
▁swe	-2340
▁bale	-2341
▁kopana	-2342
▁lengwa	-2343
ised	-2344
ender	-2345
▁paragraph	-2346
▁lehono	-2347
ils	-2348
mpha	-2349
kgoba	-2350
▁Mana	-2351
not	-2352
▁Din	-2353
▁ditiro	-2354
▁spirit	-2355
▁knowledge	-2356
eti	-2357
lopele	-2358
▁malebana	-2359
ees	-2360
▁shall	-2361
▁Thuto	-2362
▁kago	-2363
nership	-2364
▁mining	-2365
▁maemong	-2366
gate	-2367
hold	-2368
▁pego	-2369
▁kgobo	-2370
▁kgwedi	-2371
▁Diti	-2372
▁maswa	-2373
ofolo	-2374
▁bora	-2375
▁pela	-2376
orities	-2377
▁mohola	-2378
palo	-2379
▁hloke	-2380
▁dirago	-2381
ches	-2382
▁writ	-2383
▁aware	-2384
▁tseny	-2385
▁Applic	-2386
▁bogolo	-2387
▁boleng	-2388
▁veh	-2389
▁dist	-2390
▁open	-2391
dulasetulo	-2392
urban	-2393
▁supp	-2394
lelano	-2395
▁temana	-2396
▁bom	-2397
▁colle	-2398
▁bonolo	-2399
▁look	-2400
kanego	-2401
hila	-2402
mego	-2403
▁Mole	-2404
▁Tšwe	-2405
▁dumelela	-2406
▁language	-2407
▁batšweletši	-2408
▁si	-2409
▁sol	-2410
thiši	-2411
▁address	-2412
▁certific	-2413
▁infrastructure	-2414
▁Ts	-2415
ention	-2416
▁dipoelo	-2417
▁sea	-2418
krasi	-2419
▁dithe	-2420
▁father	-2421
ebete	-2422
išana	-2423
▁tšewa	-2424
etro	-2425
▁hlwe	-2426
▁pola	-2427
ically	-2428
▁determ	-2429
▁necess	-2430
formed	-2431
ledišano	-2432
▁kgatha	-2433
▁mohlagase	-2434
tšatšing	-2435
struction	-2436
ness	-2437
pela	-2438
khwi	-2439
▁she	-2440
ramework	-2441
ider	-2442
▁Kop	-2443
▁international	-2444
kere	-2445
▁dikho	-2446
▁bar	-2447
▁dio	-2448
▁pot	-2449
▁sele	-2450
val	-2451
▁LE	-2452
editše	-2453
▁romela	-2454
▁strate	-2455
▁Address	-2456
▁province	-2457
itiz	-2458
ried	-2459
fatanaga	-2460
▁Les	-2461
▁pop	-2462
▁sent	-2463
▁melawana	-2464
uma	-2465
▁going	-2466
▁women	-2467
šene	-2468
▁1993	-2469
▁accom	-2470
▁Employ	-2471
itshwaro	-2472
kete	-2473
▁prof	-2474
▁ja	-2475
▁allo	-2476
priate	-2477
▁taken	-2478
iation	-2479
▁dihlopha	-2480
nes	-2481
▁et	-2482
▁taking	-2483
▁Lenaneo	-2484
phi	-2485
▁ny	-2486
hlwa	-2487
▁dep	-2488
anding	-2489
▁Trade	-2490
▁tsenya	-2491
row	-2492
uru	-2493
maga	-2494
▁aba	-2495
sebišo	-2496
city	-2497
▁tsheko	-2498
▁Town	-2499
▁gantši	-2500
ZA	-2501
pet	-2502
▁mole	-2503
▁tšhe	-2504
▁baswa	-2505
▁ilego	-2506
▁parties	-2507
▁important	-2508
etši	-2509
▁nka	-2510
ragatšo	-2511
ditional	-2512
▁ditiragalo	-2513
dy	-2514
new	-2515
▁dise	-2516
gation	-2517
▁while	-2518
▁includes	-2519
hing	-2520
▁buš	-2521
▁raro	-2522
▁mogolo	-2523
eld	-2524
ands	-2525
gongo	-2526
▁sepelelana	-2527
▁respect	-2528
▁principal	-2529
kate	-2530
mente	-2531
▁lengwalo	-2532
vo	-2533
tast	-2534
▁elect	-2535
ufacture	-2536
cla	-2537
tara	-2538
▁date	-2539
▁tšwago	-2540
anong	-2541
▁thula	-2542
▁sepela	-2543
▁functions	-2544
swadi	-2545
▁hu	-2546
▁lega	-2547
ference	-2548
fela	-2549
▁responsible	-2550
▁realo	-2551
▁prevent	-2552
▁legatong	-2553
▁fapafapana	-2554
hem	-2555
▁Police	-2556
▁matter	-2557
sol	-2558
▁baa	-2559
▁four	-2560
▁tlogo	-2561
▁mafelelong	-2562
▁/	-2563
▁dri	-2564
▁badudi	-2565
▁kopano	-2566
▁private	-2567
tor	-2568
▁most	-2569
▁enter	-2570
▁dikarolo	-2571
otshepetšo	-2572
yers	-2573
▁production	-2574
▁Mopresidente	-2575
▁bot	-2576
▁bone	-2577
ional	-2578
▁home	-2579
▁initi	-2580
▁susta	-2581
▁ema	-2582
▁1997	-2583
dulo	-2584
▁Trans	-2585
▁citiz	-2586
▁leago	-2587
▁mošomong	-2588
▁expression	-2589
▁Spe	-2590
▁cost	-2591
ants	-2592
kudu	-2593
lomo	-2594
▁ret	-2595
inten	-2596
▁growth	-2597
▁meeting	-2598
▁malwetši	-2599
▁sengwalwa	-2600
▁Moga	-2601
▁done	-2602
▁medical	-2603
▁setšhabeng	-2604
peng	-2605
gramme	-2606
kwe	-2607
search	-2608
▁family	-2609
kakanywa	-2610
mination	-2611
▁present	-2612
partments	-2613
WA	-2614
▁ara	-2615
▁arrested	-2616
▁Is	-2617
▁Res	-2618
▁belie	-2619
▁12	-2620
▁šedi	-2621
▁those	-2622
▁waste	-2623
▁bantši	-2624
▁achieve	-2625
▁boletše	-2626
dium	-2627
ually	-2628
utiši	-2629
▁mafa	-2630
▁possible	-2631
▁ty	-2632
▁2002	-2633
▁Motho	-2634
▁dikgoro	-2635
▁mabokgoni	-2636
ger	-2637
▁Ar	-2638
hips	-2639
ination	-2640
▁understand	-2641
gwalo	-2642
▁fete	-2643
oma	-2644
mall	-2645
▁appli	-2646
-1	-2647
▁Ap	-2648
mple	-2649
▁epa	-2650
▁thwa	-2651
▁tšwetša	-2652
▁applicable	-2653
▁Ph	-2654
▁iša	-2655
dišwa	-2656
▁benef	-2657
anka	-2658
bane	-2659
▁When	-2660
▁cannot	-2661
▁promote	-2662
ris	-2663
▁appo	-2664
▁book	-2665
▁transport	-2666
▁ditshenyegelo	-2667
▁say	-2668
▁next	-2669
▁invol	-2670
▁tsenela	-2671
▁ditšhaba	-2672
▁dikgopelo	-2673
zin	-2674
▁Or	-2675
ara	-2676
▁vis	-2677
▁past	-2678
▁dipheto	-2679
▁Provincial	-2680
kat	-2681
▁21	-2682
putso	-2683
▁experi	-2684
▁capacity	-2685
burg	-2686
▁Centre	-2687
▁express	-2688
▁registered	-2689
▁consultation	-2690
▁reka	-2691
▁Commit	-2692
▁mediro	-2693
▁quality	-2694
orts	-2695
rated	-2696
el	-2697
wadi	-2698
rents	-2699
▁bewa	-2700
▁Bjale	-2701
▁plants	-2702
feration	-2703
▁(1)	-2704
▁Pri	-2705
▁mantši	-2706
▁dikgetho	-2707
getšego	-2708
▁ikemiš	-2709
▁ditšweletšwa	-2710
ulti	-2711
▁activities	-2712
orted	-2713
▁incre	-2714
▁katlego	-2715
▁dirilwego	-2716
▁mokgopedi	-2717
TA	-2718
ace	-2719
ffici	-2720
▁Land	-2721
▁resul	-2722
▁learners	-2723
▁education	-2724
▁botš	-2725
▁pract	-2726
▁without	-2727
▁air	-2728
▁democ	-2729
ise	-2730
ugh	-2731
anye	-2732
▁road	-2733
▁answer	-2734
intenance	-2735
amo	-2736
▁Ban	-2737
cribed	-2738
▁questions	-2739
MA	-2740
less	-2741
▁All	-2742
▁Hla	-2743
▁ple	-2744
▁parents	-2745
▁manufacture	-2746
rge	-2747
hara	-2748
cially	-2749
polelo	-2750
▁ntšha	-2751
▁nyakega	-2752
▁Efa	-2753
▁Africans	-2754
sing	-2755
-25	-2756
tiki	-2757
▁prote	-2758
▁mafoko	-2759
itor	-2760
erals	-2761
▁help	-2762
land	-2763
▁kalafo	-2764
▁necessary	-2765
▁šit	-2766
▁copy	-2767
▁materi	-2768
▁Committee	-2769
▁lwa	-2770
▁Do	-2771
getše	-2772
etšago	-2773
urther	-2774
▁leboga	-2775
bab	-2776
▁happened	-2777
HA	-2778
ctors	-2779
▁certificate	-2780
▁kgorotsheko	-2781
EDI	-2782
▁beha	-2783
▁evidence	-2784
liferation	-2785
wini	-2786
▁Sub	-2787
tšong	-2788
▁compla	-2789
▁applicant	-2790
sh	-2791
cing	-2792
letšego	-2793
▁semolao	-2794
▁Al	-2795
duce	-2796
▁opportunities	-2797
venue	-2798
▁deal	-2799
▁Commun	-2800
▁political	-2801
ama	-2802
▁BI	-2803
puty	-2804
lwego	-2805
▁means	-2806
▁happening	-2807
pt	-2808
▁Ro	-2809
▁knew	-2810
▁phela	-2811
▁Municip	-2812
▁.	-2813
otho	-2814
▁Kapa	-2815
▁kgoši	-2816
▁fetola	-2817
▁interest	-2818
tsi	-2819
enye	-2820
gišo	-2821
▁kabo	-2822
▁interventions	-2823
1.	-2824
▁Taolo	-2825
▁pu	-2826
itate	-2827
išong	-2828
▁Mong	-2829
ciation	-2830
▁godiša	-2831
▁society	-2832
▁appropriate	-2833
IP	-2834
gic	-2835
ilding	-2836
▁dihlo	-2837
▁ditok	-2838
▁opportunity	-2839
eto	-2840
▁head	-2841
▁hold	-2842
▁oketša	-2843
▁polokego	-2844
▁ete	-2845
▁dithuto	-2846
gongorego	-2847
▁requirements	-2848
▁sat	-2849
verty	-2850
▁proper	-2851
▁dinamelwa	-2852
▁establish	-2853
▁represent	-2854
Mo	-2855
kanya	-2856
▁mohlan	-2857
▁Programme	-2858
▁institutions	-2859
TION	-2860
▁seti	-2861
tasteri	-2862
▁receive	-2863
▁Tše	-2864
▁amanago	-2865
▁population	-2866
reign	-2867
▁poro	-2868
pat	-2869
▁econom	-2870
▁reason	-2871
▁relations	-2872
▁department	-2873
▁tšh	-2874
mented	-2875
▁hlabo	-2876
▁dipapadi	-2877
sel	-2878
▁produc	-2879
▁Plan	-2880
▁leaders	-2881
▁kudukudu	-2882
▁different	-2883
Ka	-2884
ator	-2885
▁cau	-2886
▁boima	-2887
▁taelo	-2888
▁dumela	-2889
specially	-2890
▁moš	-2891
▁dipalo	-2892
NC	-2893
iri	-2894
▁Co	-2895
coura	-2896
▁gran	-2897
▁nagana	-2898
▁tseleng	-2899
▁bopa	-2900
▁didn	-2901
▁high	-2902
▁agree	-2903
▁At	-2904
kets	-2905
▁mmo	-2906
▁concerned	-2907
▁mait	-2908
▁diteko	-2909
▁mohlankedi	-2910
cha	-2911
▁kon	-2912
kop	-2913
ware	-2914
▁star	-2915
▁stat	-2916
▁tsebišo	-2917
▁financial	-2918
▁maj	-2919
▁enga	-2920
▁tour	-2921
emogelo	-2922
▁request	-2923
▁lebanego	-2924
12	-2925
▁Asi	-2926
ife	-2927
yalo	-2928
latša	-2929
▁maina	-2930
▁issues	-2931
▁Reg	-2932
▁ser	-2933
atago	-2934
ulture	-2935
▁crime	-2936
▁Durban	-2937
▁sustaina	-2938
▁especially	-2939
▁Application	-2940
▁ko	-2941
watle	-2942
▁event	-2943
▁dingwa	-2944
▁nyakiš	-2945
operation	-2946
rela	-2947
fetša	-2948
lotlo	-2949
tšopele	-2950
▁lebelo	-2951
-0	-2952
ia	-2953
▁Are	-2954
▁Char	-2955
▁photo	-2956
▁suspects	-2957
▁šireletša	-2958
seka	-2959
▁tekate	-2960
▁Naa	-2961
▁par	-2962
▁cour	-2963
fatšwa	-2964
▁leano	-2965
▁maano	-2966
▁Molaodi	-2967
▁14	-2968
ahlo	-2969
ross	-2970
▁act	-2971
etšhe	-2972
▁ngwadi	-2973
▁diphošo	-2974
▁kwešiša	-2975
wii	-2976
▁Am	-2977
idered	-2978
▁great	-2979
▁registration	-2980
▁Merero	-2981
▁seemo	-2982
▁considered	-2983
▁down	-2984
▁current	-2985
▁batswadi	-2986
šego	-2987
▁lin	-2988
uteng	-2989
brella	-2990
▁Offic	-2991
▁abela	-2992
fication	-2993
▁Section	-2994
▁mabakeng	-2995
ione	-2996
▁fact	-2997
▁inde	-2998
▁kgethilwego	-2999
▁lok	-3000
▁fire	-3001
▁madi	-3002
▁power	-3003
▁šišin	-3004
▁industry	-3005
gest	-3006
▁mara	-3007
▁setla	-3008
▁small	-3009
▁Chairman	-3010
▁adop	-3011
▁farm	-3012
▁rula	-3013
▁šome	-3014
▁MogaLe	-3015
thi	-3016
▁kolo	-3017
▁pass	-3018
nolotši	-3019
▁learning	-3020
ince	-3021
anded	-3022
hlano	-3023
▁AIDS	-3024
▁bogo	-3025
▁Maemo	-3026
▁banna	-3027
▁peleng	-3028
▁expenses	-3029
▁Pha	-3030
▁bašom	-3031
▁kgopolo	-3032
▁Ne	-3033
view	-3034
proliferation	-3035
▁met	-3036
▁lehlako	-3037
▁natural	-3038
▁established	-3039
▁satis	-3040
▁setho	-3041
▁common	-3042
▁dikgwebo	-3043
ormwa	-3044
entity	-3045
▁khutšo	-3046
table	-3047
▁whether	-3048
▁projects	-3049
ithi	-3050
▁Dina	-3051
▁lehu	-3052
veloped	-3053
▁Deputy	-3054
▁motšhe	-3055
▁CB	-3056
▁toka	-3057
▁maite	-3058
getation	-3059
▁challen	-3060
▁statement	-3061
▁Kgorotsheko	-3062
▁sh	-3063
▁ext	-3064
▁get	-3065
▁dirile	-3066
▁tlhalošo	-3067
cated	-3068
lence	-3069
▁gr	-3070
▁sefe	-3071
▁neela	-3072
▁boletšwego	-3073
if	-3074
omm	-3075
power	-3076
▁filwe	-3077
▁include	-3078
▁mengwageng	-3079
ua	-3080
idi	-3081
tact	-3082
▁mes	-3083
▁vegetation	-3084
khe	-3085
▁18	-3086
▁tšo	-3087
▁agric	-3088
▁setšweletšwa	-3089
wers	-3090
▁ike	-3091
▁Bodi	-3092
ential	-3093
▁laolwa	-3094
▁maka	-3095
▁resol	-3096
▁content	-3097
▁encoura	-3098
▁Tho	-3099
▁2010	-3100
▁Quar	-3101
▁makala	-3102
▁tsebiša	-3103
▁Minerals	-3104
ster	-3105
▁now	-3106
▁sex	-3107
▁City	-3108
▁peoples	-3109
▁food	-3110
▁basis	-3111
▁delivery	-3112
rena	-3113
▁Wes	-3114
▁lic	-3115
eleng	-3116
tment	-3117
▁lena	-3118
atamente	-3119
hea	-3120
▁wife	-3121
ctives	-3122
▁tšatši	-3123
isations	-3124
▁kgatelelo	-3125
▁tlile	-3126
▁official	-3127
▁tokologo	-3128
▁prescribed	-3129
lege	-3130
rect	-3131
riend	-3132
▁diph	-3133
tained	-3134
▁mofsa	-3135
▁further	-3136
▁tiragatšo	-3137
▁Tshedimošo	-3138
ins	-3139
oms	-3140
loba	-3141
unya	-3142
▁romelwa	-3143
▁special	-3144
▁research	-3145
▁challenge	-3146
semb	-3147
▁fee	-3148
eneng	-3149
erale	-3150
▁effective	-3151
gni	-3152
gang	-3153
tere	-3154
▁aro	-3155
▁fut	-3156
▁accomp	-3157
▁manner	-3158
▁ditefelo	-3159
...	-3160
ots	-3161
reet	-3162
hensive	-3163
af	-3164
▁gabo	-3165
mohlala	-3166
pša	-3167
bour	-3168
cret	-3169
seter	-3170
▁ikge	-3171
▁rema	-3172
▁gir	-3173
▁bjala	-3174
▁condu	-3175
editšwego	-3176
mat	-3177
▁15	-3178
where	-3179
▁impa	-3180
▁list	-3181
ging	-3182
illed	-3183
▁Mela	-3184
bor	-3185
kišo	-3186
▁bjoo	-3187
▁find	-3188
▁media	-3189
▁modiro	-3190
antorong	-3191
▁maitshwaro	-3192
EC	-3193
ling	-3194
▁kic	-3195
▁rob	-3196
lling	-3197
alised	-3198
▁schools	-3199
▁continue	-3200
▁identity	-3201
AI	-3202
▁Dr	-3203
fane	-3204
▁age	-3205
kolong	-3206
prises	-3207
▁pheth	-3208
fety	-3209
▁big	-3210
▁mab	-3211
lana	-3212
▁Exp	-3213
▁SAPS	-3214
▁alle	-3215
sembly	-3216
▁lefela	-3217
▁lekana	-3218
▁months	-3219
▁municipal	-3220
md	-3221
▁approach	-3222
▁diphetho	-3223
▁Ko	-3224
ater	-3225
vernments	-3226
iwa	-3227
hole	-3228
▁dinako	-3229
▁Ditirelo	-3230
▁specific	-3231
prene	-3232
▁Leko	-3233
▁gola	-3234
▁mago	-3235
▁seabe	-3236
▁sware	-3237
▁lenane	-3238
▁control	-3239
▁matšatšing	-3240
uch	-3241
▁Komiti	-3242
kanyetšo	-3243
▁success	-3244
▁Ao	-3245
▁sy	-3246
išwe	-3247
llwane	-3248
▁Assembly	-3249
▁lefaseng	-3250
▁mahlo	-3251
▁School	-3252
▁occ	-3253
▁held	-3254
▁thwii	-3255
reprene	-3256
▁lekola	-3257
▁project	-3258
▁rarolla	-3259
▁started	-3260
▁Services	-3261
ac	-3262
ib	-3263
▁Sp	-3264
theid	-3265
▁rile	-3266
▁ngwageng	-3267
."	-3268
zo	-3269
gadi	-3270
▁mil	-3271
illion	-3272
▁ntlha	-3273
OO	-3274
cmd	-3275
▁On	-3276
▁ite	-3277
based	-3278
▁beng	-3279
▁cent	-3280
▁dintlo	-3281
▁telele	-3282
▁maintenance	-3283
▁Any	-3284
▁ela	-3285
dišana	-3286
tswadi	-3287
▁ditha	-3288
▁kgethe	-3289
▁dinageng	-3290
90	-3291
kele	-3292
khwa	-3293
▁etc	-3294
▁sen	-3295
▁point	-3296
▁treat	-3297
▁regula	-3298
▁Kgopelo	-3299
▁tlwaele	-3300
▁badiredi	-3301
▁Pre	-3302
▁1998	-3303
▁2009	-3304
▁empha	-3305
▁kgahl	-3306
mission	-3307
▁TE	-3308
fase	-3309
▁Mar	-3310
▁play	-3311
▁Comp	-3312
▁rest	-3313
hlongwa	-3314
▁approved	-3315
loša	-3316
▁Max	-3317
▁mmele	-3318
▁surve	-3319
▁today	-3320
▁product	-3321
▁Sehlopha	-3322
▁diphetogo	-3323
▁radi	-3324
▁bohla	-3325
▁explo	-3326
▁written	-3327
▁mangwalo	-3328
▁temokrasi	-3329
▁identified	-3330
iss	-3331
▁dib	-3332
▁mid	-3333
▁lets	-3334
uality	-3335
▁Polelo	-3336
▁Revenue	-3337
▁uku	-3338
ganetšo	-3339
▁poverty	-3340
ints	-3341
vision	-3342
▁fihlele	-3343
▁informed	-3344
RO	-3345
line	-3346
icles	-3347
ption	-3348
cement	-3349
▁young	-3350
▁comply	-3351
▁diffic	-3352
▁situation	-3353
▁(2)	-3354
▁bir	-3355
▁mohlo	-3356
▁fihlela	-3357
▁purpose	-3358
▁kgahlego	-3359
▁diphoofolo	-3360
til	-3361
gane	-3362
akany	-3363
▁nepo	-3364
entshe	-3365
iletšo	-3366
ribution	-3367
RM	-3368
▁Dik	-3369
▁wel	-3370
andela	-3371
▁kalafi	-3372
bilities	-3373
▁Western	-3374
▁benefic	-3375
▁atta	-3376
▁tiro	-3377
bli	-3378
▁rwa	-3379
ession	-3380
išinyo	-3381
▁amago	-3382
▁sehla	-3383
▁beakanya	-3384
▁tre	-3385
rates	-3386
▁optim	-3387
▁action	-3388
▁gole	-3389
umente	-3390
▁swarwa	-3391
▁monitor	-3392
gs	-3393
▁Repa	-3394
▁nature	-3395
▁problem	-3396
ril	-3397
lisi	-3398
▁old	-3399
▁hlom	-3400
players	-3401
▁levels	-3402
▁ditaelo	-3403
zz	-3404
irm	-3405
sca	-3406
thu	-3407
▁wan	-3408
▁nomoro	-3409
▁tefelo	-3410
uman	-3411
▁post	-3412
▁ngaka	-3413
▁Maphodisa	-3414
▁technolog	-3415
▁28	-3416
▁Lo	-3417
cience	-3418
versity	-3419
▁Bolaodi	-3420
▁Information	-3421
ap	-3422
▁peace	-3423
▁table	-3424
IS	-3425
ngth	-3426
šole	-3427
▁kok	-3428
▁Part	-3429
▁city	-3430
▁turn	-3431
▁could	-3432
▁poelo	-3433
▁United	-3434
▁discus	-3435
▁prospe	-3436
claration	-3437
LO	-3438
rata	-3439
komedi	-3440
▁Recon	-3441
▁based	-3442
▁framework	-3443
LA	-3444
ose	-3445
vis	-3446
hate	-3447
▁Dite	-3448
▁Kgobo	-3449
▁Organ	-3450
▁behalf	-3451
▁tsenele	-3452
▁responsi	-3453
▁completed	-3454
4.	-3455
cies	-3456
cmdE	-3457
hief	-3458
para	-3459
▁ens	-3460
tšeng	-3461
▁ditse	-3462
patšo	-3463
▁Bjalo	-3464
▁lefsa	-3465
▁level	-3466
▁Strate	-3467
hab	-3468
▁inst	-3469
▁paid	-3470
▁never	-3471
▁kgonago	-3472
oropokgolo	-3473
DC	-3474
bsite	-3475
▁mogo	-3476
▁exper	-3477
▁known	-3478
▁thomile	-3479
powerment	-3480
▁Moithuti	-3481
chedu	-3482
kgabo	-3483
▁cust	-3484
▁allow	-3485
▁gener	-3486
▁promot	-3487
▁tshepe	-3488
▁ikonomi	-3489
▁karolong	-3490
▁administration	-3491
ex	-3492
weu	-3493
▁Fo	-3494
gauta	-3495
▁hlama	-3496
▁lekanego	-3497
▁tekatekano	-3498
nyo	-3499
ject	-3500
ouse	-3501
utes	-3502
▁Seo	-3503
▁phu	-3504
aries	-3505
▁base	-3506
▁bohle	-3507
▁ditlho	-3508
▁Quality	-3509
▁Mmagauta	-3510
▁implemented	-3511
▁0	-3512
▁Ye	-3513
▁rate	-3514
▁conte	-3515
▁tloge	-3516
▁tloša	-3517
▁products	-3518
▁Declaration	-3519
▁setifikeiti	-3520
7.	-3521
PA	-3522
reedom	-3523
▁Gauteng	-3524
▁baemedi	-3525
wele	-3526
▁ann	-3527
▁pra	-3528
kgwedi	-3529
▁thoko	-3530
ditions	-3531
▁bitšwa	-3532
▁dithek	-3533
▁molaong	-3534
folo	-3535
ines	-3536
iting	-3537
▁meba	-3538
cation	-3539
▁kwano	-3540
▁fediša	-3541
▁function	-3542
▁purposes	-3543
▁dim	-3544
▁ste	-3545
wanedi	-3546
▁Management	-3547
eral	-3548
▁oketše	-3549
▁stadium	-3550
▁benefits	-3551
pper	-3552
▁Bon	-3553
pheng	-3554
▁hlao	-3555
▁pelo	-3556
▁read	-3557
▁Nation	-3558
▁consum	-3559
▁gender	-3560
sen	-3561
▁Zim	-3562
tšago	-3563
▁still	-3564
▁Kopano	-3565
▁Setlamo	-3566
▁tlwaelo	-3567
▁vehicle	-3568
▁communic	-3569
hli	-3570
babwe	-3571
šetšo	-3572
▁mono	-3573
lwaedi	-3574
▁Setšo	-3575
▁found	-3576
▁future	-3577
▁Bokgoni	-3578
mere	-3579
▁Mor	-3580
▁2000	-3581
▁swer	-3582
▁ukan	-3583
▁recon	-3584
▁subite	-3585
▁ditekolo	-3586
▁tlhokego	-3587
▁theilwego	-3588
hat	-3589
▁16	-3590
cond	-3591
melo	-3592
▁Aowa	-3593
▁lentšu	-3594
iki	-3595
ogo	-3596
▁ot	-3597
▁sc	-3598
▁196	-3599
▁morwa	-3600
▁gobane	-3601
▁tšohle	-3602
icro	-3603
ences	-3604
sehla	-3605
▁asso	-3606
▁babedi	-3607
▁foreign	-3608
▁swanelwa	-3609
▁tiragalo	-3610
▁household	-3611
▁Molekgotla	-3612
do	-3613
mphe	-3614
▁cir	-3615
▁mona	-3616
▁fetiš	-3617
▁ngwalwa	-3618
pile	-3619
hleng	-3620
other	-3621
▁soon	-3622
▁short	-3623
▁employees	-3624
▁maswanedi	-3625
▁profession	-3626
išan	-3627
weni	-3628
anent	-3629
vement	-3630
▁photograph	-3631
▁Modulasetulo	-3632
▁dike	-3633
▁full	-3634
hatema	-3635
▁since	-3636
gations	-3637
▁friend	-3638
▁hlokago	-3639
▁swanago	-3640
mar	-3641
▁IK	-3642
▁Inves	-3643
▁prepa	-3644
▁Zimbabwe	-3645
▁ensuring	-3646
▁cap	-3647
ource	-3648
▁gana	-3649
▁field	-3650
▁mother	-3651
▁Tlhabollo	-3652
sho	-3653
▁Bi	-3654
road	-3655
▁afe	-3656
sting	-3657
wever	-3658
spital	-3659
▁among	-3660
▁dikha	-3661
▁bohloko	-3662
▁website	-3663
▁provisions	-3664
▁municipality	-3665
▁20	-3666
reen	-3667
▁boa	-3668
nergy	-3669
Afrika	-3670
▁Intern	-3671
▁boloka	-3672
▁hlahlo	-3673
▁karabo	-3674
▁lekala	-3675
▁mabedi	-3676
▁dumelelwa	-3677
lack	-3678
▁tsh	-3679
▁vio	-3680
▁hlam	-3681
▁dirwago	-3682
▁systems	-3683
▁citizens	-3684
▁kgonthiša	-3685
▁dele	-3686
▁prog	-3687
▁tate	-3688
itation	-3689
herišano	-3690
▁lenyalo	-3691
▁officer	-3692
gin	-3693
▁Ee	-3694
▁LeSo	-3695
▁State	-3696
▁course	-3697
▁metšhe	-3698
▁Repabli	-3699
▁Tonakgolo	-3700
▁dipalopalo	-3701
▁SE	-3702
Thek	-3703
miti	-3704
▁Kwa	-3705
▁inj	-3706
▁kgao	-3707
ricity	-3708
▁theko	-3709
▁Energy	-3710
▁become	-3711
▁sustainable	-3712
▁35	-3713
vious	-3714
▁tran	-3715
▁Child	-3716
▁tshwa	-3717
▁tlogela	-3718
▁participation	-3719
lent	-3720
▁tao	-3721
▁potšišo	-3722
ciliation	-3723
pen	-3724
cent	-3725
rimin	-3726
▁stand	-3727
▁kamano	-3728
antšwego	-3729
▁underta	-3730
▁motšhelo	-3731
gen	-3732
une	-3733
▁pi	-3734
uthe	-3735
▁Bas	-3736
▁reng	-3737
▁ruta	-3738
nonelwa	-3739
Thekwini	-3740
▁economy	-3741
▁measure	-3742
▁bahlankedi	-3743
▁x	-3744
ribu	-3745
▁oba	-3746
batši	-3747
▁away	-3748
▁eval	-3749
▁live	-3750
kagano	-3751
▁developed	-3752
▁kgonagalo	-3753
▁Mas	-3754
▁mošomi	-3755
▁correct	-3756
▁hwetšwa	-3757
ug	-3758
rict	-3759
elano	-3760
▁much	-3761
▁Chief	-3762
▁araba	-3763
▁Mohlala	-3764
▁building	-3765
▁Community	-3766
▁akaretšago	-3767
dia	-3768
iles	-3769
anies	-3770
bakeng	-3771
▁intro	-3772
▁dikholego	-3773
▁permanent	-3774
telo	-3775
▁mer	-3776
▁ikgo	-3777
▁mare	-3778
▁mose	-3779
▁better	-3780
▁dulago	-3781
▁length	-3782
▁tlaleletšo	-3783
epo	-3784
ton	-3785
moka	-3786
tive	-3787
mbers	-3788
▁Tume	-3789
▁Fe	-3790
▁large	-3791
▁dirilwe	-3792
▁clear	-3793
▁attend	-3794
▁conflic	-3795
▁legislature	-3796
abi	-3797
ards	-3798
etse	-3799
▁Dis	-3800
traka	-3801
▁nale	-3802
▁rekiša	-3803
▁Mandela	-3804
▁tar	-3805
▁indi	-3806
▁banks	-3807
▁boloke	-3808
▁consider	-3809
▁hlabolla	-3810
kno	-3811
vel	-3812
belwa	-3813
olotši	-3814
▁mašeleng	-3815
▁dingwalwa	-3816
▁five	-3817
legago	-3818
▁arran	-3819
▁sehlo	-3820
▁je	-3821
duction	-3822
▁reques	-3823
▁streng	-3824
▁bolaodi	-3825
▁amogelwa	-3826
▁motšweletši	-3827
imed	-3828
▁Dika	-3829
otledi	-3830
▁lehea	-3831
▁šomišwago	-3832
▁naa	-3833
duced	-3834
▁moso	-3835
khwama	-3836
▁Union	-3837
▁posses	-3838
▁dumeletšwego	-3839
dle	-3840
pes	-3841
chan	-3842
goba	-3843
▁cal	-3844
▁ear	-3845
khale	-3846
pping	-3847
▁Fund	-3848
▁free	-3849
išwago	-3850
▁Dinya	-3851
▁ngwadiši	-3852
▁conditions	-3853
rid	-3854
▁UN	-3855
▁nea	-3856
posed	-3857
▁sere	-3858
▁focus	-3859
▁rural	-3860
intment	-3861
▁Health	-3862
▁phethagatšo	-3863
imi	-3864
wards	-3865
▁dibe	-3866
▁micro	-3867
▁prepar	-3868
▁matters	-3869
▁partners	-3870
▁tirišano	-3871
▁boitsebišo	-3872
3)	-3873
▁fully	-3874
▁legal	-3875
▁Ngwala	-3876
▁beakany	-3877
▁sectors	-3878
▁Ministry	-3879
▁bolelwago	-3880
rt	-3881
omet	-3882
▁pat	-3883
ketša	-3884
▁spee	-3885
▁senya	-3886
▁lewatle	-3887
▁recogni	-3888
▁dikgwedi	-3889
▁Kha	-3890
▁peu	-3891
▁ses	-3892
ident	-3893
▁bega	-3894
▁body	-3895
cmdEng	-3896
šitšwego	-3897
ffor	-3898
▁Sum	-3899
▁van	-3900
▁lete	-3901
▁mean	-3902
▁gopola	-3903
▁dirilego	-3904
racy	-3905
raka	-3906
seno	-3907
▁emer	-3908
▁asses	-3909
▁forms	-3910
▁seripa	-3911
▁company	-3912
▁reasons	-3913
▁moithuti	-3914
▁kgonegago	-3915
inet	-3916
▁Hlogo	-3917
▁lahle	-3918
▁dipego	-3919
▁komiti	-3920
▁sekolong	-3921
▁kgethollo	-3922
▁departments	-3923
▁few	-3924
leswa	-3925
▁gopo	-3926
▁then	-3927
lelago	-3928
▁Speak	-3929
▁death	-3930
▁dutše	-3931
▁beilwe	-3932
▁Members	-3933
▁kwešišo	-3934
▁persons	-3935
šong	-3936
▁mohu	-3937
▁ditšh	-3938
▁kanye	-3939
▁bošego	-3940
▁katolo	-3941
ordinated	-3942
▁principles	-3943
ille	-3944
▁dut	-3945
▁focu	-3946
▁Mošomo	-3947
▁obtain	-3948
▁details	-3949
▁khamphani	-3950
RS	-3951
av	-3952
mic	-3953
▁rer	-3954
▁kgopelwa	-3955
▁ngwadišo	-3956
kgathatema	-3957
▁kgotsofatša	-3958
cer	-3959
▁eli	-3960
lines	-3961
▁face	-3962
fforts	-3963
▁Ngaka	-3964
▁birth	-3965
▁letla	-3966
▁start	-3967
▁certain	-3968
▁continent	-3969
▁Ses	-3970
▁har	-3971
wetši	-3972
▁dino	-3973
▁youth	-3974
▁subitem	-3975
▁Khu	-3976
▁acid	-3977
▁tlatša	-3978
paro	-3979
rial	-3980
▁tic	-3981
ately	-3982
▁back	-3983
▁Dipro	-3984
▁Prote	-3985
▁LeSoSo	-3986
▁granted	-3987
▁hlagiša	-3988
ws	-3989
▁abo	-3990
▁ris	-3991
▁wal	-3992
fence	-3993
▁Human	-3994
▁clean	-3995
▁kgato	-3996
▁leswa	-3997
▁general	-3998
▁ce	-3999
wedi	-4000
▁ago	-4001
atego	-4002
▁dine	-4003
▁hlatse	-4004
▁melato	-4005
economic	-4006
▁hlongwa	-4007
▁im	-4008
pong	-4009
▁mis	-4010
▁win	-4011
▁Tlho	-4012
esense	-4013
odikga	-4014
▁trade	-4015
▁season	-4016
▁Maphelo	-4017
▁Expanded	-4018
▁kgokagano	-4019
▁diprofense	-4020
atal	-4021
▁Nomoro	-4022
▁efforts	-4023
▁satisfied	-4024
▁treatment	-4025
▁maswaodikga	-4026
▁tšwetšopele	-4027
Ta	-4028
yc	-4029
▁NE	-4030
▁boo	-4031
ering	-4032
▁Bill	-4033
▁Educ	-4034
▁Park	-4035
▁pula	-4036
▁grant	-4037
kobatši	-4038
minerale	-4039
▁Chairperson	-4040
▁er	-4041
▁198	-4042
▁six	-4043
.2010	-4044
vered	-4045
pediša	-4046
▁Works	-4047
▁swere	-4048
▁diteng	-4049
▁hlatlo	-4050
▁dikgoba	-4051
▁talking	-4052
▁bitšwago	-4053
▁previous	-4054
▁tikologong	-4055
▁tpa	-4056
▁beke	-4057
▁guar	-4058
▁week	-4059
išetšo	-4060
legilego	-4061
▁tsenywa	-4062
▁Ditokelo	-4063
ones	-4064
omela	-4065
▁What	-4066
▁Summit	-4067
▁selete	-4068
▁himself	-4069
▁Phethiši	-4070
▁prospecting	-4071
▁Molaokakanywa	-4072
iled	-4073
▁gaM	-4074
kgowa	-4075
tšene	-4076
▁Just	-4077
▁lwan	-4078
▁April	-4079
▁Premi	-4080
hemical	-4081
loganyo	-4082
▁compos	-4083
▁ratago	-4084
sehlabelo	-4085
▁provides	-4086
da	-4087
▁60	-4088
berg	-4089
▁Nor	-4090
▁fra	-4091
▁boip	-4092
homong	-4093
▁progress	-4094
▁Administration	-4095
hlaa	-4096
vere	-4097
▁Bus	-4098
▁Eng	-4099
pheko	-4100
▁bape	-4101
▁bafsa	-4102
▁Selegae	-4103
RC	-4104
iv	-4105
ste	-4106
yana	-4107
cific	-4108
ently	-4109
▁palelwa	-4110
▁welcome	-4111
▁nyakišiša	-4112
5,	-4113
nya	-4114
pwe	-4115
dutha	-4116
▁affe	-4117
▁botho	-4118
▁strong	-4119
▁tshela	-4120
▁Tlhahlo	-4121
▁nearest	-4122
▁Botelele	-4123
faditšwego	-4124
▁facilities	-4125
▁ditshepedišo	-4126
tlon	-4127
▁dru	-4128
▁sing	-4129
▁fetša	-4130
▁dibaka	-4131
▁reduce	-4132
letšwego	-4133
▁ditherišano	-4134
tšwasehlabelo	-4135
rob	-4136
tin	-4137
▁council	-4138
▁eThekwini	-4139
▁teb	-4140
▁moth	-4141
▁sebo	-4142
▁word	-4143
enyane	-4144
▁letso	-4145
▁tsene	-4146
mikhale	-4147
▁contra	-4148
▁Charter	-4149
▁challeng	-4150
▁nyakišišo	-4151
▁Des	-4152
phare	-4153
using	-4154
▁Board	-4155
▁šetšego	-4156
▁hweditše	-4157
▁Education	-4158
enda	-4159
▁197	-4160
▁Non	-4161
▁gate	-4162
▁pušo	-4163
etrole	-4164
lished	-4165
▁tlhom	-4166
▁visit	-4167
▁safety	-4168
▁transa	-4169
▁suspect	-4170
tshepetšo	-4171
▁Bodikela	-4172
▁payments	-4173
▁Kga	-4174
anied	-4175
gency	-4176
▁Audi	-4177
cesses	-4178
▁recomm	-4179
iding	-4180
▁mone	-4181
▁seke	-4182
▁Eupša	-4183
▁study	-4184
▁thoto	-4185
tlontšu	-4186
▁choose	-4187
▁addition	-4188
▁ditlabelo	-4189
▁strengthe	-4190
▁diswantšho	-4191
▁tšwelelago	-4192
▁Municipality	-4193
DP	-4194
ema	-4195
rea	-4196
▁arri	-4197
▁mera	-4198
▁phepo	-4199
▁refle	-4200
▁inform	-4201
▁hlokome	-4202
duthamaga	-4203
▁accompanied	-4204
▁z	-4205
▁Si	-4206
▁Gom	-4207
▁art	-4208
▁err	-4209
ciary	-4210
letšwe	-4211
▁valid	-4212
▁tekolo	-4213
▁wouldn	-4214
▁dikamano	-4215
▁tiišetša	-4216
▁Maikemišetšo	-4217
▁dipoledišano	-4218
cks	-4219
▁Su	-4220
poro	-4221
▁ant	-4222
▁eas	-4223
▁son	-4224
▁pric	-4225
▁emela	-4226
▁letter	-4227
▁mebedi	-4228
▁mehola	-4229
▁mentši	-4230
▁propos	-4231
▁operations	-4232
▁constitution	-4233
▁due	-4234
▁try	-4235
išiša	-4236
▁tshw	-4237
eletši	-4238
▁coast	-4239
▁presence	-4240
▁diragatša	-4241
ea	-4242
riage	-4243
▁Temo	-4244
▁ntwa	-4245
▁bonwa	-4246
▁hlaka	-4247
▁KA	-4248
baso	-4249
▁ena	-4250
▁difo	-4251
▁reli	-4252
▁expla	-4253
▁kwala	-4254
▁thank	-4255
endment	-4256
▁forward	-4257
▁anything	-4258
▁Provinces	-4259
▁submission	-4260
3.	-4261
mor	-4262
uba	-4263
▁Pho	-4264
▁deb	-4265
kwane	-4266
vation	-4267
▁bitša	-4268
cretary	-4269
▁Agency	-4270
▁objectives	-4271
tom	-4272
▁ši	-4273
swalo	-4274
▁Asian	-4275
▁laela	-4276
▁meago	-4277
▁magolo	-4278
▁kotsing	-4279
▁direkoto	-4280
▁tšwelago	-4281
▁Directorate	-4282
GA	-4283
▁17	-4284
mate	-4285
tlele	-4286
▁best	-4287
mogelo	-4288
▁award	-4289
ditšego	-4290
▁agreement	-4291
▁intasteri	-4292
šu	-4293
ria	-4294
▁May	-4295
▁ape	-4296
▁lit	-4297
gilwe	-4298
▁once	-4299
▁sena	-4300
▁Facil	-4301
▁Gomme	-4302
▁maswi	-4303
hupetšo	-4304
▁mogala	-4305
▁professional	-4306
Se	-4307
onte	-4308
▁Che	-4309
enywa	-4310
omane	-4311
ramelao	-4312
▁example	-4313
▁kantorong	-4314
▁swanetšwe	-4315
▁ngwadilwego	-4316
IF	-4317
mun	-4318
etla	-4319
▁spo	-4320
ights	-4321
▁broad	-4322
▁enable	-4323
▁lefapha	-4324
▁strategy	-4325
chn	-4326
ici	-4327
mola	-4328
šetša	-4329
▁bare	-4330
▁deploy	-4331
▁lesolo	-4332
▁lesome	-4333
▁tšhila	-4334
▁Justice	-4335
▁designed	-4336
▁tšwelopele	-4337
aba	-4338
lli	-4339
▁ala	-4340
▁pun	-4341
gelwa	-4342
išani	-4343
▁Lear	-4344
▁util	-4345
▁using	-4346
▁holder	-4347
▁Dikgoro	-4348
▁letseno	-4349
gistrates	-4350
▁sepediša	-4351
▁mehutahuta	-4352
ffs	-4353
▁II	-4354
▁Met	-4355
mošomo	-4356
▁Water	-4357
▁force	-4358
▁multi	-4359
▁boraro	-4360
▁mechan	-4361
▁challenges	-4362
▁:	-4363
ceed	-4364
sign	-4365
▁tlh	-4366
▁anim	-4367
▁dibo	-4368
ercial	-4369
▁above	-4370
▁dikaro	-4371
▁impact	-4372
▁market	-4373
▁hwetšagala	-4374
'.	-4375
ify	-4376
bona	-4377
▁Polo	-4378
▁apar	-4379
▁goods	-4380
▁fetiša	-4381
▁unless	-4382
▁dihlare	-4383
▁violence	-4384
▁kgethegilego	-4385
▁Cab	-4386
▁bud	-4387
▁mpe	-4388
▁ener	-4389
phethe	-4390
▁exist	-4391
▁Mogale	-4392
▁histor	-4393
▁kgethwa	-4394
▁transfer	-4395
▁baetapele	-4396
▁molaotheo	-4397
▁assistance	-4398
▁Tha	-4399
saete	-4400
▁groups	-4401
▁notice	-4402
▁received	-4403
▁lebeletše	-4404
▁authorities	-4405
▁International	-4406
▁Bar	-4407
▁dem	-4408
▁uni	-4409
ingwa	-4410
inted	-4411
kelong	-4412
▁boela	-4413
gononelwa	-4414
▁chemical	-4415
▁planning	-4416
▁Tšhireletšo	-4417
bong	-4418
▁100	-4419
scale	-4420
šwago	-4421
▁thekišo	-4422
▁Repabliki	-4423
ito	-4424
dies	-4425
▁ine	-4426
itive	-4427
▁money	-4428
▁needs	-4429
▁plans	-4430
▁mabele	-4431
▁segalo	-4432
▁sexual	-4433
▁biggest	-4434
▁meputso	-4435
▁resulted	-4436
▁reference	-4437
▁Commissioner	-4438
AC	-4439
fu	-4440
ade	-4441
eleb	-4442
lala	-4443
pace	-4444
▁Fin	-4445
▁Lab	-4446
ratic	-4447
▁Dece	-4448
▁crit	-4449
▁nama	-4450
▁tell	-4451
▁accep	-4452
▁badir	-4453
▁errors	-4454
▁dihlapi	-4455
▁protšeke	-4456
▁Tšweletšo	-4457
▁Mu	-4458
bine	-4459
vula	-4460
selves	-4461
▁Crime	-4462
▁white	-4463
chedule	-4464
▁kabelo	-4465
▁otlela	-4466
▁rekoto	-4467
▁lekgotla	-4468
▁theknolotši	-4469
▁agricultural	-4470
psh	-4471
giša	-4472
▁Pele	-4473
dišiša	-4474
.2010-0	-4475
▁Rights	-4476
▁experts	-4477
▁khuetšo	-4478
▁commission	-4479
▁Ele	-4480
▁Bana	-4481
idents	-4482
maneng	-4483
▁fight	-4484
▁ingwa	-4485
▁Mešomo	-4486
▁bolaya	-4487
▁malapa	-4488
▁hlokega	-4489
▁Profense	-4490
▁laeditšwego	-4491
men	-4492
aste	-4493
orop	-4494
▁East	-4495
▁remo	-4496
kilego	-4497
▁Cabinet	-4498
NRM	-4499
▁11	-4500
jeke	-4501
mora	-4502
▁Yes	-4503
▁tea	-4504
▁Home	-4505
▁maša	-4506
▁sure	-4507
foromo	-4508
istics	-4509
▁mahla	-4510
▁party	-4511
▁phošo	-4512
▁energy	-4513
▁botšiša	-4514
▁brother	-4515
▁Children	-4516
▁mellwane	-4517
▁boikarabelo	-4518
▁organisation	-4519
",	-4520
▁New	-4521
▁job	-4522
▁circ	-4523
▁says	-4524
▁sete	-4525
▁final	-4526
▁maoto	-4527
▁Lekope	-4528
▁barutiši	-4529
▁maintain	-4530
▁marriage	-4531
▁municipalities	-4532
gego	-4533
fatši	-4534
▁prose	-4535
▁having	-4536
chnology	-4537
▁histori	-4538
▁dikopano	-4539
ota	-4540
▁Ent	-4541
▁lea	-4542
Afric	-4543
phiri	-4544
nected	-4545
▁bahlo	-4546
▁etela	-4547
▁accord	-4548
▁ntšhwa	-4549
▁proced	-4550
▁contact	-4551
▁dikotsi	-4552
▁phapano	-4553
▁hlabollo	-4554
▁Secretary	-4555
▁therefore	-4556
ET	-4557
pend	-4558
▁Tse	-4559
▁sun	-4560
ature	-4561
▁conv	-4562
▁dest	-4563
▁dikh	-4564
▁After	-4565
▁dintši	-4566
▁freedom	-4567
▁organisations	-4568
ino	-4569
ley	-4570
▁Nt	-4571
▁aff	-4572
▁web	-4573
ketšo	-4574
▁fihl	-4575
▁celeb	-4576
▁feela	-4577
▁creation	-4578
bušo	-4579
gareng	-4580
▁phapo	-4581
▁However	-4582
▁Speaker	-4583
▁dikgato	-4584
▁involved	-4585
▁submitted	-4586
200	-4587
uro	-4588
opho	-4589
▁vic	-4590
utions	-4591
▁Tsela	-4592
▁story	-4593
▁abelana	-4594
▁lwantšha	-4595
▁tšweletše	-4596
feren	-4597
thern	-4598
▁CBNRM	-4599
▁World	-4600
riminal	-4601
▁custom	-4602
▁direga	-4603
▁respond	-4604
▁Mokgatlo	-4605
ery	-4606
sha	-4607
way	-4608
šitše	-4609
▁Dint	-4610
▁targe	-4611
▁bonala	-4612
▁street	-4613
▁continu	-4614
▁towards	-4615
▁experience	-4616
▁possession	-4617
▁Registration	-4618
OP	-4619
▁CON	-4620
hlolo	-4621
kišwa	-4622
uniti	-4623
▁Naga	-4624
▁mere	-4625
bišano	-4626
oropong	-4627
▁Morago	-4628
▁modiredi	-4629
3,	-4630
MO	-4631
▁sw	-4632
šetši	-4633
▁fund	-4634
▁rwala	-4635
▁Bašomi	-4636
▁direct	-4637
▁lokiša	-4638
▁allowed	-4639
▁kantoro	-4640
▁establishment	-4641
9.	-4642
IA	-4643
aged	-4644
eria	-4645
omin	-4646
▁Our	-4647
▁fago	-4648
▁nolo	-4649
▁theo	-4650
kgetho	-4651
▁botša	-4652
▁claim	-4653
▁globa	-4654
▁major	-4655
▁Mining	-4656
▁bottom	-4657
fficient	-4658
▁focused	-4659
▁thibelo	-4660
▁matlakala	-4661
▁Tshepedišo	-4662
▁tšhomišano	-4663
▁tseneletšego	-4664
LS	-4665
mane	-4666
omelo	-4667
▁Ditš	-4668
▁lema	-4669
▁Johan	-4670
▁ahlaa	-4671
▁fiwago	-4672
specific	-4673
▁balaodi	-4674
▁letelele	-4675
▁reported	-4676
▁performance	-4677
▁kgethologanyo	-4678
▁MO	-4679
dian	-4680
lance	-4681
▁idea	-4682
▁equip	-4683
gements	-4684
▁Godimo	-4685
▁amount	-4686
▁diaparo	-4687
▁employers	-4688
6,	-4689
band	-4690
illi	-4691
▁Ikan	-4692
▁view	-4693
dišong	-4694
enseng	-4695
peleto	-4696
▁Joint	-4697
▁bahla	-4698
▁hlago	-4699
▁apartheid	-4700
tes	-4701
goti	-4702
▁pas	-4703
gwego	-4704
▁Dipo	-4705
▁Moka	-4706
▁stop	-4707
▁wish	-4708
▁appre	-4709
▁guide	-4710
▁prece	-4711
taseter	-4712
▁workers	-4713
▁Schedule	-4714
ag	-4715
uthu	-4716
▁key	-4717
kuthi	-4718
▁Gore	-4719
▁Many	-4720
lelong	-4721
▁Mohla	-4722
▁night	-4723
▁phathi	-4724
lamorago	-4725
▁letsogo	-4726
akanyetšo	-4727
▁problems	-4728
▁temaneng	-4729
▁dirišwago	-4730
▁mmasepala	-4731
▁difatanaga	-4732
hib	-4733
oria	-4734
side	-4735
▁pub	-4736
ronic	-4737
▁fish	-4738
▁believe	-4739
▁bodiidi	-4740
▁kgatišo	-4741
▁gatelela	-4742
gatelopele	-4743
▁Mmasepala	-4744
▁maitekelo	-4745
▁households	-4746
▁technology	-4747
▁ikemišeditše	-4748
swi	-4749
ladi	-4750
▁(3)	-4751
▁Pego	-4752
▁real	-4753
▁enfor	-4754
▁second	-4755
▁bonnete	-4756
▁kgorong	-4757
▁moemedi	-4758
▁Baithuti	-4759
▁accordance	-4760
▁sefatanaga	-4761
▁supporting	-4762
▁phatlalatša	-4763
lio	-4764
off	-4765
▁hon	-4766
nyana	-4767
▁Bank	-4768
▁tefo	-4769
▁aimed	-4770
anegelo	-4771
▁Kgwebo	-4772
▁Mokgwa	-4773
▁mafolo	-4774
▁herself	-4775
▁conflict	-4776
▁Kgobokano	-4777
▁Magistrates	-4778
▁maitemogelo	-4779
▁partnership	-4780
dri	-4781
gle	-4782
ulum	-4783
uses	-4784
▁But	-4785
phone	-4786
uages	-4787
▁Dira	-4788
▁sega	-4789
▁least	-4790
▁quali	-4791
etšwago	-4792
▁justice	-4793
▁mineral	-4794
▁Sekhwama	-4795
▁consumer	-4796
operatives	-4797
▁according	-4798
▁structure	-4799
▁mafolofolo	-4800
▁empowerment	-4801
MIP	-4802
▁hi	-4803
dile	-4804
rich	-4805
▁Imp	-4806
isted	-4807
▁ntlo	-4808
morafe	-4809
▁envis	-4810
▁madulo	-4811
▁hlabolo	-4812
▁sekaseka	-4813
▁democracy	-4814
bia	-4815
▁ur	-4816
▁hand	-4817
▁item	-4818
▁metha	-4819
akarolo	-4820
casting	-4821
▁caused	-4822
▁chosen	-4823
▁According	-4824
▁currently	-4825
▁difficult	-4826
▁envisaged	-4827
Ba	-4828
arm	-4829
dis	-4830
neng	-4831
▁Modi	-4832
▁news	-4833
▁pora	-4834
ribute	-4835
stances	-4836
▁Submit	-4837
▁hlahla	-4838
▁lebane	-4839
▁ntlong	-4840
▁reports	-4841
▁leadership	-4842
50	-4843
kt	-4844
▁el	-4845
tare	-4846
aneng	-4847
enale	-4848
▁fail	-4849
▁holo	-4850
▁ipsh	-4851
▁ntše	-4852
▁lekan	-4853
▁prior	-4854
▁bontšhi	-4855
▁employee	-4856
▁facilitate	-4857
▁Reconciliation	-4858
load	-4859
▁dee	-4860
gwago	-4861
iring	-4862
▁High	-4863
▁Lefelo	-4864
▁change	-4865
▁hwetše	-4866
ffective	-4867
taseteri	-4868
▁kwešiše	-4869
▁determine	-4870
▁lenaneong	-4871
▁fihleletše	-4872
▁particularly	-4873
▁Nya	-4874
▁bapa	-4875
▁ikop	-4876
▁tšee	-4877
binete	-4878
katshe	-4879
▁dipolo	-4880
▁fetoga	-4881
▁independ	-4882
▁matswalo	-4883
▁tletšego	-4884
tšeakarolo	-4885
6.	-4886
pu	-4887
bala	-4888
▁wee	-4889
kwago	-4890
▁bohwa	-4891
▁decla	-4892
▁tsošo	-4893
▁Dinaga	-4894
▁diraga	-4895
▁alleged	-4896
▁emphasi	-4897
▁traffic	-4898
repreneurs	-4899
nel	-4900
sea	-4901
kiši	-4902
▁kom	-4903
arian	-4904
orpor	-4905
▁Cons	-4906
ahlodi	-4907
▁recei	-4908
phethiši	-4909
▁phemiti	-4910
▁metšhene	-4911
▁investigat	-4912
▁Partnership	-4913
eeee	-4914
jana	-4915
selo	-4916
▁acqu	-4917
▁moswa	-4918
▁motor	-4919
▁until	-4920
▁mahlako	-4921
ormwatern	-4922
▁Tikologo	-4923
Act	-4924
▁Bub	-4925
emane	-4926
tures	-4927
ystem	-4928
▁Isra	-4929
▁alwa	-4930
dumedi	-4931
▁adver	-4932
▁assess	-4933
▁lapeng	-4934
▁tlhamo	-4935
▁Quarant	-4936
▁married	-4937
▁tickets	-4938
▁gannyane	-4939
▁bakgathatema	-4940
10	-4941
ED	-4942
Te	-4943
▁Lu	-4944
date	-4945
▁Pla	-4946
▁aim	-4947
▁ter	-4948
▁rego	-4949
▁staff	-4950
▁region	-4951
▁Premier	-4952
▁bokaone	-4953
▁lefelwa	-4954
▁molawana	-4955
▁boledišana	-4956
▁dikgahlego	-4957
▁diokobatši	-4958
▁OF	-4959
thek	-4960
▁gru	-4961
khulu	-4962
▁came	-4963
afrika	-4964
▁speak	-4965
▁negoti	-4966
▁preceding	-4967
▁employment	-4968
oman	-4969
itche	-4970
vided	-4971
▁Bala	-4972
▁mollo	-4973
▁bagolo	-4974
▁compre	-4975
▁powers	-4976
▁tshenyo	-4977
▁ditšhila	-4978
▁relating	-4979
▁tharollo	-4980
▁comprehensive	-4981
hlobi	-4982
išena	-4983
▁bele	-4984
amabolo	-4985
▁labour	-4986
▁diphedi	-4987
▁mafapha	-4988
hemikhale	-4989
▁kgotsofa	-4990
3-25	-4991
▁Tit	-4992
▁SARS	-4993
bonolo	-4994
itable	-4995
▁messa	-4996
▁value	-4997
▁bilego	-4998
▁ditume	-4999
▁income	-5000
▁praebete	-5001
▁companies	-5002
2.	-5003
yer	-5004
hodu	-5005
▁add	-5006
▁hol	-5007
lwane	-5008
▁elwa	-5009
fetšego	-5010
▁Letona	-5011
▁ground	-5012
▁single	-5013
kakaretšo	-5014
▁tirišong	-5015
▁boetapele	-5016
▁monitoring	-5017
rop	-5018
atha	-5019
kago	-5020
▁cli	-5021
▁eya	-5022
ility	-5023
reiti	-5024
estion	-5025
▁catego	-5026
▁itšeng	-5027
▁myself	-5028
▁reached	-5029
▁sephiri	-5030
▁kgafetša	-5031
▁mopeleto	-5032
▁tlhompho	-5033
▁mathomong	-5034
▁recommend	-5035
KA	-5036
gu	-5037
GOV	-5038
esty	-5039
▁Ape	-5040
▁Gan	-5041
▁fis	-5042
3-25.	-5043
▁šala	-5044
▁weeks	-5045
▁balemi	-5046
▁compet	-5047
▁kgotle	-5048
▁lefele	-5049
▁offici	-5050
▁spouse	-5051
▁results	-5052
▁molaleng	-5053
.2010-03-25.	-5054
son	-5055
▁Kh	-5056
Zulu	-5057
sequ	-5058
walo	-5059
▁MAI	-5060
▁che	-5061
▁nwa	-5062
▁hard	-5063
▁neng	-5064
mpaign	-5065
▁called	-5066
▁instru	-5067
▁kgolego	-5068
▁Security	-5069
▁campaign	-5070
▁prepared	-5071
▁finalised	-5072
▁Diprofense	-5073
▁lebeletšwe	-5074
ker	-5075
kera	-5076
▁ima	-5077
▁2008	-5078
▁bara	-5079
▁geno	-5080
▁team	-5081
lelane	-5082
▁Office	-5083
katsheko	-5084
▁defence	-5085
▁hlolago	-5086
▁papatšo	-5087
▁gabonolo	-5088
▁Dinyakišišo	-5089
▁kgatelopele	-5090
▁lehlakoreng	-5091
▁tlwaelegilego	-5092
sue	-5093
▁lwe	-5094
kotšo	-5095
seben	-5096
▁Lebo	-5097
ganego	-5098
leteng	-5099
ughter	-5100
▁March	-5101
▁cases	-5102
▁often	-5103
▁owner	-5104
▁always	-5105
▁appear	-5106
▁šomela	-5107
▁Motlatša	-5108
ury	-5109
▁LEA	-5110
▁ali	-5111
▁kan	-5112
▁Gona	-5113
▁saen	-5114
lation	-5115
ervation	-5116
kenolotši	-5117
▁bonnyane	-5118
▁Priorities	-5119
iry	-5120
▁08	-5121
▁50	-5122
lest	-5123
quor	-5124
rite	-5125
šweu	-5126
▁dif	-5127
▁nga	-5128
▁hlwa	-5129
enthara	-5130
▁Titles	-5131
▁return	-5132
▁sepetša	-5133
▁cultural	-5134
▁vehicles	-5135
rie	-5136
zet	-5137
▁TEE	-5138
itary	-5139
▁seen	-5140
bakelo	-5141
enopho	-5142
▁Policy	-5143
▁bodulo	-5144
▁lekane	-5145
▁bašomedi	-5146
▁sentence	-5147
mba	-5148
ned	-5149
▁file	-5150
▁build	-5151
phelong	-5152
▁Action	-5153
▁deemed	-5154
▁descri	-5155
polotiki	-5156
udiciary	-5157
▁disease	-5158
▁engaged	-5159
imisation	-5160
▁expressed	-5161
▁permission	-5162
lish	-5163
▁Mrs	-5164
Molao	-5165
hloko	-5166
tšana	-5167
▁assa	-5168
▁loko	-5169
▁thwe	-5170
ilione	-5171
▁Letša	-5172
▁bomma	-5173
▁invest	-5174
▁supply	-5175
▁phelago	-5176
fficiency	-5177
▁December	-5178
▁Johannes	-5179
▁yourself	-5180
▁hlokegago	-5181
▁determined	-5182
oth	-5183
que	-5184
▁tu	-5185
cked	-5186
mary	-5187
▁obs	-5188
irišo	-5189
▁That	-5190
▁mach	-5191
▁rich	-5192
▁amega	-5193
▁ntšhi	-5194
▁proof	-5195
▁socio	-5196
▁tlala	-5197
kanelwa	-5198
▁Selete	-5199
▁forest	-5200
▁tšhaba	-5201
▁dithula	-5202
▁Sebopego	-5203
▁identify	-5204
▁polaseng	-5205
▁tšweletšwa	-5206
▁nepagetšego	-5207
AT	-5208
AIDS	-5209
GOWA	-5210
pons	-5211
uries	-5212
▁puku	-5213
▁Initi	-5214
▁Inspe	-5215
▁plant	-5216
▁legolo	-5217
mpiri	-5218
ously	-5219
▁Taba	-5220
▁Your	-5221
▁chan	-5222
▁fear	-5223
▁Force	-5224
▁motse	-5225
▁System	-5226
▁dipola	-5227
▁property	-5228
▁dihlongwa	-5229
▁ngwadišitšwego	-5230
uiwa	-5231
▁exer	-5232
▁kete	-5233
▁molaodi	-5234
robentshe	-5235
▁hlakahla	-5236
▁democratic	-5237
▁diprotšeke	-5238
▁integrated	-5239
▁poledišano	-5240
▁technologies	-5241
ral	-5242
▁CC	-5243
udge	-5244
▁Kho	-5245
eteng	-5246
tsana	-5247
▁bose	-5248
▁influ	-5249
▁metse	-5250
▁mmala	-5251
▁techn	-5252
▁write	-5253
▁dikgwe	-5254
▁context	-5255
▁ikgetha	-5256
▁invited	-5257
▁tekanyo	-5258
▁thulano	-5259
▁producers	-5260
▁kgontšhago	-5261
feš	-5262
▁1.	-5263
▁Nna	-5264
▁nne	-5265
otlha	-5266
▁nyala	-5267
▁strug	-5268
išenare	-5269
ithomelo	-5270
ministrat	-5271
▁register	-5272
▁dikhamphani	-5273
ream	-5274
tong	-5275
mvula	-5276
usual	-5277
▁akan	-5278
▁clin	-5279
driven	-5280
mogedi	-5281
▁Dipho	-5282
▁close	-5283
▁tšere	-5284
editšwe	-5285
▁capital	-5286
▁million	-5287
▁Business	-5288
▁Complete	-5289
▁Letšatši	-5290
▁bagononelwa	-5291
▁composition	-5292
▁traditional	-5293
▁sepelelanago	-5294
▁Id	-5295
puku	-5296
▁Kom	-5297
▁san	-5298
▁Iran	-5299
▁char	-5300
wantle	-5301
▁boeti	-5302
▁sport	-5303
▁around	-5304
▁Kantoro	-5305
▁bokgabo	-5306
▁customary	-5307
▁equipment	-5308
▁published	-5309
▁gaMamabolo	-5310
▁arrangements	-5311
TER	-5312
cise	-5313
isms	-5314
akang	-5315
▁else	-5316
▁išwa	-5317
▁susp	-5318
▁utol	-5319
▁extent	-5320
▁another	-5321
▁variety	-5322
▁Kabinete	-5323
▁Strategic	-5324
▁tšweleditše	-5325
alo	-5326
lear	-5327
mele	-5328
sions	-5329
▁bela	-5330
▁Enter	-5331
▁Mongwa	-5332
▁Tlatša	-5333
▁akanya	-5334
▁contain	-5335
▁mererong	-5336
▁encouraged	-5337
▁ditlamorago	-5338
▁Construction	-5339
▁Cup	-5340
▁flo	-5341
▁saw	-5342
enced	-5343
kages	-5344
▁Apex	-5345
▁Male	-5346
▁tšha	-5347
▁koloi	-5348
eletšwa	-5349
▁driving	-5350
▁licence	-5351
▁obamela	-5352
▁Question	-5353
▁electricity	-5354
RA	-5355
ux	-5356
cre	-5357
anda	-5358
dima	-5359
▁ANC	-5360
▁rut	-5361
sters	-5362
▁bank	-5363
▁Broad	-5364
▁šomana	-5365
umstances	-5366
▁kamogelo	-5367
▁mengwang	-5368
▁committee	-5369
▁potential	-5370
▁provinces	-5371
IFA	-5372
▁Ha	-5373
▁Col	-5374
fully	-5375
monst	-5376
▁Karo	-5377
▁lele	-5378
▁teko	-5379
kgwebo	-5380
▁kotlo	-5381
▁dipuku	-5382
▁ikgoka	-5383
▁molomo	-5384
fešenale	-5385
▁Nations	-5386
▁subject	-5387
▁contribution	-5388
▁beneficiation	-5389
▁ir	-5390
rain	-5391
tise	-5392
▁Kala	-5393
▁black	-5394
▁dikgomo	-5395
▁tsebaga	-5396
▁Economic	-5397
▁bolelago	-5398
▁setlwaedi	-5399
▁applications	-5400
TS	-5401
zwe	-5402
▁Ri	-5403
▁Pret	-5404
vinced	-5405
šitšwe	-5406
▁Person	-5407
▁centre	-5408
▁parent	-5409
▁review	-5410
▁threat	-5411
▁Peakanyo	-5412
▁policies	-5413
▁tatelano	-5414
▁appointed	-5415
lay	-5416
dina	-5417
ruit	-5418
▁urg	-5419
▁Kelo	-5420
▁infe	-5421
▁tšer	-5422
ressed	-5423
▁mmung	-5424
▁material	-5425
▁convinced	-5426
▁Dir	-5427
▁Boto	-5428
▁ngwe	-5429
▁safe	-5430
▁Pheto	-5431
▁seswa	-5432
▁times	-5433
▁atlega	-5434
▁lekale	-5435
tainment	-5436
▁confirm	-5437
▁created	-5438
▁demonst	-5439
▁commitment	-5440
DF	-5441
pok	-5442
rar	-5443
face	-5444
were	-5445
asing	-5446
kwala	-5447
kgethe	-5448
▁appea	-5449
▁heard	-5450
▁killed	-5451
▁pukwana	-5452
▁tebelelo	-5453
▁integration	-5454
SC	-5455
pwa	-5456
nthe	-5457
▁pic	-5458
▁pon	-5459
atory	-5460
homph	-5461
itente	-5462
▁basic	-5463
▁kgole	-5464
▁Ensure	-5465
▁Palest	-5466
▁create	-5467
▁making	-5468
▁diruiwa	-5469
▁facilit	-5470
▁phetogo	-5471
▁clothing	-5472
▁lehlakore	-5473
▁Governments	-5474
Art	-5475
mpt	-5476
uel	-5477
▁poor	-5478
▁talk	-5479
holegi	-5480
▁grues	-5481
▁Legisla	-5482
▁optimum	-5483
▁association	-5484
šago	-5485
▁Moo	-5486
▁sig	-5487
enior	-5488
▁Bale	-5489
▁kere	-5490
▁phen	-5491
▁town	-5492
▁šoro	-5493
khutšo	-5494
Article	-5495
▁meraro	-5496
▁fokotše	-5497
▁gabjale	-5498
▁monagano	-5499
▁ngongorego	-5500
30	-5501
▁ez	-5502
dumo	-5503
liti	-5504
sete	-5505
▁hus	-5506
▁iti	-5507
šoren	-5508
▁poso	-5509
▁sphe	-5510
išetša	-5511
kgahlo	-5512
▁compli	-5513
▁engine	-5514
▁settle	-5515
▁regional	-5516
▁responsibility	-5517
yd	-5518
ions	-5519
ront	-5520
▁vol	-5521
entle	-5522
tšhomo	-5523
▁eletša	-5524
▁kgonne	-5525
▁please	-5526
▁segolo	-5527
▁things	-5528
▁kwagala	-5529
▁attention	-5530
▁rulaganya	-5531
▁strengthen	-5532
ond	-5533
niki	-5534
šane	-5535
▁mots	-5536
▁Lefase	-5537
▁adopted	-5538
▁strategic	-5539
▁Investment	-5540
▁importance	-5541
▁practition	-5542
BM	-5543
ita	-5544
own	-5545
antu	-5546
olog	-5547
room	-5548
atial	-5549
▁hope	-5550
▁risk	-5551
▁ruri	-5552
balano	-5553
ommogo	-5554
waneng	-5555
▁MAIME	-5556
▁panka	-5557
▁utswi	-5558
gistrar	-5559
▁Lekala	-5560
▁turnst	-5561
▁thušago	-5562
▁contract	-5563
▁poraebete	-5564
▁processes	-5565
ize	-5566
gedi	-5567
wena	-5568
keting	-5569
▁1993,	-5570
▁baagi	-5571
▁issue	-5572
▁Bontši	-5573
▁accept	-5574
▁convic	-5575
▁stolen	-5576
▁payment	-5577
effective	-5578
▁kopanong	-5579
▁Transport	-5580
▁dipeakanyo	-5581
▁fapafapanego	-5582
mbo	-5583
ices	-5584
▁...	-5585
asona	-5586
▁FIFA	-5587
▁expe	-5588
▁Kgale	-5589
▁Melao	-5590
▁maleme	-5591
▁coastal	-5592
▁sekgoba	-5593
▁dibopego	-5594
▁hwetšago	-5595
▁ngwadiša	-5596
▁authority	-5597
▁responses	-5598
ilo	-5599
xed	-5600
▁Ste	-5601
▁ngo	-5602
TIONS	-5603
▁Sete	-5604
▁ikga	-5605
habišo	-5606
illing	-5607
▁repla	-5608
▁announ	-5609
▁curric	-5610
ceptions	-5611
▁consequ	-5612
connected	-5613
odiversity	-5614
▁understanding	-5615
NA	-5616
sis	-5617
noši	-5618
KGOWA	-5619
lated	-5620
petša	-5621
▁Thom	-5622
▁Unit	-5623
▁audi	-5624
▁coun	-5625
▁drug	-5626
atever	-5627
pikara	-5628
▁dinepo	-5629
▁remain	-5630
▁Unusual	-5631
▁bagwera	-5632
▁housing	-5633
▁nyakego	-5634
▁diforomo	-5635
▁employer	-5636
▁rerišana	-5637
▁semorafe	-5638
▁Ministers	-5639
▁Environment	-5640
▁ditšhišinyo	-5641
▁phethagatšwa	-5642
TU	-5643
clu	-5644
▁Ara	-5645
▁Bat	-5646
▁IKS	-5647
▁Ith	-5648
istic	-5649
khura	-5650
kollo	-5651
▁Head	-5652
▁tšhu	-5653
ganywa	-5654
▁bjona	-5655
▁modir	-5656
▁somet	-5657
▁types	-5658
▁mebušo	-5659
▁šomiše	-5660
▁mmeleng	-5661
▁Framework	-5662
▁Mohlankedi	-5663
▁boipiletšo	-5664
▁designated	-5665
▁hweditšwego	-5666
exa	-5667
▁ik	-5668
vidu	-5669
▁fla	-5670
member	-5671
gnition	-5672
issance	-5673
▁offers	-5674
▁series	-5675
▁husband	-5676
▁tiilego	-5677
▁Tumelelo	-5678
▁meetings	-5679
▁peeletšo	-5680
▁struggle	-5681
▁happiness	-5682
▁dipolotiki	-5683
▁23	-5684
body	-5685
peal	-5686
prof	-5687
sedi	-5688
▁cro	-5689
quate	-5690
▁mets	-5691
▁seth	-5692
▁summ	-5693
aching	-5694
itting	-5695
ormwater	-5696
▁mehlala	-5697
▁pholisi	-5698
▁theilwe	-5699
▁whatever	-5700
▁phadišano	-5701
▁Departments	-5702
▁transformation	-5703
▁WC	-5704
erve	-5705
ranch	-5706
wetša	-5707
▁temp	-5708
Imvula	-5709
mongwe	-5710
išeneng	-5711
▁modudi	-5712
▁severe	-5713
resitente	-5714
▁ditemana	-5715
▁ditokomane	-5716
▁governments	-5717
7,	-5718
▁Mme	-5719
ongwa	-5720
▁busy	-5721
kehold	-5722
▁along	-5723
▁email	-5724
▁Mafelo	-5725
▁Sector	-5726
▁Setšwe	-5727
▁gatele	-5728
▁fetolwa	-5729
▁latelwa	-5730
▁majority	-5731
▁ukangwego	-5732
▁theramelao	-5733
ank	-5734
▁Pu	-5735
▁TB	-5736
ases	-5737
ruru	-5738
sana	-5739
▁Sep	-5740
▁Sup	-5741
▁tsa	-5742
hlong	-5743
▁meat	-5744
tšhisi	-5745
▁chang	-5746
▁exten	-5747
▁letha	-5748
▁dimela	-5749
▁diporo	-5750
▁legato	-5751
▁lokolo	-5752
▁Pretoria	-5753
▁bonagala	-5754
▁theeletša	-5755
▁Convention	-5756
▁sepolotiki	-5757
pea	-5758
utu	-5759
▁Li	-5760
▁Kge	-5761
▁tur	-5762
welle	-5763
▁inno	-5764
▁line	-5765
▁mpho	-5766
dation	-5767
▁nnoši	-5768
▁range	-5769
▁rilego	-5770
▁tšeago	-5771
▁neelana	-5772
▁daughter	-5773
▁educators	-5774
▁officials	-5775
▁hlalošwago	-5776
▁Johannesburg	-5777
▁IC	-5778
eter	-5779
▁Mid	-5780
▁Sta	-5781
▁With	-5782
nesses	-5783
▁Local	-5784
▁bring	-5785
▁cross	-5786
▁senye	-5787
▁guaran	-5788
▁polasa	-5789
▁recent	-5790
▁mothopo	-5791
▁writing	-5792
išanommogo	-5793
▁complaint	-5794
▁personnel	-5795
▁hlokomelwa	-5796
▁mogononelwa	-5797
▁preparation	-5798
▁PA	-5799
▁avo	-5800
irmed	-5801
ville	-5802
▁NEPA	-5803
▁cong	-5804
▁pati	-5805
litiki	-5806
uesday	-5807
▁wants	-5808
▁abelwa	-5809
▁General	-5810
▁Mananeo	-5811
▁failure	-5812
▁friends	-5813
▁keletšo	-5814
▁tsebišwa	-5815
▁seswantšho	-5816
1)	-5817
4,	-5818
▁NC	-5819
bles	-5820
▁Maf	-5821
▁sim	-5822
houtu	-5823
redit	-5824
▁Some	-5825
▁diin	-5826
ontšha	-5827
▁Leano	-5828
▁inspe	-5829
▁mapheko	-5830
▁Municipal	-5831
▁procedures	-5832
▁tumelelano	-5833
chi	-5834
▁om	-5835
....	-5836
dity	-5837
kgala	-5838
teral	-5839
zette	-5840
▁bula	-5841
▁seek	-5842
▁Defence	-5843
▁kakanyo	-5844
▁lefelwe	-5845
▁ditlhohlo	-5846
▁Environmental	-5847
sk	-5848
hlu	-5849
▁13	-5850
▁32	-5851
▁48	-5852
foka	-5853
pore	-5854
▁gra	-5855
▁sug	-5856
hlang	-5857
hwane	-5858
lweng	-5859
veral	-5860
▁Note	-5861
▁bote	-5862
▁napa	-5863
▁noši	-5864
▁Labour	-5865
▁ukuthi	-5866
▁šitiša	-5867
▁citizen	-5868
▁conduct	-5869
▁adoption	-5870
▁election	-5871
▁dipeelano	-5872
▁interests	-5873
▁senamelwa	-5874
▁stakehold	-5875
▁stormwater	-5876
bra	-5877
soe	-5878
zim	-5879
ired	-5880
▁nor	-5881
fetše	-5882
▁Reco	-5883
▁Road	-5884
▁fiwe	-5885
▁game	-5886
▁China	-5887
hlegelo	-5888
leditše	-5889
▁notify	-5890
▁concept	-5891
ingwadišo	-5892
▁elsewhere	-5893
▁investment	-5894
▁consideration	-5895
1,	-5896
kg	-5897
▁25	-5898
ibes	-5899
mony	-5900
▁Hon	-5901
▁boy	-5902
▁hig	-5903
▁mak	-5904
▁Madi	-5905
▁boso	-5906
ulated	-5907
▁NEPAD	-5908
▁recre	-5909
▁woman	-5910
▁Identi	-5911
▁Social	-5912
▁laesense	-5913
▁matlotlo	-5914
▁mongwadi	-5915
tšhotšhisi	-5916
▁elections	-5917
▁resolution	-5918
▁thulaganyo	-5919
▁tlotlontšu	-5920
▁Toropokgolo	-5921
▁initiatives	-5922
▁maatlafatša	-5923
joy	-5924
nda	-5925
esti	-5926
otso	-5927
▁CHA	-5928
▁una	-5929
eding	-5930
▁seta	-5931
▁evalu	-5932
▁gatee	-5933
▁medium	-5934
▁wanted	-5935
▁animals	-5936
▁Registrar	-5937
▁nolofatša	-5938
▁requester	-5939
▁thobalano	-5940
Pula	-5941
lini	-5942
▁KGA	-5943
▁dra	-5944
▁vac	-5945
folio	-5946
▁1990	-5947
▁goga	-5948
▁loga	-5949
▁mobu	-5950
icians	-5951
sector	-5952
▁whole	-5953
▁purcha	-5954
▁constru	-5955
▁dikarabo	-5956
▁dikolong	-5957
▁included	-5958
▁Dikgopelo	-5959
▁technical	-5960
▁Facilitate	-5961
▁bjalobjalo	-5962
▁tlaleletša	-5963
▁Setšweletšwa	-5964
pot	-5965
moso	-5966
▁One	-5967
▁bre	-5968
▁eta	-5969
khula	-5970
pheto	-5971
▁Nete	-5972
▁norm	-5973
kontle	-5974
▁gives	-5975
▁signi	-5976
kanyana	-5977
▁Ditshe	-5978
▁mararo	-5979
editšego	-5980
▁bohlale	-5981
▁decided	-5982
▁Matlotlo	-5983
▁military	-5984
▁motswadi	-5985
▁selected	-5986
▁boithabišo	-5987
▁transactions	-5988
▁diy	-5989
▁lla	-5990
polwa	-5991
rding	-5992
▁SADC	-5993
▁diep	-5994
▁moko	-5995
▁chair	-5996
▁mokgo	-5997
▁motha	-5998
▁units	-5999
▁Romela	-6000
▁gentle	-6001
▁middle	-6002
▁Dintlha	-6003
▁Kgalema	-6004
▁existing	-6005
ney	-6006
▁MI	-6007
know	-6008
time	-6009
▁Not	-6010
▁net	-6011
▁kick	-6012
pwelet	-6013
tected	-6014
tember	-6015
unibes	-6016
▁Kgoši	-6017
▁Monna	-6018
▁lerat	-6019
▁setlo	-6020
▁acknow	-6021
▁netefa	-6022
▁poloko	-6023
▁ditseno	-6024
mentation	-6025
▁laolwago	-6026
▁investigate	-6027
ids	-6028
meng	-6029
▁tpe	-6030
▁vot	-6031
▁baeti	-6032
▁taetšo	-6033
kgafetša	-6034
▁dihlogo	-6035
▁utilisation	-6036
raga	-6037
rese	-6038
rint	-6039
▁Nka	-6040
▁Old	-6041
ariffs	-6042
balelo	-6043
▁kwana	-6044
metšego	-6045
▁ditshwa	-6046
▁Bohlatse	-6047
▁Tšhelete	-6048
▁affected	-6049
▁Ditšhelete	-6050
bly	-6051
ird	-6052
▁DI	-6053
▁efo	-6054
▁why	-6055
polit	-6056
▁MMIP	-6057
▁Port	-6058
▁khon	-6059
▁Agric	-6060
▁Metro	-6061
▁passed	-6062
National	-6063
▁species	-6064
▁executive	-6065
▁Broadcasting	-6066
iso	-6067
ssy	-6068
▁led	-6069
▁lod	-6070
▁Toka	-6071
change	-6072
▁kgašo	-6073
▁radio	-6074
▁thome	-6075
getable	-6076
▁Ngwana	-6077
▁global	-6078
olofatši	-6079
▁Training	-6080
▁gruesome	-6081
▁increase	-6082
▁sethunya	-6083
▁swerwego	-6084
prehensive	-6085
▁Inspector	-6086
▁Protector	-6087
▁ditokumente	-6088
▁dingongorego	-6089
▁stakeholders	-6090
▁CN	-6091
bogo	-6092
taba	-6093
unkh	-6094
▁Feb	-6095
▁nep	-6096
▁Quot	-6097
▁Sund	-6098
▁ralo	-6099
▁side	-6100
▁thab	-6101
▁except	-6102
▁honour	-6103
▁humana	-6104
▁tumelo	-6105
▁position	-6106
▁vegetable	-6107
▁Commercial	-6108
▁appointment	-6109
▁24	-6110
popo	-6111
rust	-6112
▁tum	-6113
▁war	-6114
▁Lefa	-6115
nivers	-6116
uranta	-6117
enyetla	-6118
▁kontin	-6119
▁others	-6120
▁struct	-6121
omenetša	-6122
▁enacted	-6123
▁signific	-6124
▁Employment	-6125
▁phatlalatšo	-6126
▁tšweletšago	-6127
4)	-6128
▁Isi	-6129
▁Why	-6130
▁swi	-6131
bjana	-6132
itage	-6133
▁dule	-6134
▁gard	-6135
called	-6136
utiful	-6137
▁Leina	-6138
▁mašole	-6139
▁saense	-6140
unkhwane	-6141
▁Manager	-6142
▁Persons	-6143
▁applied	-6144
▁dibetša	-6145
▁reasona	-6146
▁individu	-6147
government	-6148
tswadiatla	-6149
▁Financial	-6150
▁tekanyetšo	-6151
▁entrepreneurs	-6152
Go	-6153
-10	-6154
leb	-6155
▁Moš	-6156
▁Tlo	-6157
▁jobs	-6158
▁Elect	-6159
▁Green	-6160
▁class	-6161
▁crops	-6162
▁emiša	-6163
▁potla	-6164
▁swerwe	-6165
▁KwaZulu	-6166
▁magaeng	-6167
▁mehlano	-6168
▁mehleng	-6169
▁mention	-6170
▁Maafrika	-6171
▁Regional	-6172
▁hospital	-6173
▁committed	-6174
▁appliances	-6175
▁dikgokagano	-6176
▁mohlakanelwa	-6177
▁Comprehensive	-6178
eds	-6179
ick	-6180
hile	-6181
yane	-6182
▁Sha	-6183
enkele	-6184
kgonthe	-6185
▁diatla	-6186
▁lerato	-6187
▁nothing	-6188
▁bapetšwa	-6189
▁elements	-6190
▁laetšago	-6191
▁Amendment	-6192
▁kgolegong	-6193
dine	-6194
ensi	-6195
macy	-6196
▁fil	-6197
▁ikh	-6198
▁ill	-6199
estic	-6200
rison	-6201
udies	-6202
▁Medi	-6203
▁Youth	-6204
▁depos	-6205
▁incon	-6206
▁storm	-6207
▁megala	-6208
▁Tuesday	-6209
▁arrived	-6210
▁Hospital	-6211
▁nepagalo	-6212
▁beautiful	-6213
▁Initiative	-6214
▁tšweletšwago	-6215
nego	-6216
šing	-6217
▁Now	-6218
letši	-6219
▁baba	-6220
▁bofe	-6221
▁girl	-6222
▁laun	-6223
▁sefa	-6224
▁tata	-6225
sogana	-6226
▁girlf	-6227
▁mošom	-6228
▁nkabe	-6229
khulamo	-6230
lateral	-6231
▁across	-6232
▁causes	-6233
▁fetoša	-6234
▁station	-6235
▁critical	-6236
▁diepšane	-6237
▁linkages	-6238
▁severely	-6239
▁September	-6240
▁ditlakala	-6241
▁photographs	-6242
Ke	-6243
NG	-6244
bic	-6245
sogo	-6246
▁moa	-6247
▁nke	-6248
▁sal	-6249
▁ten	-6250
▁ton	-6251
arily	-6252
▁molo	-6253
employ	-6254
faladi	-6255
fofane	-6256
▁MMIPE	-6257
▁Metho	-6258
▁share	-6259
▁bareki	-6260
▁farmers	-6261
▁reduced	-6262
▁Dipolelo	-6263
▁kwagalago	-6264
▁proposals	-6265
▁directions	-6266
▁bommasepala	-6267
▁kgonthišiša	-6268
▁tšhoganetšo	-6269
OU	-6270
MEN	-6271
▁Ac	-6272
imum	-6273
ured	-6274
orter	-6275
▁Team	-6276
kerama	-6277
roniki	-6278
▁roads	-6279
▁appeal	-6280
▁arrest	-6281
▁bakeng	-6282
▁fiscal	-6283
▁applies	-6284
▁learner	-6285
▁message	-6286
▁improved	-6287
ordination	-6288
▁letlakala	-6289
▁ngwadišwa	-6290
▁ditlabakelo	-6291
▁Constitutional	-6292
MME	-6293
llow	-6294
▁Mok	-6295
▁dama	-6296
▁North	-6297
▁hlame	-6298
▁limit	-6299
šorense	-6300
▁Gantši	-6301
▁accoun	-6302
▁dibeke	-6303
▁kicked	-6304
▁racial	-6305
▁travel	-6306
▁yekhwi	-6307
▁lethabo	-6308
rikhulamo	-6309
▁approval	-6310
▁dikomiti	-6311
▁matlafatša	-6312
▁Enterprises	-6313
▁significant	-6314
▁recommendations	-6315
yna	-6316
▁Bu	-6317
▁Ev	-6318
BaTa	-6319
diše	-6320
ming	-6321
omor	-6322
pter	-6323
▁Seti	-6324
▁Supp	-6325
▁dila	-6326
itchen	-6327
▁Mohlo	-6328
▁inten	-6329
▁seven	-6330
▁kganyo	-6331
▁laetše	-6332
▁dingaka	-6333
▁koketšo	-6334
▁kopanya	-6335
▁segwera	-6336
▁setlamo	-6337
▁thekgwa	-6338
▁Learners	-6339
▁annivers	-6340
▁location	-6341
PulaImvula	-6342
▁dimilione	-6343
▁presented	-6344
▁kgoboketša	-6345
▁mongmošomo	-6346
ministrative	-6347
▁setatamente	-6348
▁dikhemikhale	-6349
▁participating	-6350
8,	-6351
PTER	-6352
itha	-6353
stra	-6354
▁MEC	-6355
gence	-6356
habil	-6357
▁Dith	-6358
▁Inte	-6359
▁Palo	-6360
▁easy	-6361
▁defin	-6362
▁ideas	-6363
African	-6364
itarian	-6365
stitute	-6366
▁Modimo	-6367
▁former	-6368
▁nation	-6369
▁ipshina	-6370
▁lengthy	-6371
▁injuries	-6372
▁regarding	-6373
▁dumeletšwe	-6374
▁anniversary	-6375
▁modulasetulo	-6376
lh	-6377
phu	-6378
ends	-6379
▁Jan	-6380
going	-6381
▁left	-6382
▁maan	-6383
▁tiiša	-6384
▁recall	-6385
išitšego	-6386
▁ditsebi	-6387
▁kitchen	-6388
▁makhura	-6389
▁serious	-6390
homphutha	-6391
▁Ikangala	-6392
examination	-6393
▁complaints	-6394
▁increasing	-6395
oph	-6396
xes	-6397
▁Ms	-6398
bapi	-6399
▁pip	-6400
▁gave	-6401
▁mahu	-6402
▁stay	-6403
▁books	-6404
▁kopan	-6405
▁bararo	-6406
hleletšo	-6407
tšwantle	-6408
▁pleased	-6409
▁reconna	-6410
▁tlatšwa	-6411
gantšwego	-6412
▁accepted	-6413
▁specified	-6414
▁additional	-6415
gov	-6416
lub	-6417
▁Sc	-6418
budi	-6419
ires	-6420
reme	-6421
▁Tša	-6422
▁Chan	-6423
▁Leso	-6424
▁soft	-6425
▁sold	-6426
▁wasn	-6427
mption	-6428
▁disse	-6429
▁possi	-6430
▁boikga	-6431
▁doctor	-6432
▁korong	-6433
▁xenopho	-6434
▁fokolago	-6435
▁bophelong	-6436
▁ditshenya	-6437
▁hweditšwe	-6438
▁amogelegago	-6439
▁ikgokaganya	-6440
▁reconnaissance	-6441
bje	-6442
kub	-6443
▁Ku	-6444
balo	-6445
ccer	-6446
tšhu	-6447
▁nts	-6448
▁oli	-6449
ghout	-6450
▁Mosi	-6451
▁Prof	-6452
semere	-6453
▁Mukha	-6454
hlabela	-6455
omestic	-6456
▁Regula	-6457
▁bolele	-6458
▁toropo	-6459
▁worked	-6460
etroleum	-6461
▁changed	-6462
▁benefici	-6463
▁laeditše	-6464
▁conducted	-6465
▁Diminerale	-6466
iswa	-6467
▁hom	-6468
ening	-6469
erika	-6470
ports	-6471
ulong	-6472
ušene	-6473
▁poll	-6474
parara	-6475
▁Tšhom	-6476
▁itemo	-6477
▁SeBaTa	-6478
▁Hlaloša	-6479
▁menyetla	-6480
▁protected	-6481
▁hlohleletšwa	-6482
▁circumstances	-6483
log	-6484
▁Gu	-6485
▁YA	-6486
▁nu	-6487
LEMA	-6488
chers	-6489
inery	-6490
risis	-6491
▁kapa	-6492
▁diiri	-6493
▁shown	-6494
▁Karabo	-6495
▁Meetse	-6496
▁budget	-6497
▁KGALEMA	-6498
▁dikoloi	-6499
▁nakwana	-6500
▁tsebago	-6501
kgobapuku	-6502
▁bokamoso	-6503
▁hlamilwe	-6504
▁emergency	-6505
▁mahlakore	-6506
▁throughout	-6507
▁kgonagalago	-6508
▁80	-6509
▁Um	-6510
fišo	-6511
▁leg	-6512
▁run	-6513
▁Brit	-6514
▁Conf	-6515
▁Free	-6516
▁Kgwe	-6517
▁Oper	-6518
▁fall	-6519
išetšwa	-6520
▁Accele	-6521
▁dikelo	-6522
seterata	-6523
▁delegat	-6524
▁moputso	-6525
▁pelaelo	-6526
▁interpre	-6527
▁feleletša	-6528
▁lebelelwa	-6529
▁appreciation	-6530
▁molaotshepetšo	-6531
29	-6532
BC	-6533
Ma	-6534
ilt	-6535
lls	-6536
udget	-6537
anegwa	-6538
necess	-6539
▁Waste	-6540
▁below	-6541
▁enjoy	-6542
▁volun	-6543
▁Mengwa	-6544
▁letšho	-6545
▁marega	-6546
▁mošate	-6547
▁status	-6548
standing	-6549
▁Science	-6550
▁laolago	-6551
▁surveys	-6552
▁thwalwa	-6553
▁šišinya	-6554
▁diseases	-6555
▁mothwadi	-6556
▁passport	-6557
▁Employees	-6558
▁nepagetše	-6559
OC	-6560
ash	-6561
▁90	-6562
▁Pi	-6563
hood	-6564
mera	-6565
oted	-6566
pona	-6567
▁Ple	-6568
▁ang	-6569
▁ezi	-6570
▁fre	-6571
▁hle	-6572
watši	-6573
▁Cent	-6574
▁Form	-6575
▁wela	-6576
▁went	-6577
▁dirwe	-6578
▁doing	-6579
▁itlha	-6580
▁kholo	-6581
leletšo	-6582
ruption	-6583
▁agency	-6584
▁comput	-6585
▁fetago	-6586
▁tletše	-6587
▁Bosenyi	-6588
▁Gazette	-6589
▁consent	-6590
▁mogwera	-6591
▁dinomoro	-6592
▁dikgaruru	-6593
▁gapeletša	-6594
▁ourselves	-6595
Is	-6596
ords	-6597
▁Day	-6598
▁Est	-6599
isana	-6600
▁PEDI	-6601
▁Phan	-6602
enyana	-6603
otshwa	-6604
ourism	-6605
terese	-6606
▁stage	-6607
inesses	-6608
outhern	-6609
ruction	-6610
▁States	-6611
▁miscon	-6612
dimogolo	-6613
▁CHAPTER	-6614
▁languages	-6615
▁providing	-6616
khi	-6617
lus	-6618
▁lat	-6619
hlaba	-6620
melao	-6621
meric	-6622
▁akha	-6623
▁foša	-6624
▁mora	-6625
▁Febru	-6626
▁hlomp	-6627
▁lepat	-6628
▁crisis	-6629
▁kgwele	-6630
▁hlompha	-6631
▁phetošo	-6632
hihlelelo	-6633
▁indicates	-6634
▁agriculture	-6635
kun	-6636
reg	-6637
zen	-6638
▁AU	-6639
▁ME	-6640
cate	-6641
gers	-6642
gola	-6643
ison	-6644
▁LES	-6645
▁Pol	-6646
apišo	-6647
mples	-6648
rowth	-6649
▁Poro	-6650
▁anal	-6651
▁rules	-6652
▁bonago	-6653
▁discri	-6654
▁living	-6655
▁mainst	-6656
▁search	-6657
dingwana	-6658
▁centres	-6659
▁kaonafa	-6660
▁tlilego	-6661
▁tourism	-6662
▁requires	-6663
▁nyalelana	-6664
governmental	-6665
▁hlalošitšwego	-6666
ler	-6667
tees	-6668
aking	-6669
išane	-6670
month	-6671
▁even	-6672
komela	-6673
▁Sunday	-6674
▁bogoši	-6675
▁merogo	-6676
▁papadi	-6677
signment	-6678
▁kgahliša	-6679
▁lemogile	-6680
▁mašaledi	-6681
▁amogetšwe	-6682
▁diphapano	-6683
▁boingwadišo	-6684
▁hlatswadiatla	-6685
dv	-6686
lt	-6687
bery	-6688
cism	-6689
▁194	-6690
▁Int	-6691
▁rwe	-6692
▁Emer	-6693
▁sale	-6694
▁stri	-6695
▁taxi	-6696
▁wood	-6697
dvanta	-6698
istara	-6699
selara	-6700
▁occur	-6701
▁Ditaba	-6702
▁expand	-6703
▁sekase	-6704
▁February	-6705
▁holofela	-6706
▁kwalakwa	-6707
▁mahlatse	-6708
▁morutiši	-6709
▁officers	-6710
▁curriculum	-6711
▁disadvanta	-6712
▁evaluation	-6713
▁ditshepetšo	-6714
SS	-6715
care	-6716
hudu	-6717
▁Mdi	-6718
▁civ	-6719
▁die	-6720
▁fer	-6721
ileng	-6722
useum	-6723
▁Tele	-6724
▁bath	-6725
▁born	-6726
▁dimp	-6727
▁dyna	-6728
veness	-6729
▁MaiTe	-6730
▁Mayor	-6731
▁lives	-6732
▁meepo	-6733
▁parts	-6734
▁Morena	-6735
hibition	-6736
ktroniki	-6737
▁taodišo	-6738
▁bookelong	-6739
▁gentlemen	-6740
▁sedirišwa	-6741
fra	-6742
▁31	-6743
▁Em	-6744
alia	-6745
šana	-6746
▁Boi	-6747
▁Tem	-6748
▁ori	-6749
South	-6750
phato	-6751
▁West	-6752
▁lebe	-6753
though	-6754
utwana	-6755
▁Tsebo	-6756
▁comes	-6757
▁thata	-6758
▁Basadi	-6759
▁Philli	-6760
▁Saense	-6761
▁forces	-6762
▁receip	-6763
▁values	-6764
▁bušetša	-6765
▁mission	-6766
▁nyakile	-6767
▁streets	-6768
▁employed	-6769
▁masepala	-6770
▁šomišana	-6771
▁something	-6772
▁definition	-6773
▁Setifikeiti	-6774
▁beakantšwego	-6775
▁40	-6776
▁mi	-6777
bled	-6778
fani	-6779
pago	-6780
▁wea	-6781
petši	-6782
▁1999	-6783
▁stor	-6784
▁Leago	-6785
▁Table	-6786
▁labor	-6787
▁Foromo	-6788
▁events	-6789
▁implic	-6790
▁manage	-6791
▁masome	-6792
▁senior	-6793
▁regular	-6794
▁hlatloša	-6795
▁positive	-6796
▁chemicals	-6797
▁indicated	-6798
▁akantšwego	-6799
▁structures	-6800
▁tshepedišong	-6801
nth	-6802
anel	-6803
ilar	-6804
ites	-6805
pers	-6806
▁gas	-6807
▁tru	-6808
inger	-6809
▁page	-6810
ciated	-6811
▁Please	-6812
▁corpor	-6813
▁demand	-6814
▁examin	-6815
▁lokile	-6816
▁assault	-6817
▁fihlile	-6818
▁funding	-6819
▁tariffs	-6820
▁thokong	-6821
▁sebakeng	-6822
▁šomišago	-6823
▁diragatšwa	-6824
▁sepelelane	-6825
.;	-6826
EA	-6827
kodi	-6828
▁Bao	-6829
mmedi	-6830
▁hija	-6831
▁phum	-6832
chment	-6833
galelo	-6834
ontein	-6835
▁Plans	-6836
▁upper	-6837
ctively	-6838
▁Lehono	-6839
▁Nature	-6840
▁Supply	-6841
▁accommo	-6842
▁charact	-6843
▁receipt	-6844
▁succeed	-6845
▁targeted	-6846
▁emphasise	-6847
▁hwetšwago	-6848
▁porofense	-6849
▁hlwekilego	-6850
▁humanitarian	-6851
IC	-6852
eded	-6853
isie	-6854
▁Bol	-6855
▁eth	-6856
oroko	-6857
stone	-6858
▁Molo	-6859
▁kiti	-6860
▁armed	-6861
▁estim	-6862
▁memor	-6863
▁mmino	-6864
▁pepen	-6865
rations	-6866
▁Growth	-6867
▁pejana	-6868
▁spokes	-6869
▁winter	-6870
▁Auditor	-6871
▁Sitting	-6872
▁actions	-6873
▁consist	-6874
▁golegwa	-6875
▁several	-6876
▁Mmatlala	-6877
▁gaborena	-6878
▁letšatšing	-6879
▁Agriculture	-6880
▁boitemogelo	-6881
PO	-6882
fun	-6883
mbi	-6884
▁yi	-6885
rebe	-6886
rian	-6887
urch	-6888
▁Ann	-6889
gious	-6890
known	-6891
▁Nako	-6892
▁bags	-6893
▁pono	-6894
encing	-6895
▁Paper	-6896
▁acade	-6897
▁price	-6898
▁theft	-6899
gilwego	-6900
illance	-6901
isition	-6902
▁Mabapi	-6903
▁leleme	-6904
▁English	-6905
▁benefit	-6906
▁records	-6907
▁robbery	-6908
▁surface	-6909
hanselara	-6910
pointment	-6911
▁Evidence	-6912
▁Ngwadišo	-6913
▁ikopanya	-6914
▁molaetša	-6915
▁teaching	-6916
▁enforcement	-6917
▁phatlalatšwa	-6918
bers	-6919
rity	-6920
▁086	-6921
▁Gro	-6922
▁Ler	-6923
▁Mpha	-6924
▁kind	-6925
▁sche	-6926
▁thun	-6927
engine	-6928
ograph	-6929
▁Ditho	-6930
▁Inter	-6931
▁affor	-6932
▁diswa	-6933
▁names	-6934
enerale	-6935
▁Appeal	-6936
▁author	-6937
▁became	-6938
ological	-6939
▁percent	-6940
▁Strategy	-6941
▁bontšhwa	-6942
▁mašemong	-6943
▁bomenetša	-6944
▁bontšhago	-6945
▁machinery	-6946
▁difference	-6947
▁dipeeletšo	-6948
▁bolokegilego	-6949
ego	-6950
mpe	-6951
ung	-6952
▁lu	-6953
enke	-6954
lefa	-6955
▁Can	-6956
▁Sam	-6957
▁Mate	-6958
kaleng	-6959
resses	-6960
tlotlo	-6961
▁Those	-6962
▁hlano	-6963
▁takes	-6964
▁Tokelo	-6965
▁fields	-6966
▁temošo	-6967
▁setlogo	-6968
▁studies	-6969
▁trained	-6970
▁mebaraka	-6971
▁regarded	-6972
▁sections	-6973
▁gonabjale	-6974
▁residence	-6975
▁dikgweding	-6976
OOO	-6977
▁Mp	-6978
▁ng	-6979
jago	-6980
kani	-6981
tail	-6982
▁Nom	-6983
along	-6984
langa	-6985
▁WCED	-6986
▁babo	-6987
▁hudu	-6988
▁jour	-6989
kanelo	-6990
ulties	-6991
▁Araba	-6992
▁holid	-6993
▁tried	-6994
gantšha	-6995
▁Corpor	-6996
▁Kgetho	-6997
▁direla	-6998
▁placed	-6999
▁tempor	-7000
▁thwala	-7001
partheid	-7002
▁Amerika	-7003
▁matsogo	-7004
▁optimal	-7005
▁tsebega	-7006
▁operates	-7007
▁palomoka	-7008
▁deployment	-7009
▁introduced	-7010
▁ditšhabatšhaba	-7011
▁MT	-7012
▁br	-7013
angu	-7014
vide	-7015
▁Lim	-7016
▁baš	-7017
▁gon	-7018
▁mos	-7019
▁nut	-7020
išišo	-7021
llong	-7022
▁Diko	-7023
▁fulf	-7024
cienti	-7025
▁1997.	-7026
▁Thušo	-7027
▁ngang	-7028
▁Tlhamo	-7029
▁driver	-7030
▁govern	-7031
▁liquor	-7032
▁marapo	-7033
▁monola	-7034
▁prison	-7035
▁seswai	-7036
▁tswala	-7037
▁kahlolo	-7038
▁lekolwa	-7039
▁boikgafo	-7040
▁baamogedi	-7041
▁dikakanyo	-7042
▁maikhutšo	-7043
▁Conference	-7044
▁kaonafatšo	-7045
▁kgwebišano	-7046
▁independent	-7047
SP	-7048
col	-7049
ese	-7050
itu	-7051
koL	-7052
▁DHA	-7053
gwana	-7054
▁1996	-7055
▁Mala	-7056
gative	-7057
legile	-7058
kilwego	-7059
ourable	-7060
▁Officer	-7061
▁sebjalo	-7062
protected	-7063
▁amogetše	-7064
▁expected	-7065
▁continues	-7066
▁diminerale	-7067
▁toropokgolo	-7068
▁tšweleditšwego	-7069
▁Wa	-7070
hipi	-7071
kiri	-7072
raft	-7073
role	-7074
▁Mbe	-7075
▁ika	-7076
orasi	-7077
tlana	-7078
šaedi	-7079
▁inth	-7080
▁valu	-7081
encies	-7082
oswere	-7083
vented	-7084
▁LEAGO	-7085
▁avoid	-7086
▁cause	-7087
▁leban	-7088
▁okedi	-7089
▁trave	-7090
fontein	-7091
menteng	-7092
omorrow	-7093
▁carbon	-7094
▁kamoka	-7095
▁sepele	-7096
ireletši	-7097
▁Contact	-7098
▁carried	-7099
▁hlalošwa	-7100
▁increased	-7101
▁thekontle	-7102
▁hlomilwego	-7103
▁tsebagatša	-7104
fiša	-7105
llen	-7106
loga	-7107
▁Ant	-7108
▁Kwe	-7109
▁Tso	-7110
lands	-7111
relwa	-7112
taolo	-7113
▁Bago	-7114
▁Nove	-7115
▁felo	-7116
▁malo	-7117
▁puno	-7118
belago	-7119
▁Every	-7120
▁bjako	-7121
▁kgomo	-7122
eration	-7123
▁Americ	-7124
▁Change	-7125
▁Ngwaga	-7126
▁displa	-7127
▁gongwe	-7128
▁Bubbles	-7129
▁dikwano	-7130
▁ganetša	-7131
▁organiz	-7132
▁passeng	-7133
kgoparara	-7134
▁kontraka	-7135
▁mešomong	-7136
▁tomorrow	-7137
▁pepeneneng	-7138
▁sanitation	-7139
▁technological	-7140
siz	-7141
win	-7142
▁ID	-7143
miša	-7144
rief	-7145
▁cru	-7146
▁ipo	-7147
▁yes	-7148
ganyi	-7149
▁Euro	-7150
▁Kgat	-7151
▁anti	-7152
▁fiša	-7153
▁noka	-7154
ership	-7155
▁Impro	-7156
▁Point	-7157
▁hours	-7158
▁makga	-7159
ceeding	-7160
▁ditulo	-7161
▁contemp	-7162
▁firearm	-7163
omination	-7164
▁Identify	-7165
▁forestry	-7166
▁prevented	-7167
▁recognise	-7168
▁difficulties	-7169
▁tshekatsheko	-7170
▁constitutional	-7171
2,	-7172
5.	-7173
CIS	-7174
bel	-7175
cher	-7176
hala	-7177
▁yet	-7178
anywa	-7179
▁Mang	-7180
▁mabu	-7181
▁šele	-7182
▁ithut	-7183
▁maeto	-7184
▁pipes	-7185
▁rekiš	-7186
ressive	-7187
▁Diteng	-7188
▁Kgonth	-7189
▁dilete	-7190
▁lebana	-7191
▁masolo	-7192
▁Mekgatlo	-7193
▁Movement	-7194
▁criminal	-7195
▁policing	-7196
▁tlhagišo	-7197
▁dithekisi	-7198
▁operation	-7199
▁recording	-7200
▁chairperson	-7201
▁lekanetšego	-7202
▁surveillance	-7203
RP	-7204
gal	-7205
gele	-7206
ihlo	-7207
tory	-7208
▁Cli	-7209
▁Ver	-7210
▁jur	-7211
▁advi	-7212
▁move	-7213
rition	-7214
▁India	-7215
▁preva	-7216
▁setse	-7217
hektare	-7218
▁agreed	-7219
▁boradi	-7220
▁immedi	-7221
▁kadimo	-7222
▁tlošwa	-7223
▁growing	-7224
▁sererwa	-7225
cientific	-7226
▁ahlaahla	-7227
▁tshwarelo	-7228
▁fihlelelwa	-7229
▁profenseng	-7230
▁turnstiles	-7231
▁Setatamente	-7232
▁Organisations	-7233
▁disadvantaged	-7234
',	-7235
19	-7236
OR	-7237
au	-7238
los	-7239
ray	-7240
sole	-7241
teen	-7242
▁Mab	-7243
▁Mus	-7244
lefsa	-7245
▁buša	-7246
▁mego	-7247
▁borwa	-7248
▁happy	-7249
▁polao	-7250
▁Report	-7251
▁export	-7252
▁instal	-7253
▁tlhako	-7254
lligence	-7255
▁Tshwane	-7256
▁dealing	-7257
▁morning	-7258
▁swerego	-7259
▁kganetšo	-7260
▁tšhišinyo	-7261
▁lahlegelwa	-7262
▁mechanisms	-7263
▁functioning	-7264
▁Minimisation	-7265
▁batšeakarolo	-7266
▁implementing	-7267
dor	-7268
▁Yo	-7269
fadi	-7270
llis	-7271
▁Mos	-7272
▁She	-7273
▁sek	-7274
ounds	-7275
▁Dist	-7276
▁Fela	-7277
▁Thek	-7278
▁itok	-7279
▁khwa	-7280
▁loss	-7281
▁phet	-7282
▁told	-7283
asteri	-7284
▁advis	-7285
▁exclu	-7286
udicial	-7287
▁Budget	-7288
▁Street	-7289
▁bogale	-7290
▁motšwa	-7291
▁ngwale	-7292
▁Dipoelo	-7293
▁advanta	-7294
▁intensi	-7295
▁maiteko	-7296
▁tatagwe	-7297
▁software	-7298
▁tshwenye	-7299
▁Honourable	-7300
▁bonagalago	-7301
▁developing	-7302
▁ditlhalošo	-7303
▁kontinente	-7304
▁ditšhupetšo	-7305
▁lebakanyana	-7306
▁construction	-7307
▁relationship	-7308
AR	-7309
gga	-7310
ror	-7311
▁My	-7312
▁ki	-7313
bedu	-7314
poši	-7315
šeng	-7316
▁Kat	-7317
▁Swa	-7318
comes	-7319
hlobo	-7320
urant	-7321
▁Badi	-7322
▁Lego	-7323
▁Seta	-7324
▁frag	-7325
▁ikwa	-7326
▁sebe	-7327
▁test	-7328
▁unit	-7329
▁wind	-7330
ceased	-7331
mphegi	-7332
▁Swedi	-7333
▁reaff	-7334
▁setso	-7335
▁upgra	-7336
▁urged	-7337
diction	-7338
▁Bobedi	-7339
▁Meisie	-7340
▁confis	-7341
▁theele	-7342
▁Sekwala	-7343
▁awarded	-7344
▁divided	-7345
▁fishing	-7346
▁achieved	-7347
▁heritage	-7348
▁katološa	-7349
▁receives	-7350
▁resource	-7351
▁bokaakang	-7352
▁hlokomelo	-7353
▁dumelelana	-7354
▁interconnected	-7355
ancy	-7356
mbud	-7357
▁(4)	-7358
▁top	-7359
atric	-7360
lithi	-7361
▁colo	-7362
▁swar	-7363
breast	-7364
dišišo	-7365
rought	-7366
▁Maite	-7367
▁leeto	-7368
▁Lesoso	-7369
▁choice	-7370
▁golega	-7371
▁lefoko	-7372
▁Bokgabo	-7373
▁Gabotse	-7374
▁culture	-7375
▁outside	-7376
▁prioriti	-7377
▁convicted	-7378
▁judiciary	-7379
▁statements	-7380
▁1,	-7381
▁43	-7382
▁OP	-7383
ened	-7384
itla	-7385
laya	-7386
moya	-7387
rous	-7388
▁500	-7389
▁Rej	-7390
▁mur	-7391
▁Prom	-7392
▁maro	-7393
▁port	-7394
▁refu	-7395
hlokwa	-7396
profit	-7397
▁disap	-7398
▁subsi	-7399
▁thopa	-7400
▁utili	-7401
▁Kalafo	-7402
▁bapala	-7403
▁bottle	-7404
▁emelwa	-7405
▁Swedish	-7406
▁boemedi	-7407
▁bolelwa	-7408
▁kgodišo	-7409
▁Matebele	-7410
▁Melawana	-7411
▁declared	-7412
▁emphasis	-7413
▁negative	-7414
▁decisions	-7415
▁lewatleng	-7416
▁materials	-7417
▁mentioned	-7418
▁promoting	-7419
▁standards	-7420
▁ukangwago	-7421
▁godingwana	-7422
▁statistics	-7423
);	-7424
AU	-7425
HO	-7426
▁1:	-7427
kazi	-7428
rens	-7429
▁mus	-7430
▁wat	-7431
enter	-7432
erous	-7433
▁cell	-7434
▁iphe	-7435
▁Panel	-7436
▁lesea	-7437
ception	-7438
wellery	-7439
▁Before	-7440
▁Kgetha	-7441
▁Morero	-7442
▁bohodu	-7443
▁dikgat	-7444
▁hlatho	-7445
▁leader	-7446
▁manane	-7447
▁trying	-7448
▁Charles	-7449
▁Methopo	-7450
▁changes	-7451
fications	-7452
▁balwetši	-7453
▁botelele	-7454
▁commonly	-7455
▁download	-7456
▁greatest	-7457
▁proposed	-7458
▁ikgethago	-7459
▁šomišitše	-7460
▁Mongwadiši	-7461
▁dikarolong	-7462
▁mainstream	-7463
▁negotiations	-7464
▁US	-7465
eder	-7466
xide	-7467
▁Bay	-7468
▁Pot	-7469
▁leš	-7470
▁Kabo	-7471
▁aowa	-7472
morago	-7473
▁Ellis	-7474
▁Leboa	-7475
▁ready	-7476
▁uncon	-7477
uration	-7478
▁bongwe	-7479
▁emetše	-7480
▁megolo	-7481
▁tshwaro	-7482
▁bašomiši	-7483
▁diragala	-7484
▁dissemin	-7485
▁hlomilwe	-7486
▁remember	-7487
▁directive	-7488
▁performed	-7489
▁intaseteri	-7490
▁Traditional	-7491
▁elektroniki	-7492
▁dikgorotsheko	-7493
▁investigation	-7494
▁batšwasehlabelo	-7495
yn	-7496
lei	-7497
▁Ya	-7498
▁nn	-7499
dist	-7500
▁Sch	-7501
▁efa	-7502
▁wis	-7503
hered	-7504
kilwe	-7505
legal	-7506
pšalo	-7507
▁Aust	-7508
▁Ntle	-7509
▁bots	-7510
▁camp	-7511
▁rome	-7512
▁ways	-7513
kopana	-7514
▁remin	-7515
▁Maatla	-7516
▁Matšhe	-7517
▁legacy	-7518
▁mpholo	-7519
▁termin	-7520
▁Stadium	-7521
▁elected	-7522
▁feditše	-7523
▁district	-7524
▁division	-7525
▁metsotso	-7526
▁phokotšo	-7527
▁seleteng	-7528
▁demokrasi	-7529
▁materiale	-7530
▁atlegilego	-7531
▁ditšhabeng	-7532
▁electronic	-7533
▁mmakgonthe	-7534
▁kopantšwego	-7535
▁administrative	-7536
ala	-7537
del	-7538
pts	-7539
hadi	-7540
išego	-7541
▁Sebo	-7542
anyana	-7543
▁Judge	-7544
▁Other	-7545
▁TokoL	-7546
▁White	-7547
▁metro	-7548
▁bodudi	-7549
▁kopane	-7550
▁motswa	-7551
▁seporo	-7552
▁tekano	-7553
▁temogo	-7554
▁tshepa	-7555
▁mobotse	-7556
▁phethwa	-7557
▁academic	-7558
▁dithunya	-7559
▁solution	-7560
▁investors	-7561
▁maitapišo	-7562
▁tsebegago	-7563
▁industrial	-7564
▁moragonyana	-7565
▁šišintšwego	-7566
kei	-7567
uni	-7568
.200	-7569
fana	-7570
fort	-7571
molo	-7572
▁dou	-7573
consu	-7574
▁Radi	-7575
▁atte	-7576
▁fola	-7577
▁host	-7578
kišiši	-7579
▁House	-7580
▁River	-7581
▁moago	-7582
▁foster	-7583
▁tlišwa	-7584
▁waters	-7585
▁Special	-7586
▁bohloki	-7587
▁located	-7588
▁actually	-7589
▁deceased	-7590
▁diphathi	-7591
▁oketšega	-7592
▁beakanywa	-7593
▁dithulano	-7594
▁jewellery	-7595
▁consequences	-7596
▁contemplated	-7597
▁authorisation	-7598
PI	-7599
sc	-7600
ser	-7601
▁Bra	-7602
▁Mal	-7603
▁blo	-7604
▁low	-7605
fensi	-7606
▁Dipa	-7607
▁Motse	-7608
▁baabi	-7609
▁incom	-7610
▁premi	-7611
▁sekga	-7612
otshwao	-7613
▁Lebaka	-7614
▁signed	-7615
▁tabeng	-7616
▁hlokego	-7617
▁kgonthe	-7618
▁matseno	-7619
▁mehlare	-7620
▁related	-7621
▁Tshepetšo	-7622
▁thomilego	-7623
▁industries	-7624
▁confiscated	-7625
▁participate	-7626
uz	-7627
pid	-7628
biša	-7629
▁Due	-7630
▁gla	-7631
▁oku	-7632
cause	-7633
light	-7634
mollo	-7635
▁Kweš	-7636
▁Mari	-7637
▁dang	-7638
▁emba	-7639
▁lešo	-7640
▁type	-7641
ducing	-7642
▁Agree	-7643
▁Depen	-7644
▁amend	-7645
▁liber	-7646
▁conclu	-7647
▁ideals	-7648
▁logist	-7649
▁points	-7650
▁raised	-7651
▁seriti	-7652
▁reading	-7653
▁science	-7654
▁spheres	-7655
▁statist	-7656
▁witness	-7657
▁khansele	-7658
▁monnyane	-7659
▁unemploy	-7660
▁Mukhabudi	-7661
▁hlabologago	-7662
▁Khuduthamaga	-7663
▁ikemišeditšego	-7664
The	-7665
▁75	-7666
▁Ob	-7667
akha	-7668
anga	-7669
arms	-7670
esta	-7671
naga	-7672
šupo	-7673
▁Two	-7674
▁khe	-7675
▁vul	-7676
organ	-7677
phiwa	-7678
teers	-7679
▁clas	-7680
▁fuel	-7681
▁milk	-7682
▁site	-7683
▁situ	-7684
▁sola	-7685
atleng	-7686
gamego	-7687
▁Black	-7688
▁Intro	-7689
▁creat	-7690
▁eligi	-7691
▁saena	-7692
▁taxpa	-7693
ability	-7694
politan	-7695
▁Tlhako	-7696
▁guides	-7697
▁tender	-7698
enkeleng	-7699
▁Because	-7700
▁fedišwa	-7701
▁primary	-7702
▁worksho	-7703
▁TokoLogo	-7704
▁activity	-7705
▁bonalago	-7706
▁exchange	-7707
▁assisting	-7708
▁marketing	-7709
▁methaladi	-7710
▁associated	-7711
▁protection	-7712
registration	-7713
▁beneficiaries	-7714
20	-7715
wen	-7716
yara	-7717
▁His	-7718
clear	-7719
hwadi	-7720
matic	-7721
▁Mpho	-7722
▁hote	-7723
▁khut	-7724
▁semi	-7725
chives	-7726
mitted	-7727
teraka	-7728
▁Coast	-7729
▁Forum	-7730
▁While	-7731
▁dikon	-7732
▁match	-7733
▁medic	-7734
▁seeks	-7735
▁unity	-7736
gnising	-7737
seletšo	-7738
▁Boleng	-7739
▁detail	-7740
▁huetša	-7741
▁legiti	-7742
▁rather	-7743
▁vision	-7744
umalanga	-7745
▁Lefapha	-7746
▁Provide	-7747
▁Setaele	-7748
▁brought	-7749
▁contrib	-7750
▁counter	-7751
▁mabotse	-7752
▁meaning	-7753
▁protect	-7754
▁stopped	-7755
▁attached	-7756
▁meetseng	-7757
▁tšerwego	-7758
▁ditseleng	-7759
▁percentage	-7760
▁prevention	-7761
habilitation	-7762
▁mohlokomedi	-7763
▁šomišitšwego	-7764
▁documentation	-7765
▁representatives	-7766
HE	-7767
SI	-7768
hn	-7769
qo	-7770
yi	-7771
opo	-7772
šwe	-7773
▁36	-7774
judi	-7775
▁SMS	-7776
▁buy	-7777
▁diš	-7778
▁Wena	-7779
▁agwa	-7780
▁maru	-7781
conomy	-7782
oplomo	-7783
▁align	-7784
▁extra	-7785
▁rates	-7786
▁remun	-7787
▁sympt	-7788
▁Branch	-7789
▁Lengwa	-7790
▁bolawa	-7791
▁broken	-7792
▁hlolwa	-7793
▁thušwa	-7794
▁tšhire	-7795
▁Tourism	-7796
▁tlogago	-7797
▁exercise	-7798
▁promoted	-7799
unibesithi	-7800
▁allocated	-7801
▁kholofelo	-7802
▁moetapele	-7803
▁kgahlišago	-7804
▁khuduthamaga	-7805
ji	-7806
head	-7807
rete	-7808
▁Mer	-7809
▁fif	-7810
▁hyd	-7811
▁und	-7812
itude	-7813
llect	-7814
▁akgo	-7815
▁comb	-7816
▁upon	-7817
belela	-7818
tation	-7819
▁again	-7820
▁balwa	-7821
▁kwele	-7822
▁tlame	-7823
▁Ithuta	-7824
▁Middle	-7825
▁Motheo	-7826
▁bogole	-7827
▁conver	-7828
▁duties	-7829
▁filego	-7830
▁keteka	-7831
▁prices	-7832
▁Develop	-7833
▁kgonega	-7834
▁morwalo	-7835
▁appeared	-7836
▁ingwadiša	-7837
▁requested	-7838
In	-7839
lymp	-7840
pite	-7841
tims	-7842
▁bop	-7843
▁den	-7844
▁peo	-7845
imane	-7846
▁wate	-7847
dilego	-7848
▁2009.	-7849
▁leboa	-7850
▁tsama	-7851
lwaneng	-7852
▁maswao	-7853
▁speech	-7854
▁privile	-7855
▁produce	-7856
▁storage	-7857
▁treated	-7858
▁hlamilwego	-7859
phethephethe	-7860
ywa	-7861
-259	-7862
ewed	-7863
kgwe	-7864
newa	-7865
rand	-7866
spit	-7867
thwa	-7868
yeng	-7869
▁Pan	-7870
▁SAN	-7871
▁rat	-7872
etulo	-7873
hlodi	-7874
lying	-7875
▁Mank	-7876
▁leta	-7877
leloko	-7878
lontle	-7879
rekere	-7880
▁Grain	-7881
▁Olymp	-7882
▁bokgo	-7883
▁follo	-7884
▁thewa	-7885
ighbour	-7886
raebete	-7887
▁Leloko	-7888
▁dikete	-7889
▁gangwa	-7890
▁hlakan	-7891
▁intera	-7892
▁ditheko	-7893
▁educate	-7894
▁pampiri	-7895
▁resolve	-7896
▁mootledi	-7897
▁response	-7898
▁stations	-7899
tlaleletšo	-7900
▁Hlokomela	-7901
▁integrity	-7902
▁recovered	-7903
▁Mpumalanga	-7904
▁Tlhokomelo	-7905
▁hweditšego	-7906
▁successful	-7907
▁hwetšagalago	-7908
▁remuneration	-7909
▁kgotsofatšago	-7910
oo	-7911
den	-7912
hum	-7913
ont	-7914
umo	-7915
▁Ju	-7916
▁NA	-7917
icha	-7918
wing	-7919
▁jud	-7920
▁nwe	-7921
▁	-7922
e	-7923
a	-7924
o	-7925
t	-7926
i	-7927
l	-7928
n	-7929
g	-7930
s	-7931
r	-7932
h	-7933
m	-7934
d	-7935
k	-7936
b	-7937
š	-7938
w	-7939
p	-7940
y	-7941
u	-7942
f	-7943
c	-7944
.	-7945
,	-7946
v	-7947
M	-7948
T	-7949
A	-7950
S	-7951
j	-7952
I	-7953
B	-7954
-	-7955
D	-7956
K	-7957
C	-7958
G	-7959
P	-7960
E	-7961
L	-7962
0	-7963
N	-7964
)	-7965
x	-7966
1	-7967
O	-7968
(	-7969
R	-7970
2	-7971
:	-7972
'	-7973
z	-7974
9	-7975
?	-7976
W	-7977
q	-7978
H	-7979
F	-7980
"	-7981
3	-7982
;	-7983
5	-7984
U	-7985
/	-7986
4	-7987
6	-7988
8	-7989
Y	-7990
7	-7991
V	-7992
J	-7993
Q	-7994
Z	-7995
!	-7996
