<unk>	0
<s>	0
</s>	0
ie	-0
er	-1
▁d	-2
an	-3
in	-4
en	-5
▁v	-6
▁die	-7
te	-8
▁o	-9
ge	-10
aa	-11
▁w	-12
or	-13
▁s	-14
▁b	-15
is	-16
ing	-17
et	-18
el	-19
▁a	-20
▁van	-21
▁m	-22
▁en	-23
▁h	-24
at	-25
es	-26
▁in	-27
le	-28
on	-29
ik	-30
▁ge	-31
de	-32
▁n	-33
it	-34
ek	-35
aar	-36
▁k	-37
▁p	-38
ers	-39
▁t	-40
▁'	-41
ord	-42
▁is	-43
re	-44
▁D	-45
▁te	-46
ig	-47
ro	-48
▁aan	-49
ur	-50
as	-51
▁ver	-52
id	-53
▁wat	-54
▁word	-55
al	-56
▁on	-57
der	-58
▁om	-59
▁be	-60
oe	-61
om	-62
ra	-63
▁op	-64
ir	-65
he	-66
se	-67
oor	-68
▁nie	-69
▁of	-70
ou	-71
▁vir	-72
st	-73
▁Die	-74
▁g	-75
▁j	-76
ol	-77
▁u	-78
die	-79
and	-80
ings	-81
erk	-82
lik	-83
▁mo	-84
▁het	-85
ste	-86
ul	-87
▁S	-88
ke	-89
oo	-90
ar	-91
▁bes	-92
▁moet	-93
▁W	-94
ent	-95
▁de	-96
sk	-97
▁V	-98
▁O	-99
we	-100
▁st	-101
▁met	-102
aat	-103
ite	-104
▁l	-105
▁M	-106
sie	-107
ap	-108
eer	-109
ende	-110
heid	-111
▁to	-112
ige	-113
▁kan	-114
ier	-115
▁A	-116
▁dat	-117
▁K	-118
ag	-119
▁as	-120
ru	-121
aal	-122
aan	-123
▁(	-124
▁e	-125
il	-126
▁B	-127
ry	-128
▁sal	-129
▁oor	-130
▁1	-131
▁uit	-132
▁voor	-133
▁by	-134
un	-135
▁re	-136
▁pro	-137
oek	-138
ang	-139
ond	-140
▁deur	-141
00	-142
eg	-143
▁P	-144
asie	-145
ter	-146
em	-147
ale	-148
▁H	-149
uur	-150
▁R	-151
am	-152
▁ons	-153
▁vers	-154
ok	-155
aak	-156
ens	-157
like	-158
▁hul	-159
ak	-160
▁waar	-161
fn	-162
be	-163
us	-164
▁2	-165
▁I	-166
▁daar	-167
af	-168
▁se	-169
raa	-170
▁f	-171
▁dit	-172
dien	-173
▁G	-174
▁aange	-175
▁N	-176
ion	-177
▁On	-178
▁na	-179
ierdie	-180
tw	-181
▁werk	-182
rag	-183
▁al	-184
oen	-185
kom	-186
ind	-187
ele	-188
▁tot	-189
oer	-190
me	-191
▁T	-192
skap	-193
▁geb	-194
rik	-195
▁reg	-196
▁E	-197
▁we	-198
ken	-199
est	-200
os	-201
dig	-202
oon	-203
▁jy	-204
stel	-205
ment	-206
gew	-207
ting	-208
oord	-209
ys	-210
▁toe	-211
op	-212
ne	-213
▁le	-214
▁hulle	-215
ies	-216
▁pl	-217
▁onder	-218
▁vol	-219
uit	-220
if	-221
▁bet	-222
▁so	-223
yd	-224
ron	-225
▁In	-226
ad	-227
ep	-228
ering	-229
▁jou	-230
oed	-231
rek	-232
▁af	-233
▁aans	-234
▁sk	-235
uid	-236
▁hierdie	-237
elik	-238
ander	-239
hou	-240
hede	-241
tel	-242
lig	-243
▁-	-244
ruik	-245
▁ook	-246
▁ek	-247
▁pers	-248
og	-249
eld	-250
teken	-251
.2	-252
iteit	-253
ate	-254
iese	-255
yk	-256
ot	-257
10	-258
are	-259
▁sy	-260
▁aansoek	-261
sp	-262
ist	-263
um	-264
▁Dit	-265
ien	-266
vol	-267
eel	-268
sel	-269
im	-270
frik	-271
eling	-272
▁bel	-273
▁L	-274
ente	-275
▁staat	-276
aas	-277
▁sp	-278
orm	-279
werk	-280
rond	-281
ders	-282
arte	-283
-0	-284
ikk	-285
ip	-286
xt	-287
onder	-288
▁<	-289
</	-290
txt	-291
uk	-292
luit	-293
▁enige	-294
aam	-295
▁jaar	-296
▁ak	-297
ver	-298
▁pa	-299
▁ges	-300
ub	-301
end	-302
omm	-303
vin	-304
▁ander	-305
▁inge	-306
raaf	-307
4.	-308
pro	-309
▁parag	-310
▁besk	-311
twikk	-312
▁paragraaf	-313
▁wees	-314
ed	-315
ont	-316
▁beh	-317
of	-318
▁r	-319
oos	-320
010	-321
iem	-322
wys	-323
▁verb	-324
iek	-325
ië	-326
▁dien	-327
ann	-328
ere	-329
oel	-330
▁200	-331
▁ont	-332
▁J	-333
ense	-334
artement	-335
▁Suid	-336
▁gebruik	-337
▁gro	-338
GO	-339
▁3	-340
.2010	-341
▁bep	-342
.2010-0	-343
nem	-344
vang	-345
Afrik	-346
een	-347
ZA	-348
GOV	-349
erm	-350
.2010-03	-351
▁bed	-352
ied	-353
asion	-354
aap	-355
ans	-356
-2	-357
▁verk	-358
▁best	-359
enn	-360
▁gel	-361
ant	-362
iv	-363
gel	-364
▁plaas	-365
baar	-366
wer	-367
voer	-368
.2010-03-2	-369
bare	-370
▁tyd	-371
pe	-372
art	-373
yn	-374
▁el	-375
voor	-376
ank	-377
▁soos	-378
▁aangeteken	-379
uis	-380
gra	-381
▁sek	-382
lag	-383
▁was	-384
iale	-385
DE	-386
.1	-387
ryf	-388
▁ged	-389
OO	-390
▁F	-391
val	-392
asionale	-393
bek	-394
aad	-395
sien	-396
▁meer	-397
tes	-398
ene	-399
amp	-400
enskap	-401
ov	-402
▁Dep	-403
.2010-03-24.	-404
bou	-405
▁mense	-406
▁maak	-407
OOR	-408
DEL	-409
YS	-410
▁persoon	-411
▁doen	-412
▁Kyk	-413
IV	-414
bekende	-415
OORDEL	-416
ligting	-417
staal	-418
heids	-419
▁akron	-420
▁bev	-421
▁akroniem	-422
▁Onbekende	-423
OORDELYS	-424
▁WOORDELYS	-425
▁staatstaal	-426
tre	-427
isie	-428
ekte	-429
ief	-430
▁land	-431
▁versk	-432
▁Pro	-433
▁MIV	-434
dat	-435
▁ten	-436
▁ar	-437
▁Departement	-438
tu	-439
▁ontwikk	-440
gram	-441
▁teen	-442
tor	-443
sies	-444
▁Wet	-445
▁C	-446
org	-447
oop	-448
ruk	-449
ikel	-450
ses	-451
▁een	-452
ab	-453
▁grond	-454
▁deel	-455
res	-456
iewe	-457
▁19	-458
▁me	-459
pas	-460
unis	-461
gov	-462
▁kind	-463
▁beg	-464
▁Ver	-465
▁alle	-466
tig	-467
ga	-468
unisip	-469
▁U	-470
▁ter	-471
▁As	-472
▁"	-473
pl	-474
▁kom	-475
▁ger	-476
▁onders	-477
vaar	-478
anneer	-479
meenskap	-480
▁prod	-481
▁mag	-482
antw	-483
▁hoe	-484
▁elke	-485
rak	-486
houd	-487
ug	-488
ic	-489
▁Wes	-490
asies	-491
gewing	-492
▁4	-493
▁6	-494
ring	-495
▁belang	-496
Kaap	-497
ay	-498
els	-499
vins	-500
antwoord	-501
▁5	-502
dige	-503
▁gem	-504
vinsiale	-505
▁Wat	-506
ple	-507
▁St	-508
▁wet	-509
▁kl	-510
wet	-511
oof	-512
raad	-513
▁maar	-514
▁indien	-515
▁inligting	-516
wes	-517
000	-518
sing	-519
▁bl	-520
iseer	-521
oog	-522
▁hy	-523
▁nu	-524
▁my	-525
aie	-526
▁stel	-527
qu	-528
erde	-529
deel	-530
elike	-531
ions	-532
komste	-533
▁Indien	-534
ae	-535
▁pr	-536
▁gemeenskap	-537
aatskap	-538
leg	-539
▁gew	-540
rou	-541
▁gele	-542
iële	-543
▁water	-544
▁ou	-545
▁Hierdie	-546
ame	-547
way	-548
ateway	-549
ake	-550
Afrika	-551
idd	-552
odig	-553
▁bestuur	-554
▁pol	-555
▁Ons	-556
aande	-557
sluit	-558
van	-559
cap	-560
oste	-561
▁doel	-562
▁beskik	-563
▁bin	-564
ff	-565
egateway	-566
sig	-567
des	-568
RA	-569
▁wil	-570
reek	-571
ié	-572
capegateway	-573
▁qu	-574
inge	-575
▁betaal	-576
king	-577
▁quest	-578
▁questions	-579
▁|	-580
volge	-581
▁Daar	-582
tikel	-583
▁diens	-584
▁ontvang	-585
waar	-586
▁Reg	-587
geb	-588
andel	-589
▁baie	-590
▁Vra	-591
▁nuwe	-592
oort	-593
▁volg	-594
iding	-595
ante	-596
▁ne	-597
iteite	-598
▁bek	-599
▁Ek	-600
▁verantwoord	-601
ort	-602
▁min	-603
wee	-604
▁gaan	-605
erv	-606
ande	-607
sen	-608
RAE	-609
).	-610
▁VRAE	-611
ling	-612
oet	-613
▁Om	-614
bl	-615
▁Raad	-616
volg	-617
▁voorsien	-618
ool	-619
▁dr	-620
▁0	-621
teun	-622
ert	-623
igheid	-624
rif	-625
ger	-626
▁binne	-627
unisipal	-628
ampte	-629
ommer	-630
kke	-631
▁ro	-632
ood	-633
▁kon	-634
ieke	-635
▁eers	-636
▁wanneer	-637
du	-638
▁goed	-639
dag	-640
wel	-641
▁groot	-642
▁mis	-643
teg	-644
ister	-645
▁ingevolge	-646
▁Be	-647
min	-648
onderhede	-649
mp	-650
▁kry	-651
ël	-652
ensie	-653
eil	-654
▁or	-655
rasie	-656
elf	-657
stand	-658
ubl	-659
..	-660
▁haar	-661
erings	-662
▁saam	-663
),	-664
oeg	-665
▁Op	-666
▁spes	-667
ye	-668
▁gen	-669
▁eien	-670
estuur	-671
aanse	-672
beeld	-673
▁twee	-674
eis	-675
bes	-676
▁betro	-677
ber	-678
onom	-679
▁gesond	-680
enbare	-681
▁artikel	-682
▁beskikbaar	-683
elings	-684
▁verh	-685
▁verl	-686
▁toepas	-687
▁belangrik	-688
ide	-689
▁gesk	-690
uite	-691
dra	-692
ges	-693
▁ooreen	-694
ennis	-695
dom	-696
▁vorm	-697
▁dié	-698
▁7	-699
▁Al	-700
wy	-701
▁person	-702
eker	-703
▁En	-704
▁fin	-705
▁hou	-706
▁net	-707
reg	-708
oë	-709
ident	-710
ut	-711
▁kinders	-712
ifik	-713
▁gee	-714
▁opsig	-715
▁ber	-716
▁nodig	-717
ater	-718
▁ag	-719
reer	-720
▁begin	-721
▁ad	-722
eds	-723
tem	-724
ac	-725
ooi	-726
▁kont	-727
iss	-728
ening	-729
dering	-730
▁Nasionale	-731
io	-732
gaan	-733
ussen	-734
▁c	-735
by	-736
gestel	-737
▁bepaal	-738
▁neem	-739
▁opsigte	-740
eneem	-741
▁besonderhede	-742
▁per	-743
lak	-744
vinsie	-745
eleid	-746
▁maatskap	-747
▁verst	-748
yf	-749
keur	-750
▁hier	-751
anis	-752
▁betrokke	-753
▁gest	-754
aag	-755
ust	-756
▁gedoen	-757
▁199	-758
woord	-759
▁volle	-760
▁ontwikkeling	-761
ult	-762
▁Hoe	-763
▁tussen	-764
▁eerste	-765
▁kennis	-766
program	-767
ei	-768
ryw	-769
▁daardie	-770
▁verseker	-771
saak	-772
nommer	-773
tal	-774
ekt	-775
ef	-776
▁000	-777
▁geval	-778
ark	-779
▁plaaslike	-780
▁geh	-781
vul	-782
▁pos	-783
ding	-784
doen	-785
Afrikaanse	-786
▁boer	-787
voorbeeld	-788
▁verskaf	-789
urs	-790
▁verantwoordelik	-791
▁ske	-792
ansiële	-793
tyd	-794
êre	-795
ink	-796
▁produk	-797
▁Jy	-798
▁SA	-799
▁dok	-800
▁proj	-801
perk	-802
unk	-803
▁im	-804
ereik	-805
elp	-806
tings	-807
▁toege	-808
gang	-809
▁gemaak	-810
▁regering	-811
oef	-812
veel	-813
▁polisie	-814
▁self	-815
rig	-816
▁dep	-817
▁nog	-818
rum	-819
▁8	-820
▁landbou	-821
legs	-822
▁vereis	-823
▁hand	-824
ts	-825
diens	-826
▁buite	-827
heer	-828
▁moont	-829
gesk	-830
▁Afrik	-831
onds	-832
ins	-833
▁Land	-834
▁rek	-835
▁aansoeker	-836
▁verm	-837
ill	-838
▁hê	-839
ode	-840
▁gereg	-841
▁Provinsiale	-842
gewer	-843
stig	-844
▁sub	-845
▁inkomste	-846
▁Ge	-847
bron	-848
asting	-849
unisipaliteit	-850
▁9	-851
telike	-852
▁kle	-853
▁Min	-854
ivers	-855
gem	-856
▁er	-857
▁Bes	-858
raag	-859
▁eg	-860
enis	-861
▁dienste	-862
▁gev	-863
▁ekonom	-864
bestuur	-865
▁nasionale	-866
▁geld	-867
.00	-868
istreer	-869
▁sod	-870
...	-871
▁program	-872
self	-873
▁Onder	-874
vor	-875
istrasie	-876
roue	-877
▁komm	-878
mal	-879
ilit	-880
▁hoof	-881
met	-882
oem	-883
▁ben	-884
▁gevolg	-885
iddel	-886
stelling	-887
▁provinsiale	-888
vers	-889
neming	-890
▁verbet	-891
iën	-892
▁regte	-893
oot	-894
▁verwys	-895
▁vas	-896
▁voord	-897
▁lede	-898
roep	-899
dienste	-900
ertifik	-901
ade	-902
▁siek	-903
skrif	-904
pp	-905
▁toek	-906
ging	-907
igs	-908
▁veil	-909
estig	-910
5.	-911
▁geen	-912
▁laat	-913
woordig	-914
êr	-915
▁gek	-916
urende	-917
entrum	-918
teen	-919
tern	-920
▁help	-921
wap	-922
ure	-923
itaal	-924
ermit	-925
▁amp	-926
▁Af	-927
▁datum	-928
▁lew	-929
lek	-930
▁huis	-931
▁slegs	-932
▁ondersteun	-933
▁besluit	-934
▁her	-935
▁10	-936
▁kor	-937
▁insluit	-938
leiding	-939
▁prob	-940
land	-941
▁pas	-942
▁leer	-943
rat	-944
koms	-945
ming	-946
▁huur	-947
rekking	-948
inde	-949
▁Kaap	-950
▁Grond	-951
osp	-952
itee	-953
▁hulp	-954
rateg	-955
ma	-956
▁sw	-957
▁openbare	-958
vind	-959
▁drie	-960
uurwap	-961
enthede	-962
▁nou	-963
▁Ar	-964
mente	-965
gele	-966
▁sê	-967
ulle	-968
▁wie	-969
na	-970
▁voer	-971
beampte	-972
bet	-973
rem	-974
ighede	-975
lede	-976
▁egter	-977
vorm	-978
▁watter	-979
su	-980
▁verander	-981
ifiseer	-982
oeding	-983
▁verkl	-984
isensie	-985
▁produs	-986
▁gesondheids	-987
▁uitvoer	-988
akel	-989
▁daarvan	-990
▁proses	-991
ud	-992
ook	-993
aling	-994
▁naam	-995
▁ontwikkel	-996
▁Werk	-997
▁sodan	-998
▁terug	-999
▁Landbou	-1000
▁man	-1001
ertifikaat	-1002
▁toepassing	-1003
ionele	-1004
pos	-1005
▁moontlik	-1006
olog	-1007
▁lig	-1008
▁misd	-1009
ters	-1010
tuig	-1011
dere	-1012
▁weer	-1013
ia	-1014
▁Regering	-1015
weeg	-1016
▁toes	-1017
aris	-1018
▁beskerm	-1019
hand	-1020
▁Minister	-1021
aand	-1022
beid	-1023
▁koste	-1024
2.	-1025
▁einde	-1026
▁bedrag	-1027
▁tydperk	-1028
êreld	-1029
▁werks	-1030
▁dan	-1031
▁versoek	-1032
▁volgende	-1033
▁sluit	-1034
▁verkry	-1035
▁kw	-1036
▁Voor	-1037
▁voort	-1038
▁seker	-1039
ulp	-1040
▁bedryf	-1041
▁ja	-1042
erp	-1043
iversiteit	-1044
▁toegang	-1045
br	-1046
diese	-1047
werking	-1048
▁sodanige	-1049
aring	-1050
▁skool	-1051
▁waarop	-1052
▁mens	-1053
▁finansiële	-1054
▁hof	-1055
iw	-1056
bev	-1057
▁eiendom	-1058
.9	-1059
oets	-1060
alings	-1061
jaar	-1062
▁lid	-1063
▁rol	-1064
ektor	-1065
▁beste	-1066
▁beteken	-1067
▁provinsie	-1068
iel	-1069
kun	-1070
eng	-1071
teenwoordig	-1072
keie	-1073
asil	-1074
iede	-1075
▁geï	-1076
▁res	-1077
sh	-1078
▁uitge	-1079
rae	-1080
ëls	-1081
▁ondersoek	-1082
our	-1083
▁goe	-1084
▁lang	-1085
▁toer	-1086
▁org	-1087
▁verw	-1088
pr	-1089
ilj	-1090
▁bem	-1091
▁vert	-1092
▁gebied	-1093
stem	-1094
▁sonder	-1095
entheid	-1096
ree	-1097
▁dag	-1098
lings	-1099
deling	-1100
▁eie	-1101
▁hers	-1102
▁sake	-1103
▁reeds	-1104
▁werknem	-1105
ium	-1106
rukt	-1107
ilities	-1108
▁bevord	-1109
irekte	-1110
acilities	-1111
50	-1112
▁and	-1113
▁gedurende	-1114
▁El	-1115
ole	-1116
▁inf	-1117
gee	-1118
kl	-1119
▁part	-1120
▁funk	-1121
▁bestaan	-1122
ch	-1123
lo	-1124
▁verbeter	-1125
uurwapen	-1126
tooi	-1127
▁beleid	-1128
raf	-1129
▁asook	-1130
▁verband	-1131
▁mees	-1132
▁bydra	-1133
stad	-1134
od	-1135
rewe	-1136
▁tydens	-1137
▁raad	-1138
ubliek	-1139
neem	-1140
▁eis	-1141
▁vis	-1142
▁ident	-1143
ervic	-1144
iemand	-1145
▁voorkom	-1146
▁behoort	-1147
▁bew	-1148
▁bepl	-1149
▁Kl	-1150
▁dae	-1151
▁ters	-1152
WU	-1153
merk	-1154
staan	-1155
aard	-1156
agtig	-1157
ument	-1158
▁ste	-1159
gawe	-1160
▁spesif	-1161
ong	-1162
▁wy	-1163
sm	-1164
.11	-1165
▁weet	-1166
▁personeel	-1167
▁12	-1168
▁hom	-1169
nemings	-1170
use	-1171
▁nood	-1172
gen	-1173
▁besoek	-1174
nr	-1175
▁omdat	-1176
gadering	-1177
▁br	-1178
▁Aan	-1179
gewings	-1180
unisipale	-1181
▁Kan	-1182
▁Is	-1183
▁get	-1184
ervices	-1185
bel	-1186
▁proble	-1187
▁betrekking	-1188
iet	-1189
iljoen	-1190
▁hoë	-1191
wyl	-1192
tuie	-1193
▁Uit	-1194
▁krag	-1195
iaal	-1196
▁veral	-1197
▁Pl	-1198
isme	-1199
ras	-1200
▁waarde	-1201
▁voldoen	-1202
py	-1203
aart	-1204
▁almal	-1205
▁Grondwet	-1206
▁med	-1207
arle	-1208
▁suk	-1209
▁geneem	-1210
rakt	-1211
▁behoef	-1212
anning	-1213
▁moe	-1214
twikkeling	-1215
▁projek	-1216
ker	-1217
yne	-1218
▁sit	-1219
handel	-1220
▁waarom	-1221
▁Ne	-1222
▁.	-1223
▁staan	-1224
artikel	-1225
arlement	-1226
▁Wanneer	-1227
dui	-1228
duk	-1229
▁Ges	-1230
▁bly	-1231
ruktuur	-1232
▁beperk	-1233
▁20	-1234
▁vanaf	-1235
12	-1236
twerp	-1237
▁gemeenskappe	-1238
sit	-1239
▁sl	-1240
.200	-1241
ansie	-1242
urg	-1243
to	-1244
sels	-1245
▁hosp	-1246
▁aanvaar	-1247
hank	-1248
▁voltooi	-1249
▁sodat	-1250
ore	-1251
▁maande	-1252
inn	-1253
▁An	-1254
▁plan	-1255
atuur	-1256
bruik	-1257
▁navor	-1258
▁verteenwoordig	-1259
▁sukses	-1260
▁organis	-1261
tige	-1262
▁vry	-1263
▁vaar	-1264
enning	-1265
▁kontrak	-1266
▁bied	-1267
▁voorsiening	-1268
sl	-1269
bed	-1270
niversiteit	-1271
▁waarin	-1272
wing	-1273
▁ind	-1274
▁the	-1275
atiewe	-1276
▁hoeveel	-1277
bronne	-1278
▁sekere	-1279
amil	-1280
vaardig	-1281
sy	-1282
▁vyf	-1283
▁ekonomiese	-1284
▁woon	-1285
byvoorbeeld	-1286
▁dus	-1287
one	-1288
▁uite	-1289
▁stand	-1290
▁subartikel	-1291
▁18	-1292
▁vroue	-1293
.4	-1294
▁belasting	-1295
▁klein	-1296
▁lewer	-1297
anteer	-1298
ersk	-1299
▁sou	-1300
aans	-1301
iteits	-1302
rale	-1303
▁wyse	-1304
do	-1305
▁Le	-1306
vl	-1307
▁stap	-1308
▁eienaar	-1309
fer	-1310
▁volgens	-1311
ikasie	-1312
▁departement	-1313
▁Pr	-1314
▁persone	-1315
▁beheer	-1316
▁voordat	-1317
wit	-1318
▁vier	-1319
▁skul	-1320
gesond	-1321
▁daarop	-1322
▁mediese	-1323
▁By	-1324
▁gere	-1325
▁oortre	-1326
▁Kaapstad	-1327
oms	-1328
fonds	-1329
▁imple	-1330
reerde	-1331
isik	-1332
▁inst	-1333
▁klin	-1334
▁toet	-1335
ery	-1336
orp	-1337
▁30	-1338
▁bereik	-1339
▁Waar	-1340
treff	-1341
▁Staat	-1342
▁gehou	-1343
▁skep	-1344
likheid	-1345
,000	-1346
leer	-1347
▁omgewing	-1348
▁bate	-1349
▁aangeb	-1350
ior	-1351
▁vlak	-1352
illende	-1353
rys	-1354
▁wel	-1355
▁bekend	-1356
ui	-1357
▁wys	-1358
ampus	-1359
▁kap	-1360
iënte	-1361
▁hanteer	-1362
plan	-1363
idings	-1364
proses	-1365
uidelik	-1366
▁wetgewing	-1367
▁produsente	-1368
iging	-1369
▁minder	-1370
▁wêreld	-1371
gekeur	-1372
ope	-1373
leen	-1374
houding	-1375
▁0.00	-1376
SA	-1377
▁Parlement	-1378
▁veroor	-1379
▁voed	-1380
▁huid	-1381
▁maand	-1382
▁sowel	-1383
▁Dien	-1384
▁gegee	-1385
▁Sk	-1386
▁groei	-1387
resident	-1388
▁vuurwapen	-1389
facilities	-1390
▁miljoen	-1391
elde	-1392
1.	-1393
▁prof	-1394
▁Ad	-1395
▁TB	-1396
ii	-1397
beur	-1398
▁buiteland	-1399
arie	-1400
▁kant	-1401
tiw	-1402
umente	-1403
moe	-1404
▁lewens	-1405
▁opleiding	-1406
7.	-1407
lyn	-1408
▁gestel	-1409
▁strateg	-1410
▁volledige	-1411
dery	-1412
MS	-1413
.93	-1414
▁verkies	-1415
▁Met	-1416
▁verskillende	-1417
▁permit	-1418
▁No	-1419
▁toel	-1420
▁plek	-1421
▁goeie	-1422
aaste	-1423
▁keer	-1424
son	-1425
ster	-1426
▁Sek	-1427
▁werkgewer	-1428
▁hoog	-1429
▁maatskaplike	-1430
▁geregistreer	-1431
rei	-1432
antoor	-1433
▁huidige	-1434
sings	-1435
stro	-1436
▁besp	-1437
produk	-1438
▁begro	-1439
▁intern	-1440
▁iemand	-1441
▁onderwys	-1442
▁plaaswerk	-1443
▁saak	-1444
teer	-1445
selfde	-1446
▁optre	-1447
adres	-1448
▁skakel	-1449
▁staats	-1450
▁Stad	-1451
▁skrif	-1452
irekteur	-1453
▁goedgekeur	-1454
▁sien	-1455
▁munisipaliteit	-1456
olk	-1457
atus	-1458
issie	-1459
▁voorgesk	-1460
▁veroorsaak	-1461
▁ins	-1462
huis	-1463
pun	-1464
▁druk	-1465
▁uitg	-1466
▁gebiede	-1467
trek	-1468
▁taal	-1469
Kaapse	-1470
ieë	-1471
groep	-1472
▁raak	-1473
gemene	-1474
▁afge	-1475
▁groep	-1476
ette	-1477
waardes	-1478
▁onge	-1479
▁onderneming	-1480
ib	-1481
ess	-1482
▁vra	-1483
isiko	-1484
▁Vir	-1485
igheids	-1486
▁boek	-1487
▁GE	-1488
stelsel	-1489
▁bevorder	-1490
slag	-1491
ten	-1492
ivid	-1493
reëls	-1494
▁Hoof	-1495
▁verg	-1496
unisipaliteite	-1497
stellings	-1498
▁lisensie	-1499
▁uitgereik	-1500
name	-1501
raam	-1502
▁kun	-1503
▁famil	-1504
tens	-1505
ow	-1506
▁dieselfde	-1507
▁spesifieke	-1508
rans	-1509
▁lewe	-1510
▁boere	-1511
kundige	-1512
ial	-1513
asis	-1514
▁Openbare	-1515
▁/	-1516
▁15	-1517
▁siekte	-1518
rein	-1519
▁bring	-1520
▁13	-1521
likse	-1522
geneem	-1523
onde	-1524
usting	-1525
▁admin	-1526
▁verkoop	-1527
rien	-1528
▁bou	-1529
▁Pers	-1530
artemente	-1531
▁Kom	-1532
▁verskeie	-1533
▁geleentheid	-1534
▁opge	-1535
temming	-1536
▁doeltreff	-1537
lae	-1538
▁Hulle	-1539
▁ontwikkelings	-1540
▁sektor	-1541
▁regerings	-1542
▁14	-1543
▁vl	-1544
komende	-1545
▁gedeel	-1546
▁beampte	-1547
oep	-1548
▁dra	-1549
▁Alle	-1550
▁Vigs	-1551
delike	-1552
▁Enige	-1553
▁De	-1554
oorte	-1555
nolog	-1556
standighede	-1557
▁kwal	-1558
ontrak	-1559
▁ongel	-1560
yke	-1561
▁Sp	-1562
plig	-1563
▁vro	-1564
▁komp	-1565
din	-1566
▁terwyl	-1567
▁11	-1568
proj	-1569
▁2000	-1570
▁aantal	-1571
▁ses	-1572
▁venn	-1573
▁oorweeg	-1574
▁ru	-1575
aks	-1576
▁sam	-1577
▁Van	-1578
▁gewoon	-1579
▁Me	-1580
▁Vol	-1581
▁erk	-1582
▁nadat	-1583
▁plant	-1584
▁meeste	-1585
ase	-1586
▁kr	-1587
▁sorg	-1588
▁toegeken	-1589
▁byvoorbeeld	-1590
59	-1591
.3	-1592
itief	-1593
▁Hy	-1594
geleenthede	-1595
▁Kind	-1596
▁hospitaal	-1597
wat	-1598
▁tans	-1599
60	-1600
▁mon	-1601
issery	-1602
werheid	-1603
ee	-1604
hef	-1605
▁lê	-1606
vis	-1607
komm	-1608
ratis	-1609
▁vor	-1610
ome	-1611
hulp	-1612
▁gebeur	-1613
▁mark	-1614
▁projekte	-1615
▁voorl	-1616
▁behandel	-1617
ading	-1618
▁priv	-1619
.12	-1620
aars	-1621
▁bewys	-1622
▁beter	-1623
▁middel	-1624
▁belangrike	-1625
inder	-1626
▁ingestel	-1627
druk	-1628
▁besl	-1629
▁skole	-1630
▁gesondheid	-1631
koste	-1632
▁versp	-1633
ange	-1634
▁werknemers	-1635
gawes	-1636
▁beoog	-1637
▁besit	-1638
rast	-1639
▁fe	-1640
▁verke	-1641
ersiële	-1642
▁registrasie	-1643
ose	-1644
▁toest	-1645
▁rig	-1646
▁weg	-1647
▁bepalings	-1648
▁maatskappy	-1649
▁eff	-1650
ommige	-1651
▁doelwit	-1652
dok	-1653
▁ra	-1654
toets	-1655
udente	-1656
ors	-1657
gelê	-1658
stige	-1659
▁Mens	-1660
services	-1661
▁verdere	-1662
▁ooreenkoms	-1663
ibl	-1664
▁jong	-1665
▁opgawe	-1666
▁aangedui	-1667
▁pad	-1668
blief	-1669
▁gevaar	-1670
▁vermin	-1671
iote	-1672
▁same	-1673
▁verd	-1674
▁stu	-1675
▁Komm	-1676
aatreëls	-1677
▁buitelandse	-1678
vat	-1679
won	-1680
▁mas	-1681
indes	-1682
pak	-1683
▁gewe	-1684
ibliote	-1685
gings	-1686
6.	-1687
aba	-1688
▁teg	-1689
▁asse	-1690
estasie	-1691
▁totale	-1692
jie	-1693
▁Vers	-1694
▁dokument	-1695
rastruktuur	-1696
▁val	-1697
ultuur	-1698
▁natuur	-1699
▁verbind	-1700
▁asseblief	-1701
andeling	-1702
▁fasil	-1703
ane	-1704
▁Of	-1705
▁Fin	-1706
sitter	-1707
dheid	-1708
▁tersaak	-1709
▁werkers	-1710
erg	-1711
asiese	-1712
gaam	-1713
▁bron	-1714
▁manier	-1715
▁verhoog	-1716
▁Na	-1717
telik	-1718
eleindes	-1719
▁verleen	-1720
11	-1721
▁web	-1722
raan	-1723
▁Water	-1724
▁gewas	-1725
▁behandeling	-1726
uw	-1727
▁ko	-1728
▁verrig	-1729
▁President	-1730
ublic	-1731
▁2004	-1732
▁publiek	-1733
▁bevoeg	-1734
▁gratis	-1735
▁ouer	-1736
derdom	-1737
▁tersaaklike	-1738
▁prakt	-1739
▁bedoel	-1740
▁elekt	-1741
▁aansoekvorm	-1742
▁vak	-1743
▁klag	-1744
voerende	-1745
▁uitdag	-1746
▁verklaar	-1747
geme	-1748
▁for	-1749
▁stad	-1750
form	-1751
▁gesp	-1752
istrik	-1753
▁seksu	-1754
▁misdaad	-1755
▁polisiebeampte	-1756
imêre	-1757
▁tree	-1758
▁steeds	-1759
mee	-1760
▁oop	-1761
por	-1762
pleeg	-1763
▁Bestuur	-1764
tiwiteite	-1765
▁spesiale	-1766
rust	-1767
▁volhou	-1768
▁kliniek	-1769
▁Moet	-1770
▁leerders	-1771
30	-1772
▁verslag	-1773
▁ondersteuning	-1774
▁kantoor	-1775
▁no	-1776
▁kommersiële	-1777
ootskap	-1778
red	-1779
alte	-1780
iddels	-1781
▁probleme	-1782
ateg	-1783
lang	-1784
▁are	-1785
ulasies	-1786
ateriaal	-1787
▁kennisgewing	-1788
enheid	-1789
▁16	-1790
▁100	-1791
▁tolk	-1792
▁vaardig	-1793
▁munisipaliteite	-1794
ko	-1795
wels	-1796
▁GEMS	-1797
▁Provinsie	-1798
bb	-1799
▁ern	-1800
▁kos	-1801
aseer	-1802
stroom	-1803
▁afhank	-1804
▁munisipale	-1805
▁oud	-1806
▁genoem	-1807
kampus	-1808
tiging	-1809
▁verklaring	-1810
wend	-1811
▁rekord	-1812
ret	-1813
ament	-1814
▁betaling	-1815
ec	-1816
ms	-1817
voed	-1818
▁lei	-1819
▁Toer	-1820
▁loop	-1821
▁trek	-1822
▁verlies	-1823
▁verbruik	-1824
twikkelings	-1825
▁gehad	-1826
saaklik	-1827
▁gestrem	-1828
▁gewoonlik	-1829
aai	-1830
▁ens	-1831
ategor	-1832
▁altyd	-1833
▁steun	-1834
▁internasionale	-1835
maak	-1836
werf	-1837
erman	-1838
▁vind	-1839
▁toestemming	-1840
200	-1841
▁Besk	-1842
▁inter	-1843
▁verwag	-1844
tog	-1845
volle	-1846
-,	-1847
iteer	-1848
▁Munisipaliteit	-1849
itiewe	-1850
▁Afrika	-1851
▁skuldig	-1852
▁ingedien	-1853
tr	-1854
-02.	-1855
vlak	-1856
▁Mnr	-1857
ember	-1858
plaas	-1859
▁boerdery	-1860
▁huurder	-1861
Wet	-1862
grond	-1863
▁Noord	-1864
gebruik	-1865
unikasie	-1866
▁amptelike	-1867
eken	-1868
▁stappe	-1869
▁waarvoor	-1870
ard	-1871
▁Afr	-1872
les	-1873
▁kop	-1874
▁geïn	-1875
awe	-1876
ursus	-1877
▁getal	-1878
▁waarvan	-1879
▁verminder	-1880
▁toepaslike	-1881
ation	-1882
▁stem	-1883
ikwels	-1884
▁beskou	-1885
veer	-1886
▁fis	-1887
etisie	-1888
fers	-1889
▁selfs	-1890
▁kragtens	-1891
▁programme	-1892
ester	-1893
ividu	-1894
tiewe	-1895
issaris	-1896
▁risiko	-1897
▁goedkeur	-1898
▁1.	-1899
▁kwes	-1900
▁1,	-1901
iste	-1902
▁anders	-1903
▁voertuig	-1904
inf	-1905
valu	-1906
wese	-1907
▁Pot	-1908
▁groter	-1909
▁besigheid	-1910
alk	-1911
rip	-1912
teur	-1913
77	-1914
▁app	-1915
tinge	-1916
▁oord	-1917
eks	-1918
▁un	-1919
▁streek	-1920
▁behoeftes	-1921
▁Uitvoerende	-1922
▁omstandighede	-1923
stit	-1924
▁Ber	-1925
beleid	-1926
▁ouderdom	-1927
63	-1928
▁2009	-1929
rie	-1930
▁Kinders	-1931
ire	-1932
iënt	-1933
stens	-1934
stasie	-1935
▁vervoer	-1936
▁ooreenstem	-1937
▁speel	-1938
▁implement	-1939
RV	-1940
▁bo	-1941
▁gevalle	-1942
isi	-1943
imum	-1944
▁form	-1945
▁algemene	-1946
.2009	-1947
▁gebou	-1948
▁voedsel	-1949
NWU	-1950
alwe	-1951
▁vul	-1952
vinsies	-1953
▁Gesond	-1954
▁verstaan	-1955
eke	-1956
iets	-1957
remier	-1958
▁bates	-1959
▁nodige	-1960
▁afgel	-1961
▁bydrae	-1962
▁bevestig	-1963
▁ple	-1964
▁agter	-1965
oorde	-1966
▁Elke	-1967
▁bestaande	-1968
▁arbeid	-1969
▁partye	-1970
ons	-1971
fenis	-1972
▁bena	-1973
▁gelys	-1974
▁vorige	-1975
▁produksie	-1976
▁ke	-1977
spro	-1978
ansies	-1979
komstig	-1980
▁geskied	-1981
▁voorwaardes	-1982
myn	-1983
▁aard	-1984
middel	-1985
▁soort	-1986
aarde	-1987
▁dood	-1988
▁hele	-1989
TE	-1990
heen	-1991
▁enig	-1992
gebied	-1993
▁bevat	-1994
deur	-1995
▁wins	-1996
▁skryf	-1997
▁aangele	-1998
▁dikwels	-1999
▁studente	-2000
▁50	-2001
▁60	-2002
plek	-2003
▁pog	-2004
▁werking	-2005
▁Dié	-2006
▁primêre	-2007
▁omgewings	-2008
▁insluitend	-2009
ille	-2010
iter	-2011
sentrum	-2012
▁Watter	-2013
uim	-2014
▁beleg	-2015
belasting	-2016
▁Vergadering	-2017
dep	-2018
▁he	-2019
gedra	-2020
▁teenoor	-2021
gesondheids	-2022
▁tip	-2023
▁beide	-2024
▁ouers	-2025
▁naaste	-2026
▁Bel	-2027
▁tek	-2028
ekaar	-2029
houers	-2030
▁brand	-2031
▁praat	-2032
▁individu	-2033
▁voorgeskrewe	-2034
osk	-2035
itale	-2036
rywing	-2037
▁ongeluk	-2038
▁SAP	-2039
▁stelsel	-2040
▁onderteken	-2041
▁17	-2042
datum	-2043
bedryf	-2044
erskap	-2045
▁werker	-2046
▁ing	-2047
▁Aans	-2048
▁motor	-2049
maatskap	-2050
▁verlede	-2051
40	-2052
▁NWU	-2053
▁dem	-2054
▁gees	-2055
nologie	-2056
gestelde	-2057
▁Dienste	-2058
▁registreer	-2059
▁slag	-2060
▁Voord	-2061
▁party	-2062
▁liggaam	-2063
nis	-2064
ondse	-2065
▁korrek	-2066
mm	-2067
za	-2068
dur	-2069
man	-2070
chef	-2071
liks	-2072
▁kons	-2073
▁kort	-2074
raamwerk	-2075
▁ekonomie	-2076
▁veiligheid	-2077
dent	-2078
itieke	-2079
▁...	-2080
AL	-2081
berg	-2082
kema	-2083
ronk	-2084
▁uiteen	-2085
▁toekoms	-2086
▁visvang	-2087
▁navorsing	-2088
▁aangebied	-2089
owe	-2090
▁lank	-2091
ligtings	-2092
chefstroom	-2093
▁wis	-2094
▁Aansoek	-2095
ontwikkeling	-2096
▁SV	-2097
▁julle	-2098
▁sommige	-2099
▁afgelope	-2100
▁dokumente	-2101
▁sertifikaat	-2102
IE	-2103
▁Engel	-2104
staande	-2105
▁gep	-2106
▁Direkteur	-2107
eb	-2108
toe	-2109
▁So	-2110
▁ap	-2111
▁herstel	-2112
oekom	-2113
▁aanb	-2114
atief	-2115
eerder	-2116
▁Kliek	-2117
▁verder	-2118
aklik	-2119
▁Plaas	-2120
▁aangestel	-2121
vloed	-2122
▁Premier	-2123
▁aanslag	-2124
▁aansoeke	-2125
▁onderhoud	-2126
▁hulpbronne	-2127
▁samewerking	-2128
leu	-2129
▁aanbev	-2130
handeling	-2131
▁funksies	-2132
▁verstrek	-2133
▁Potchefstroom	-2134
1,	-2135
gro	-2136
kru	-2137
▁Ter	-2138
▁dek	-2139
▁kontak	-2140
▁basiese	-2141
▁voordele	-2142
gesit	-2143
illig	-2144
▁1998	-2145
gelaat	-2146
▁uitgawes	-2147
beg	-2148
▁perman	-2149
ordering	-2150
▁kategor	-2151
erf	-2152
▁plaasvind	-2153
your	-2154
▁Gem	-2155
▁vandag	-2156
▁Voordat	-2157
▁toerusting	-2158
dis	-2159
eug	-2160
regte	-2161
▁genoeg	-2162
''	-2163
ha	-2164
beh	-2165
its	-2166
▁gesê	-2167
▁handel	-2168
▁studie	-2169
▁familie	-2170
rand	-2171
▁betre	-2172
iseerde	-2173
▁aandag	-2174
▁Maatskap	-2175
ris	-2176
ct	-2177
ass	-2178
versk	-2179
▁SAPD	-2180
▁Onderwys	-2181
▁vennootskap	-2182
lew	-2183
kode	-2184
rede	-2185
oneel	-2186
gewers	-2187
ote	-2188
▁My	-2189
keid	-2190
okus	-2191
▁Rep	-2192
betaal	-2193
▁implementering	-2194
ën	-2195
burg	-2196
▁Ont	-2197
18	-2198
ine	-2199
▁Kle	-2200
▁jare	-2201
sontwerp	-2202
▁ondernemings	-2203
▁Des	-2204
andse	-2205
dhede	-2206
water	-2207
▁besig	-2208
▁swart	-2209
punt	-2210
urger	-2211
eldtog	-2212
termyn	-2213
▁Arbeid	-2214
▁ongeveer	-2215
igte	-2216
ly	-2217
moede	-2218
ublik	-2219
▁vermoë	-2220
▁misdryf	-2221
tore	-2222
▁ingevul	-2223
▁31	-2224
leutel	-2225
ooreen	-2226
eenskap	-2227
uriteit	-2228
pye	-2229
ivier	-2230
▁later	-2231
sid	-2232
ctor	-2233
erende	-2234
▁weens	-2235
▁voordeel	-2236
▁>	-2237
▁vraag	-2238
kontrak	-2239
▁Inkomste	-2240
▁uitvoerende	-2241
nie	-2242
skryf	-2243
gemeen	-2244
▁seksuele	-2245
.8	-2246
▁Deur	-2247
▁dalk	-2248
derings	-2249
▁polisiestasie	-2250
adig	-2251
▁Huis	-2252
leidings	-2253
▁gelewer	-2254
▁infrastruktuur	-2255
▁Noordwes	-2256
▁begroting	-2257
per	-2258
▁Sy	-2259
▁paar	-2260
eë	-2261
stal	-2262
▁rente	-2263
komitee	-2264
▁bv	-2265
▁asp	-2266
20	-2267
ïn	-2268
▁Dr	-2269
loop	-2270
▁prose	-2271
▁vervang	-2272
▁ry	-2273
seer	-2274
▁duur	-2275
▁prys	-2276
▁drank	-2277
▁onlang	-2278
▁Sw	-2279
ars	-2280
uiste	-2281
▁weke	-2282
▁behoor	-2283
▁siektes	-2284
▁Ontwikkeling	-2285
70	-2286
▁Afrikaans	-2287
NG	-2288
oes	-2289
dert	-2290
▁invul	-2291
▁toets	-2292
reiding	-2293
▁vereistes	-2294
▁toekenning	-2295
▁Oor	-2296
fasil	-2297
▁effekt	-2298
▁verskyn	-2299
▁jaarlikse	-2300
▁glo	-2301
▁Geen	-2302
▁reken	-2303
▁bykomende	-2304
▁ooreenstemming	-2305
▁Vry	-2306
▁dro	-2307
▁produkte	-2308
▁gesondheidsorg	-2309
53	-2310
mat	-2311
sake	-2312
▁adres	-2313
▁Ch	-2314
▁lys	-2315
irector	-2316
organis	-2317
▁duidelik	-2318
▁werknemer	-2319
▁beplanning	-2320
str	-2321
gene	-2322
▁oog	-2323
▁2008	-2324
▁rede	-2325
▁perseel	-2326
programme	-2327
▁aangesien	-2328
ws	-2329
▁0.	-2330
▁pot	-2331
▁doelwitte	-2332
lop	-2333
isyne	-2334
▁norm	-2335
▁bewus	-2336
▁produsent	-2337
arm	-2338
▁2003	-2339
▁bemagtig	-2340
▁drukskrif	-2341
▁strategiese	-2342
vi	-2343
aer	-2344
ousu	-2345
▁Jan	-2346
ousule	-2347
▁daarna	-2348
houdings	-2349
▁benodig	-2350
▁Republiek	-2351
▁prestasie	-2352
▁plaaswerkers	-2353
ereg	-2354
igings	-2355
▁vooraf	-2356
irectories	-2357
los	-2358
▁moes	-2359
▁redes	-2360
hem	-2361
▁bibliote	-2362
geld	-2363
▁lande	-2364
▁tweede	-2365
▁permanente	-2366
▁Universiteit	-2367
▁24	-2368
▁kol	-2369
▁inwon	-2370
▁besmet	-2371
▁geboorte	-2372
▁ingesluit	-2373
▁oortreding	-2374
oto	-2375
ader	-2376
irek	-2377
▁2005	-2378
▁saad	-2379
▁afhanklik	-2380
meld	-2381
▁TRV	-2382
▁ent	-2383
▁mnr	-2384
▁diere	-2385
▁sport	-2386
tende	-2387
▁Sake	-2388
▁uitb	-2389
▁do	-2390
staat	-2391
▁baba	-2392
▁week	-2393
nemers	-2394
▁Fonds	-2395
▁stuur	-2396
verskaf	-2397
▁hersien	-2398
▁vergadering	-2399
▁toon	-2400
▁gelyk	-2401
▁onkru	-2402
▁trans	-2403
▁Staats	-2404
▁bedrae	-2405
67	-2406
kep	-2407
haar	-2408
▁sterk	-2409
tegreerde	-2410
IS	-2411
RS	-2412
digheid	-2413
▁afskrif	-2414
▁gestuur	-2415
▁Gemeenskap	-2416
AS	-2417
owwe	-2418
beheer	-2419
▁Finansiële	-2420
▁gemeenskaps	-2421
pel	-2422
▁Gro	-2423
▁lug	-2424
▁vigs	-2425
▁belas	-2426
▁voorheen	-2427
.114	-2428
stof	-2429
itees	-2430
waarde	-2431
▁bloot	-2432
▁beplan	-2433
▁verskil	-2434
▁organisasie	-2435
51	-2436
nu	-2437
bevel	-2438
▁2006	-2439
▁swang	-2440
▁bevind	-2441
▁ontwerp	-2442
▁verplig	-2443
▁geleenthede	-2444
tenis	-2445
onders	-2446
osiale	-2447
roniese	-2448
▁vestig	-2449
baarheid	-2450
▁magtiging	-2451
dings	-2452
▁bank	-2453
unstig	-2454
voeding	-2455
▁daarvoor	-2456
▁uitdagings	-2457
BA	-2458
imin	-2459
rdin	-2460
spel	-2461
aners	-2462
▁Toerisme	-2463
▁algemeen	-2464
▁21	-2465
▁Pol	-2466
ese	-2467
▁Munisipale	-2468
besk	-2469
sektor	-2470
▁Engels	-2471
produksie	-2472
▁grootste	-2473
.2010-03-25.	-2474
▁identiteits	-2475
ensy	-2476
telsel	-2477
tekening	-2478
dule	-2479
amens	-2480
ruktu	-2481
sonder	-2482
wyse	-2483
▁sleutel	-2484
▁politieke	-2485
▁25	-2486
ator	-2487
iers	-2488
jies	-2489
▁hoër	-2490
▁geskik	-2491
▁organisasies	-2492
WR	-2493
dek	-2494
▁burg	-2495
▁oorsp	-2496
entskap	-2497
isd	-2498
pers	-2499
gewende	-2500
▁vaardighede	-2501
siek	-2502
▁reis	-2503
oskode	-2504
▁demok	-2505
▁Desember	-2506
1)	-2507
▁Een	-2508
isoen	-2509
permit	-2510
▁Jou	-2511
▁2007	-2512
▁tale	-2513
ennings	-2514
ektoraat	-2515
gemeenskap	-2516
▁bekom	-2517
▁optrede	-2518
▁probleem	-2519
dentifiseer	-2520
.18	-2521
koop	-2522
sver	-2523
▁aand	-2524
▁feit	-2525
▁lees	-2526
▁Artikel	-2527
▁bystand	-2528
doende	-2529
▁gevra	-2530
▁menslike	-2531
fin	-2532
lan	-2533
oei	-2534
▁08	-2535
asse	-2536
▁Het	-2537
▁miel	-2538
istreerde	-2539
aker	-2540
▁beë	-2541
▁Word	-2542
▁koop	-2543
onomiese	-2544
▁son	-2545
indien	-2546
spekte	-2547
▁korpor	-2548
ob	-2549
▁boe	-2550
▁ken	-2551
ektaar	-2552
isk	-2553
arings	-2554
▁volhoubare	-2555
loos	-2556
stuk	-2557
aksie	-2558
▁Baie	-2559
▁aanv	-2560
▁mede	-2561
▁skoon	-2562
▁plante	-2563
-1	-2564
kie	-2565
alle	-2566
▁Kon	-2567
▁Komitee	-2568
▁Afdeling	-2569
▁toerisme	-2570
irektoraat	-2571
ioen	-2572
▁bewe	-2573
status	-2574
▁kinder	-2575
▁aktiwiteite	-2576
▁ch	-2577
58	-2578
shof	-2579
▁oes	-2580
gekom	-2581
▁moei	-2582
▁oorsk	-2583
▁fisiese	-2584
▁posisie	-2585
▁verkeers	-2586
amer	-2587
▁str	-2588
▁2010	-2589
virale	-2590
▁prior	-2591
▁Directories	-2592
gelyk	-2593
▁Teen	-2594
▁behalwe	-2595
▁bepaalde	-2596
rop	-2597
kings	-2598
▁Gebruik	-2599
▁armoede	-2600
OT	-2601
dro	-2602
tek	-2603
hang	-2604
inger	-2605
▁SVWR	-2606
▁vroeë	-2607
disionele	-2608
▁gehe	-2609
▁maklik	-2610
rovirale	-2611
▁verhuur	-2612
▁hoeveelheid	-2613
▁skriftelike	-2614
2,	-2615
▁Ag	-2616
▁vrou	-2617
▁fondse	-2618
▁persoonlike	-2619
▁kommunikasie	-2620
▁tipe	-2621
▁geraak	-2622
▁optree	-2623
5.2010-03-24.	-2624
dus	-2625
rug	-2626
set	-2627
drag	-2628
verl	-2629
wens	-2630
▁bre	-2631
preek	-2632
tenare	-2633
endheid	-2634
▁daarom	-2635
▁aangegaan	-2636
iz	-2637
veil	-2638
▁erken	-2639
rywighede	-2640
Universiteit	-2641
▁blad	-2642
gaande	-2643
▁versprei	-2644
NE	-2645
fe	-2646
▁kyk	-2647
poort	-2648
▁afval	-2649
▁behoefte	-2650
▁kompetisie	-2651
▁uiteengesit	-2652
▁departemente	-2653
▁doeltreffende	-2654
lyf	-2655
iere	-2656
▁vrien	-2657
aliseer	-2658
menteer	-2659
inkomste	-2660
keer	-2661
▁News	-2662
▁veel	-2663
▁poskode	-2664
▁goedkeuring	-2665
▁Or	-2666
▁di	-2667
junk	-2668
▁tra	-2669
ronde	-2670
▁weier	-2671
/0	-2672
uut	-2673
inet	-2674
ooit	-2675
istra	-2676
kantoor	-2677
ifikasie	-2678
▁kultuur	-2679
▁skriftelik	-2680
▁Z	-2681
mak	-2682
digde	-2683
▁rond	-2684
▁verduidelik	-2685
▁,	-2686
jin	-2687
saam	-2688
▁kies	-2689
enings	-2690
ensies	-2691
▁basis	-2692
isering	-2693
▁dokter	-2694
lewering	-2695
▁bespreek	-2696
29	-2697
▁heel	-2698
▁tele	-2699
▁vryw	-2700
▁want	-2701
etters	-2702
▁gedeelte	-2703
▁kapitaal	-2704
rol	-2705
▁ite	-2706
afhank	-2707
▁tensy	-2708
▁webwerf	-2709
▁beskerming	-2710
▁regulasies	-2711
▁ooreenkomstig	-2712
▁geïdentifiseer	-2713
▁40	-2714
▁Apr	-2715
▁nooit	-2716
".	-2717
▁Med	-2718
▁dwel	-2719
▁term	-2720
deelde	-2721
▁April	-2722
▁fokus	-2723
dokument	-2724
▁Services	-2725
▁dinge	-2726
▁toegelaat	-2727
▁wetenskap	-2728
for	-2729
aaie	-2730
▁sim	-2731
▁beroep	-2732
▁natuurlike	-2733
▁evalu	-2734
▁gehalte	-2735
▁vissery	-2736
▁posadres	-2737
▁vervaardig	-2738
AN	-2739
ape	-2740
reik	-2741
▁ide	-2742
dures	-2743
▁Maar	-2744
▁direk	-2745
▁potens	-2746
▁oorgedra	-2747
▁rekening	-2748
bo	-2749
.19	-2750
▁Bet	-2751
valle	-2752
▁Maak	-2753
▁trust	-2754
▁verga	-2755
▁weers	-2756
▁toegew	-2757
▁probeer	-2758
▁onderneem	-2759
wig	-2760
agte	-2761
ywer	-2762
oemde	-2763
▁Hoekom	-2764
▁bevordering	-2765
del	-2766
bepl	-2767
▁kliënte	-2768
▁verwerk	-2769
▁mekaar	-2770
▁besonder	-2771
▁Omgewings	-2772
▁begunstig	-2773
mb	-2774
orpe	-2775
▁bro	-2776
▁swak	-2777
▁Klein	-2778
▁komitee	-2779
gesondheid	-2780
▁ondervind	-2781
▁handtekening	-2782
aste	-2783
lyne	-2784
▁tro	-2785
eksie	-2786
gener	-2787
▁namens	-2788
▁Inligting	-2789
retrovirale	-2790
▁aangebring	-2791
▁plaaswerker	-2792
23	-2793
omp	-2794
sep	-2795
▁2.	-2796
▁geë	-2797
▁imm	-2798
redie	-2799
gemaak	-2800
▁teken	-2801
▁salaris	-2802
▁verkiesing	-2803
hebb	-2804
▁dank	-2805
▁waarsk	-2806
▁persent	-2807
▁aansoekers	-2808
th	-2809
ana	-2810
▁23	-2811
boek	-2812
geer	-2813
rywe	-2814
▁toen	-2815
▁bloed	-2816
▁oorspronk	-2817
▁doeleindes	-2818
▁vergoeding	-2819
▁uur	-2820
abinet	-2821
▁gesien	-2822
▁minstens	-2823
▁Wetsontwerp	-2824
adem	-2825
voeg	-2826
▁Spe	-2827
kaart	-2828
▁diep	-2829
▁skade	-2830
▁Intern	-2831
▁privaat	-2832
▁Ander	-2833
▁geleë	-2834
telling	-2835
▁versorg	-2836
▁voertuie	-2837
57	-2838
ri	-2839
▁agt	-2840
▁spec	-2841
▁vinn	-2842
▁graag	-2843
▁ontstaan	-2844
brief	-2845
plant	-2846
▁verdien	-2847
▁geregistreerde	-2848
21	-2849
geh	-2850
▁3.	-2851
▁dui	-2852
skool	-2853
istrat	-2854
▁reeks	-2855
ekering	-2856
▁wissel	-2857
▁i	-2858
tand	-2859
▁getu	-2860
projekte	-2861
▁instelling	-2862
▁provinsies	-2863
ING	-2864
verk	-2865
houer	-2866
wante	-2867
▁teik	-2868
.2009-	-2869
▁Opdoen	-2870
▁gebring	-2871
▁private	-2872
▁moontlike	-2873
▁Ontwikkelings	-2874
80	-2875
ruis	-2876
mense	-2877
▁Prof	-2878
▁sken	-2879
annings	-2880
usionele	-2881
▁gesament	-2882
kers	-2883
▁area	-2884
ekening	-2885
gebiede	-2886
▁slagof	-2887
▁afdeling	-2888
▁deelname	-2889
▁navorsings	-2890
▁th	-2891
erie	-2892
▁dink	-2893
▁tien	-2894
amptes	-2895
▁Public	-2896
▁gewees	-2897
uleer	-2898
▁Deel	-2899
ensioen	-2900
nemende	-2901
strateg	-2902
▁gehoor	-2903
▁hektaar	-2904
▁uitgevoer	-2905
▁Maatskaplike	-2906
64	-2907
KO	-2908
wa	-2909
▁We	-2910
▁oper	-2911
ologiese	-2912
▁elektris	-2913
▁Pos	-2914
▁gou	-2915
▁huw	-2916
uarie	-2917
▁Ople	-2918
▁ruim	-2919
eniging	-2920
▁geskep	-2921
▁kursus	-2922
▁verblyf	-2923
▁aanspreek	-2924
▁verandering	-2925
▁ID	-2926
▁Toe	-2927
▁Tot	-2928
sters	-2929
▁dele	-2930
▁inisi	-2931
▁Onders	-2932
▁geniet	-2933
▁Gesondheid	-2934
OE	-2935
▁Beg	-2936
▁Net	-2937
▁der	-2938
ergie	-2939
ified	-2940
▁virus	-2941
▁sedert	-2942
▁gereeld	-2943
▁oordrag	-2944
hul	-2945
▁Beh	-2946
▁houer	-2947
▁totdat	-2948
▁onmiddel	-2949
13	-2950
▁Re	-2951
rade	-2952
▁OBA	-2953
▁fak	-2954
breng	-2955
kunde	-2956
proei	-2957
▁funks	-2958
▁gemik	-2959
▁Januarie	-2960
abel	-2961
▁Ten	-2962
▁Maart	-2963
elewing	-2964
▁aandui	-2965
▁geweld	-2966
▁aspekte	-2967
▁uitreik	-2968
istrateur	-2969
▁opleidings	-2970
wal	-2971
ulke	-2972
▁Ged	-2973
▁Let	-2974
▁Oud	-2975
▁leef	-2976
▁behuis	-2977
▁maatreëls	-2978
kap	-2979
fing	-2980
▁Nie	-2981
▁hoop	-2982
besmet	-2983
▁versuim	-2984
ves	-2985
▁Volg	-2986
elandse	-2987
▁rekords	-2988
hol	-2989
ids	-2990
otte	-2991
▁1999	-2992
▁dorp	-2993
▁gewys	-2994
▁verwy	-2995
▁geslag	-2996
▁belange	-2997
▁erfenis	-2998
▁kategorie	-2999
19	-3000
4,	-3001
uun	-3002
▁iets	-3003
▁plat	-3004
positief	-3005
▁bereken	-3006
▁administrasie	-3007
haal	-3008
tree	-3009
▁voel	-3010
▁alles	-3011
▁sames	-3012
▁bydraes	-3013
▁ernstige	-3014
Afrikaners	-3015
▁maatskappye	-3016
▁voorletters	-3017
73	-3018
mes	-3019
bere	-3020
▁mik	-3021
▁vrae	-3022
▁Bylae	-3023
▁langer	-3024
▁opgele	-3025
▁planne	-3026
▁toesig	-3027
▁woorde	-3028
▁berading	-3029
▁instellings	-3030
pping	-3031
▁resp	-3032
diging	-3033
trekking	-3034
▁toestande	-3035
▁aanstelling	-3036
▁mate	-3037
▁test	-3038
▁derde	-3039
▁monit	-3040
▁sterf	-3041
▁swangerskap	-3042
splan	-3043
uasie	-3044
▁Neem	-3045
▁binn	-3046
projek	-3047
▁Swart	-3048
▁veilig	-3049
▁versam	-3050
▁Plaaslike	-3051
6,	-3052
foon	-3053
span	-3054
▁Wie	-3055
punte	-3056
▁Lede	-3057
▁Program	-3058
▁inwoners	-3059
aaf	-3060
▁Hof	-3061
ograf	-3062
▁graan	-3063
▁bestee	-3064
▁poging	-3065
▁naamlik	-3066
wyd	-3067
▁BE	-3068
▁elk	-3069
▁Meer	-3070
▁jeug	-3071
▁Mense	-3072
▁Kaapse	-3073
▁opgestel	-3074
▁onderskeie	-3075
▁28	-3076
▁bewerk	-3077
▁klagte	-3078
ubliseer	-3079
▁handels	-3080
▁stadium	-3081
▁verhouding	-3082
ums	-3083
▁Vroue	-3084
▁geplaas	-3085
▁Wetgewer	-3086
mas	-3087
ryk	-3088
▁vre	-3089
▁wit	-3090
▁Stel	-3091
▁open	-3092
▁gesag	-3093
▁gevang	-3094
▁publik	-3095
▁vanjaar	-3096
▁veilige	-3097
▁bestuurs	-3098
▁spesifiek	-3099
▁fasiliteit	-3100
▁aangeleentheid	-3101
5,	-3102
ho	-3103
je	-3104
▁an	-3105
enig	-3106
arking	-3107
▁uitgeb	-3108
▁daartoe	-3109
",	-3110
43	-3111
▁Er	-3112
▁ii	-3113
▁vaste	-3114
▁antwoord	-3115
▁gebaseer	-3116
skom	-3117
▁198	-3118
spreek	-3119
beskerm	-3120
▁goedere	-3121
▁belangrikste	-3122
▁vlakke	-3123
orte	-3124
▁faks	-3125
▁reël	-3126
▁waarna	-3127
▁Volgens	-3128
▁diegene	-3129
▁kwessies	-3130
ern	-3131
▁The	-3132
gereg	-3133
▁regs	-3134
rukture	-3135
▁profess	-3136
▁wetgewer	-3137
▁aangewend	-3138
▁samelewing	-3139
▁hoofsaaklik	-3140
▁oorspronklike	-3141
hoe	-3142
net	-3143
toon	-3144
▁enk	-3145
▁pun	-3146
▁Adjunk	-3147
▁daarin	-3148
▁plekke	-3149
▁burgers	-3150
▁oorskry	-3151
▁vertrou	-3152
▁Onderhoud	-3153
▁geskiedenis	-3154
ID	-3155
akk	-3156
off	-3157
tein	-3158
indig	-3159
▁beïn	-3160
▁tegn	-3161
geskik	-3162
tering	-3163
▁Kabinet	-3164
▁funksie	-3165
▁uitstaande	-3166
▁(0	-3167
info	-3168
ynlik	-3169
▁vang	-3170
12-02.	-3171
ervorm	-3172
▁straf	-3173
▁verord	-3174
.2009-12-02.	-3175
WS	-3176
NEWS	-3177
lote	-3178
▁Bem	-3179
trent	-3180
▁gereed	-3181
▁kontant	-3182
ministrasie	-3183
68	-3184
jek	-3185
was	-3186
akom	-3187
▁rak	-3188
▁gekom	-3189
▁Instit	-3190
▁toelaat	-3191
▁ondergaan	-3192
▁belanghebb	-3193
▁voorsitter	-3194
hoof	-3195
sidie	-3196
▁sulke	-3197
▁onlangs	-3198
▁terrein	-3199
▁Afrikaanse	-3200
▁huurkontrak	-3201
inst	-3202
week	-3203
▁tye	-3204
ffing	-3205
▁chem	-3206
▁Skema	-3207
▁hande	-3208
▁vinnig	-3209
▁finansie	-3210
▁redelike	-3211
▁maandelik	-3212
▁verwysing	-3213
IK	-3214
▁Aug	-3215
wende	-3216
▁reën	-3217
aansoek	-3218
▁geregtig	-3219
7,	-3220
la	-3221
ske	-3222
ula	-3223
lasie	-3224
▁Verk	-3225
▁burger	-3226
IT	-3227
▁Y	-3228
laag	-3229
vies	-3230
▁Uys	-3231
urele	-3232
▁Kont	-3233
▁span	-3234
handig	-3235
▁uiters	-3236
▁werkplek	-3237
▁vordering	-3238
▁besigheids	-3239
▁bal	-3240
eerde	-3241
▁impak	-3242
▁keuse	-3243
vissery	-3244
▁geword	-3245
▁kliënt	-3246
▁Speaker	-3247
▁grondwet	-3248
▁4.	-3249
hoek	-3250
▁Hier	-3251
▁hoef	-3252
verslag	-3253
werkers	-3254
▁oorleg	-3255
▁Kommissie	-3256
gesondheidsorg	-3257
ute	-3258
▁2,	-3259
▁laaste	-3260
▁ingelig	-3261
beplanning	-3262
▁medikasie	-3263
▁veiligheids	-3264
ler	-3265
fond	-3266
▁Sub	-3267
▁Hoog	-3268
jinerie	-3269
▁getuie	-3270
▁seisoen	-3271
▁verhuurder	-3272
▁elektrisiteit	-3273
enk	-3274
▁Ak	-3275
sorg	-3276
▁Goe	-3277
▁Lid	-3278
▁huwelik	-3279
keidenheid	-3280
bv	-3281
ryse	-3282
enior	-3283
▁SARS	-3284
▁breë	-3285
public	-3286
▁bekle	-3287
▁lidmaatskap	-3288
▁Ok	-3289
ostig	-3290
▁Binn	-3291
▁geag	-3292
malige	-3293
asiteit	-3294
▁bemark	-3295
▁materiaal	-3296
▁toegestaan	-3297
▁verbinding	-3298
.59	-3299
same	-3300
rediet	-3301
mentaar	-3302
▁bronne	-3303
▁Beampte	-3304
doeleindes	-3305
RP	-3306
agn	-3307
enie	-3308
reef	-3309
fekte	-3310
wysings	-3311
▁result	-3312
▁verval	-3313
▁rakende	-3314
▁bekostig	-3315
IG	-3316
ce	-3317
doel	-3318
▁vee	-3319
▁2002	-3320
oerant	-3321
▁brief	-3322
▁toestand	-3323
▁voorbere	-3324
sertifikaat	-3325
▁aanbeveling	-3326
▁geïntegreerde	-3327
ble	-3328
ipl	-3329
▁Sep	-3330
▁soek	-3331
▁oplos	-3332
spelers	-3333
▁bladsy	-3334
▁moeder	-3335
▁spreek	-3336
▁Berading	-3337
▁versterk	-3338
▁begrotings	-3339
hab	-3340
▁22	-3341
kohol	-3342
eksies	-3343
streek	-3344
▁oorwe	-3345
merking	-3346
▁vanuit	-3347
▁Polisie	-3348
▁onkruid	-3349
istratiewe	-3350
ER	-3351
inne	-3352
▁akk	-3353
tober	-3354
begrip	-3355
brengs	-3356
▁status	-3357
▁veldtog	-3358
▁medisyne	-3359
▁voorgelê	-3360
▁werkgewers	-3361
Min	-3362
ito	-3363
mer	-3364
osie	-3365
vula	-3366
.9363	-3367
▁foto	-3368
▁kult	-3369
▁Skool	-3370
▁skuld	-3371
▁vorms	-3372
.9363.18	-3373
materiaal	-3374
▁paspoort	-3375
▁Binnelandse	-3376
best	-3377
▁nag	-3378
▁spuit	-3379
▁eerder	-3380
▁inhoud	-3381
▁Vervoer	-3382
strategie	-3383
▁noodsaaklik	-3384
uns	-3385
▁Kry	-3386
delik	-3387
unaal	-3388
▁bevel	-3389
▁gewerk	-3390
fondsing	-3391
formasie	-3392
▁direkte	-3393
▁sentrum	-3394
▁insluitende	-3395
▁suksesvolle	-3396
▁voorgeskryf	-3397
elk	-3398
mvula	-3399
oende	-3400
▁hang	-3401
▁maat	-3402
▁stry	-3403
groepe	-3404
moedig	-3405
▁terme	-3406
▁gebrek	-3407
▁inbegrip	-3408
besmetting	-3409
▁voldoende	-3410
▁Facilities	-3411
▁langtermyn	-3412
besonderhede	-3413
order	-3414
useer	-3415
▁polis	-3416
▁erkenning	-3417
.2010-03-02.	-3418
fon	-3419
▁Bl	-3420
dure	-3421
▁neg	-3422
▁inhe	-3423
▁betref	-3424
▁soveel	-3425
▁Oktober	-3426
▁aanmerking	-3427
ryp	-3428
ustus	-3429
▁stig	-3430
▁taak	-3431
eganis	-3432
▁boete	-3433
rigting	-3434
Minister	-3435
dokumente	-3436
▁onderrig	-3437
▁uitsluit	-3438
▁voortgaan	-3439
▁verrigtinge	-3440
.13	-3441
/200	-3442
▁dam	-3443
eregte	-3444
▁Persoon	-3445
▁sosiale	-3446
▁gevestig	-3447
▁grondslag	-3448
tim	-3449
ule	-3450
vir	-3451
blad	-3452
emand	-3453
ogter	-3454
▁stat	-3455
ibunaal	-3456
▁Augustus	-3457
▁pasiënte	-3458
▁situasie	-3459
▁produseer	-3460
▁suksesvol	-3461
▁Ekonomiese	-3462
▁dienslewering	-3463
unie	-3464
isies	-3465
▁reëls	-3466
▁Iemand	-3467
▁behels	-3468
▁konsep	-3469
produkte	-3470
▁Tes	-3471
▁mee	-3472
ienis	-3473
skrifte	-3474
▁finale	-3475
bos	-3476
▁29	-3477
iêre	-3478
oefen	-3479
tember	-3480
▁aanlyn	-3481
▁gespes	-3482
▁daaraan	-3483
."	-3484
ubs	-3485
▁Pret	-3486
▁bors	-3487
▁gene	-3488
▁fonds	-3489
oont	-3490
theid	-3491
▁mond	-3492
▁Vrien	-3493
▁gelei	-3494
▁visie	-3495
▁wette	-3496
▁opdrag	-3497
▁getoets	-3498
▁omtrent	-3499
▁September	-3500
▁effektiewe	-3501
▁verskeidenheid	-3502
▁gr	-3503
afel	-3504
kken	-3505
werp	-3506
▁tar	-3507
▁distrik	-3508
▁sodoende	-3509
▁werksaam	-3510
▁positiewe	-3511
departement	-3512
▁tegnologie	-3513
▁ab	-3514
▁lyn	-3515
▁sig	-3516
▁talle	-3517
▁Behoort	-3518
▁verhoed	-3519
▁hospitale	-3520
▁landelike	-3521
61	-3522
OS	-3523
iks	-3524
eien	-3525
▁Mar	-3526
▁bil	-3527
gehou	-3528
▁Huur	-3529
▁hoor	-3530
ervlak	-3531
▁moeilik	-3532
▁vermeld	-3533
bestuurder	-3534
▁Vuurwapen	-3535
▁behoorlik	-3536
▁beïnvloed	-3537
▁prosedures	-3538
ebru	-3539
ondome	-3540
huising	-3541
oordele	-3542
rekings	-3543
▁Pretor	-3544
▁rondom	-3545
▁eenheid	-3546
▁instand	-3547
wetenskap	-3548
▁aangewys	-3549
▁betaalbaar	-3550
▁rolspelers	-3551
2.2010-03-24.	-3552
▁vergaderings	-3553
▁professionele	-3554
ena	-3555
▁sn	-3556
ourie	-3557
▁Veil	-3558
▁naby	-3559
▁Besmet	-3560
generaal	-3561
▁tydelike	-3562
8.	-3563
stra	-3564
▁Tyd	-3565
▁maks	-3566
▁gerig	-3567
aseerde	-3568
pervlak	-3569
▁verlang	-3570
▁owerheid	-3571
▁kommentaar	-3572
raak	-3573
▁Jul	-3574
▁sewe	-3575
▁Febru	-3576
▁slawe	-3577
▁moedig	-3578
▁regter	-3579
▁tender	-3580
hulpbron	-3581
▁Hoeveel	-3582
▁beskadig	-3583
▁funksion	-3584
▁jaarliks	-3585
▁uitvoering	-3586
▁onmiddellik	-3587
▁identifiseer	-3588
2)	-3589
vou	-3590
kure	-3591
▁Kennis	-3592
▁beslis	-3593
▁teenwoordig	-3594
hof	-3595
lis	-3596
yds	-3597
▁ton	-3598
▁wes	-3599
.595.	-3600
okvis	-3601
▁name	-3602
▁pres	-3603
▁gekry	-3604
▁elkeen	-3605
▁waarmee	-3606
agentskap	-3607
▁ongeskik	-3608
▁biblioteek	-3609
▁beskermings	-3610
▁gesamentlike	-3611
jar	-3612
pie	-3613
▁des	-3614
▁daag	-3615
gevind	-3616
▁strek	-3617
▁geweier	-3618
▁verloor	-3619
▁bepaling	-3620
▁besluite	-3621
▁onafhank	-3622
▁toegepas	-3623
▁getuienis	-3624
▁skakelkode	-3625
7.2010-03-24.	-3626
,"	-3627
oh	-3628
see	-3629
▁beur	-3630
▁Regte	-3631
▁nasie	-3632
vorsing	-3633
aw	-3634
ise	-3635
▁43	-3636
ogen	-3637
toek	-3638
▁arg	-3639
elder	-3640
hewig	-3641
▁2001	-3642
▁kanker	-3643
▁masels	-3644
bew	-3645
eff	-3646
omb	-3647
wyk	-3648
emse	-3649
ities	-3650
jekte	-3651
▁Gaan	-3652
▁depos	-3653
▁gepas	-3654
▁Terwyl	-3655
voordele	-3656
▁gesonde	-3657
▁lewende	-3658
kommissaris	-3659
▁waarskynlik	-3660
▁Bed	-3661
▁eise	-3662
Imvula	-3663
▁graad	-3664
▁normale	-3665
houdelike	-3666
▁artikels	-3667
▁Februarie	-3668
▁aangewese	-3669
ontwikkelings	-3670
oi	-3671
▁ma	-3672
boer	-3673
mark	-3674
koers	-3675
▁plase	-3676
▁onthou	-3677
ografiese	-3678
▁verpleeg	-3679
▁beleggings	-3680
ST	-3681
Die	-3682
deer	-3683
▁let	-3684
eelde	-3685
istor	-3686
▁ingew	-3687
▁andere	-3688
▁beweeg	-3689
▁regver	-3690
▁tekort	-3691
▁toekom	-3692
verwante	-3693
▁werkloos	-3694
▁Ondergaan	-3695
▁Direktoraat	-3696
lie	-3697
dorp	-3698
▁Teg	-3699
▁erv	-3700
▁Jaar	-3701
▁Seks	-3702
▁meter	-3703
▁skema	-3704
▁minste	-3705
ospitaal	-3706
▁vooruit	-3707
▁struktuur	-3708
▁administratiewe	-3709
lê	-3710
bank	-3711
▁Hoë	-3712
▁Sch	-3713
▁benut	-3714
delings	-3715
▁alleen	-3716
▁geskikte	-3717
▁amptenare	-3718
▁afgehandel	-3719
▁inligtings	-3720
▁standaarde	-3721
▁voormalige	-3722
9.2010-03-24.	-3723
▁doeltreffend	-3724
oit	-3725
▁MM	-3726
▁Hou	-3727
▁win	-3728
oedig	-3729
rings	-3730
gegaan	-3731
iteria	-3732
▁hernu	-3733
▁groepe	-3734
▁termyn	-3735
▁Distrik	-3736
▁beleids	-3737
uurwapens	-3738
▁belegging	-3739
▁benadeelde	-3740
▁kwalifiseer	-3741
▁plaasgevind	-3742
▁verbetering	-3743
48	-3744
ALN	-3745
klin	-3746
▁wag	-3747
▁hart	-3748
▁soms	-3749
▁Julie	-3750
entings	-3751
▁mening	-3752
▁teiken	-3753
ywerheid	-3754
▁Beskerm	-3755
▁daaroor	-3756
▁geestes	-3757
▁landdro	-3758
▁specified	-3759
▁maandelikse	-3760
lid	-3761
vra	-3762
▁du	-3763
Pula	-3764
arty	-3765
osbou	-3766
▁Soos	-3767
▁tuis	-3768
agnose	-3769
▁Persal	-3770
▁aanmeld	-3771
ogenoemde	-3772
▁maksimum	-3773
▁toekomstige	-3774
tief	-3775
spoor	-3776
▁NALN	-3777
gewoon	-3778
ikking	-3779
jarige	-3780
▁trots	-3781
▁ernstig	-3782
▁gewysig	-3783
positiewe	-3784
▁Gedurende	-3785
▁voorgestelde	-3786
RO	-3787
▁27	-3788
▁80	-3789
▁kn	-3790
tref	-3791
▁bor	-3792
▁bru	-3793
▁eer	-3794
▁omvat	-3795
▁onver	-3796
▁slaag	-3797
middels	-3798
werhede	-3799
▁lening	-3800
▁opvoed	-3801
▁toetse	-3802
.1.	-3803
500	-3804
aes	-3805
ast	-3806
wis	-3807
▁em	-3808
smis	-3809
▁wan	-3810
lende	-3811
▁oudit	-3812
▁getoon	-3813
▁gronde	-3814
▁Kultuur	-3815
maatreëls	-3816
▁Algemene	-3817
▁tersiêre	-3818
gebaseerde	-3819
▁kwaliteit	-3820
▁regtehouers	-3821
stu	-3822
▁Bep	-3823
▁Mei	-3824
▁Sal	-3825
andid	-3826
▁bere	-3827
eninge	-3828
▁opstel	-3829
▁pligte	-3830
▁aanbied	-3831
▁riglyne	-3832
▁uiteind	-3833
▁voeding	-3834
▁vrywillig	-3835
100	-3836
bep	-3837
▁tu	-3838
iode	-3839
ulasie	-3840
▁Orale	-3841
dusente	-3842
▁Wêreld	-3843
▁werklike	-3844
▁befondsing	-3845
▁verbruikers	-3846
kant	-3847
▁les	-3848
gende	-3849
rimin	-3850
etting	-3851
▁alkohol	-3852
▁mielies	-3853
▁minimum	-3854
▁verwante	-3855
▁belasbare	-3856
▁publikasie	-3857
▁bevoegdhede	-3858
▁aangeleenthede	-3859
len	-3860
▁Bev	-3861
▁tel	-3862
hervorm	-3863
▁konfer	-3864
▁maniere	-3865
▁pogings	-3866
▁selfoon	-3867
▁deelneem	-3868
▁geskrewe	-3869
ooreenkoms	-3870
veiligheid	-3871
woordigheid	-3872
▁Voorsitter	-3873
▁sekuriteit	-3874
pt	-3875
▁bio	-3876
▁fou	-3877
▁tre	-3878
prene	-3879
hoewel	-3880
illige	-3881
▁Junie	-3882
▁agters	-3883
▁faktore	-3884
PulaImvula	-3885
▁onderhewig	-3886
9.	-3887
BS	-3888
nov	-3889
▁Nu	-3890
itel	-3891
kond	-3892
▁eet	-3893
▁Hulp	-3894
▁bevol	-3895
▁droog	-3896
rekening	-3897
▁gewasse	-3898
▁meerder	-3899
▁betrokken	-3900
▁uitwerking	-3901
departemente	-3902
▁verspreiding	-3903
oper	-3904
ating	-3905
onent	-3906
▁belê	-3907
▁merk	-3908
esters	-3909
orator	-3910
▁paaie	-3911
▁swaar	-3912
betaling	-3913
▁plattel	-3914
▁waaronder	-3915
▁verwysings	-3916
bei	-3917
▁las	-3918
▁nakom	-3919
▁Pretoria	-3920
▁verwyder	-3921
▁demokrasie	-3922
▁korporasie	-3923
app	-3924
slae	-3925
iteur	-3926
▁Hand	-3927
▁kode	-3928
tiwiteit	-3929
▁Vrystaat	-3930
▁besproei	-3931
▁pensioen	-3932
▁raamwerk	-3933
▁strategie	-3934
▁voorbeeld	-3935
3,	-3936
9,	-3937
tels	-3938
usse	-3939
onger	-3940
ffende	-3941
oegang	-3942
▁gewone	-3943
▁Mediese	-3944
▁sektore	-3945
kommissie	-3946
4.2010-03-24.	-3947
resp	-3948
▁Joh	-3949
▁amb	-3950
▁lek	-3951
vereis	-3952
istiese	-3953
▁bewaar	-3954
▁vervolg	-3955
inligting	-3956
▁bogenoemde	-3957
organisasies	-3958
lu	-3959
apie	-3960
vrae	-3961
wins	-3962
▁betrek	-3963
▁skedule	-3964
▁stokvis	-3965
▁korrekte	-3966
▁tegniese	-3967
▁jongmense	-3968
▁Gesondheids	-3969
vry	-3970
▁36	-3971
▁bi	-3972
aald	-3973
mpel	-3974
terk	-3975
▁500	-3976
▁Vul	-3977
kende	-3978
oning	-3979
legging	-3980
werings	-3981
▁deposito	-3982
▁mededing	-3983
▁oorhandig	-3984
▁aftrekking	-3985
▁berekening	-3986
▁transformasie	-3987
▁teenwoordigheid	-3988
▁65	-3989
baan	-3990
over	-3991
▁MMW	-3992
▁sak	-3993
gewese	-3994
koming	-3995
planne	-3996
▁Graan	-3997
raktyke	-3998
▁bedank	-3999
oc	-4000
tiv	-4001
spes	-4002
endes	-4003
teurs	-4004
dertyd	-4005
stowwe	-4006
▁behou	-4007
▁geste	-4008
▁state	-4009
▁geheel	-4010
▁instel	-4011
▁aanwend	-4012
elfdertyd	-4013
opleiding	-4014
ywerheids	-4015
ialiseerde	-4016
▁begunstigdes	-4017
▁gl	-4018
▁ha	-4019
tuele	-4020
uiten	-4021
behoef	-4022
▁geluk	-4023
▁akadem	-4024
lisensie	-4025
pligtige	-4026
▁konsult	-4027
oratorium	-4028
▁Tesourie	-4029
▁gereelde	-4030
▁Aangewese	-4031
▁kulturele	-4032
▁Provinsies	-4033
▁Kennisgewing	-4034
▁bedrywighede	-4035
▁Internasionale	-4036
wen	-4037
▁Dat	-4038
ruksie	-4039
iddelde	-4040
▁immuun	-4041
▁invoer	-4042
uidelike	-4043
▁interne	-4044
▁verkrag	-4045
▁wysiging	-4046
▁praktiese	-4047
▁kapasiteit	-4048
3.	-4049
ET	-4050
▁dw	-4051
jare	-4052
▁Goeie	-4053
▁liter	-4054
▁medium	-4055
▁energie	-4056
▁prokure	-4057
▁uitslag	-4058
▁klinieke	-4059
▁BB	-4060
haaf	-4061
omin	-4062
prys	-4063
▁Mas	-4064
orpor	-4065
reide	-4066
▁huise	-4067
organisasie	-4068
52	-4069
▁ww	-4070
onderd	-4071
▁optim	-4072
▁gevoel	-4073
▁entiteite	-4074
8,	-4075
▁26	-4076
▁Br	-4077
▁Nou	-4078
▁los	-4079
▁www	-4080
gelde	-4081
imaat	-4082
▁deeg	-4083
▁rang	-4084
▁vrug	-4085
▁aksie	-4086
▁vroeg	-4087
▁wysig	-4088
▁omskryf	-4089
▁verkeer	-4090
▁opgeneem	-4091
voorwaardes	-4092
▁behoorlike	-4093
▁gevaarlike	-4094
▁Staatsdiens	-4095
▁afhanklikes	-4096
▁bevoegdheid	-4097
▁gepubliseer	-4098
▁huishoudelike	-4099
.20	-4100
iele	-4101
▁pat	-4102
geluk	-4103
▁drink	-4104
tigheid	-4105
▁gestig	-4106
▁voorlê	-4107
asionaal	-4108
geregshof	-4109
▁oorweging	-4110
▁meerderheid	-4111
▁Omgewingsake	-4112
▁Administrasie	-4113
EL	-4114
OP	-4115
weg	-4116
▁et	-4117
woon	-4118
▁Byd	-4119
▁afn	-4120
▁lyk	-4121
useum	-4122
▁Misd	-4123
▁Saam	-4124
itasie	-4125
straat	-4126
▁sowat	-4127
▁verge	-4128
▁ervaar	-4129
▁gelede	-4130
▁individue	-4131
aktiwiteite	-4132
▁beskikbare	-4133
▁masjinerie	-4134
▁Wit	-4135
▁dis	-4136
▁kal	-4137
▁par	-4138
reking	-4139
roting	-4140
▁onwet	-4141
▁pleeg	-4142
▁kandid	-4143
▁senior	-4144
▁aansien	-4145
▁beskryf	-4146
▁boekjaar	-4147
▁Polisiediens	-4148
dae	-4149
goed	-4150
▁Twee	-4151
▁insp	-4152
matige	-4153
vlakke	-4154
▁Vraag	-4155
▁Werke	-4156
▁Kontak	-4157
▁behaal	-4158
afdeling	-4159
omgewing	-4160
▁indiens	-4161
▁Klousule	-4162
▁vereiste	-4163
▁onderhandel	-4164
▁mu	-4165
hoor	-4166
▁nat	-4167
worpe	-4168
wysing	-4169
oedeling	-4170
▁formele	-4171
▁werklik	-4172
behoeftes	-4173
betalings	-4174
▁lewering	-4175
▁toegewys	-4176
▁aanleiding	-4177
▁beantwoord	-4178
▁Gemeenskaps	-4179
:00	-4180
heg	-4181
int	-4182
ran	-4183
▁Dis	-4184
▁Imm	-4185
bleme	-4186
▁items	-4187
gehalte	-4188
oordeel	-4189
▁enkele	-4190
▁sekond	-4191
▁uiteens	-4192
gradering	-4193
▁opbrengs	-4194
▁openbaar	-4195
▁volledig	-4196
▁chroniese	-4197
▁betreffende	-4198
her	-4199
▁ly	-4200
wink	-4201
▁fil	-4202
onnis	-4203
▁polio	-4204
▁poste	-4205
▁binnek	-4206
▁hierbo	-4207
▁histor	-4208
▁inheemse	-4209
1.2010-03-24.	-4210
.7	-4211
90	-4212
IB	-4213
vo	-4214
▁34	-4215
▁at	-4216
game	-4217
raai	-4218
▁Dui	-4219
merke	-4220
▁sent	-4221
▁stro	-4222
▁stuk	-4223
▁beeld	-4224
▁dring	-4225
▁mikro	-4226
oontlik	-4227
ratiese	-4228
treding	-4229
▁vervat	-4230
ingsraad	-4231
▁geskryf	-4232
▁kunsmis	-4233
▁verhaal	-4234
ondersoek	-4235
fasiliteite	-4236
▁bestuurder	-4237
▁prioriteit	-4238
▁toekennings	-4239
▁ooreenkomste	-4240
▁Hooggeregshof	-4241
(1)	-4242
▁Ske	-4243
▁kuns	-4244
▁benoem	-4245
▁gedrag	-4246
▁kampus	-4247
▁verdeel	-4248
▁voorstel	-4249
▁opkomende	-4250
▁verskaffing	-4251
5%	-4252
bil	-4253
ned	-4254
uif	-4255
uro	-4256
mple	-4257
omat	-4258
▁nal	-4259
▁rad	-4260
stems	-4261
▁Bree	-4262
▁Your	-4263
▁rele	-4264
▁vals	-4265
enewens	-4266
enieurs	-4267
lopende	-4268
▁Betaal	-4269
▁vinger	-4270
▁aangepas	-4271
fasiliteit	-4272
▁prosedure	-4273
aboratorium	-4274
▁implementeer	-4275
ets	-4276
▁32	-4277
▁Nad	-4278
▁wor	-4279
▁bele	-4280
▁laag	-4281
▁link	-4282
▁stor	-4283
ations	-4284
enigde	-4285
oeders	-4286
▁Slegs	-4287
▁Sport	-4288
▁langs	-4289
▁geldig	-4290
▁strewe	-4291
▁positief	-4292
▁aangemeld	-4293
▁resultate	-4294
▁beskrywing	-4295
▁inisiatief	-4296
▁uitgesluit	-4297
▁bemagtiging	-4298
6.2010-03-24.	-4299
▁Registrateur	-4300
83	-4301
aro	-4302
ize	-4303
wek	-4304
▁3,	-4305
▁Ph	-4306
ender	-4307
▁leier	-4308
▁Onthou	-4309
▁altern	-4310
▁kansel	-4311
▁unieke	-4312
▁vasgestel	-4313
▁watergebruik	-4314
UR	-4315
yl	-4316
oud	-4317
swet	-4318
▁Pad	-4319
organ	-4320
tydse	-4321
▁Cape	-4322
▁maal	-4323
ariene	-4324
skappe	-4325
▁Koste	-4326
▁dwars	-4327
▁klere	-4328
▁nommer	-4329
▁aanneem	-4330
▁aanstel	-4331
▁bystaan	-4332
▁jongste	-4333
▁leiding	-4334
▁toelaes	-4335
▁verhoor	-4336
▁beëindig	-4337
▁aangeneem	-4338
▁verpligtinge	-4339
▁BI	-4340
▁Ou	-4341
naam	-4342
▁50%	-4343
▁pap	-4344
▁Boer	-4345
▁Taal	-4346
▁mans	-4347
anklik	-4348
▁byeen	-4349
▁vermy	-4350
habilit	-4351
▁Beheer	-4352
▁getrou	-4353
▁vennote	-4354
▁hieronder	-4355
▁benadering	-4356
▁mishandeling	-4357
▁6.	-4358
stuur	-4359
▁disk	-4360
aniese	-4361
rivier	-4362
▁apart	-4363
▁besef	-4364
▁boeke	-4365
▁divid	-4366
.2009-0	-4367
intenis	-4368
▁advies	-4369
▁beperkte	-4370
▁direkteur	-4371
▁standaard	-4372
▁onderworpe	-4373
istr	-4374
▁Stu	-4375
▁int	-4376
▁wou	-4377
ansel	-4378
oging	-4379
produ	-4380
ptome	-4381
ruste	-4382
sraad	-4383
▁data	-4384
▁wenn	-4385
▁bedre	-4386
▁Tydens	-4387
▁tuiste	-4388
werkings	-4389
▁middels	-4390
▁opgelei	-4391
▁beginsels	-4392
▁slagoffer	-4393
▁uitdaging	-4394
▁werksaamhede	-4395
cc	-4396
lys	-4397
▁Ja	-4398
▁021	-4399
▁albei	-4400
▁Beleid	-4401
▁begrip	-4402
▁omvang	-4403
struksie	-4404
ertifikate	-4405
▁strukture	-4406
-/	-4407
HE	-4408
sak	-4409
▁Ma	-4410
toel	-4411
stoets	-4412
wassen	-4413
▁geëis	-4414
▁nader	-4415
fontein	-4416
randing	-4417
▁Skakel	-4418
▁dankie	-4419
▁instem	-4420
▁enigste	-4421
▁kleiner	-4422
▁verslae	-4423
oerusting	-4424
▁misbruik	-4425
▁voorkeur	-4426
▁voorkoms	-4427
▁besondere	-4428
▁gestremdhede	-4429
▁instandhouding	-4430
.10	-4431
elle	-4432
este	-4433
▁deb	-4434
▁lae	-4435
oenie	-4436
▁laer	-4437
▁plig	-4438
lopend	-4439
▁Diens	-4440
▁vader	-4441
▁streef	-4442
volgende	-4443
▁Strateg	-4444
▁hiervan	-4445
▁invloed	-4446
▁Wetenskap	-4447
▁versoeker	-4448
▁vestiging	-4449
bly	-4450
onn	-4451
feul	-4452
maat	-4453
abasis	-4454
adelik	-4455
▁Drank	-4456
▁stryd	-4457
▁oproep	-4458
treprene	-4459
▁Hoofstuk	-4460
▁Voorsien	-4461
▁hulpbron	-4462
▁prosesse	-4463
▁infeksies	-4464
▁Beskrywing	-4465
▁potensiaal	-4466
▁versekering	-4467
▁betrokkenheid	-4468
onit	-4469
ruit	-4470
slid	-4471
▁gef	-4472
▁har	-4473
▁myn	-4474
werpe	-4475
▁gelê	-4476
arbeid	-4477
beveel	-4478
gesien	-4479
▁integ	-4480
▁bedien	-4481
beamptes	-4482
▁Toegang	-4483
▁hoogste	-4484
▁pasiënt	-4485
▁uitmaak	-4486
▁gemagtig	-4487
▁stedelike	-4488
▁Kommissaris	-4489
▁individuele	-4490
▁aanbevelings	-4491
AP	-4492
ity	-4493
▁33	-4494
ogra	-4495
nodig	-4496
▁meld	-4497
ffings	-4498
werker	-4499
▁gener	-4500
▁aandeel	-4501
▁gevolge	-4502
▁toename	-4503
ekuriteit	-4504
▁aanbeveel	-4505
▁deelnemers	-4506
▁fasiliteer	-4507
49	-4508
den	-4509
yde	-4510
riek	-4511
▁1994	-4512
issipl	-4513
kursus	-4514
▁areas	-4515
▁spoor	-4516
▁Daarom	-4517
▁Hoewel	-4518
▁inform	-4519
▁straat	-4520
ifiseerde	-4521
▁vennootskappe	-4522
NS	-4523
▁Nov	-4524
gerig	-4525
▁gang	-4526
isters	-4527
grootte	-4528
ortefeul	-4529
uriteits	-4530
▁inspekte	-4531
▁klousule	-4532
▁verbonde	-4533
▁uiteindelik	-4534
28	-4535
let	-4536
teit	-4537
isser	-4538
▁Groep	-4539
▁hetsy	-4540
▁pryse	-4541
houdens	-4542
▁Bydrae	-4543
▁Moenie	-4544
▁daarmee	-4545
▁Regerings	-4546
▁oppervlak	-4547
▁regstreek	-4548
▁potensiële	-4549
▁onderwysers	-4550
▁huishoudings	-4551
web	-4552
▁''	-4553
.418	-4554
hers	-4555
leis	-4556
elsyn	-4557
▁hawe	-4558
isteem	-4559
mekaar	-4560
tuiste	-4561
▁Nadat	-4562
▁kleur	-4563
▁krimin	-4564
▁gepaste	-4565
▁aanbring	-4566
ingsproses	-4567
verskaffer	-4568
▁omvattende	-4569
▁uitbreiding	-4570
▁Ondernemings	-4571
▁App	-4572
anker	-4573
▁item	-4574
▁kern	-4575
afdruk	-4576
aksies	-4577
ending	-4578
heffing	-4579
netwerk	-4580
ustheid	-4581
▁geboue	-4582
▁genees	-4583
▁herroep	-4584
▁onderhou	-4585
▁vergelyk	-4586
ondernemings	-4587
▁addisionele	-4588
▁demokratiese	-4589
NC	-4590
sn	-4591
▁90	-4592
aner	-4593
dele	-4594
isyn	-4595
reël	-4596
▁Vis	-4597
ontac	-4598
slede	-4599
▁lief	-4600
▁mand	-4601
▁veld	-4602
amilie	-4603
making	-4604
▁intel	-4605
▁tabel	-4606
riehoek	-4607
▁aanpas	-4608
▁aankoop	-4609
▁gepleeg	-4610
▁werkske	-4611
▁beskikking	-4612
▁aanspreeklik	-4613
▁veranderings	-4614
ile	-4615
funk	-4616
ikal	-4617
odes	-4618
ydse	-4619
▁Bring	-4620
▁afwes	-4621
▁ontsp	-4622
rdineer	-4623
veldtog	-4624
▁koring	-4625
▁geriewe	-4626
▁univers	-4627
▁verlaag	-4628
▁vryheid	-4629
▁betalings	-4630
diversiteit	-4631
▁biblioteke	-4632
▁verbintenis	-4633
27	-4634
PS	-4635
▁Se	-4636
sess	-4637
▁arm	-4638
ageer	-4639
gelyke	-4640
▁kopie	-4641
▁befonds	-4642
▁geldige	-4643
▁insette	-4644
▁ontvangs	-4645
▁behuising	-4646
aaldriehoek	-4647
▁afgevaardig	-4648
▁persentasie	-4649
)(	-4650
78	-4651
)..	-4652
win	-4653
eers	-4654
vert	-4655
▁kus	-4656
aland	-4657
▁Haar	-4658
▁klem	-4659
▁Handel	-4660
▁balans	-4661
▁jonger	-4662
▁Enigeen	-4663
▁afsonder	-4664
▁betekenis	-4665
▁gemiddelde	-4666
▁gevangenis	-4667
▁funksioneer	-4668
▁konferensie	-4669
rup	-4670
▁Kap	-4671
nemer	-4672
temal	-4673
kennis	-4674
▁waarb	-4675
verlies	-4676
▁gepaard	-4677
▁geslaag	-4678
▁Medisyne	-4679
▁besering	-4680
▁families	-4681
▁onlangse	-4682
▁vaartuie	-4683
hulpbronne	-4684
▁heeltemal	-4685
▁behandelings	-4686
▁identifikasie	-4687
asiekommissaris	-4688
all	-4689
lei	-4690
straf	-4691
▁Doen	-4692
▁stof	-4693
iëring	-4694
▁gelde	-4695
oordrag	-4696
▁Totale	-4697
▁vertel	-4698
wassenes	-4699
▁Sommige	-4700
▁klimaat	-4701
▁vermoed	-4702
▁voorlop	-4703
▁vriende	-4704
▁subsidie	-4705
▁weerspie	-4706
ublikasies	-4707
▁saamgestel	-4708
bedrywighede	-4709
▁ooreengekom	-4710
65	-4711
sa	-4712
mag	-4713
stry	-4714
usie	-4715
▁don	-4716
▁afwyk	-4717
gesette	-4718
▁vroeër	-4719
behuising	-4720
▁Instituut	-4721
▁Ondersteun	-4722
▁akademiese	-4723
▁onderskeid	-4724
▁visvangregte	-4725
▁Te	-4726
▁su	-4727
oedel	-4728
▁Aand	-4729
▁geop	-4730
▁howe	-4731
▁toeg	-4732
kondig	-4733
omblik	-4734
▁punte	-4735
▁woord	-4736
iërings	-4737
▁behulp	-4738
▁gereël	-4739
▁stapel	-4740
▁Oorweeg	-4741
iblioteek	-4742
▁evalueer	-4743
▁owerhede	-4744
▁kriminele	-4745
mplementeer	-4746
▁vasgestelde	-4747
▁Vaaldriehoek	-4748
AR	-4749
sam	-4750
▁ANC	-4751
▁ink	-4752
▁oef	-4753
▁komb	-4754
sidies	-4755
vinger	-4756
▁tafel	-4757
▁titel	-4758
geriewe	-4759
▁ekstra	-4760
▁gelyke	-4761
▁geskil	-4762
▁gevind	-4763
voorsien	-4764
▁systems	-4765
▁November	-4766
▁besighede	-4767
habilitasie	-4768
▁tradisionele	-4769
In	-4770
ty	-4771
gres	-4772
▁ant	-4773
▁kil	-4774
igned	-4775
▁seks	-4776
▁Praat	-4777
▁afhang	-4778
anitasie	-4779
voertuig	-4780
▁bygedra	-4781
▁dagvaar	-4782
▁grootte	-4783
▁meganis	-4784
▁redelik	-4785
▁eienaars	-4786
▁verliese	-4787
▁hoogstens	-4788
▁prokureur	-4789
verskaffers	-4790
▁hersiening	-4791
▁wetgewende	-4792
▁fasiliteite	-4793
▁oortredings	-4794
▁onafhanklike	-4795
▁landbousektor	-4796
--	-4797
15	-4798
BG	-4799
kus	-4800
ost	-4801
ota	-4802
erwe	-4803
rake	-4804
▁IRP	-4805
▁out	-4806
▁sin	-4807
spers	-4808
▁Nuwe	-4809
▁Spes	-4810
▁daad	-4811
▁eens	-4812
▁keur	-4813
▁oorle	-4814
aliteit	-4815
▁bewyse	-4816
▁toelae	-4817
▁toenem	-4818
▁krediet	-4819
▁oomblik	-4820
▁terugge	-4821
▁grondhervorm	-4822
▁vingerafdruk	-4823
kig	-4824
uil	-4825
▁7.	-4826
)...	-4827
dies	-4828
mand	-4829
ooie	-4830
▁Sou	-4831
▁fas	-4832
ikale	-4833
smaat	-4834
▁Hoër	-4835
▁nuut	-4836
ologie	-4837
redite	-4838
▁vernie	-4839
▁trekker	-4840
foonnommer	-4841
▁bemarking	-4842
▁beoordeel	-4843
▁uiteensit	-4844
ingsprogram	-4845
▁bemarkings	-4846
▁veranderinge	-4847
);	-4848
25	-4849
alis	-4850
ures	-4851
▁gas	-4852
gebou	-4853
▁eind	-4854
▁fase	-4855
▁tuin	-4856
elinge	-4857
▁Begin	-4858
▁ontpl	-4859
senburg	-4860
▁Verbet	-4861
▁gelang	-4862
▁getref	-4863
▁gevoer	-4864
annaland	-4865
▁kantore	-4866
▁lenings	-4867
▁eiendoms	-4868
▁kapitale	-4869
vereniging	-4870
▁Verenigde	-4871
▁Bestuurder	-4872
▁Strategiese	-4873
▁verkragting	-4874
14	-4875
MM	-4876
ax	-4877
mis	-4878
107.	-4879
▁Bot	-4880
▁som	-4881
bring	-4882
groei	-4883
▁midd	-4884
▁nege	-4885
▁niks	-4886
▁visum	-4887
▁Breede	-4888
▁bejaar	-4889
▁wonder	-4890
antering	-4891
posadres	-4892
▁spesial	-4893
▁Elsenburg	-4894
▁ondersoeke	-4895
omstandighede	-4896
▁ondervinding	-4897
▁werkloosheid	-4898
▁ongeskiktheid	-4899
IF	-4900
sj	-4901
akte	-4902
komp	-4903
okke	-4904
yfer	-4905
▁lis	-4906
uldig	-4907
▁Laat	-4908
▁noem	-4909
▁Versk	-4910
novasie	-4911
▁gebore	-4912
▁musiek	-4913
agtiging	-4914
andering	-4915
▁praktyk	-4916
▁reaksie	-4917
▁ervaring	-4918
▁stelsels	-4919
▁slagoffers	-4920
.6	-4921
kr	-4922
.17	-4923
DER	-4924
gin	-4925
▁DW	-4926
▁Nee	-4927
▁bak	-4928
▁mod	-4929
▁ure	-4930
suele	-4931
ienaar	-4932
▁media	-4933
▁ontle	-4934
volgens	-4935
▁argief	-4936
▁mielie	-4937
▁waarby	-4938
▁klagtes	-4939
▁periode	-4940
▁waaraan	-4941
▁wettige	-4942
personeel	-4943
▁Kannaland	-4944
▁Ondersoek	-4945
▁aangaande	-4946
▁bevolking	-4947
▁negatiewe	-4948
▁alternatiewe	-4949
▁geïmplementeer	-4950
ary	-4951
dam	-4952
gend	-4953
▁Tel	-4954
▁sos	-4955
vante	-4956
▁brei	-4957
▁klas	-4958
▁vloe	-4959
▁bruto	-4960
▁gedek	-4961
.12107.	-4962
▁Anders	-4963
▁beloop	-4964
▁buiten	-4965
▁Sosiale	-4966
▁netwerk	-4967
▁uitgawe	-4968
▁Positief	-4969
▁komitees	-4970
▁vaartuig	-4971
▁inwerking	-4972
▁weerspieël	-4973
ooreenkomste	-4974
▁goedgekeurde	-4975
ju	-4976
uss	-4977
▁4,	-4978
port	-4979
veld	-4980
showe	-4981
steek	-4982
vrede	-4983
▁inag	-4984
▁ooit	-4985
▁stil	-4986
tenaar	-4987
▁gesig	-4988
▁opsie	-4989
anklike	-4990
ettings	-4991
▁Bosbou	-4992
▁tesame	-4993
onnansie	-4994
▁deeglik	-4995
▁spesies	-4996
▁designed	-4997
▁noodsaak	-4998
▁verstand	-4999
vanggebied	-5000
▁Opleidings	-5001
▁Publikasies	-5002
▁geografiese	-5003
IP	-5004
On	-5005
pat	-5006
rog	-5007
▁38	-5008
abet	-5009
pubs	-5010
▁wyk	-5011
bosch	-5012
rywer	-5013
shulp	-5014
skole	-5015
▁ontb	-5016
plekke	-5017
▁Groot	-5018
▁verby	-5019
eenheid	-5020
ongeluk	-5021
▁Medium	-5022
▁eenvou	-5023
▁verlof	-5024
prekings	-5025
▁Erfenis	-5026
vereistes	-5027
▁simptome	-5028
▁vertroue	-5029
▁Navorsing	-5030
▁sekondêre	-5031
▁CD	-5032
entr	-5033
▁400	-5034
▁dos	-5035
▁see	-5036
beure	-5037
mings	-5038
▁gras	-5039
▁temp	-5040
▁ware	-5041
▁Eloff	-5042
▁dwelm	-5043
▁kaart	-5044
▁vakat	-5045
verberg	-5046
▁vonnis	-5047
likasies	-5048
▁Staatsk	-5049
▁aanvang	-5050
▁beweerde	-5051
▁waardeur	-5052
onderneming	-5053
wetenskappe	-5054
▁Aansoekers	-5055
▁behuisings	-5056
▁entreprene	-5057
▁gelisensie	-5058
▁ingenieurs	-5059
▁kategorieë	-5060
▁eienaarskap	-5061
▁terugbetaal	-5062
▁samestelling	-5063
▁universiteit	-5064
▁vrywilligers	-5065
66	-5066
med	-5067
▁Th	-5068
able	-5069
▁Plan	-5070
▁Vorm	-5071
▁gade	-5072
▁reik	-5073
▁tand	-5074
struis	-5075
urgeme	-5076
▁Almal	-5077
▁akkur	-5078
ikalieë	-5079
oodskap	-5080
▁Burger	-5081
▁opgelê	-5082
▁totaal	-5083
▁besliss	-5084
▁voornem	-5085
▁heffings	-5086
standaarde	-5087
▁Nywerheid	-5088
▁effektief	-5089
▁faksnommer	-5090
▁monitering	-5091
▁belanghebbendes	-5092
RE	-5093
TW	-5094
idu	-5095
lose	-5096
oors	-5097
▁Priv	-5098
▁konf	-5099
▁Bewyse	-5100
▁beseer	-5101
▁gemerk	-5102
skomitee	-5103
▁Hospitaal	-5104
▁databasis	-5105
▁relevante	-5106
▁testament	-5107
▁evaluering	-5108
▁implemente	-5109
▁dokumentasie	-5110
▁immuunstelsel	-5111
▁waterhulpbron	-5112
75	-5113
▁59	-5114
eter	-5115
vent	-5116
▁mat	-5117
▁vat	-5118
basis	-5119
geval	-5120
▁mits	-5121
▁sens	-5122
▁serv	-5123
assade	-5124
terkun	-5125
vallig	-5126
▁bevoor	-5127
▁kostes	-5128
▁streng	-5129
▁aktiewe	-5130
▁verlaat	-5131
▁mishandel	-5132
▁laboratorium	-5133
▁werkskepping	-5134
GR	-5135
nel	-5136
sem	-5137
weë	-5138
▁Ga	-5139
▁ee	-5140
atal	-5141
krag	-5142
orge	-5143
weer	-5144
▁Ind	-5145
▁Wys	-5146
▁fab	-5147
▁wer	-5148
inisi	-5149
prose	-5150
▁indu	-5151
insake	-5152
spraak	-5153
stellig	-5154
sentrums	-5155
▁gesluit	-5156
▁rigting	-5157
▁aanteken	-5158
▁bekommer	-5159
▁moniteer	-5160
▁strategieë	-5161
▁aangemoedig	-5162
▁kommissaris	-5163
▁soortgelyke	-5164
▁volwassenes	-5165
smunisipaliteit	-5166
St	-5167
▁70	-5168
blom	-5169
lies	-5170
lige	-5171
▁equ	-5172
▁jur	-5173
▁kar	-5174
▁sty	-5175
▁via	-5176
etter	-5177
iksie	-5178
ining	-5179
vraag	-5180
▁1996	-5181
▁Jeug	-5182
orteer	-5183
uister	-5184
verlof	-5185
▁harde	-5186
▁stowwe	-5187
▁beslote	-5188
▁nagekom	-5189
▁waardes	-5190
▁Alhoewel	-5191
▁bewaring	-5192
▁rekenaar	-5193
▁trekkers	-5194
▁duidelike	-5195
▁uitsonder	-5196
▁Vuurwapens	-5197
▁aanranding	-5198
belastingwet	-5199
3.2010-03-24.	-5200
▁bewerkstellig	-5201
.'	-5202
▁(1)	-5203
graad	-5204
skomm	-5205
telle	-5206
▁haal	-5207
▁lêer	-5208
▁nuus	-5209
▁inlig	-5210
▁prest	-5211
artment	-5212
estande	-5213
▁bywoon	-5214
▁winter	-5215
entities	-5216
▁Basiese	-5217
▁Vriende	-5218
▁mandaat	-5219
▁studies	-5220
▁aangeheg	-5221
▁Finansies	-5222
infrastruktuur	-5223
IM	-5224
boe	-5225
kel	-5226
feer	-5227
sten	-5228
▁Nam	-5229
riese	-5230
skaal	-5231
▁SAID	-5232
▁elem	-5233
▁idee	-5234
▁rook	-5235
▁stam	-5236
▁warm	-5237
▁Reken	-5238
isserye	-5239
▁bereid	-5240
agnoseer	-5241
▁landdros	-5242
▁verstryk	-5243
▁handeling	-5244
▁toepaslik	-5245
behandeling	-5246
stitusionele	-5247
▁prioriteite	-5248
44	-5249
av	-5250
gr	-5251
eta	-5252
osa	-5253
▁hu	-5254
▁km	-5255
moet	-5256
tele	-5257
▁WBG	-5258
▁gra	-5259
▁olie	-5260
▁voog	-5261
▁sover	-5262
▁waard	-5263
splanne	-5264
▁markte	-5265
▁welsyn	-5266
verbruik	-5267
▁Familie	-5268
▁getroud	-5269
▁jouself	-5270
▁reageer	-5271
▁beamptes	-5272
▁daardeur	-5273
▁Personeel	-5274
▁staatsdiens	-5275
▁korporatiewe	-5276
▁selfoonnommer	-5277
▁ondersteunings	-5278
OR	-5279
▁y	-5280
IGS	-5281
ban	-5282
log	-5283
oue	-5284
unt	-5285
▁(3	-5286
kies	-5287
enlik	-5288
fstal	-5289
kamer	-5290
oppel	-5291
steun	-5292
▁byge	-5293
▁juis	-5294
wêreld	-5295
▁feite	-5296
▁sodra	-5297
gerigte	-5298
▁diepsee	-5299
alisering	-5300
▁enigiets	-5301
▁ingevoer	-5302
▁beperking	-5303
▁daaglikse	-5304
▁informele	-5305
▁inisiatiewe	-5306
▁Staatskoerant	-5307
uma	-5308
abil	-5309
ieer	-5310
soek	-5311
soos	-5312
▁LUR	-5313
▁Mos	-5314
▁Ste	-5315
udent	-5316
▁7.00	-5317
arisse	-5318
▁kwart	-5319
▁trein	-5320
▁Verder	-5321
▁beoord	-5322
▁ingryp	-5323
ifikasies	-5324
produseer	-5325
▁handhaaf	-5326
▁kriteria	-5327
ondersteun	-5328
▁Opleiding	-5329
▁aangekoop	-5330
▁hantering	-5331
▁oortreder	-5332
▁Bevordering	-5333
▁terselfdertyd	-5334
92	-5335
ben	-5336
oom	-5337
▁IN	-5338
twer	-5339
▁top	-5340
▁blyk	-5341
▁ramp	-5342
ikbaar	-5343
uldigde	-5344
▁betyds	-5345
▁dogter	-5346
boerdery	-5347
huisings	-5348
▁Kantoor	-5349
▁billike	-5350
▁normaal	-5351
▁onkoste	-5352
▁oortuig	-5353
▁vergoed	-5354
▁bymekaar	-5355
ekonomiese	-5356
▁wetenskaplike	-5357
Ma	-5358
alf	-5359
fil	-5360
lem	-5361
ton	-5362
ulu	-5363
▁Kh	-5364
eens	-5365
▁Her	-5366
▁Kor	-5367
▁sol	-5368
▁Eers	-5369
▁asof	-5370
▁gely	-5371
iddeld	-5372
rupsie	-5373
uwings	-5374
▁dorpe	-5375
▁gelas	-5376
▁model	-5377
▁nalat	-5378
▁beklee	-5379
▁voorts	-5380
skantoor	-5381
skrywing	-5382
▁gesprek	-5383
trekkings	-5384
▁seksueel	-5385
▁vermelde	-5386
▁Departemente	-5387
▁Huurbehuising	-5388
▁ontwikkelende	-5389
▁universiteite	-5390
.,	-5391
47	-5392
ks	-5393
ell	-5394
▁sm	-5395
▁ve	-5396
abas	-5397
aroo	-5398
oeke	-5399
▁ras	-5400
heers	-5401
uring	-5402
vloei	-5403
▁Bors	-5404
▁punt	-5405
▁with	-5406
rywings	-5407
ulering	-5408
digheids	-5409
▁beswaar	-5410
▁dadelik	-5411
▁bygewoon	-5412
▁Waterwese	-5413
▁dividende	-5414
uz	-5415
ala	-5416
ged	-5417
▁5,	-5418
oens	-5419
verh	-5420
▁bot	-5421
okker	-5422
sport	-5423
▁Verh	-5424
▁geme	-5425
▁rand	-5426
bevoeg	-5427
twerpe	-5428
ydperk	-5429
akeling	-5430
vinding	-5431
▁gekies	-5432
▁bedryfs	-5433
▁kwessie	-5434
▁verlore	-5435
▁waaroor	-5436
orderings	-5437
▁aansluit	-5438
toekenning	-5439
▁Grondsake	-5440
▁onwettige	-5441
vaardighede	-5442
▁Tegnologie	-5443
▁verkryging	-5444
▁voorkoming	-5445
▁blootstelling	-5446
17	-5447
bal	-5448
▁35	-5449
▁63	-5450
▁us	-5451
norm	-5452
olle	-5453
word	-5454
▁Arg	-5455
▁Art	-5456
▁wap	-5457
reger	-5458
▁Doel	-5459
gewone	-5460
▁vrees	-5461
gevolge	-5462
▁Vertel	-5463
▁missie	-5464
▁vrugte	-5465
isdiksie	-5466
lektuele	-5467
▁Kondome	-5468
▁dissipl	-5469
▁vertoon	-5470
slisensie	-5471
▁ingewikk	-5472
▁moeilike	-5473
▁strafreg	-5474
▁welstand	-5475
▁ambassade	-5476
▁behoudens	-5477
▁skoonmaak	-5478
▁Veiligheid	-5479
▁teikenmark	-5480
kennisgewing	-5481
▁bestuurders	-5482
▁chemikalieë	-5483
ër	-5484
iii	-5485
....	-5486
ames	-5487
ener	-5488
ning	-5489
▁Maf	-5490
▁heg	-5491
ction	-5492
oetse	-5493
sterf	-5494
uster	-5495
▁emos	-5496
▁kans	-5497
▁siel	-5498
▁tref	-5499
risiko	-5500
▁Brand	-5501
▁Straf	-5502
▁Trans	-5503
▁inhou	-5504
entrums	-5505
lenbosch	-5506
sittende	-5507
▁droogte	-5508
▁verkope	-5509
▁entiteit	-5510
instellings	-5511
AM	-5512
sw	-5513
bak	-5514
ika	-5515
ina	-5516
▁00	-5517
▁wyn	-5518
beker	-5519
forum	-5520
ouers	-5521
▁simb	-5522
▁that	-5523
▁verp	-5524
beperk	-5525
ipment	-5526
▁koers	-5527
▁onreg	-5528
▁skenk	-5529
▁aanvra	-5530
▁beduid	-5531
asionele	-5532
studente	-5533
▁aangaan	-5534
▁sitting	-5535
istrasies	-5536
regerings	-5537
sprojekte	-5538
tegnologie	-5539
▁salarisse	-5540
▁deelgeneem	-5541
▁oplossings	-5542
▁vermeerder	-5543
▁geproduseer	-5544
▁elektroniese	-5545
verteenwoordig	-5546
▁indiensneming	-5547
▁gemeenskaplike	-5548
00.	-5549
12)	-5550
ive	-5551
▁py	-5552
▁Nog	-5553
▁not	-5554
▁vog	-5555
brand	-5556
ikeng	-5557
▁para	-5558
artsen	-5559
forums	-5560
onomie	-5561
▁Sodra	-5562
distrik	-5563
ublieke	-5564
▁beklem	-5565
▁kommer	-5566
▁tarief	-5567
oefening	-5568
prosesse	-5569
register	-5570
▁Voorkom	-5571
▁winsgew	-5572
wysvinger	-5573
▁infeksie	-5574
▁kursusse	-5575
▁permitte	-5576
▁oopgemaak	-5577
▁regverdig	-5578
▁webtuiste	-5579
▁aangespreek	-5580
▁opgradering	-5581
▁plattelandse	-5582
▁biodiversiteit	-5583
pol	-5584
-14.	-5585
dank	-5586
▁Oos	-5587
▁Wor	-5588
▁all	-5589
erale	-5590
ropol	-5591
▁Leer	-5592
▁dryf	-5593
▁gepr	-5594
eiende	-5595
landse	-5596
▁Inter	-5597
▁inset	-5598
fekteer	-5599
ubsidie	-5600
▁Natuur	-5601
▁getree	-5602
▁getuig	-5603
▁kommun	-5604
▁rivier	-5605
▁Voeding	-5606
▁monitor	-5607
▁streeks	-5608
▁vanaand	-5609
donnansie	-5610
▁Verbeter	-5611
▁aangevra	-5612
▁saamwerk	-5613
▁kommissie	-5614
direktoraat	-5615
ïntegreerde	-5616
▁Beskikbaar	-5617
▁bewustheid	-5618
▁ruimtelike	-5619
▁Teenretrovirale	-5620
45	-5621
TV	-5622
ikl	-5623
▁He	-5624
atel	-5625
derd	-5626
kind	-5627
teks	-5628
▁Dan	-5629
▁Geb	-5630
▁Vig	-5631
ganis	-5632
oepas	-5633
▁lood	-5634
▁voeg	-5635
neblom	-5636
▁Speel	-5637
▁gefin	-5638
▁grade	-5639
▁kraam	-5640
▁welke	-5641
meester	-5642
terrein	-5643
vervoer	-5644
▁Kinder	-5645
▁aanval	-5646
▁navors	-5647
liggende	-5648
rigtings	-5649
stelsels	-5650
▁Middels	-5651
▁bekende	-5652
▁Verskeie	-5653
▁beëdigde	-5654
▁boodskap	-5655
▁ontplooi	-5656
▁sterftes	-5657
▁voorberei	-5658
▁Menseregte	-5659
▁Produsente	-5660
▁Subprogram	-5661
▁identiteit	-5662
▁nywerheids	-5663
▁afgevaardigdes	-5664
4-	-5665
DA	-5666
▁x	-5667
Kap	-5668
▁47	-5669
▁Ap	-5670
GROT	-5671
gids	-5672
▁VAN	-5673
▁onm	-5674
resid	-5675
▁1997	-5676
▁Verm	-5677
skoste	-5678
▁klaer	-5679
▁radio	-5680
GROTING	-5681
▁bekrag	-5682
▁hoekom	-5683
kundiges	-5684
▁Wysigings	-5685
▁volstruis	-5686
versekering	-5687
▁inagneming	-5688
▁begunstigde	-5689
▁herstelwerk	-5690
▁verpligting	-5691
▁vrystelling	-5692
EN	-5693
gt	-5694
ph	-5695
ism	-5696
uld	-5697
▁fl	-5698
ifis	-5699
ules	-5700
▁Lug	-5701
▁NIE	-5702
▁vel	-5703
ieter	-5704
tjies	-5705
▁Baba	-5706
▁bekw	-5707
▁bind	-5708
▁vore	-5709
andeer	-5710
orting	-5711
respons	-5712
▁Beroep	-5713
▁Onthul	-5714
▁aktief	-5715
▁beurse	-5716
▁gevare	-5717
▁gewaar	-5718
▁hoogte	-5719
▁verwel	-5720
▁Handves	-5721
▁dokters	-5722
▁geplant	-5723
▁kondome	-5724
▁tariewe	-5725
▁Mafikeng	-5726
▁leierskap	-5727
▁natuurlik	-5728
▁verstande	-5729
▁aanwending	-5730
▁biologiese	-5731
▁verbruiker	-5732
▁vertroulik	-5733
▁vrywillige	-5734
▁beplannings	-5735
8.2010-03-24.	-5736
▁gevangenisstraf	-5737
SO	-5738
▁6,	-5739
▁ka	-5740
orde	-5741
orme	-5742
▁Hom	-5743
▁gun	-5744
gerus	-5745
ikeer	-5746
▁Just	-5747
▁byna	-5748
▁droë	-5749
▁geaf	-5750
▁wens	-5751
▁Hande	-5752
▁staar	-5753
rustees	-5754
▁oorbly	-5755
▁ruimte	-5756
bestuurs	-5757
lektiewe	-5758
lingskap	-5759
▁gegrond	-5760
▁hiermee	-5761
amptenare	-5762
riminasie	-5763
▁vakansie	-5764
▁BEGROTING	-5765
▁Prestasie	-5766
▁kandidate	-5767
▁beklemtoon	-5768
▁blootgestel	-5769
▁jurisdiksie	-5770
▁vaardigheids	-5771
▁Konstitusionele	-5772
22	-5773
AT	-5774
''.	-5775
sas	-5776
Suid	-5777
ects	-5778
aamde	-5779
besit	-5780
sprek	-5781
sterm	-5782
stoel	-5783
▁omhe	-5784
gewens	-5785
iendom	-5786
plante	-5787
sterne	-5788
▁Plant	-5789
▁kweek	-5790
effekte	-5791
seisoen	-5792
▁Produk	-5793
▁geopen	-5794
houdinge	-5795
raagbare	-5796
▁arbeids	-5797
▁groente	-5798
▁homself	-5799
▁persele	-5800
▁Menslike	-5801
▁Ouditeur	-5802
▁loopbaan	-5803
▁register	-5804
▁versamel	-5805
▁uitgebrei	-5806
▁gebruikers	-5807
▁volhoubaar	-5808
▁Registrasie	-5809
▁beskuldigde	-5810
▁werklikheid	-5811
▁intellektuele	-5812
.87	-5813
dit	-5814
pan	-5815
roe	-5816
vee	-5817
ates	-5818
heel	-5819
▁NIM	-5820
iwidu	-5821
ville	-5822
▁Elek	-5823
▁Kwes	-5824
▁Leef	-5825
▁loon	-5826
▁psig	-5827
bedrag	-5828
beelde	-5829
ondent	-5830
rument	-5831
▁Afric	-5832
▁Rente	-5833
▁Volle	-5834
▁gesin	-5835
▁mater	-5836
▁onvol	-5837
▁neders	-5838
anselier	-5839
owerheid	-5840
praktyke	-5841
sprogram	-5842
▁aanduid	-5843
▁betroub	-5844
▁georgan	-5845
▁niemand	-5846
▁outomat	-5847
▁Seksmaat	-5848
▁volgehou	-5849
▁Toevallig	-5850
▁besteding	-5851
▁inentings	-5852
▁vernietig	-5853
▁aktiwiteit	-5854
telefoonnommer	-5855
ius	-5856
mon	-5857
duur	-5858
ware	-5859
▁Act	-5860
▁Bou	-5861
▁erf	-5862
nment	-5863
praak	-5864
reeds	-5865
vorms	-5866
▁asma	-5867
▁plus	-5868
▁spel	-5869
▁Altyd	-5870
▁Party	-5871
▁vleis	-5872
gevalle	-5873
istieke	-5874
kliniek	-5875
▁Alleen	-5876
▁Dogter	-5877
▁Status	-5878
▁behart	-5879
klinieke	-5880
▁bedrywe	-5881
▁gedagte	-5882
▁gemiddeld	-5883
▁gevolglik	-5884
▁onderwerp	-5885
▁uitgebreide	-5886
▁Mediumgrootte	-5887
.)	-5888
yt	-5889
bem	-5890
ich	-5891
vel	-5892
vigs	-5893
▁Fak	-5894
▁Gel	-5895
▁Nab	-5896
slaan	-5897
uteng	-5898
▁aank	-5899
▁ment	-5900
▁misk	-5901
▁seer	-5902
contac	-5903
gewerk	-5904
istiek	-5905
ommers	-5906
▁Nodig	-5907
▁debat	-5908
▁plaag	-5909
ational	-5910
▁afname	-5911
▁instit	-5912
▁opvolg	-5913
ekerings	-5914
▁aandele	-5915
▁geskenk	-5916
▁moeders	-5917
▁tevrede	-5918
▁waaruit	-5919
▁Borsvoed	-5920
▁gestremd	-5921
▁hofbevel	-5922
▁vergesel	-5923
▁Vigstoets	-5924
▁letterkun	-5925
▁wysigings	-5926
▁Deurlopend	-5927
▁enigiemand	-5928
▁instansies	-5929
▁prestasies	-5930
▁Kommunikasie	-5931
MV	-5932
lin	-5933
una	-5934
▁Eu	-5935
SAPS	-5936
enke	-5937
▁Get	-5938
▁rus	-5939
ateur	-5940
vangs	-5941
▁Geld	-5942
▁tyds	-5943
spruit	-5944
wendig	-5945
▁Maand	-5946
▁Nabye	-5947
▁lewen	-5948
▁proef	-5949
hersien	-5950
verslae	-5951
▁Daarop	-5952
▁boetes	-5953
▁genooi	-5954
▁leiers	-5955
▁ongeag	-5956
▁soorte	-5957
▁Aanstel	-5958
▁Skedule	-5959
▁ligging	-5960
▁uitslae	-5961
ilitering	-5962
lewerings	-5963
▁Aandring	-5964
▁Kwesbaar	-5965
▁Verander	-5966
▁Vriendin	-5967
▁vinniger	-5968
stribunaal	-5969
▁equipment	-5970
▁instansie	-5971
▁persoonlik	-5972
▁regstreeks	-5973
▁voldoening	-5974
▁voorlopige	-5975
▁reeksnommer	-5976
▁verordening	-5977
▁Stellenbosch	-5978
▁lisensiehouer	-5979
ieg	-5980
mot	-5981
too	-5982
yte	-5983
▁48	-5984
▁Un	-5985
anse	-5986
vloe	-5987
▁DWW	-5988
▁TOT	-5989
▁Tsh	-5990
▁lok	-5991
▁ryk	-5992
4-14.	-5993
betal	-5994
▁band	-5995
uiting	-5996
▁Graad	-5997
▁Kanse	-5998
doening	-5999
ensiële	-6000
siektes	-6001
tydperk	-6002
▁Immuun	-6003
▁geleer	-6004
▁oorsig	-6005
▁Gauteng	-6006
▁Privaat	-6007
▁verwant	-6008
ilvissery	-6009
overnment	-6010
▁chemiese	-6011
▁gekoppel	-6012
▁indiwidu	-6013
rediteerde	-6014
▁Afrikaner	-6015
▁sanitasie	-6016
▁subsidies	-6017
▁respondent	-6018
.2009-04-14.	-6019
▁verkeersboe	-6020
▁Wysigingswet	-6021
▁administreer	-6022
▁gestremdheid	-6023
▁Immuunrespons	-6024
69	-6025
ym	-6026
.2.	-6027
11)	-6028
▁Vee	-6029
▁rat	-6030
▁soj	-6031
essie	-6032
eters	-6033
huise	-6034
▁000.	-6035
▁Lang	-6036
▁Tuis	-6037
▁gead	-6038
▁gids	-6039
▁Voort	-6040
▁brood	-6041
▁insek	-6042
▁magte	-6043
strokie	-6044
▁ingang	-6045
▁minute	-6046
▁opdoen	-6047
▁streke	-6048
▁woning	-6049
contacts	-6050
ribunaal	-6051
▁Kontrak	-6052
▁Voltooi	-6053
▁heffing	-6054
▁leerder	-6055
▁miskien	-6056
▁Spesiale	-6057
▁behartig	-6058
▁uitnodig	-6059
▁eiendomme	-6060
▁weerstand	-6061
▁Speelskool	-6062
▁bespreking	-6063
gemeenskappe	-6064
akkrediteerde	-6065
▁finansiering	-6066
▁moontlikheid	-6067
▁personeellede	-6068
▁onderskeidelik	-6069
axi	-6070
imp	-6071
kop	-6072
ods	-6073
tot	-6074
wye	-6075
▁44	-6076
▁Kg	-6077
▁oë	-6078
toes	-6079
▁For	-6080
▁Bepl	-6081
▁apte	-6082
durend	-6083
iljard	-6084
▁damme	-6085
goeding	-6086
▁100.00	-6087
▁gesins	-6088
▁tekens	-6089
▁onseker	-6090
sessering	-6091
▁Aansoeke	-6092
▁bedoelde	-6093
▁voltydse	-6094
verligting	-6095
voorsitter	-6096
▁Beskermer	-6097
▁afdelings	-6098
▁bejaardes	-6099
▁einddatum	-6100
▁vrygestel	-6101
▁Biblioteek	-6102
▁konstruksie	-6103
▁sekuriteits	-6104
▁voortdurend	-6105
▁voortgesette	-6106
16	-6107
iam	-6108
kon	-6109
▁ex	-6110
Zulu	-6111
klam	-6112
verm	-6113
▁Com	-6114
▁GOP	-6115
▁Lyk	-6116
asing	-6117
▁Sien	-6118
▁ding	-6119
▁meet	-6120
▁melk	-6121
▁wink	-6122
.4184.	-6123
ekteer	-6124
ulteit	-6125
vensie	-6126
▁Vaste	-6127
▁spoed	-6128
ication	-6129
▁aparte	-6130
▁gekoop	-6131
▁kunste	-6132
probleme	-6133
▁Organis	-6134
▁Terapie	-6135
▁alreeds	-6136
▁wenners	-6137
▁Moontlik	-6138
▁nakoming	-6139
skommissie	-6140
▁komponent	-6141
▁opvoeding	-6142
▁Behuisings	-6143
▁vereniging	-6144
▁konsultasie	-6145
▁grondwetlike	-6146
▁rehabilitasie	-6147
89	-6148
400	-6149
ach	-6150
ari	-6151
ign	-6152
rap	-6153
bert	-6154
hosa	-6155
vrou	-6156
▁hie	-6157
▁rel	-6158
sjure	-6159
▁Vand	-6160
▁diar	-6161
▁groe	-6162
idasie	-6163
▁Buite	-6164
▁Europ	-6165
▁Korpor	-6166
▁metode	-6167
▁opsies	-6168
▁toneel	-6169
▁eenhede	-6170
▁Verbruik	-6171
▁makliker	-6172
▁telefoon	-6173
▁agterstal	-6174
▁brandstof	-6175
▁lewensvat	-6176
▁oprigting	-6177
▁volgehoue	-6178
▁burgerskap	-6179
▁noodwendig	-6180
antwoordelik	-6181
▁verhoudings	-6182
selsekuriteit	-6183
▁Besonderhede	-6184
UN	-6185
hl	-6186
afr	-6187
ous	-6188
▁45	-6189
ries	-6190
▁BTW	-6191
▁Boon	-6192
▁aanm	-6193
ietjie	-6194
ioneel	-6195
wyding	-6196
▁links	-6197
▁organ	-6198
▁sosio	-6199
▁vloei	-6200
▁aanvul	-6201
▁boedel	-6202
▁dwelmm	-6203
▁grense	-6204
▁opgesk	-6205
▁syfers	-6206
▁uitste	-6207
indiging	-6208
▁Burgeme	-6209
▁formule	-6210
▁inwoner	-6211
▁konteks	-6212
▁mariene	-6213
▁onsself	-6214
inentings	-6215
president	-6216
sontwerpe	-6217
▁beginsel	-6218
▁toegerus	-6219
regulasies	-6220
▁Aangesien	-6221
▁afskrifte	-6222
▁ongelukke	-6223
▁parlement	-6224
▁verhoogde	-6225
registrasie	-6226
▁besmetting	-6227
▁gevestigde	-6228
▁verordeninge	-6229
▁Geïntegreerde	-6230
las	-6231
rus	-6232
wag	-6233
▁Sc	-6234
▁wh	-6235
tend	-6236
wane	-6237
▁(2)	-6238
▁19.	-6239
▁300	-6240
▁kwit	-6241
▁sert	-6242
etiese	-6243
teerde	-6244
verdig	-6245
▁bevre	-6246
▁geheg	-6247
▁vrede	-6248
iedenis	-6249
stasies	-6250
▁akkred	-6251
▁beslag	-6252
▁geboor	-6253
▁magtig	-6254
▁verlig	-6255
▁Verskaf	-6256
▁bedreig	-6257
▁vertrek	-6258
▁Projekte	-6259
▁kwartaal	-6260
▁praktyke	-6261
▁sentrums	-6262
▁terreine	-6263
▁weereens	-6264
ekanselier	-6265
▁Belasting	-6266
▁skuldigbe	-6267
▁woonadres	-6268
toekennings	-6269
▁agtergrond	-6270
▁historiese	-6271
▁menseregte	-6272
▁toenemende	-6273
▁belangrikheid	-6274
55	-6275
MA	-6276
kw	-6277
ime	-6278
elys	-6279
nooi	-6280
onie	-6281
▁Stre	-6282
▁blok	-6283
▁hard	-6284
▁kris	-6285
stukke	-6286
▁NIMAS	-6287
▁Stads	-6288
▁egske	-6289
▁stoor	-6290
▁tipes	-6291
posisie	-6292
verteer	-6293
wessies	-6294
▁Besoek	-6295
▁Sekere	-6296
▁papier	-6297
▁verwes	-6298
leggings	-6299
▁luister	-6300
▁onttrek	-6301
▁swanger	-6302
▁tenders	-6303
ingsdatum	-6304
beskerming	-6305
▁kundigheid	-6306
▁beslissende	-6307
▁voorskrifte	-6308
▁verstandelik	-6309
co	-6310
kn	-6311
pa	-6312
bro	-6313
irk	-6314
anke	-6315
beer	-6316
itte	-6317
▁Los	-6318
▁Mal	-6319
▁hek	-6320
▁swe	-6321
▁tol	-6322
ielid	-6323
legte	-6324
shoof	-6325
▁1923	-6326
▁1993	-6327
▁Oord	-6328
▁Stud	-6329
▁hoed	-6330
▁take	-6331
▁agent	-6332
doelwit	-6333
stermyn	-6334
▁Johann	-6335
▁afdruk	-6336
▁bekamp	-6337
▁temper	-6338
▁gepraat	-6339
▁presies	-6340
rdinering	-6341
skrywings	-6342
▁diefstal	-6343
▁reëlings	-6344
▁toetsing	-6345
▁vergader	-6346
▁sonneblom	-6347
▁wêreldwyd	-6348
▁burgerlike	-6349
▁aangekondig	-6350
▁aanvaarbare	-6351
▁verwesenlik	-6352
▁bankrekening	-6353
▁versamelings	-6354
▁motorvoertuig	-6355
▁Institusionele	-6356
▁ondersteunende	-6357
,8	-6358
38	-6359
so	-6360
pad	-6361
▁5.	-6362
▁55	-6363
▁SB	-6364
▁ho	-6365
▁vo	-6366
ruim	-6367
verb	-6368
▁geg	-6369
.8710	-6370
estes	-6371
vroue	-6372
▁Wees	-6373
▁fees	-6374
▁gede	-6375
▁koer	-6376
▁leen	-6377
roleer	-6378
rywers	-6379
skakel	-6380
ussent	-6381
verten	-6382
▁beurs	-6383
▁opset	-6384
agtigde	-6385
bestaan	-6386
ensiewe	-6387
ienaars	-6388
liggaam	-6389
rumente	-6390
webwerf	-6391
▁aanwys	-6392
▁afloop	-6393
beskermde	-6394
gaderings	-6395
ifisering	-6396
▁monsters	-6397
▁voorraad	-6398
maatskappy	-6399
vertensies	-6400
▁apartheid	-6401
▁sonerings	-6402
▁toewyding	-6403
▁Verwysings	-6404
▁verbeterde	-6405
▁handelsmerk	-6406
▁kansellasie	-6407
▁operasionele	-6408
dr	-6409
▁%	-6410
oun	-6411
▁ob	-6412
▁ri	-6413
.938	-6414
ades	-6415
erse	-6416
gest	-6417
iddo	-6418
winn	-6419
▁10%	-6420
▁667	-6421
▁Dek	-6422
▁wye	-6423
stoek	-6424
▁aflê	-6425
▁cont	-6426
▁gedi	-6427
▁skil	-6428
illiam	-6429
▁aankl	-6430
▁begra	-6431
▁vroed	-6432
eenkoms	-6433
iwiteit	-6434
stoepas	-6435
▁George	-6436
▁beding	-6437
▁bestry	-6438
▁krisis	-6439
▁stabil	-6440
▁stemme	-6441
▁Sentrum	-6442
▁gespeel	-6443
▁liggame	-6444
▁miljard	-6445
▁ontmoet	-6446
▁planter	-6447
▁Komitees	-6448
▁toegeval	-6449
▁verbreek	-6450
▁Ingevolge	-6451
▁korrupsie	-6452
▁portefeul	-6453
▁verhoging	-6454
winsgewende	-6455
▁kollektiewe	-6456
▁gediagnoseer	-6457
5)	-6458
di	-6459
KOD	-6460
bre	-6461
bus	-6462
ung	-6463
▁--	-6464
fere	-6465
item	-6466
jien	-6467
▁120	-6468
▁577	-6469
▁iii	-6470
▁lop	-6471
▁meg	-6472
ulêre	-6473
utêre	-6474
▁behe	-6475
▁roet	-6476
briewe	-6477
cester	-6478
genoot	-6479
vallei	-6480
▁Stand	-6481
▁besol	-6482
▁gevul	-6483
▁kilom	-6484
▁indring	-6485
▁opgerig	-6486
▁skrywer	-6487
▁uitstal	-6488
▁Misdrywe	-6489
▁aanvraag	-6490
▁arbeidsm	-6491
▁skepping	-6492
▁voedings	-6493
▁groeiende	-6494
▁opvoeders	-6495
▁publiseer	-6496
▁rentekoers	-6497
▁verwerking	-6498
▁aandeelhouers	-6499
▁belanghebbende	-6500
▁internasionaal	-6501
EB	-6502
VF	-6503
ny	-6504
-10	-6505
600	-6506
▁IT	-6507
raal	-6508
riep	-6509
▁hef	-6510
▁tak	-6511
▁tal	-6512
.9377	-6513
elfte	-6514
ially	-6515
mosie	-6516
siewe	-6517
teite	-6518
trede	-6519
voers	-6520
▁5913	-6521
▁Best	-6522
▁Vaar	-6523
▁gods	-6524
asbare	-6525
belang	-6526
enting	-6527
inasie	-6528
leiers	-6529
voorts	-6530
▁(012)	-6531
▁Trust	-6532
▁aspek	-6533
▁oorge	-6534
▁opbou	-6535
▁versw	-6536
winkels	-6537
▁abnorm	-6538
▁deurge	-6539
▁helfte	-6540
waardige	-6541
▁Geestes	-6542
▁beoefen	-6543
▁formaat	-6544
▁minister	-6545
▁onbevoeg	-6546
▁tegnolog	-6547
▁weergawe	-6548
instansies	-6549
▁bekommerd	-6550
▁noodgeval	-6551
▁spesialis	-6552
voorsiening	-6553
▁beperkings	-6554
▁verskuldig	-6555
▁voltooiing	-6556
▁aansienlike	-6557
▁oorblywende	-6558
▁voorligting	-6559
▁Parlementswet	-6560
62	-6561
97	-6562
ITE	-6563
▁37	-6564
▁Nr	-6565
bena	-6566
▁Amp	-6567
▁Bro	-6568
▁Dok	-6569
▁Kru	-6570
▁Ook	-6571
▁Pas	-6572
▁Wyk	-6573
▁dig	-6574
▁eed	-6575
▁siv	-6576
▁wyd	-6577
iklus	-6578
▁dier	-6579
▁herv	-6580
▁rapp	-6581
ademie	-6582
ronies	-6583
▁motiv	-6584
▁reise	-6585
entrale	-6586
ovoorts	-6587
▁dwelms	-6588
▁maatst	-6589
▁oordra	-6590
▁respek	-6591
pasiënte	-6592
▁Krediet	-6593
▁Niemand	-6594
▁bespaar	-6595
▁studeer	-6596
inligtings	-6597
produsente	-6598
▁Worcester	-6599
▁opgeleide	-6600
▁sektorale	-6601
▁markwaarde	-6602
▁vervolging	-6603
▁minderjarige	-6604
▁afhanklikheid	-6605
▁vervaardiging	-6606
▁daaropvolgende	-6607
AF	-6608
Ek	-6609
▁('	-6610
▁BR	-6611
fees	-6612
ical	-6613
kend	-6614
taal	-6615
▁DIE	-6616
▁ven	-6617
bewys	-6618
inêre	-6619
ragte	-6620
▁Antw	-6621
▁Bank	-6622
▁Voed	-6623
opgawe	-6624
tooide	-6625
▁(011)	-6626
▁Beleg	-6627
▁Omdat	-6628
▁skaal	-6629
▁spyte	-6630
▁aanhou	-6631
▁afgelê	-6632
▁mentor	-6633
bepaling	-6634
goedings	-6635
minister	-6636
▁Verslag	-6637
▁beleide	-6638
▁langlyn	-6639
▁ongelyk	-6640
▁oorsaak	-6641
▁vloeist	-6642
▁wetlike	-6643
direkteur	-6644
▁nagegaan	-6645
▁visserye	-6646
toerusting	-6647
▁Bemarking	-6648
▁beserings	-6649
▁lisensies	-6650
besoedeling	-6651
maatskappye	-6652
▁ensovoorts	-6653
▁toeganklik	-6654
▁voorwaarde	-6655
▁Sertifikaat	-6656
▁Verbruikers	-6657
▁familielede	-6658
▁waarvolgens	-6659
▁hospitaalkaart	-6660
▁Munisipaliteite	-6661
no	-6662
.30	-6663
ani	-6664
▁La	-6665
daag	-6666
rate	-6667
vrye	-6668
▁(''	-6669
▁Bru	-6670
▁Mag	-6671
▁Man	-6672
▁Roo	-6673
▁pen	-6674
▁red	-6675
▁rug	-6676
oring	-6677
▁0860	-6678
▁Appl	-6679
▁Goed	-6680
▁buur	-6681
▁naas	-6682
▁neer	-6683
▁pleg	-6684
▁rade	-6685
iektes	-6686
itiese	-6687
laring	-6688
useums	-6689
▁Oudit	-6690
▁babas	-6691
▁bande	-6692
▁hoogs	-6693
▁kamer	-6694
derdaad	-6695
gebring	-6696
▁beweer	-6697
▁herinn	-6698
▁hoewel	-6699
inspekte	-6700
uitgawes	-6701
▁enigeen	-6702
▁misdade	-6703
▁wortels	-6704
begroting	-6705
▁verskuif	-6706
▁weiering	-6707
▁aanmelder	-6708
▁gebruiker	-6709
▁statutêre	-6710
▁Department	-6711
▁Maatskappy	-6712
▁voorgestel	-6713
▁Vergoedings	-6714
▁afwesigheid	-6715
▁besproeiing	-6716
▁deelnemende	-6717
▁gebeurtenis	-6718
▁onbeskermde	-6719
▁verwydering	-6720
▁geakkrediteerde	-6721
,9	-6722
37	-6723
AAL	-6724
OTC	-6725
ROO	-6726
bit	-6727
iov	-6728
lok	-6729
somm	-6730
▁150	-6731
▁197	-6732
▁Don	-6733
▁Jac	-6734
▁del	-6735
▁kur	-6736
aalde	-6737
beste	-6738
state	-6739
▁been	-6740
▁fout	-6741
▁graf	-6742
▁toil	-6743
▁vakb	-6744
▁vlug	-6745
▁Botha	-6746
▁Gesag	-6747
▁gedag	-6748
▁gewig	-6749
▁kruis	-6750
▁uself	-6751
ropolit	-6752
versorg	-6753
▁Kruger	-6754
▁Sekret	-6755
▁Sonder	-6756
▁bedrog	-6757
▁beveel	-6758
▁indruk	-6759
▁nagaan	-6760
▁uitges	-6761
genoemde	-6762
voertuie	-6763
▁deursig	-6764
verdeling	-6765
▁uiterste	-6766
▁Fakulteit	-6767
▁aanmoedig	-6768
▁sekerheid	-6769
▁servikale	-6770
▁familielid	-6771
▁platteland	-6772
▁Buitelandse	-6773
▁verkiesings	-6774
▁bekostigbare	-6775
▁diskriminasie	-6776
hersieningsraad	-6777
▁institusionele	-6778
▁grondhervorming	-6779
54	-6780
Ar	-6781
IA	-6782
PR	-6783
.47	-6784
iew	-6785
iwe	-6786
sek	-6787
sha	-6788
▁("	-6789
▁IM	-6790
area	-6791
bele	-6792
laat	-6793
onst	-6794
▁Sak	-6795
▁bos	-6796
▁eeu	-6797
▁pet	-6798
party	-6799
▁Agri	-6800
▁kond	-6801
▁voet	-6802
▁wete	-6803
dheids	-6804
merkte	-6805
▁Bloem	-6806
▁Tabel	-6807
▁defin	-6808
sterfte	-6809
▁Vandag	-6810
▁briewe	-6811
▁eniger	-6812
▁gehelp	-6813
▁gelees	-6814
seenheid	-6815
▁Verwerk	-6816
▁afstand	-6817
▁getalle	-6818
▁siviele	-6819
▁toeneem	-6820
▁voorreg	-6821
▁Owerheid	-6822
▁daadwerk	-6823
▁daagliks	-6824
▁uitoefen	-6825
▁vriendin	-6826
▁waarborg	-6827
etterdheid	-6828
vaardiging	-6829
▁agentskap	-6830
▁inderdaad	-6831
▁onkruiddo	-6832
geskiedenis	-6833
▁Afrikaners	-6834
▁Inligtings	-6835
▁outomaties	-6836
publications	-6837
▁Vigssterfte	-6838
▁aftrekkings	-6839
▁gesamentlik	-6840
▁Mafikengkampus	-6841
▁gelisensieerde	-6842
BI	-6843
..?	-6844
30.	-6845
ith	-6846
uze	-6847
▁Ab	-6848
KOMS	-6849
kans	-6850
rone	-6851
rupp	-6852
▁20%	-6853
▁Sib	-6854
▁Uur	-6855
vaart	-6856
▁Hers	-6857
▁Tegn	-6858
▁opsk	-6859
KOMSTE	-6860
ektief	-6861
fondse	-6862
lating	-6863
opsies	-6864
winkel	-6865
▁beurt	-6866
▁onbil	-6867
funksie	-6868
makings	-6869
resteer	-6870
welvrae	-6871
▁Presid	-6872
▁Projek	-6873
▁brande	-6874
benewens	-6875
▁lopende	-6876
▁oorlede	-6877
▁Antwoord	-6878
▁Sentrale	-6879
ussentydse	-6880
▁besoekers	-6881
▁dwarsdeur	-6882
▁opgeskort	-6883
▁beduidende	-6884
ropolitaanse	-6885
▁Ordonnansie	-6886
▁belastingbetal	-6887
▁paspoortnommer	-6888
IR	-6889
IFA	-6890
Pro	-6891
▁41	-6892
saal	-6893
▁11.	-6894
▁Ger	-6895
▁Res	-6896
▁roe	-6897
▁tog	-6898
amers	-6899
linge	-6900
werke	-6901
▁100%	-6902
▁Klag	-6903
▁Kuns	-6904
▁Lees	-6905
▁gese	-6906
▁wena	-6907
esting	-6908
▁Admin	-6909
▁Theuns	-6910
▁instal	-6911
▁versig	-6912
▁vertoë	-6913
▁Belange	-6914
▁genomin	-6915
▁oogmerk	-6916
besigheid	-6917
▁Studente	-6918
▁Verkeers	-6919
▁afwyking	-6920
▁beweging	-6921
▁verskerp	-6922
▁praktisyn	-6923
veiligheids	-6924
▁aannemings	-6925
▁inspekteur	-6926
▁meganismes	-6927
▁voorstelle	-6928
▁vuurwapens	-6929
sverandering	-6930
▁uitstekende	-6931
▁ontspannings	-6932
▁Adjunkpresident	-6933
LM	-6934
UZ	-6935
ck	-6936
ns	-6937
up	-6938
MMO	-6939
UZO	-6940
eur	-6941
kei	-6942
sto	-6943
▁EN	-6944
fiel	-6945
ines	-6946
oods	-6947
▁Chr	-6948
▁Inf	-6949
▁bod	-6950
▁bon	-6951
▁nje	-6952
IBUZO	-6953
aarte	-6954
▁Kort	-6955
▁duis	-6956
▁half	-6957
▁kerk	-6958
atings	-6959
raktyk	-6960
▁gedra	-6961
▁ongem	-6962
▁riool	-6963
▁vlieg	-6964
liggame	-6965
miljoen	-6966
▁Belang	-6967
▁Sibuze	-6968
▁applik	-6969
▁wettig	-6970
vorsings	-6971
▁Gateway	-6972
▁IMIBUZO	-6973
▁geskiet	-6974
▁konflik	-6975
▁kongres	-6976
▁student	-6977
▁veeltal	-6978
struktuur	-6979
▁Besproei	-6980
▁bevoegde	-6981
▁eksterne	-6982
▁modified	-6983
▁sentrale	-6984
▁voorsorg	-6985
▁Drankraad	-6986
▁amptenaar	-6987
▁bewerking	-6988
▁indiening	-6989
▁navorsers	-6990
▁Werkgewers	-6991
▁ampstermyn	-6992
▁versorging	-6993
▁besoedeling	-6994
▁voorlegging	-6995
▁mediesefonds	-6996
▁opvoedkundige	-6997
▁Aangeleenthede	-6998
▁beskikbaarheid	-6999
▁departementele	-7000
▁regterwysvinger	-7001
asp	-7002
ayo	-7003
eem	-7004
kyk	-7005
▁62	-7006
▁75	-7007
▁BK	-7008
▁Bo	-7009
awwe	-7010
diep	-7011
tien	-7012
▁Ses	-7013
▁ass	-7014
Natal	-7015
ubbel	-7016
▁Seis	-7017
▁knop	-7018
▁lone	-7019
▁vuur	-7020
issers	-7021
siekte	-7022
▁South	-7023
▁oefen	-7024
▁rasse	-7025
skaalse	-7026
skanker	-7027
valueer	-7028
waardig	-7029
▁navrae	-7030
▁vervul	-7031
atoriese	-7032
▁getuies	-7033
▁insekte	-7034
▁uittrek	-7035
▁verleng	-7036
antwoorde	-7037
doeltreff	-7038
▁Johannes	-7039
▁Overberg	-7040
▁Werkloos	-7041
▁verwagte	-7042
▁kleinsake	-7043
▁toegeneem	-7044
▁woonagtig	-7045
▁Beplanning	-7046
▁direkteure	-7047
▁aanvaarding	-7048
▁dagvaarding	-7049
▁sertifikate	-7050
▁uitnodiging	-7051
▁Veranderlike	-7052
▁afsonderlike	-7053
▁registrasies	-7054
▁entrepreneurs	-7055
▁kwalifikasies	-7056
▁samesprekings	-7057
▁voedingstowwe	-7058
werkingstelling	-7059
ja	-7060
ww	-7061
fak	-7062
arke	-7063
elit	-7064
vore	-7065
▁SVD	-7066
▁Sit	-7067
▁dop	-7068
▁inv	-7069
iekte	-7070
▁Nood	-7071
▁Prys	-7072
▁Self	-7073
▁prim	-7074
▁werf	-7075
doders	-7076
komend	-7077
toelae	-7078
▁enkel	-7079
▁forum	-7080
▁kolom	-7081
▁satel	-7082
▁spaar	-7083
▁verde	-7084
▁werke	-7085
arkings	-7086
nuwings	-7087
▁1923),	-7088
▁Elektr	-7089
▁Regter	-7090
▁oortyd	-7091
▁stadig	-7092
▁wapens	-7093
estiging	-7094
▁Landdro	-7095
▁bietjie	-7096
▁roetine	-7097
spraktyke	-7098
▁Verwante	-7099
▁brosjure	-7100
▁genereer	-7101
▁spandeer	-7102
▁Behuising	-7103
▁bereiking	-7104
▁opgespoor	-7105
▁oplossing	-7106
▁specially	-7107
▁verwelkom	-7108
▁aansienlik	-7109
▁instrument	-7110
▁besoldiging	-7111
▁waardigheid	-7112
▁Bloemfontein	-7113
aangeleenthede	-7114
▁Inkomstediens	-7115
▁nedersettings	-7116
4)	-7117
ES	-7118
Om	-7119
UK	-7120
sc	-7121
FST	-7122
ice	-7123
wyn	-7124
▁39	-7125
▁NS	-7126
▁WK	-7127
ROOM	-7128
room	-7129
sper	-7130
▁Mot	-7131
▁Wis	-7132
▁alf	-7133
▁bad	-7134
▁gif	-7135
▁oms	-7136
HEFST	-7137
apeut	-7138
strie	-7139
syfer	-7140
visie	-7141
▁Onge	-7142
▁POTC	-7143
▁Ters	-7144
▁inkl	-7145
▁rooi	-7146
elaars	-7147
elende	-7148
enging	-7149
ogings	-7150
waZulu	-7151
▁breek	-7152
▁gesit	-7153
voeging	-7154
▁Museum	-7155
▁betree	-7156
▁oorsee	-7157
▁opname	-7158
▁skaars	-7159
▁vriend	-7160
illeerde	-7161
kursusse	-7162
ywerhede	-7163
▁diarree	-7164
▁herhaal	-7165
▁uitbrei	-7166
HEFSTROOM	-7167
stellende	-7168
strukture	-7169
▁Kwelvrae	-7170
▁negatief	-7171
▁optimale	-7172
▁toestaan	-7173
▁voorwaar	-7174
▁aanwysing	-7175
sgesondheid	-7176
▁Vrystaatse	-7177
▁afvalwater	-7178
▁emosionele	-7179
▁regverdige	-7180
▁onvoldoende	-7181
▁POTCHEFSTROOM	-7182
▁onkruidbeheer	-7183
):	-7184
Ms	-7185
én	-7186
ain	-7187
byd	-7188
rom	-7189
tas	-7190
usk	-7191
▁9.	-7192
baai	-7193
kont	-7194
reed	-7195
role	-7196
▁12.	-7197
▁250	-7198
▁Lou	-7199
▁MAS	-7200
▁Rek	-7201
▁erg	-7202
▁nut	-7203
▁pan	-7204
▁sem	-7205
engte	-7206
entoe	-7207
skema	-7208
tware	-7209
uroor	-7210
▁orde	-7211
▁tjek	-7212
▁uits	-7213
gebore	-7214
oening	-7215
rekord	-7216
woning	-7217
▁Karoo	-7218
▁gaste	-7219
▁gerus	-7220
honderd	-7221
indheid	-7222
somming	-7223
▁Christ	-7224
▁fisies	-7225
▁gedele	-7226
▁passas	-7227
estering	-7228
kriteria	-7229
▁alfabet	-7230
▁besoeke	-7231
▁ondersk	-7232
▁uitdruk	-7233
▁verbied	-7234
skomitees	-7235
▁Seisoens	-7236
▁Voorstel	-7237
▁getender	-7238
▁interess	-7239
▁promosie	-7240
prosedures	-7241
▁Werkgewer	-7242
▁gedeeltes	-7243
▁resultaat	-7244
▁uitbetaal	-7245
▁beslissing	-7246
▁huishouding	-7247
▁instrumente	-7248
▁vooruitgang	-7249
▁waardevolle	-7250
administrasie	-7251
ooreenkomstig	-7252
▁aansoekvorms	-7253
▁opvanggebied	-7254
▁Seisoensarbeid	-7255
46	-7256
OG	-7257
ve	-7258
RVP	-7259
kry	-7260
▁(1	-7261
▁Pa	-7262
▁Sh	-7263
.''.	-7264
INGS	-7265
ance	-7266
anga	-7267
otho	-7268
roon	-7269
ture	-7270
▁Bal	-7271
inale	-7272
prior	-7273
virus	-7274
▁mult	-7275
beraad	-7276
inhoud	-7277
onitor	-7278
ronder	-7279
oftware	-7280
rotings	-7281
▁Vrydag	-7282
▁afneem	-7283
▁akkomm	-7284
▁beraad	-7285
▁hulles	-7286
▁ideale	-7287
bitrasie	-7288
houdende	-7289
reidings	-7290
rywillig	-7291
spekteer	-7292
spersoon	-7293
voorraad	-7294
▁Primêre	-7295
▁afsluit	-7296
▁effekte	-7297
▁vasstel	-7298
▁versnel	-7299
▁vertrag	-7300
doelwitte	-7301
▁INKOMSTE	-7302
▁koerante	-7303
opleidings	-7304
▁Begroting	-7305
▁bygestaan	-7306
▁ingeligte	-7307
▁inspeksie	-7308
inisiatiewe	-7309
▁gehoorsaam	-7310
▁rapporteer	-7311
▁kontrakteur	-7312
▁verklarings	-7313
▁besproeiings	-7314
▁kennisgewings	-7315
26	-7316
86	-7317
▁:	-7318
ric	-7319
vak	-7320
.939	-7321
Kapa	-7322
ouer	-7323
spol	-7324
waal	-7325
▁nas	-7326
▁rou	-7327
erwys	-7328
ineer	-7329
ligte	-7330
umayo	-7331
velop	-7332
▁WKOD	-7333
▁anti	-7334
▁glad	-7335
▁prop	-7336
▁vlag	-7337
ayelit	-7338
enberg	-7339
ifieke	-7340
tydens	-7341
▁Diere	-7342
▁dwing	-7343
▁effek	-7344
▁gehef	-7345
▁roman	-7346
entreer	-7347
vangste	-7348
▁Senior	-7349
▁bosbou	-7350
▁museum	-7351
.9377.19	-7352
▁gebeure	-7353
▁reënval	-7354
ayelitsha	-7355
fekteerde	-7356
toestande	-7357
▁Strafreg	-7358
▁besmette	-7359
▁bewillig	-7360
▁dringend	-7361
▁elemente	-7362
▁skrywers	-7363
▁veiliger	-7364
etailleerde	-7365
▁aanvanklike	-7366
▁hoeveelhede	-7367
▁uitsluiting	-7368
▁versameling	-7369
▁vermindering	-7370
ht	-7371
ipe	-7372
▁8,	-7373
fooi	-7374
raes	-7375
skaf	-7376
▁30%	-7377
▁imp	-7378
▁sil	-7379
areas	-7380
iasie	-7381
skode	-7382
wasse	-7383
▁Sond	-7384
▁Voer	-7385
agiese	-7386
gehele	-7387
ikende	-7388
studie	-7389
▁2001,	-7390
▁berei	-7391
▁gewen	-7392
▁inkom	-7393
▁karak	-7394
▁nadel	-7395
besoeke	-7396
gewasse	-7397
igrasie	-7398
▁Argief	-7399
▁gemeet	-7400
▁vertal	-7401
▁instruk	-7402
▁middele	-7403
▁navraag	-7404
▁vermaak	-7405
aliseerde	-7406
▁Akademie	-7407
▁algehele	-7408
▁polisiek	-7409
▁voorneme	-7410
▁Veeartsen	-7411
▁bekragtig	-7412
▁bewarings	-7413
▁gekontrak	-7414
▁hulleself	-7415
▁aanduiding	-7416
▁mondelinge	-7417
▁normaalweg	-7418
▁organiseer	-7419
▁beoordeling	-7420
▁kommunikeer	-7421
▁gefinaliseer	-7422
▁leerlingskap	-7423
▁onmiddellike	-7424
▁gepaardgaande	-7425
▁georganiseerde	-7426
3(	-7427
ED	-7428
HS	-7429
IN	-7430
SP	-7431
als	-7432
mid	-7433
mpe	-7434
sye	-7435
▁Sm	-7436
NDER	-7437
aamd	-7438
ence	-7439
gewe	-7440
iene	-7441
ilik	-7442
kool	-7443
meel	-7444
unte	-7445
utte	-7446
wind	-7447
▁SMS	-7448
▁mak	-7449
▁mar	-7450
▁pyn	-7451
brink	-7452
erger	-7453
legas	-7454
likes	-7455
oneer	-7456
pryse	-7457
steen	-7458
▁Howe	-7459
▁Reël	-7460
▁asem	-7461
▁borg	-7462
▁glob	-7463
▁poog	-7464
▁tran	-7465
enlike	-7466
ongres	-7467
▁aarde	-7468
▁foute	-7469
▁klaar	-7470
▁stres	-7471
bystand	-7472
pleging	-7473
▁5913),	-7474
▁Weskus	-7475
▁besorg	-7476
▁dusver	-7477
▁getolk	-7478
▁suster	-7479
aansoeke	-7480
bewaring	-7481
ekonomie	-7482
genereer	-7483
▁Maandag	-7484
▁gefokus	-7485
▁heelwat	-7486
▁hulself	-7487
▁verloop	-7488
▁Combrink	-7489
▁Elektris	-7490
▁Internet	-7491
▁eggenoot	-7492
▁gedeelde	-7493
▁hartseer	-7494
▁inbetaal	-7495
▁plaaslik	-7496
▁reguleer	-7497
▁stigting	-7498
▁vorentoe	-7499
▁geboortes	-7500
▁terugkeer	-7501
▁alfabeties	-7502
▁behulpsaam	-7503
▁voorbeelde	-7504
▁waartydens	-7505
▁wonderlike	-7506
▁Regtehouers	-7507
▁elektronies	-7508
▁funksionele	-7509
▁letterkunde	-7510
▁publikasies	-7511
▁voortspruit	-7512
▁grondgebruik	-7513
▁voorafgaande	-7514
▁voorleggings	-7515
IO	-7516
OC	-7517
RY	-7518
.64	-7519
ERS	-7520
arl	-7521
mie	-7522
rot	-7523
▁Sl	-7524
▁Beë	-7525
▁Mat	-7526
▁mev	-7527
agent	-7528
uides	-7529
wonge	-7530
▁Brit	-7531
▁FIFA	-7532
▁Miel	-7533
▁Paar	-7534
▁fooi	-7535
▁hoek	-7536
▁meng	-7537
▁seun	-7538
.2004.	-7539
geloop	-7540
isteme	-7541
▁laste	-7542
aanslag	-7543
erstand	-7544
pakking	-7545
▁bakter	-7546
▁fabrik	-7547
▁storie	-7548
▁Mariene	-7549
▁Vervolg	-7550
▁museums	-7551
▁sisteem	-7552
▁Hulpbron	-7553
▁benadeel	-7554
▁beplande	-7555
▁boekjare	-7556
▁hiervoor	-7557
▁leerling	-7558
▁Stadsraad	-7559
▁finansier	-7560
▁finansies	-7561
▁grootliks	-7562
▁handelaar	-7563
▁histories	-7564
▁uitspreek	-7565
▁verhuring	-7566
▁verlangde	-7567
▁versigtig	-7568
geleentheid	-7569
▁onderhouds	-7570
▁oorgeplaas	-7571
▁uitreiking	-7572
▁assessering	-7573
▁handleiding	-7574
▁geregtigheid	-7575
▁oordraagbare	-7576
▁Visekanselier	-7577
▁verblyfpermit	-7578
▁verkeersboete	-7579
▁voorbereiding	-7580
iat	-7581
luk	-7582
pes	-7583
tok	-7584
▁42	-7585
▁IB	-7586
.357	-7587
aret	-7588
dvis	-7589
itam	-7590
rank	-7591
rong	-7592
styl	-7593
uits	-7594
▁1.1	-7595
▁Bew	-7596
▁bas	-7597
hoorn	-7598
▁boon	-7599
▁boor	-7600
▁dest	-7601
▁hoes	-7602
▁trou	-7603
ateurs	-7604
taande	-7605
▁Binne	-7606
▁Chris	-7607
▁Datum	-7608
▁bedek	-7609
▁herst	-7610
▁perde	-7611
▁selle	-7612
▁tronk	-7613
ameling	-7614
telsels	-7615
visvang	-7616
▁aangen	-7617
▁poliov	-7618
paspoort	-7619
rektiewe	-7620
▁Armoede	-7621
▁Hoofwet	-7622
▁KwaZulu	-7623
▁kunsten	-7624
▁oortree	-7625
velopment	-7626
▁Europese	-7627
▁Stelsels	-7628
▁kollegas	-7629
▁kwesbaar	-7630
▁oogmerke	-7631
▁tandheel	-7632
▁Salarisse	-7633
▁eenvoudig	-7634
▁innovasie	-7635
▁nasionaal	-7636
▁ooreenkom	-7637
▁raadpleeg	-7638
verskaffing	-7639
▁Khayelitsha	-7640
▁beëindiging	-7641
▁gedeeltelik	-7642
▁studiegroep	-7643
▁Burgemeester	-7644
▁strafregtelike	-7645
▁volhoubaarheid	-7646
99	-7647
IC	-7648
ld	-7649
ici	-7650
imb	-7651
lle	-7652
mod	-7653
sal	-7654
▁IK	-7655
oene	-7656
ront	-7657
tjie	-7658
ulum	-7659
uses	-7660
▁Gek	-7661
▁Mon	-7662
▁abs	-7663
▁adv	-7664
.1159	-7665
boere	-7666
opsie	-7667
plase	-7668
tereg	-7669
waalf	-7670
▁Amer	-7671
▁Drie	-7672
▁NRVP	-7673
▁Unie	-7674
▁daai	-7675
andela	-7676
isieer	-7677
odasie	-7678
onente	-7679
vorens	-7680
▁Gereg	-7681
▁State	-7682
▁berus	-7683
▁noord	-7684
respond	-7685
studies	-7686
▁Elkeen	-7687
▁Permit	-7688
▁geloof	-7689
▁liefde	-7690
▁toeval	-7691
▁verbod	-7692
▁vorder	-7693
asiteits	-7694
▁Koerant	-7695
▁Mandela	-7696
▁Misdaad	-7697
▁Tshwane	-7698
▁vasgelê	-7699
▁viering	-7700
▁voorbeh	-7701
gelykheid	-7702
hospitaal	-7703
▁vakature	-7704
nemendheid	-7705
▁aangetoon	-7706
▁bespoedig	-7707
▁diensgeld	-7708
▁ingeskryf	-7709
▁kandidaat	-7710
agentskappe	-7711
▁Masjinerie	-7712
▁Regulasies	-7713
▁gestremdes	-7714
▁maatstawwe	-7715
▁Application	-7716
▁afsonderlik	-7717
▁bevestiging	-7718
▁sielkundige	-7719
▁fasilitering	-7720
▁ingewikkelde	-7721
PF	-7722
au	-7723
ti	-7724
nik	-7725
ott	-7726
▁49	-7727
▁51	-7728
▁Ty	-7729
Vigs	-7730
bels	-7731
ches	-7732
hawe	-7733
likw	-7734
oers	-7735
roei	-7736
▁1,0	-7737
▁Cal	-7738
▁Rob	-7739
▁Was	-7740
▁bok	-7741
▁mut	-7742
ideer	-7743
nogra	-7744
▁1995	-7745
▁Berg	-7746
▁Jong	-7747
▁Stat	-7748
▁VIGS	-7749
▁laas	-7750
▁ontk	-7751
▁vide	-7752
.2005.	-7753
endige	-7754
enhede	-7755
geerde	-7756
instal	-7757
undige	-7758
vermin	-7759
▁Oudts	-7760
▁Ouers	-7761
▁draai	-7762
▁insol	-7763
▁vreem	-7764
orderde	-7765
▁2000).	-7766
▁afgele	-7767
▁beveil	-7768
▁gegaan	-7769
▁hierby	-7770
▁uitbou	-7771
▁verste	-7772
enigings	-7773
temmings	-7774
▁Persone	-7775
▁Verdere	-7776
▁Werkers	-7777
▁uitkoms	-7778
wetgewing	-7779
▁akkuraat	-7780
▁kritieke	-7781
▁toeriste	-7782
▁andersins	-7783
▁fabrikaat	-7784
▁gevaarlik	-7785
▁hernuwing	-7786
▁ingevulde	-7787
▁raadslede	-7788
▁toelating	-7789
▁wesenlike	-7790
▁Oudtshoorn	-7791
▁winsgewend	-7792
▁borsvoeding	-7793
▁diversiteit	-7794
▁ontspanning	-7795
▁transaksies	-7796
▁uitgevaardig	-7797
▁Terselfdertyd	-7798
▁besluitneming	-7799
▁vingerafdrukke	-7800
,0	-7801
33	-7802
ihl	-7803
lam	-7804
ënt	-7805
▁72	-7806
▁OB	-7807
fase	-7808
ofte	-7809
stip	-7810
▁Eis	-7811
.2008	-7812
luite	-7813
▁0800	-7814
▁1973	-7815
▁Chem	-7816
▁Tree	-7817
▁herk	-7818
▁weeg	-7819
advies	-7820
agtige	-7821
antore	-7822
vuldig	-7823
waters	-7824
wintig	-7825
▁2000,	-7826
▁2000.	-7827
▁Balju	-7828
▁Skole	-7829
▁beveg	-7830
▁gekyk	-7831
▁iKapa	-7832
▁klerk	-7833
▁netto	-7834
▁spoel	-7835
▁vakke	-7836
aamwerk	-7837
persoon	-7838
▁Sedert	-7839
▁afgesk	-7840
▁diesel	-7841
▁gekwal	-7842
▁gevorm	-7843
▁uitset	-7844
▁matriek	-7845
▁metodes	-7846
▁ontslag	-7847
▁oorsake	-7848
▁vangste	-7849
▁deursoek	-7850
▁vererger	-7851
▁meganiese	-7852
▁staatsorg	-7853
▁toegewyde	-7854
▁voorskryf	-7855
▁Sekuriteit	-7856
▁afhangende	-7857
▁gereedskap	-7858
▁omskrywing	-7859
respondensie	-7860
▁Kleinhandel	-7861
▁Presidensie	-7862
08	-7863
41	-7864
UT	-7865
WE	-7866
▁78	-7867
▁II	-7868
blyf	-7869
epro	-7870
fnis	-7871
iete	-7872
root	-7873
wees	-7874
▁fyn	-7875
▁sny	-7876
▁sui	-7877
▁wen	-7878
braak	-7879
ccess	-7880
diere	-7881
halwe	-7882
▁Enig	-7883
▁Meld	-7884
▁ontw	-7885
▁ruil	-7886
▁verf	-7887
▁volk	-7888
.3576.	-7889
estand	-7890
maande	-7891
▁aldus	-7892
aktiewe	-7893
gangers	-7894
itering	-7895
metodes	-7896
▁Daarna	-7897
▁Opvoed	-7898
▁gedruk	-7899
▁gunste	-7900
▁konsol	-7901
▁ontdek	-7902
▁satell	-7903
▁twaalf	-7904
▁wenner	-7905
ospitale	-7906
▁Eiendom	-7907
▁bladsye	-7908
▁sterker	-7909
▁teister	-7910
magtiging	-7911
▁Boerdery	-7912
▁aansteek	-7913
▁teenstry	-7914
▁Tribunaal	-7915
▁	-7916
e	-7917
i	-7918
n	-7919
a	-7920
r	-7921
o	-7922
s	-7923
t	-7924
d	-7925
g	-7926
l	-7927
k	-7928
v	-7929
m	-7930
u	-7931
w	-7932
p	-7933
b	-7934
.	-7935
h	-7936
f	-7937
y	-7938
,	-7939
0	-7940
-	-7941
'	-7942
D	-7943
1	-7944
A	-7945
O	-7946
j	-7947
S	-7948
2	-7949
V	-7950
W	-7951
R	-7952
M	-7953
K	-7954
E	-7955
I	-7956
B	-7957
3	-7958
(	-7959
)	-7960
G	-7961
4	-7962
P	-7963
c	-7964
?	-7965
9	-7966
N	-7967
5	-7968
H	-7969
ë	-7970
T	-7971
L	-7972
>	-7973
<	-7974
6	-7975
/	-7976
8	-7977
7	-7978
:	-7979
ê	-7980
"	-7981
x	-7982
U	-7983
F	-7984
Z	-7985
J	-7986
;	-7987
C	-7988
Y	-7989
q	-7990
é	-7991
@	-7992
|	-7993
%	-7994
z	-7995
ï	-7996
