<unk>	0
<s>	0
</s>	0
▁t	-0
he	-1
▁a	-2
in	-3
▁o	-4
▁the	-5
re	-6
er	-7
at	-8
on	-9
▁of	-10
▁w	-11
or	-12
it	-13
es	-14
▁p	-15
en	-16
▁s	-17
▁c	-18
▁in	-19
is	-20
an	-21
▁an	-22
▁f	-23
ou	-24
▁b	-25
ct	-26
ion	-27
▁m	-28
ro	-29
ed	-30
▁d	-31
ic	-32
ar	-33
▁to	-34
▁and	-35
al	-36
ing	-37
le	-38
st	-39
▁re	-40
ent	-41
▁be	-42
▁th	-43
▁n	-44
▁h	-45
il	-46
▁T	-47
id	-48
ve	-49
▁y	-50
▁for	-51
ect	-52
ation	-53
ra	-54
▁e	-55
▁is	-56
ly	-57
ment	-58
▁g	-59
om	-60
de	-61
▁C	-62
▁ha	-63
▁A	-64
▁on	-65
ur	-66
et	-67
▁pro	-68
▁or	-69
ce	-70
▁The	-71
▁that	-72
un	-73
ith	-74
▁with	-75
▁v	-76
▁are	-77
oor	-78
▁S	-79
▁it	-80
ig	-81
op	-82
ers	-83
ss	-84
▁you	-85
▁l	-86
ll	-87
ate	-88
ch	-89
ge	-90
▁P	-91
th	-92
ust	-93
pp	-94
se	-95
oorde	-96
ir	-97
ut	-98
▁woorde	-99
▁I	-100
▁con	-101
▁no	-102
if	-103
tr	-104
▁must	-105
▁wh	-106
ire	-107
▁R	-108
▁as	-109
im	-110
▁1	-111
us	-112
est	-113
oun	-114
▁inf	-115
ear	-116
em	-117
erm	-118
ions	-119
ill	-120
ay	-121
▁at	-122
ates	-123
ow	-124
▁we	-125
te	-126
▁H	-127
▁de	-128
lic	-129
ke	-130
ies	-131
our	-132
▁app	-133
ople	-134
▁W	-135
▁(	-136
▁ne	-137
art	-138
ity	-139
pe	-140
ess	-141
her	-142
ort	-143
▁dates	-144
▁D	-145
▁not	-146
iding	-147
00	-148
qu	-149
irect	-150
ag	-151
igh	-152
as	-153
ore	-154
▁su	-155
▁will	-156
▁2	-157
▁pre	-158
ive	-159
so	-160
▁by	-161
ial	-162
ver	-163
ie	-164
▁st	-165
▁have	-166
ure	-167
▁gro	-168
▁com	-169
▁ch	-170
▁year	-171
▁ro	-172
▁M	-173
oo	-174
ert	-175
ul	-176
▁can	-177
ble	-178
▁direct	-179
ant	-180
▁prov	-181
act	-182
ld	-183
opleiding	-184
▁B	-185
▁infect	-186
rom	-187
▁ex	-188
iv	-189
▁directly	-190
ain	-191
orm	-192
▁from	-193
▁r	-194
sp	-195
ermit	-196
ric	-197
ter	-198
▁its	-199
▁has	-200
▁F	-201
me	-202
and	-203
▁more	-204
ich	-205
oc	-206
▁coun	-207
ip	-208
la	-209
▁which	-210
▁De	-211
▁within	-212
▁he	-213
▁Af	-214
▁cont	-215
▁countr	-216
um	-217
▁po	-218
▁years	-219
ied	-220
ther	-221
red	-222
ren	-223
ice	-224
▁than	-225
▁been	-226
▁le	-227
▁country	-228
ph	-229
erv	-230
ork	-231
▁your	-232
cial	-233
ys	-234
ape	-235
tra	-236
ated	-237
permit	-238
▁aan	-239
▁grow	-240
▁applic	-241
▁per	-242
ance	-243
▁E	-244
▁who	-245
ber	-246
raph	-247
▁O	-248
▁par	-249
ild	-250
▁roll	-251
▁ver	-252
▁our	-253
vel	-254
IV	-255
▁HIV	-256
eke	-257
▁parag	-258
▁Ret	-259
▁reg	-260
▁fun	-261
ac	-262
▁paragraph	-263
ertif	-264
ight	-265
erson	-266
▁Cape	-267
▁al	-268
outh	-269
lo	-270
soeke	-271
▁ac	-272
▁whe	-273
part	-274
ud	-275
▁any	-276
partment	-277
▁all	-278
▁prec	-279
▁im	-280
ssss	-281
▁aansoeke	-282
▁Afric	-283
ple	-284
ail	-285
▁sh	-286
able	-287
▁200	-288
ide	-289
▁en	-290
▁resp	-291
ek	-292
▁off	-293
▁str	-294
port	-295
der	-296
ist	-297
▁do	-298
▁N	-299
bour	-300
quest	-301
atus	-302
▁work	-303
ik	-304
res	-305
▁serv	-306
ult	-307
age	-308
ff	-309
ard	-310
▁16	-311
▁wat	-312
ctions	-313
hoo	-314
ities	-315
ection	-316
▁person	-317
▁this	-318
▁status	-319
ern	-320
ub	-321
ational	-322
▁ma	-323
ous	-324
▁fact	-325
▁South	-326
ving	-327
▁comm	-328
cess	-329
▁me	-330
▁am	-331
▁0	-332
▁part	-333
ad	-334
ov	-335
▁sm	-336
▁inc	-337
ary	-338
za	-339
ould	-340
▁attra	-341
▁having	-342
bied	-343
▁Par	-344
▁if	-345
▁k	-346
tw	-347
biede	-348
ject	-349
▁Department	-350
▁L	-351
▁tra	-352
velop	-353
gebiede	-354
▁other	-355
ighbour	-356
▁ag	-357
▁attrays	-358
ak	-359
over	-360
▁neighbour	-361
all	-362
▁In	-363
▁their	-364
▁weers	-365
▁item	-366
▁weersp	-367
▁If	-368
▁also	-369
▁dis	-370
▁weerspie	-371
▁pe	-372
ations	-373
os	-374
▁def	-375
ices	-376
form	-377
am	-378
ap	-379
ateg	-380
ome	-381
▁Pro	-382
▁child	-383
lect	-384
ence	-385
ord	-386
▁quest	-387
▁rate	-388
icip	-389
ib	-390
▁inform	-391
▁ref	-392
▁growth	-393
▁one	-394
ase	-395
overn	-396
gra	-397
▁sub	-398
▁West	-399
▁Y	-400
ious	-401
own	-402
▁Western	-403
ident	-404
▁-	-405
ach	-406
urn	-407
▁mon	-408
▁G	-409
ite	-410
▁comp	-411
gov	-412
velopment	-413
ec	-414
ublic	-415
▁Park	-416
▁precis	-417
▁vir	-418
ign	-419
ue	-420
▁information	-421
▁they	-422
pport	-423
du	-424
gram	-425
▁un	-426
▁provin	-427
af	-428
▁3	-429
overnment	-430
▁such	-431
▁4	-432
ertifik	-433
▁To	-434
▁sy	-435
ted	-436
▁term	-437
▁perform	-438
ount	-439
▁09	-440
▁rolling	-441
ime	-442
▁ind	-443
out	-444
li	-445
▁may	-446
mp	-447
▁groe	-448
ution	-449
▁need	-450
▁infection	-451
od	-452
▁An	-453
▁people	-454
▁functions	-455
▁man	-456
▁groei	-457
▁ad	-458
▁should	-459
stem	-460
▁Africa	-461
lud	-462
▁spe	-463
wc	-464
ree	-465
alth	-466
▁pl	-467
cil	-468
▁area	-469
ine	-470
are	-471
▁19	-472
istr	-473
ical	-474
ors	-475
aat	-476
▁system	-477
end	-478
▁Ch	-479
▁bus	-480
▁cons	-481
iness	-482
▁commun	-483
loy	-484
▁questions	-485
ot	-486
ining	-487
▁application	-488
▁Bu	-489
▁form	-490
▁strateg	-491
el	-492
ks	-493
▁Act	-494
▁was	-495
hood	-496
▁age	-497
▁terms	-498
▁rep	-499
▁V	-500
air	-501
ens	-502
▁Return	-503
les	-504
▁but	-505
▁respon	-506
▁neighbourhood	-507
▁ta	-508
▁there	-509
▁rec	-510
▁acc	-511
▁performance	-512
ertifikaat	-513
pg	-514
▁J	-515
▁precispermit	-516
▁my	-517
▁ab	-518
pgwc	-519
mploy	-520
ast	-521
▁Re	-522
▁det	-523
ab	-524
▁conf	-525
mit	-526
urtw	-527
▁pres	-528
urtwag	-529
▁Buurtwag	-530
unicip	-531
unicipal	-532
▁provid	-533
▁Buurtwagte	-534
▁Wh	-535
▁program	-536
▁8	-537
▁employ	-538
▁infections	-539
▁ass	-540
▁Th	-541
▁us	-542
▁defect	-543
ool	-544
▁her	-545
use	-546
ces	-547
▁min	-548
▁amount	-549
iz	-550
▁land	-551
▁health	-552
▁ob	-553
ouncil	-554
▁services	-555
gh	-556
rou	-557
▁pla	-558
▁out	-559
▁res	-560
▁apply	-561
▁only	-562
▁smear	-563
ang	-564
▁pr	-565
chool	-566
▁where	-567
▁children	-568
ays	-569
ol	-570
▁mem	-571
▁red	-572
ssssssss	-573
▁How	-574
▁time	-575
▁business	-576
▁pay	-577
▁Council	-578
▁Com	-579
▁eight	-580
rol	-581
▁when	-582
ister	-583
eker	-584
ost	-585
rent	-586
een	-587
▁new	-588
sure	-589
▁training	-590
ible	-591
▁right	-592
eris	-593
stit	-594
ame	-595
▁6	-596
ose	-597
▁fe	-598
con	-599
▁respect	-600
▁seker	-601
▁well	-602
▁each	-603
▁num	-604
▁government	-605
▁about	-606
▁Prov	-607
▁dec	-608
▁section	-609
ourt	-610
wn	-611
▁systems	-612
▁verh	-613
resent	-614
▁5	-615
▁i	-616
▁contact	-617
▁This	-618
▁service	-619
icate	-620
▁K	-621
▁ensure	-622
erisme	-623
ricult	-624
che	-625
▁municipal	-626
▁Toerisme	-627
▁infectious	-628
▁polic	-629
▁African	-630
▁control	-631
▁represent	-632
000	-633
▁made	-634
▁own	-635
▁watch	-636
ict	-637
▁number	-638
ertain	-639
▁pa	-640
uit	-641
ater	-642
▁fin	-643
).	-644
▁over	-645
▁water	-646
▁take	-647
conom	-648
ced	-649
▁certain	-650
agement	-651
ual	-652
▁Provin	-653
ry	-654
ange	-655
ten	-656
),	-657
▁certif	-658
▁respons	-659
ress	-660
▁development	-661
▁imp	-662
▁place	-663
vent	-664
gis	-665
int	-666
▁bo	-667
pleiding	-668
▁support	-669
▁dat	-670
▁National	-671
▁rece	-672
rough	-673
▁she	-674
▁includ	-675
▁9	-676
▁office	-677
▁public	-678
ition	-679
▁disc	-680
▁reflect	-681
▁provided	-682
▁voor	-683
fore	-684
▁kn	-685
▁import	-686
▁av	-687
▁provide	-688
▁li	-689
lu	-690
▁fir	-691
▁verhoo	-692
▁verhoog	-693
▁test	-694
gisl	-695
▁exp	-696
▁strategies	-697
ature	-698
▁meer	-699
▁post	-700
get	-701
airs	-702
▁certificate	-703
one	-704
▁van	-705
▁month	-706
here	-707
▁What	-708
▁16-	-709
utive	-710
bers	-711
duct	-712
▁smears	-713
ru	-714
▁equ	-715
inf	-716
▁rest	-717
pt	-718
▁iss	-719
ans	-720
▁Min	-721
ting	-722
▁first	-723
▁permit	-724
llow	-725
▁inv	-726
▁7	-727
cy	-728
ID	-729
irek	-730
ety	-731
▁these	-732
und	-733
▁community	-734
▁so	-735
utes	-736
▁those	-737
eting	-738
arm	-739
ecutive	-740
▁"	-741
▁national	-742
▁add	-743
▁through	-744
▁199	-745
▁rel	-746
ne	-747
▁Con	-748
▁offic	-749
▁strategiese	-750
ives	-751
▁make	-752
arge	-753
ener	-754
▁Aff	-755
▁object	-756
▁loc	-757
▁j	-758
▁set	-759
▁Affairs	-760
▁school	-761
stitution	-762
▁se	-763
▁spec	-764
1.	-765
▁act	-766
ife	-767
▁direk	-768
ility	-769
▁date	-770
ory	-771
▁important	-772
▁how	-773
▁project	-774
▁elect	-775
ved	-776
▁avail	-777
▁available	-778
▁issu	-779
▁specif	-780
▁appro	-781
▁before	-782
▁management	-783
▁virus	-784
▁Development	-785
▁la	-786
▁applicant	-787
▁It	-788
▁Pres	-789
sel	-790
ri	-791
ever	-792
▁opleiding	-793
▁Home	-794
▁Provincial	-795
▁minutes	-796
ails	-797
▁know	-798
▁econom	-799
▁used	-800
▁You	-801
▁meeting	-802
ments	-803
▁port	-804
ong	-805
rest	-806
ack	-807
ural	-808
▁assist	-809
▁sect	-810
iod	-811
▁life	-812
▁period	-813
pportun	-814
vir	-815
IDS	-816
cessary	-817
cap	-818
▁U	-819
ffect	-820
onment	-821
▁opportun	-822
entre	-823
▁President	-824
▁court	-825
▁necessary	-826
▁opleidings	-827
▁des	-828
led	-829
uring	-830
▁comple	-831
ile	-832
▁We	-833
▁000	-834
▁mat	-835
ority	-836
capet	-837
▁case	-838
▁process	-839
ision	-840
terest	-841
▁Ex	-842
▁Town	-843
capetown	-844
..	-845
▁provincial	-846
tween	-847
▁between	-848
▁ten	-849
igned	-850
▁die	-851
▁employe	-852
▁care	-853
▁redistr	-854
▁att	-855
ck	-856
▁refer	-857
▁Ag	-858
▁vooruit	-859
ief	-860
riculture	-861
ish	-862
ancial	-863
up	-864
▁regard	-865
▁programme	-866
mes	-867
▁interest	-868
ood	-869
▁responsible	-870
▁Can	-871
ism	-872
▁funks	-873
vironment	-874
▁Pe	-875
▁province	-876
wo	-877
▁Minister	-878
▁SA	-879
tered	-880
ene	-881
tter	-882
omen	-883
▁Retail	-884
▁op	-885
aken	-886
quire	-887
▁go	-888
▁like	-889
ty	-890
▁prop	-891
▁local	-892
▁details	-893
▁funksies	-894
ffic	-895
▁use	-896
▁inter	-897
ined	-898
▁legisl	-899
▁neighbours	-900
ollow	-901
eneral	-902
AIDS	-903
▁However	-904
▁af	-905
laim	-906
▁days	-907
▁appo	-908
▁subs	-909
▁programmes	-910
▁Is	-911
▁less	-912
gan	-913
ull	-914
▁including	-915
its	-916
oci	-917
ner	-918
▁St	-919
▁two	-920
▁access	-921
ound	-922
▁report	-923
▁plan	-924
hen	-925
▁what	-926
gebiedegebiede	-927
▁members	-928
ok	-929
▁would	-930
vant	-931
iss	-932
▁receiv	-933
urg	-934
very	-935
▁full	-936
▁fac	-937
▁months	-938
arch	-939
▁cit	-940
▁back	-941
▁extra	-942
istered	-943
▁financial	-944
▁list	-945
▁sit	-946
▁rem	-947
ourism	-948
▁priv	-949
▁submit	-950
▁onder	-951
10	-952
▁areas	-953
▁registered	-954
▁val	-955
▁get	-956
ures	-957
▁product	-958
▁cur	-959
▁citiz	-960
▁bu	-961
▁charge	-962
ven	-963
ours	-964
▁2006	-965
5.	-966
▁aim	-967
▁impro	-968
▁state	-969
▁Government	-970
ia	-971
hed	-972
▁ste	-973
ret	-974
▁Public	-975
▁his	-976
▁dise	-977
▁prot	-978
▁20	-979
enef	-980
▁giv	-981
▁determ	-982
▁received	-983
▁exch	-984
▁issued	-985
lig	-986
▁subsection	-987
▁fire	-988
▁tr	-989
▁then	-990
▁referred	-991
burg	-992
lude	-993
▁follow	-994
▁request	-995
▁name	-996
tain	-997
▁No	-998
▁ar	-999
▁week	-1000
▁benef	-1001
▁There	-1002
▁require	-1003
nt	-1004
angu	-1005
ents	-1006
▁member	-1007
ings	-1008
▁current	-1009
ense	-1010
▁vis	-1011
▁after	-1012
▁Out	-1013
ords	-1014
uch	-1015
ners	-1016
▁Or	-1017
ating	-1018
▁gr	-1019
▁cr	-1020
▁conc	-1021
▁department	-1022
▁rele	-1023
▁during	-1024
ges	-1025
▁agree	-1026
▁claim	-1027
▁organ	-1028
▁accord	-1029
▁virt	-1030
▁regul	-1031
▁qu	-1032
▁Executive	-1033
▁Constitution	-1034
ix	-1035
▁communities	-1036
▁exchange	-1037
▁same	-1038
▁te	-1039
▁Tra	-1040
48	-1041
▁policy	-1042
▁For	-1043
▁level	-1044
▁given	-1045
▁items	-1046
ocial	-1047
▁three	-1048
ament	-1049
▁pur	-1050
▁does	-1051
▁indic	-1052
ace	-1053
ason	-1054
▁factors	-1055
lin	-1056
▁10	-1057
erty	-1058
▁16.	-1059
ative	-1060
illion	-1061
▁under	-1062
▁again	-1063
idence	-1064
ency	-1065
▁invest	-1066
▁defective	-1067
▁sec	-1068
rit	-1069
cture	-1070
▁Comm	-1071
og	-1072
▁able	-1073
ital	-1074
▁poss	-1075
ract	-1076
▁hours	-1077
▁main	-1078
4.	-1079
orld	-1080
ering	-1081
cr	-1082
ning	-1083
▁relevant	-1084
istration	-1085
▁five	-1086
▁property	-1087
▁employees	-1088
emp	-1089
▁rent	-1090
▁them	-1091
▁designed	-1092
▁role	-1093
▁Commit	-1094
hip	-1095
▁purp	-1096
▁citizens	-1097
tee	-1098
▁est	-1099
▁economic	-1100
ssssssssssssssss	-1101
▁verm	-1102
▁langu	-1103
▁monit	-1104
any	-1105
▁environment	-1106
uth	-1107
ha	-1108
plement	-1109
▁ho	-1110
▁employer	-1111
▁med	-1112
IR	-1113
▁saf	-1114
reat	-1115
▁visit	-1116
▁following	-1117
▁Po	-1118
▁order	-1119
ibution	-1120
▁Direct	-1121
ocu	-1122
▁sp	-1123
liament	-1124
▁mar	-1125
crib	-1126
▁Res	-1127
iff	-1128
▁officer	-1129
▁up	-1130
▁special	-1131
▁implement	-1132
tal	-1133
br	-1134
▁day	-1135
▁rights	-1136
▁municipality	-1137
ise	-1138
▁448	-1139
▁int	-1140
▁improve	-1141
▁docu	-1142
ission	-1143
▁Chief	-1144
▁lear	-1145
▁done	-1146
▁agreement	-1147
bs	-1148
▁bas	-1149
2.	-1150
▁writ	-1151
▁reason	-1152
irm	-1153
▁opportunities	-1154
▁Centre	-1155
▁prescrib	-1156
▁build	-1157
une	-1158
ustry	-1159
▁much	-1160
▁particip	-1161
stru	-1162
▁addition	-1163
ually	-1164
▁give	-1165
▁want	-1166
▁workers	-1167
▁applications	-1168
▁bl	-1169
▁Le	-1170
▁paid	-1171
▁reflected	-1172
▁specified	-1173
▁prescribed	-1174
ality	-1175
ilities	-1176
▁sector	-1177
▁million	-1178
ases	-1179
▁2006,	-1180
▁site	-1181
other	-1182
▁Agriculture	-1183
▁cle	-1184
▁notice	-1185
isk	-1186
ey	-1187
▁18	-1188
▁ve	-1189
lated	-1190
▁here	-1191
▁women	-1192
aff	-1193
ind	-1194
isation	-1195
▁event	-1196
▁pow	-1197
▁fee	-1198
▁Serv	-1199
atives	-1200
▁income	-1201
▁haar	-1202
▁lic	-1203
▁confirm	-1204
▁growing	-1205
▁Director	-1206
▁live	-1207
▁confident	-1208
:00	-1209
▁free	-1210
▁world	-1211
▁June	-1212
ca	-1213
▁Bo	-1214
▁Parliament	-1215
▁shall	-1216
▁company	-1217
▁question	-1218
ised	-1219
▁met	-1220
▁ge	-1221
ints	-1222
▁better	-1223
▁without	-1224
where	-1225
of	-1226
nb	-1227
▁ke	-1228
▁oper	-1229
isions	-1230
▁Reis	-1231
▁cost	-1232
▁En	-1233
▁fore	-1234
urity	-1235
▁taken	-1236
abl	-1237
ludes	-1238
ier	-1239
ond	-1240
itage	-1241
nbsp	-1242
▁infra	-1243
ants	-1244
itions	-1245
log	-1246
ligting	-1247
▁acce	-1248
▁Polic	-1249
▁result	-1250
▁var	-1251
▁matter	-1252
lp	-1253
ize	-1254
▁smok	-1255
▁concern	-1256
▁help	-1257
▁teen	-1258
ids	-1259
▁Pre	-1260
▁exam	-1261
▁good	-1262
▁ph	-1263
▁auth	-1264
▁road	-1265
▁Un	-1266
▁rolled	-1267
▁licence	-1268
▁most	-1269
ected	-1270
50	-1271
hic	-1272
▁staff	-1273
▁monitering	-1274
▁every	-1275
▁prevent	-1276
not	-1277
▁27	-1278
▁Child	-1279
▁general	-1280
▁held	-1281
tenance	-1282
read	-1283
▁Court	-1284
▁establ	-1285
▁strategy	-1286
val	-1287
▁activ	-1288
ceed	-1289
▁cannot	-1290
ters	-1291
▁ent	-1292
▁old	-1293
▁contin	-1294
▁provides	-1295
6.	-1296
▁He	-1297
▁gu	-1298
▁effect	-1299
▁legislation	-1300
idered	-1301
▁money	-1302
▁considered	-1303
arly	-1304
▁firearm	-1305
▁inligting	-1306
gg	-1307
▁best	-1308
▁private	-1309
self	-1310
▁VIR	-1311
cc	-1312
▁against	-1313
▁call	-1314
hest	-1315
▁crime	-1316
ouse	-1317
ances	-1318
▁projects	-1319
▁benefits	-1320
▁election	-1321
▁include	-1322
ators	-1323
▁/	-1324
ricultural	-1325
▁Mem	-1326
▁ask	-1327
urther	-1328
▁why	-1329
ness	-1330
▁representatives	-1331
▁industry	-1332
day	-1333
▁police	-1334
min	-1335
▁long	-1336
▁box	-1337
▁fund	-1338
▁address	-1339
▁ty	-1340
▁All	-1341
▁law	-1342
▁start	-1343
▁respond	-1344
ished	-1345
▁When	-1346
▁commit	-1347
▁manner	-1348
▁inst	-1349
ute	-1350
▁six	-1351
▁possible	-1352
▁tax	-1353
▁chos	-1354
▁account	-1355
ande	-1356
▁bel	-1357
udget	-1358
▁vehic	-1359
▁cre	-1360
ociety	-1361
▁register	-1362
omite	-1363
linic	-1364
structure	-1365
ove	-1366
▁2009	-1367
3.	-1368
pted	-1369
▁worker	-1370
ourse	-1371
andid	-1372
▁Work	-1373
▁resour	-1374
▁kandid	-1375
▁listed	-1376
▁Offic	-1377
▁were	-1378
cation	-1379
▁strict	-1380
▁related	-1381
spital	-1382
▁represented	-1383
▁TB	-1384
▁prom	-1385
▁toon	-1386
89	-1387
▁App	-1388
▁ann	-1389
▁play	-1390
omitees	-1391
▁municipalities	-1392
▁intern	-1393
als	-1394
airp	-1395
▁party	-1396
▁Officer	-1397
▁develop	-1398
ises	-1399
▁Dis	-1400
▁Ass	-1401
▁Rep	-1402
▁Board	-1403
▁least	-1404
▁factor	-1405
ana	-1406
▁cop	-1407
▁cond	-1408
12	-1409
uman	-1410
▁ret	-1411
lling	-1412
ordin	-1413
▁some	-1414
▁datum	-1415
▁Komitees	-1416
▁9.	-1417
▁City	-1418
fo	-1419
▁accordance	-1420
▁clinic	-1421
▁redistrate	-1422
au	-1423
▁see	-1424
▁webs	-1425
ls	-1426
bly	-1427
▁subject	-1428
olog	-1429
reas	-1430
▁Land	-1431
▁Where	-1432
airperson	-1433
▁additional	-1434
ket	-1435
uty	-1436
ited	-1437
▁disease	-1438
be	-1439
▁continue	-1440
ves	-1441
ession	-1442
▁chosen	-1443
▁various	-1444
▁website	-1445
▁Pl	-1446
▁risk	-1447
gether	-1448
▁implementation	-1449
▁course	-1450
▁provinces	-1451
oy	-1452
▁categ	-1453
▁completed	-1454
▁together	-1455
▁conditions	-1456
4,	-1457
inted	-1458
▁budget	-1459
▁foreign	-1460
erk	-1461
ps	-1462
ipment	-1463
▁obtain	-1464
▁responsib	-1465
TI	-1466
foli	-1467
▁medical	-1468
▁activities	-1469
ains	-1470
gramme	-1471
▁further	-1472
ody	-1473
cause	-1474
embly	-1475
▁value	-1476
▁because	-1477
ien	-1478
▁On	-1479
▁contr	-1480
▁12	-1481
▁fra	-1482
reed	-1483
▁Outen	-1484
tees	-1485
▁occ	-1486
▁Tourism	-1487
▁neighbourhoods	-1488
▁Policy	-1489
▁concerned	-1490
gal	-1491
ansp	-1492
▁human	-1493
▁mense	-1494
ged	-1495
unday	-1496
▁equipment	-1497
row	-1498
ield	-1499
▁specific	-1500
▁countries	-1501
▁infectiously	-1502
▁complete	-1503
▁datesopleiding	-1504
line	-1505
▁accepted	-1506
▁>	-1507
▁security	-1508
▁authority	-1509
ify	-1510
▁confidential	-1511
ided	-1512
pr	-1513
▁Spe	-1514
▁beh	-1515
▁Fund	-1516
▁approved	-1517
▁infrastructure	-1518
▁high	-1519
▁perm	-1520
▁total	-1521
▁contract	-1522
aar	-1523
▁parties	-1524
ards	-1525
ready	-1526
▁already	-1527
▁decla	-1528
ictions	-1529
▁executive	-1530
▁(2	-1531
▁confidence	-1532
▁determined	-1533
permitpermit	-1534
eal	-1535
▁Peace	-1536
▁tenant	-1537
▁precludes	-1538
ely	-1539
ansport	-1540
eration	-1541
▁La	-1542
▁smoking	-1543
...	-1544
alf	-1545
ication	-1546
▁Committee	-1547
▁co	-1548
oses	-1549
▁social	-1550
vious	-1551
▁Water	-1552
OR	-1553
chn	-1554
▁end	-1555
▁farm	-1556
▁affect	-1557
▁whether	-1558
▁jo	-1559
Aids	-1560
lease	-1561
▁treat	-1562
▁return	-1563
▁example	-1564
▁provisions	-1565
▁Fact	-1566
▁room	-1567
▁Dep	-1568
▁roles	-1569
urs	-1570
▁aw	-1571
ills	-1572
▁language	-1573
hede	-1574
▁owner	-1575
▁resources	-1576
▁1.	-1577
idge	-1578
▁dem	-1579
▁indirect	-1580
▁few	-1581
▁meas	-1582
▁heritage	-1583
▁ide	-1584
isations	-1585
mber	-1586
▁nature	-1587
▁safety	-1588
ics	-1589
▁Man	-1590
iation	-1591
▁Inf	-1592
▁powers	-1593
▁portion	-1594
edu	-1595
work	-1596
▁consid	-1597
▁required	-1598
▁ear	-1599
▁board	-1600
▁hospital	-1601
icul	-1602
iving	-1603
year	-1604
▁often	-1605
▁submitted	-1606
▁document	-1607
▁People	-1608
▁parent	-1609
▁events	-1610
xt	-1611
▁many	-1612
▁Training	-1613
▁registration	-1614
▁applicable	-1615
7.	-1616
▁previous	-1617
▁interests	-1618
ms	-1619
▁portfoli	-1620
▁lead	-1621
▁objective	-1622
ote	-1623
▁em	-1624
▁both	-1625
▁find	-1626
ertifikate	-1627
▁particul	-1628
▁purposes	-1629
▁building	-1630
ages	-1631
▁Children	-1632
lik	-1633
ste	-1634
▁sure	-1635
▁meter	-1636
▁learners	-1637
▁official	-1638
▁appointed	-1639
▁Year	-1640
▁sk	-1641
ock	-1642
pri	-1643
utions	-1644
▁redress	-1645
▁redistribution	-1646
▁admin	-1647
▁strictions	-1648
▁field	-1649
▁Municipal	-1650
ET	-1651
▁past	-1652
selves	-1653
▁Ms	-1654
▁infl	-1655
▁Labour	-1656
▁precisely	-1657
▁hig	-1658
gress	-1659
▁factory	-1660
▁schools	-1661
▁facility	-1662
▁appoint	-1663
imary	-1664
ultural	-1665
erve	-1666
▁edu	-1667
ulated	-1668
▁proble	-1669
▁Assembly	-1670
▁30	-1671
hes	-1672
▁Prem	-1673
▁idea	-1674
priate	-1675
aterial	-1676
ides	-1677
Act	-1678
▁written	-1679
▁provision	-1680
erg	-1681
▁div	-1682
▁alloc	-1683
▁Health	-1684
sol	-1685
▁recon	-1686
▁opportunity	-1687
▁gra	-1688
▁Services	-1689
SA	-1690
lit	-1691
uss	-1692
▁grou	-1693
▁Legisl	-1694
ank	-1695
land	-1696
▁pass	-1697
▁compl	-1698
▁tourism	-1699
▁effective	-1700
ian	-1701
cially	-1702
oration	-1703
ird	-1704
▁sa	-1705
▁peak	-1706
▁Sunday	-1707
▁Premier	-1708
▁2003	-1709
▁into	-1710
▁09:00	-1711
▁portfolios	-1712
raf	-1713
▁persons	-1714
erent	-1715
▁Econom	-1716
▁Se	-1717
cept	-1718
rence	-1719
▁indirectly	-1720
▁ra	-1721
item	-1722
PS	-1723
▁br	-1724
▁diff	-1725
▁needs	-1726
▁maj	-1727
anent	-1728
▁attach	-1729
▁60	-1730
▁organisations	-1731
▁repla	-1732
▁equal	-1733
▁receive	-1734
▁permanent	-1735
pro	-1736
▁progress	-1737
▁now	-1738
▁primary	-1739
▁sw	-1740
▁cap	-1741
▁impact	-1742
▁install	-1743
▁proceed	-1744
rowth	-1745
▁matters	-1746
ction	-1747
▁agricultural	-1748
▁comply	-1749
▁Ph	-1750
▁Tr	-1751
▁Reg	-1752
ho	-1753
▁es	-1754
▁fill	-1755
▁polit	-1756
▁stand	-1757
▁plant	-1758
▁Growth	-1759
▁Republic	-1760
21	-1761
▁Any	-1762
▁2010	-1763
▁prem	-1764
▁guil	-1765
▁create	-1766
ered	-1767
▁2000	-1768
5,	-1769
reak	-1770
▁lande	-1771
▁confirming	-1772
▁investig	-1773
▁material	-1774
▁imm	-1775
▁political	-1776
▁assistance	-1777
▁espe	-1778
▁export	-1779
▁especially	-1780
usiness	-1781
▁points	-1782
▁premises	-1783
▁Sub	-1784
reedom	-1785
▁economy	-1786
▁obtained	-1787
▁presence	-1788
200	-1789
▁sign	-1790
unity	-1791
▁Legislature	-1792
▁fif	-1793
▁four	-1794
▁amend	-1795
▁consist	-1796
iew	-1797
inal	-1798
▁annual	-1799
▁Commission	-1800
▁agriculture	-1801
▁responsibility	-1802
▁very	-1803
▁basis	-1804
▁gre	-1805
▁vac	-1806
▁techn	-1807
▁Deputy	-1808
▁guilty	-1809
▁cho	-1810
▁still	-1811
40	-1812
ient	-1813
▁defects	-1814
▁him	-1815
▁und	-1816
▁1998	-1817
▁House	-1818
▁consum	-1819
▁investment	-1820
▁vehicle	-1821
▁SAPS	-1822
▁group	-1823
▁steun	-1824
ysical	-1825
▁category	-1826
▁Management	-1827
CT	-1828
wig	-1829
▁letter	-1830
▁virtue	-1831
▁different	-1832
▁rese	-1833
▁31	-1834
▁Me	-1835
▁busy	-1836
ensation	-1837
ordinary	-1838
ways	-1839
▁Ste	-1840
▁Speak	-1841
aged	-1842
▁region	-1843
▁diseases	-1844
iqu	-1845
allen	-1846
▁invol	-1847
▁associ	-1848
▁challen	-1849
▁research	-1850
▁allocated	-1851
▁levels	-1852
▁virtually	-1853
ep	-1854
orp	-1855
cember	-1856
▁School	-1857
▁Province	-1858
▁decision	-1859
ts	-1860
▁increas	-1861
ified	-1862
▁Community	-1863
hewig	-1864
▁These	-1865
▁centre	-1866
▁onderhewig	-1867
▁established	-1868
lar	-1869
▁promot	-1870
▁Van	-1871
retion	-1872
▁instit	-1873
▁compensation	-1874
▁'	-1875
▁body	-1876
▁prof	-1877
▁appropriate	-1878
▁rolles	-1879
▁discuss	-1880
-.	-1881
▁Programme	-1882
▁trans	-1883
▁posted	-1884
▁payment	-1885
▁fish	-1886
▁sport	-1887
▁December	-1888
▁deal	-1889
▁international	-1890
uro	-1891
▁15	-1892
▁weeks	-1893
gt	-1894
▁Su	-1895
▁majority	-1896
oms	-1897
til	-1898
▁Fe	-1899
▁deem	-1900
▁market	-1901
▁challenges	-1902
DR	-1903
▁problems	-1904
▁extraordinary	-1905
IT	-1906
omm	-1907
▁Part	-1908
▁while	-1909
ath	-1910
▁3.	-1911
lack	-1912
oord	-1913
▁until	-1914
▁greater	-1915
▁declared	-1916
▁particular	-1917
enburg	-1918
inated	-1919
▁maintenance	-1920
rid	-1921
▁4.	-1922
▁fall	-1923
▁ident	-1924
ination	-1925
▁Edu	-1926
▁quality	-1927
ased	-1928
less	-1929
▁Plan	-1930
▁found	-1931
▁Social	-1932
▁regarded	-1933
▁14	-1934
▁exc	-1935
acity	-1936
▁copy	-1937
▁offence	-1938
▁infected	-1939
duce	-1940
▁Saf	-1941
▁hand	-1942
▁remov	-1943
▁steps	-1944
ily	-1945
▁et	-1946
▁appeal	-1947
eg	-1948
ained	-1949
ology	-1950
▁grown	-1951
▁measures	-1952
▁treatment	-1953
Co	-1954
▁Ind	-1955
anted	-1956
▁behalf	-1957
leg	-1958
ends	-1959
ules	-1960
imate	-1961
▁car	-1962
▁home	-1963
ienste	-1964
▁purpose	-1965
▁discretion	-1966
amp	-1967
▁Sha	-1968
▁fut	-1969
▁etc	-1970
ercial	-1971
mework	-1972
▁capacity	-1973
;>	-1974
▁had	-1975
▁Lear	-1976
▁even	-1977
▁exist	-1978
▁mother	-1979
▁teenag	-1980
▁13	-1981
lose	-1982
▁dep	-1983
ention	-1984
▁legal	-1985
▁always	-1986
▁art	-1987
▁future	-1988
▁involved	-1989
osed	-1990
▁undert	-1991
▁Opleiding	-1992
inc	-1993
ior	-1994
▁sent	-1995
ator	-1996
band	-1997
▁sme	-1998
▁lease	-1999
▁nom	-2000
▁complain	-2001
▁dr	-2002
▁next	-2003
▁started	-2004
▁As	-2005
heid	-2006
▁appear	-2007
▁issues	-2008
▁ca	-2009
▁small	-2010
▁Economic	-2011
▁employee	-2012
▁commercial	-2013
▁institutions	-2014
▁Jan	-2015
▁Main	-2016
▁skills	-2017
▁Business	-2018
▁Education	-2019
omes	-2020
▁bes	-2021
▁cent	-2022
▁Speaker	-2023
▁Ne	-2024
11	-2025
irth	-2026
▁Shared	-2027
▁minim	-2028
▁proof	-2029
arest	-2030
erence	-2031
▁offered	-2032
▁aff	-2033
bridge	-2034
▁nearest	-2035
▁relating	-2036
▁asked	-2037
▁protect	-2038
imes	-2039
▁Sh	-2040
▁Disab	-2041
aper	-2042
iteit	-2043
▁languages	-2044
▁verhopleiding	-2045
irc	-2046
▁Fac	-2047
▁appl	-2048
▁according	-2049
bery	-2050
▁large	-2051
▁tests	-2052
▁inflation	-2053
▁2.	-2054
▁living	-2055
▁proced	-2056
apa	-2057
ink	-2058
ally	-2059
reek	-2060
▁basic	-2061
▁chang	-2062
▁contemp	-2063
by	-2064
ancy	-2065
▁ont	-2066
▁liqu	-2067
▁strategic	-2068
▁contemplated	-2069
ogn	-2070
▁being	-2071
▁accident	-2072
▁complaint	-2073
▁Committees	-2074
cal	-2075
▁021	-2076
▁char	-2077
▁writing	-2078
▁500	-2079
▁records	-2080
▁currently	-2081
for	-2082
▁11	-2083
lier	-2084
lled	-2085
ledge	-2086
▁liquor	-2087
used	-2088
rays	-2089
▁size	-2090
▁Society	-2091
▁Chairperson	-2092
▁Environment	-2093
▁included	-2094
▁birth	-2095
▁another	-2096
▁privile	-2097
▁specially	-2098
70	-2099
lor	-2100
ral	-2101
▁last	-2102
ws	-2103
▁ach	-2104
▁facilities	-2105
sh	-2106
▁ele	-2107
braf	-2108
▁16,	-2109
▁residence	-2110
▁way	-2111
▁happ	-2112
▁committee	-2113
▁7.	-2114
▁achie	-2115
▁Maintenance	-2116
▁legislature	-2117
▁regulations	-2118
vo	-2119
wit	-2120
▁block	-2121
▁compon	-2122
▁protection	-2123
ope	-2124
ctor	-2125
▁transport	-2126
spect	-2127
▁circ	-2128
▁type	-2129
51	-2130
ax	-2131
pril	-2132
▁Each	-2133
▁temp	-2134
▁April	-2135
▁aimed	-2136
▁affected	-2137
werk	-2138
▁define	-2139
bru	-2140
▁doel	-2141
▁Members	-2142
▁documents	-2143
▁Environmental	-2144
▁ww	-2145
udge	-2146
▁MDR	-2147
▁www	-2148
▁conn	-2149
▁down	-2150
▁supp	-2151
▁wish	-2152
nership	-2153
▁change	-2154
sertifikaat	-2155
yc	-2156
aste	-2157
ender	-2158
▁determine	-2159
....	-2160
side	-2161
uary	-2162
thing	-2163
ighting	-2164
▁unless	-2165
▁electric	-2166
.00	-2167
wcape	-2168
▁deemed	-2169
▁approval	-2170
▁requirements	-2171
▁93	-2172
▁components	-2173
ele	-2174
▁Cla	-2175
▁rek	-2176
▁democ	-2177
▁valid	-2178
ellow	-2179
▁aims	-2180
▁laun	-2181
▁Member	-2182
ipulated	-2183
▁parents	-2184
▁society	-2185
ug	-2186
ful	-2187
▁08	-2188
▁Fin	-2189
ivers	-2190
▁chief	-2191
▁second	-2192
▁protected	-2193
▁tar	-2194
South	-2195
▁enter	-2196
1,	-2197
pla	-2198
▁Service	-2199
▁relations	-2200
ably	-2201
ilit	-2202
school	-2203
▁doelwit	-2204
formation	-2205
▁Toerismeb	-2206
▁participate	-2207
ron	-2208
Kapa	-2209
▁design	-2210
▁contains	-2211
ched	-2212
ival	-2213
▁Bill	-2214
laration	-2215
▁Section	-2216
▁contrib	-2217
▁objectives	-2218
▁Toerismeburo	-2219
reg	-2220
berg	-2221
ines	-2222
▁clo	-2223
istics	-2224
▁signed	-2225
60	-2226
▁fl	-2227
▁Your	-2228
7,	-2229
▁Ad	-2230
ader	-2231
igen	-2232
▁key	-2233
▁cases	-2234
▁words	-2235
▁earlier	-2236
▁knowledge	-2237
▁smo	-2238
ergency	-2239
stances	-2240
▁removed	-2241
▁physical	-2242
▁establish	-2243
▁occur	-2244
▁recre	-2245
▁benefit	-2246
▁proceedings	-2247
mpt	-2248
cing	-2249
amwerk	-2250
▁Who	-2251
▁tre	-2252
venue	-2253
▁Homes	-2254
▁March	-2255
▁older	-2256
▁January	-2257
▁granted	-2258
▁departments	-2259
ale	-2260
way	-2261
▁lod	-2262
▁circum	-2263
▁except	-2264
▁recogn	-2265
ification	-2266
▁cultural	-2267
ipe	-2268
▁doctor	-2269
▁8,	-2270
▁stru	-2271
mptoms	-2272
TOR	-2273
▁vi	-2274
▁One	-2275
▁circumstances	-2276
▁24	-2277
▁dev	-2278
▁Frid	-2279
▁pover	-2280
TORE	-2281
▁And	-2282
▁bro	-2283
▁sense	-2284
▁poverty	-2285
▁doelwitte	-2286
▁indicators	-2287
▁6.	-2288
▁smoks	-2289
▁standards	-2290
ann	-2291
▁(1	-2292
lord	-2293
▁Fra	-2294
▁iKapa	-2295
▁speak	-2296
▁online	-2297
▁usually	-2298
RA	-2299
pes	-2300
rik	-2301
▁Be	-2302
tern	-2303
ached	-2304
ustain	-2305
▁symptoms	-2306
ook	-2307
iary	-2308
igenous	-2309
▁record	-2310
▁payable	-2311
▁Learning	-2312
▁indigenous	-2313
▁participation	-2314
▁once	-2315
▁range	-2316
▁serve	-2317
▁third	-2318
▁clearly	-2319
30	-2320
ED	-2321
break	-2322
▁pract	-2323
▁tempor	-2324
▁lim	-2325
ureau	-2326
▁2004	-2327
▁Bureau	-2328
▁sitting	-2329
ass	-2330
▁5.	-2331
▁bin	-2332
▁suc	-2333
acter	-2334
overed	-2335
▁Directorate	-2336
ertifikateche	-2337
ault	-2338
gggg	-2339
▁fine	-2340
▁rob	-2341
icted	-2342
▁stren	-2343
▁Please	-2344
▁developed	-2345
▁ourselves	-2346
ared	-2347
inet	-2348
ather	-2349
▁norm	-2350
▁today	-2351
▁ground	-2352
▁reasons	-2353
20	-2354
▁(2-	-2355
▁adop	-2356
▁binne	-2357
▁preca	-2358
▁disclose	-2359
43	-2360
▁Ro	-2361
wana	-2362
place	-2363
▁With	-2364
▁clean	-2365
▁forms	-2366
▁treated	-2367
dem	-2368
▁Off	-2369
▁son	-2370
uated	-2371
▁2008	-2372
▁Disabled	-2373
▁technology	-2374
▁beg	-2375
▁ext	-2376
▁education	-2377
▁put	-2378
▁fees	-2379
▁chlor	-2380
▁defend	-2381
▁please	-2382
▁chairperson	-2383
@-	-2384
osa	-2385
iction	-2386
▁existing	-2387
▁materials	-2388
▁associated	-2389
▁respective	-2390
▁Sport	-2391
▁smell	-2392
dienste	-2393
▁includes	-2394
▁contribution	-2395
▁environmental	-2396
wa	-2397
ray	-2398
▁open	-2399
▁betal	-2400
▁funds	-2401
▁known	-2402
▁Safety	-2403
▁Freedom	-2404
▁businesses	-2405
▁undertaken	-2406
anch	-2407
come	-2408
hold	-2409
ocus	-2410
ption	-2411
▁80	-2412
icles	-2413
▁betaling	-2414
▁profession	-2415
ick	-2416
isd	-2417
ward	-2418
ciliation	-2419
▁sections	-2420
▁framework	-2421
▁declaration	-2422
ede	-2423
ght	-2424
ming	-2425
ateway	-2426
▁types	-2427
▁personal	-2428
▁increasing	-2429
vis	-2430
▁Co	-2431
ames	-2432
▁Vry	-2433
▁Call	-2434
▁soon	-2435
ograph	-2436
▁distr	-2437
▁sectors	-2438
▁appointment	-2439
,000	-2440
this	-2441
▁deli	-2442
▁structure	-2443
IS	-2444
ience	-2445
▁1999	-2446
▁Applic	-2447
▁higher	-2448
▁consult	-2449
▁character	-2450
▁characteristics	-2451
iev	-2452
▁8.	-2453
hosa	-2454
▁fishing	-2455
gn	-2456
▁elected	-2457
▁consider	-2458
▁confirmed	-2459
▁40	-2460
afaf	-2461
▁conv	-2462
▁short	-2463
▁consent	-2464
▁indicates	-2465
abinet	-2466
▁del	-2467
▁fax	-2468
▁hus	-2469
▁show	-2470
▁strong	-2471
▁products	-2472
▁electricity	-2473
AS	-2474
iti	-2475
ocks	-2476
▁16-.	-2477
▁allow	-2478
▁power	-2479
▁belang	-2480
▁indicate	-2481
▁presides	-2482
▁say	-2483
aring	-2484
ector	-2485
leent	-2486
▁means	-2487
▁recyc	-2488
▁Office	-2489
lum	-2490
▁17	-2491
ders	-2492
▁ago	-2493
▁below	-2494
▁death	-2495
▁rekords	-2496
▁strengt	-2497
▁organisation	-2498
EC	-2499
▁25	-2500
enses	-2501
▁News	-2502
▁costs	-2503
▁waste	-2504
▁centres	-2505
▁function	-2506
▁emergency	-2507
▁strengthen	-2508
▁Information	-2509
wal	-2510
▁ID	-2511
ches	-2512
raamwerk	-2513
▁Cabinet	-2514
▁expenses	-2515
vi	-2516
rika	-2517
ections	-2518
▁govern	-2519
▁sonder	-2520
▁applies	-2521
▁content	-2522
▁policies	-2523
ustainable	-2524
bo	-2525
▁Ac	-2526
▁Sec	-2527
▁hold	-2528
▁begin	-2529
▁copies	-2530
▁dam	-2531
▁non	-2532
▁ple	-2533
lands	-2534
▁vote	-2535
▁gener	-2536
▁track	-2537
isdiction	-2538
▁situated	-2539
▁hospitals	-2540
▁production	-2541
▁administration	-2542
lus	-2543
▁Sm	-2544
igor	-2545
teen	-2546
▁Sek	-2547
▁jur	-2548
oples	-2549
▁jurisdiction	-2550
AY	-2551
ues	-2552
▁At	-2553
ific	-2554
▁black	-2555
▁trade	-2556
▁elections	-2557
▁Are	-2558
▁pos	-2559
ugust	-2560
▁pipe	-2561
bruary	-2562
▁itself	-2563
▁nation	-2564
▁preside	-2565
▁success	-2566
reet	-2567
▁reasonable	-2568
2,	-2569
ictim	-2570
▁prior	-2571
leenthede	-2572
▁connection	-2573
▁reconciliation	-2574
gr	-2575
▁212	-2576
▁fail	-2577
▁note	-2578
▁August	-2579
▁trained	-2580
ave	-2581
▁Gr	-2582
▁Find	-2583
uation	-2584
▁rules	-2585
/0	-2586
IC	-2587
na	-2588
stry	-2589
▁ant	-2590
▁mag	-2591
▁sim	-2592
riage	-2593
▁orig	-2594
aining	-2595
▁Yellow	-2596
oud	-2597
ubl	-2598
ule	-2599
▁Her	-2600
ories	-2601
▁whose	-2602
▁Transport	-2603
▁AB	-2604
tion	-2605
▁Sum	-2606
incip	-2607
▁council	-2608
▁defined	-2609
▁princip	-2610
▁reflects	-2611
▁Facilities	-2612
rop	-2613
▁facts	-2614
▁great	-2615
▁farmers	-2616
▁landlord	-2617
▁vehicles	-2618
av	-2619
fer	-2620
▁Iss	-2621
▁sol	-2622
▁tak	-2623
based	-2624
imals	-2625
solution	-2626
atch	-2627
▁bank	-2628
▁Trade	-2629
▁clear	-2630
new	-2631
ons	-2632
▁Te	-2633
▁mo	-2634
▁house	-2635
▁times	-2636
▁partnership	-2637
RE	-2638
ony	-2639
▁sl	-2640
▁Loc	-2641
ising	-2642
viour	-2643
▁educ	-2644
rikaans	-2645
▁travel	-2646
▁woordeopleiding	-2647
ney	-2648
oid	-2649
ired	-2650
▁mod	-2651
ember	-2652
ishes	-2653
▁page	-2654
▁grounds	-2655
▁robbery	-2656
▁fighting	-2657
▁original	-2658
67	-2659
▁Al	-2660
heer	-2661
uest	-2662
▁forward	-2663
▁sustainable	-2664
OU	-2665
ury	-2666
endit	-2667
▁viol	-2668
selling	-2669
▁Friday	-2670
enditure	-2671
▁husband	-2672
▁marriage	-2673
▁privileged	-2674
▁themselves	-2675
▁constitution	-2676
▁read	-2677
▁gradu	-2678
▁chlorine	-2679
▁director	-2680
▁workplace	-2681
PP	-2682
pl	-2683
▁ABET	-2684
▁Sche	-2685
▁deleg	-2686
▁immun	-2687
▁played	-2688
▁reduce	-2689
▁enterpr	-2690
▁expected	-2691
19	-2692
IN	-2693
ley	-2694
sos	-2695
sss	-2696
ique	-2697
▁Local	-2698
▁later	-2699
▁lodge	-2700
▁caused	-2701
▁target	-2702
▁Agricultural	-2703
29	-2704
iry	-2705
quis	-2706
ither	-2707
▁Char	-2708
infect	-2709
▁choice	-2710
▁infant	-2711
▁outside	-2712
▁communication	-2713
we	-2714
▁By	-2715
▁Dr	-2716
▁pregn	-2717
haviour	-2718
ological	-2719
▁committees	-2720
▁contribute	-2721
RS	-2722
orn	-2723
▁rol	-2724
▁choo	-2725
lients	-2726
▁Paper	-2727
▁Women	-2728
▁focus	-2729
▁sites	-2730
▁speel	-2731
▁indicated	-2732
AL	-2733
▁Mar	-2734
▁mot	-2735
▁safe	-2736
action	-2737
beheer	-2738
▁Youth	-2739
▁fraud	-2740
▁regular	-2741
▁reference	-2742
ma	-2743
ITE	-2744
▁BI	-2745
racy	-2746
ighbr	-2747
▁verw	-2748
▁Project	-2749
▁procedures	-2750
bes	-2751
▁21	-2752
/200	-2753
▁Uys	-2754
▁avoid	-2755
▁funding	-2756
orporation	-2757
uly	-2758
▁kos	-2759
▁lit	-2760
fficient	-2761
▁decided	-2762
▁someone	-2763
▁institution	-2764
cer	-2765
ling	-2766
▁publ	-2767
▁says	-2768
isters	-2769
▁aware	-2770
▁Heritage	-2771
▁Sy	-2772
▁aand	-2773
▁earn	-2774
▁kept	-2775
▁rigor	-2776
▁minimum	-2777
8,	-2778
aign	-2779
▁laid	-2780
▁fifty	-2781
▁orche	-2782
▁changed	-2783
▁launched	-2784
▁restoration	-2785
▁professional	-2786
cent	-2787
▁100	-2788
▁Works	-2789
▁trave	-2790
▁branch	-2791
▁thereof	-2792
▁consists	-2793
dig	-2794
▁23	-2795
voeg	-2796
▁real	-2797
▁said	-2798
itable	-2799
ampaign	-2800
▁bevoeg	-2801
▁placed	-2802
▁places	-2803
▁located	-2804
▁offices	-2805
▁78	-2806
dule	-2807
ower	-2808
udic	-2809
▁197	-2810
▁flu	-2811
▁city	-2812
ically	-2813
▁renew	-2814
hesthest	-2815
▁Cultural	-2816
▁published	-2817
arer	-2818
luded	-2819
woord	-2820
▁Supp	-2821
▁final	-2822
▁permitted	-2823
▁investigation	-2824
61	-2825
▁50	-2826
▁90	-2827
elde	-2828
▁Aid	-2829
▁uit	-2830
arily	-2831
dhede	-2832
▁head	-2833
▁offer	-2834
ability	-2835
▁labour	-2836
▁democracy	-2837
▁grossssssss	-2838
▁rev	-2839
duced	-2840
heriff	-2841
▁courts	-2842
▁hereby	-2843
▁firearms	-2844
▁therefore	-2845
▁kind	-2846
▁trust	-2847
▁handled	-2848
▁modified	-2849
▁replaced	-2850
ayo	-2851
▁Jo	-2852
oste	-2853
▁eff	-2854
▁goods	-2855
▁generally	-2856
▁ment	-2857
▁suppl	-2858
▁devices	-2859
the	-2860
▁spir	-2861
istrar	-2862
▁promote	-2863
▁supplied	-2864
▁promotion	-2865
load	-2866
▁face	-2867
▁view	-2868
▁youth	-2869
related	-2870
▁choose	-2871
▁clients	-2872
▁attention	-2873
▁expenditure	-2874
NT	-2875
urb	-2876
uur	-2877
itch	-2878
▁fig	-2879
▁ill	-2880
luding	-2881
▁roads	-2882
▁Rettain	-2883
▁equality	-2884
▁pregnancy	-2885
-1	-2886
kom	-2887
sec	-2888
▁Ma	-2889
▁Rec	-2890
rought	-2891
▁names	-2892
▁compet	-2893
▁spirit	-2894
▁streek	-2895
▁passport	-2896
to	-2897
▁Im	-2898
rain	-2899
▁She	-2900
aries	-2901
▁Sept	-2902
▁Planning	-2903
▁September	-2904
▁educators	-2905
ource	-2906
▁Intern	-2907
▁limited	-2908
▁district	-2909
▁Afrikaans	-2910
▁nominated	-2911
AT	-2912
rec	-2913
gels	-2914
reme	-2915
▁boxes	-2916
▁press	-2917
vention	-2918
▁Clause	-2919
▁Submit	-2920
▁convicted	-2921
▁Ar	-2922
▁sal	-2923
▁Prot	-2924
▁Engels	-2925
▁gender	-2926
▁himself	-2927
▁Schedule	-2928
▁vooruitcal	-2929
ade	-2930
▁From	-2931
▁Street	-2932
▁present	-2933
▁identify	-2934
DP	-2935
▁48	-2936
hers	-2937
▁dut	-2938
▁envis	-2939
▁incre	-2940
imately	-2941
▁effort	-2942
▁equival	-2943
▁envisaged	-2944
▁graduates	-2945
▁requested	-2946
▁commission	-2947
▁consultation	-2948
▁relationship	-2949
25	-2950
▁toen	-2951
▁duties	-2952
▁expiry	-2953
▁brought	-2954
▁remains	-2955
▁session	-2956
▁adv	-2957
asion	-2958
▁keep	-2959
▁Small	-2960
▁whole	-2961
▁Comple	-2962
▁tested	-2963
AR	-2964
az	-2965
ops	-2966
▁sold	-2967
▁victim	-2968
▁Theitem	-2969
▁inflated	-2970
▁internal	-2971
▁therefor	-2972
▁reasonably	-2973
eks	-2974
▁1,	-2975
aard	-2976
orth	-2977
▁among	-2978
▁falls	-2979
▁gelde	-2980
▁General	-2981
▁Security	-2982
▁delivery	-2983
▁requester	-2984
▁resolution	-2985
▁accountable	-2986
lih	-2987
ont	-2988
str	-2989
▁big	-2990
komen	-2991
▁blood	-2992
komende	-2993
▁download	-2994
100	-2995
The	-2996
oura	-2997
amber	-2998
aster	-2999
▁verb	-3000
lumayo	-3001
▁facilit	-3002
▁categories	-3003
hel	-3004
ium	-3005
▁sur	-3006
atory	-3007
▁afford	-3008
▁traffic	-3009
operation	-3010
▁recognised	-3011
.1.	-3012
ets	-3013
▁di	-3014
ante	-3015
char	-3016
pect	-3017
itled	-3018
▁laws	-3019
▁plans	-3020
▁articles	-3021
▁entitled	-3022
▁watopleiding	-3023
cies	-3024
▁job	-3025
earch	-3026
▁apprec	-3027
▁restri	-3028
lihlumayo	-3029
▁Complete	-3030
▁administr	-3031
▁discussed	-3032
▁Municipality	-3033
▁restrictions	-3034
els	-3035
eter	-3036
liks	-3037
▁disp	-3038
reasury	-3039
▁Supply	-3040
▁enable	-3041
▁peoples	-3042
stand	-3043
▁AIDS	-3044
▁Steun	-3045
▁quick	-3046
woordig	-3047
▁09:00@-	-3048
▁achieve	-3049
▁verteen	-3050
▁verteenwoordig	-3051
18	-3052
cto	-3053
pex	-3054
▁Aan	-3055
▁der	-3056
arter	-3057
▁Road	-3058
▁griev	-3059
▁dating	-3060
▁remain	-3061
spective	-3062
▁allowed	-3063
joy	-3064
ustr	-3065
undred	-3066
▁2003.	-3067
▁declare	-3068
▁Treasury	-3069
ingle	-3070
afbraf	-3071
erious	-3072
ulture	-3073
▁bykomende	-3074
▁bevoegdhede	-3075
ON	-3076
io	-3077
arg	-3078
box	-3079
1.1.	-3080
shops	-3081
atures	-3082
▁Summit	-3083
▁single	-3084
▁serious	-3085
▁enterprise	-3086
uge	-3087
▁aud	-3088
▁Octo	-3089
▁above	-3090
▁oblig	-3091
▁remun	-3092
▁dissol	-3093
▁illness	-3094
▁February	-3095
▁consumer	-3096
RC	-3097
ike	-3098
retar	-3099
▁exceed	-3100
▁minder	-3101
▁freedom	-3102
▁supported	-3103
▁discovered	-3104
▁temporarily	-3105
▁remuneration	-3106
-8	-3107
requ	-3108
▁Sup	-3109
tings	-3110
▁State	-3111
▁issue	-3112
▁source	-3113
▁October	-3114
▁driving	-3115
▁highest	-3116
▁occasion	-3117
▁counselling	-3118
▁representative	-3119
ex	-3120
▁May	-3121
▁exec	-3122
▁told	-3123
▁aandu	-3124
▁sluit	-3125
itiative	-3126
▁exposed	-3127
73	-3128
ii	-3129
lass	-3130
▁Str	-3131
▁let	-3132
inate	-3133
▁poor	-3134
▁Influ	-3135
council	-3136
duction	-3137
ulation	-3138
▁action	-3139
▁herself	-3140
▁reports	-3141
▁adoption	-3142
atic	-3143
▁tel	-3144
▁vot	-3145
▁besk	-3146
▁usable	-3147
▁targets	-3148
ses	-3149
uses	-3150
aches	-3151
eding	-3152
▁July	-3153
▁Rand	-3154
▁Unit	-3155
ptions	-3156
▁Judge	-3157
▁behoud	-3158
▁passed	-3159
▁choices	-3160
68	-3161
AN	-3162
IP	-3163
eds	-3164
sed	-3165
enza	-3166
igte	-3167
ists	-3168
ixed	-3169
oung	-3170
▁precip	-3171
▁technical	-3172
ane	-3173
app	-3174
▁cor	-3175
▁vul	-3176
▁plek	-3177
▁sell	-3178
▁Young	-3179
nerable	-3180
uration	-3181
▁citizen	-3182
▁elihlumayo	-3183
▁28	-3184
whel	-3185
▁returned	-3186
▁Ministers	-3187
▁Registrar	-3188
▁behaviour	-3189
▁behoudens	-3190
GB	-3191
co	-3192
aan	-3193
▁Ann	-3194
▁Gra	-3195
▁net	-3196
▁vol	-3197
▁2005	-3198
essions	-3199
ximately	-3200
▁station	-3201
▁replacing	-3202
▁statements	-3203
yn	-3204
▁11.	-3205
▁Aca	-3206
▁STI	-3207
▁Wat	-3208
retor	-3209
rolled	-3210
▁Academ	-3211
▁author	-3212
▁comput	-3213
▁decide	-3214
▁review	-3215
▁default	-3216
▁Aansoeke	-3217
▁practice	-3218
▁rollness	-3219
org	-3220
wap	-3221
▁29	-3222
▁aange	-3223
▁amended	-3224
▁incident	-3225
▁yourgebiede	-3226
▁Publications	-3227
.2.	-3228
ETA	-3229
ech	-3230
overy	-3231
▁rock	-3232
keting	-3233
▁Report	-3234
▁exported	-3235
▁forestry	-3236
▁normally	-3237
▁clearance	-3238
▁household	-3239
▁designated	-3240
▁objections	-3241
▁recreational	-3242
law	-3243
now	-3244
▁arr	-3245
▁SARS	-3246
▁Vred	-3247
▁jobs	-3248
▁Claim	-3249
▁enjoy	-3250
▁posts	-3251
▁takes	-3252
▁Employ	-3253
▁efforts	-3254
▁happens	-3255
▁percent	-3256
▁Industry	-3257
▁increased	-3258
▁Vredenburg	-3259
uma	-3260
cell	-3261
term	-3262
▁dom	-3263
ights	-3264
oring	-3265
▁2003,	-3266
▁Trans	-3267
▁coord	-3268
▁fails	-3269
▁fixed	-3270
▁force	-3271
▁reach	-3272
▁Follow	-3273
▁mental	-3274
▁Supreme	-3275
programme	-3276
▁meetings	-3277
▁pressure	-3278
▁bi	-3279
ough	-3280
arded	-3281
ended	-3282
ommod	-3283
▁2002	-3284
▁Cent	-3285
▁card	-3286
▁phot	-3287
▁Black	-3288
ustrial	-3289
▁agency	-3290
▁preclu	-3291
▁tender	-3292
▁Academy	-3293
▁structured	-3294
let	-3295
off	-3296
▁Bl	-3297
▁lew	-3298
▁joint	-3299
▁blocks	-3300
▁hundred	-3301
▁accommod	-3302
▁achieved	-3303
▁precipulated	-3304
▁administrative	-3305
cape	-3306
iate	-3307
General	-3308
▁network	-3309
besdienste	-3310
27	-3311
acy	-3312
erc	-3313
lam	-3314
TION	-3315
itation	-3316
▁offers	-3317
▁Watches	-3318
▁Sekretar	-3319
▁attractions	-3320
23	-3321
DC	-3322
▁sc	-3323
oman	-3324
only	-3325
phone	-3326
▁qual	-3327
▁whom	-3328
▁broad	-3329
▁Appeal	-3330
▁Police	-3331
▁Particip	-3332
▁concluded	-3333
▁contacted	-3334
▁decisions	-3335
▁vulnerable	-3336
aa	-3337
▁00	-3338
ille	-3339
▁Mat	-3340
▁come	-3341
▁send	-3342
▁guide	-3343
quisition	-3344
▁Financial	-3345
EL	-3346
yd	-3347
RAD	-3348
ell	-3349
ened	-3350
▁Fis	-3351
▁pat	-3352
▁sen	-3353
▁1996	-3354
▁Cont	-3355
▁Form	-3356
▁vers	-3357
antoor	-3358
▁2001,	-3359
▁Build	-3360
▁break	-3361
▁Revenue	-3362
▁beskerm	-3363
▁increase	-3364
▁Protector	-3365
▁concerning	-3366
▁previously	-3367
bos	-3368
pan	-3369
estic	-3370
fully	-3371
lines	-3372
odies	-3373
▁Hope	-3374
iminal	-3375
▁Stand	-3376
▁thank	-3377
▁extent	-3378
▁shared	-3379
▁mention	-3380
▁violence	-3381
▁employment	-3382
▁citizenship	-3383
▁corporation	-3384
94	-3385
lob	-3386
wer	-3387
▁Mr	-3388
▁el	-3389
5.5.	-3390
size	-3391
▁hon	-3392
naire	-3393
▁Fees	-3394
▁Mech	-3395
▁side	-3396
ending	-3397
▁White	-3398
▁exact	-3399
▁exerc	-3400
▁Courts	-3401
▁bodies	-3402
▁select	-3403
▁facilitate	-3404
▁legislative	-3405
▁appreciation	-3406
chen	-3407
▁Ver	-3408
▁harm	-3409
▁execution	-3410
BS	-3411
Os	-3412
▁36	-3413
▁Val	-3414
▁aid	-3415
▁yet	-3416
ivity	-3417
▁1989	-3418
▁Bank	-3419
▁save	-3420
ysburg	-3421
▁While	-3422
ertiary	-3423
▁Permit	-3424
▁performed	-3425
3,	-3426
ogue	-3427
▁bre	-3428
▁Cons	-3429
▁carry	-3430
▁email	-3431
▁leaders	-3432
▁attached	-3433
▁considers	-3434
▁Application	-3435
▁International	-3436
▁(1)	-3437
▁Yes	-3438
▁Auth	-3439
▁duty	-3440
▁meet	-3441
▁sworn	-3442
sewhere	-3443
▁litres	-3444
▁recomm	-3445
▁divided	-3446
▁duration	-3447
▁tertiary	-3448
▁amendment	-3449
des	-3450
ipp	-3451
icor	-3452
ently	-3453
wapen	-3454
▁Disc	-3455
▁link	-3456
▁plus	-3457
▁Issue	-3458
▁dealt	-3459
▁motor	-3460
itional	-3461
spermit	-3462
▁notify	-3463
▁awarded	-3464
▁overwhel	-3465
▁Authority	-3466
▁president	-3467
▁procedure	-3468
▁beskerming	-3469
▁particulars	-3470
ee	-3471
aam	-3472
▁km	-3473
items	-3474
▁fifa	-3475
▁agent	-3476
▁assess	-3477
▁namely	-3478
▁pligte	-3479
▁visitors	-3480
▁regularly	-3481
▁obligations	-3482
▁aansoekepermit	-3483
nde	-3484
ouch	-3485
vers	-3486
▁glob	-3487
▁upon	-3488
▁vuur	-3489
▁estim	-3490
▁aandui	-3491
▁around	-3492
▁Chamber	-3493
▁Finance	-3494
▁budgets	-3495
▁grossss	-3496
▁referral	-3497
▁verwante	-3498
▁vuurwapen	-3499
▁onderhewigaf	-3500
▁CD	-3501
arles	-3502
uates	-3503
▁2007	-3504
▁Every	-3505
▁delay	-3506
▁learn	-3507
▁numbers	-3508
▁working	-3509
▁grievances	-3510
▁geleenthede	-3511
22	-3512
uk	-3513
ibr	-3514
aren	-3515
iaat	-3516
▁pot	-3517
urred	-3518
▁flude	-3519
▁strive	-3520
▁organiz	-3521
▁Sekretariaat	-3522
.,	-3523
tro	-3524
▁Cr	-3525
atal	-3526
stel	-3527
▁Det	-3528
▁ged	-3529
lusion	-3530
▁Organ	-3531
▁Gateway	-3532
▁officers	-3533
▁industrial	-3534
▁aansoekegebiede	-3535
ING	-3536
jek	-3537
cine	-3538
rike	-3539
▁MEC	-3540
▁ahe	-3541
▁Rule	-3542
▁hope	-3543
▁look	-3544
▁2009.	-3545
▁forced	-3546
▁rather	-3547
▁chances	-3548
▁maintain	-3549
▁planning	-3550
▁belangrike	-3551
▁overwhelming	-3552
nex	-3553
▁lede	-3554
▁Apply	-3555
▁Forum	-3556
▁white	-3557
osition	-3558
▁minute	-3559
▁Influenza	-3560
▁operations	-3561
▁principles	-3562
▁prospective	-3563
▁investigated	-3564
63	-3565
po	-3566
rem	-3567
▁13.	-3568
elebr	-3569
▁Note	-3570
▁aans	-3571
▁mult	-3572
▁repe	-3573
ediate	-3574
▁World	-3575
▁defic	-3576
▁celebr	-3577
▁father	-3578
▁vision	-3579
ediately	-3580
▁Reserve	-3581
▁domestic	-3582
▁presents	-3583
▁providing	-3584
▁immediately	-3585
▁installation	-3586
77	-3587
go	-3588
elf	-3589
atis	-3590
▁Ant	-3591
ducts	-3592
▁Risk	-3593
▁draf	-3594
▁fear	-3595
ovable	-3596
▁train	-3597
▁trauma	-3598
▁Schools	-3599
▁broader	-3600
▁testing	-3601
▁detained	-3602
▁delegates	-3603
▁prevented	-3604
▁downloaded	-3605
▁monitoring	-3606
65	-3607
▁x	-3608
hib	-3609
tle	-3610
▁Ge	-3611
▁IN	-3612
onom	-3613
vere	-3614
▁Most	-3615
ension	-3616
icates	-3617
▁consumers	-3618
▁installed	-3619
▁withgebiede	-3620
ulu	-3621
▁18.	-3622
▁Yet	-3623
▁Head	-3624
ential	-3625
urende	-3626
▁chain	-3627
▁Rights	-3628
▁longer	-3629
gggggggg	-3630
▁vacancy	-3631
▁Provided	-3632
▁households	-3633
▁particularly	-3634
eno	-3635
idd	-3636
▁eval	-3637
▁jaar	-3638
▁tele	-3639
▁inste	-3640
▁ontra	-3641
▁repeal	-3642
▁served	-3643
▁spread	-3644
▁Sheriff	-3645
▁claimed	-3646
▁precluct	-3647
▁recommend	-3648
▁statement	-3649
▁interested	-3650
80	-3651
ips	-3652
▁Br	-3653
▁16?	-3654
▁Not	-3655
▁col	-3656
ested	-3657
ursary	-3658
▁accom	-3659
udicial	-3660
▁Pretor	-3661
▁testic	-3662
ervation	-3663
28	-3664
ped	-3665
pon	-3666
▁Our	-3667
▁unit	-3668
▁aanse	-3669
▁gives	-3670
uestion	-3671
▁either	-3672
▁propos	-3673
▁calling	-3674
▁reached	-3675
▁Building	-3676
▁promoting	-3677
▁terminate	-3678
sequ	-3679
ional	-3680
▁away	-3681
▁audit	-3682
▁corre	-3683
▁divor	-3684
▁woman	-3685
million	-3686
▁global	-3687
▁amongst	-3688
▁arrange	-3689
▁dissolved	-3690
▁percentage	-3691
▁possession	-3692
▁supporting	-3693
zaertifikateche	-3694
permitertifikaat	-3695
ES	-3696
fe	-3697
uel	-3698
6.6.	-3699
aily	-3700
iver	-3701
▁media	-3702
actions	-3703
▁operates	-3704
WC	-3705
▁Equ	-3706
▁insp	-3707
▁kwal	-3708
▁proc	-3709
stitute	-3710
▁Annual	-3711
▁attend	-3712
▁restor	-3713
▁committed	-3714
▁gedurende	-3715
alk	-3716
ige	-3717
▁WC	-3718
rene	-3719
▁YOU	-3720
▁Anim	-3721
stance	-3722
▁Share	-3723
▁paper	-3724
▁acting	-3725
▁animals	-3726
▁postbox	-3727
▁appoints	-3728
▁campaign	-3729
▁clothing	-3730
▁recycled	-3731
▁Framework	-3732
▁Outenique	-3733
▁processed	-3734
▁infectants	-3735
▁recreation	-3736
▁sufficient	-3737
ssssssssssss	-3738
kt	-3739
ake	-3740
ris	-3741
▁43	-3742
body	-3743
inks	-3744
lict	-3745
▁che	-3746
▁2001	-3747
▁Door	-3748
▁dams	-3749
▁half	-3750
▁vent	-3751
nesses	-3752
gateway	-3753
▁excell	-3754
▁repair	-3755
▁Economy	-3756
▁acquire	-3757
▁criminal	-3758
49	-3759
55	-3760
lyn	-3761
opy	-3762
▁Kh	-3763
ague	-3764
onte	-3765
unte	-3766
▁tem	-3767
asies	-3768
quate	-3769
▁2001.	-3770
▁Claims	-3771
▁expect	-3772
▁Pretoria	-3773
▁contracts	-3774
▁datesTORE	-3775
▁kwaliteit	-3776
▁Applications	-3777
▁representing	-3778
gew	-3779
ume	-3780
▁mr	-3781
know	-3782
heres	-3783
▁gebe	-3784
suring	-3785
ference	-3786
kantoor	-3787
▁accept	-3788
▁acknow	-3789
▁senior	-3790
▁Centres	-3791
▁Strateg	-3792
▁conflict	-3793
▁consumption	-3794
▁operational	-3795
RO	-3796
ng	-3797
het	-3798
mar	-3799
▁TH	-3800
iqua	-3801
like	-3802
▁bed	-3803
ought	-3804
oured	-3805
ratic	-3806
▁Order	-3807
▁judge	-3808
afighbr	-3809
▁Online	-3810
▁claims	-3811
▁owners	-3812
ditional	-3813
▁assault	-3814
▁spheres	-3815
▁democratic	-3816
ye	-3817
▁fo	-3818
ured	-3819
▁Sch	-3820
bosch	-3821
ulate	-3822
▁solid	-3823
▁System	-3824
lsenburg	-3825
▁Infludes	-3826
▁greatest	-3827
▁improved	-3828
▁resource	-3829
▁response	-3830
▁celebrate	-3831
▁exceeding	-3832
▁operating	-3833
▁regulated	-3834
▁Initiative	-3835
▁developing	-3836
gs	-3837
orge	-3838
▁19.	-3839
▁fit	-3840
amily	-3841
onstr	-3842
▁Fore	-3843
▁opin	-3844
empted	-3845
general	-3846
ibility	-3847
raysburg	-3848
▁conduct	-3849
▁estimated	-3850
▁thepermit	-3851
Af	-3852
▁ter	-3853
orney	-3854
prene	-3855
ronic	-3856
employ	-3857
ustice	-3858
▁Frack	-3859
▁backgr	-3860
▁reserv	-3861
▁Culture	-3862
▁Support	-3863
▁hearing	-3864
▁opinion	-3865
▁orcheck	-3866
▁quickly	-3867
▁verbind	-3868
▁activity	-3869
▁cleaning	-3870
▁resident	-3871
▁addressed	-3872
▁equivalent	-3873
▁Participation	-3874
WI	-3875
amb	-3876
ply	-3877
sing	-3878
uted	-3879
▁hul	-3880
ening	-3881
icket	-3882
ouses	-3883
ustom	-3884
▁gard	-3885
▁noble	-3886
▁shows	-3887
ificant	-3888
▁Sector	-3889
▁agents	-3890
owerment	-3891
▁exactly	-3892
▁exempted	-3893
▁travelling	-3894
▁accommodation	-3895
▁approximately	-3896
HRC	-3897
ried	-3898
vest	-3899
▁fem	-3900
aland	-3901
▁1993	-3902
▁Port	-3903
ernity	-3904
ibrary	-3905
▁Breed	-3906
▁Legal	-3907
▁exper	-3908
▁grass	-3909
▁posit	-3910
▁applied	-3911
including	-3912
▁demonstr	-3913
▁resulted	-3914
▁realisation	-3915
44	-3916
ror	-3917
lear	-3918
▁OOR	-3919
▁0800	-3920
▁Only	-3921
▁owned	-3922
overing	-3923
▁Orders	-3924
▁liable	-3925
▁voorhe	-3926
▁contain	-3927
▁learning	-3928
▁receives	-3929
▁stronger	-3930
gev	-3931
▁2,	-3932
coura	-3933
▁data	-3934
▁fuel	-3935
ontein	-3936
ousing	-3937
▁frequ	-3938
mission	-3939
▁failed	-3940
▁launch	-3941
uestions	-3942
▁Traffic	-3943
▁healthy	-3944
▁outbreak	-3945
▁suitable	-3946
capegateway	-3947
▁Prevention	-3948
▁foundation	-3949
mer	-3950
sth	-3951
augh	-3952
▁Col	-3953
▁eng	-3954
▁SADC	-3955
▁Such	-3956
▁self	-3957
▁bylaw	-3958
▁share	-3959
istance	-3960
▁cancer	-3961
▁problem	-3962
▁recycle	-3963
▁regional	-3964
▁directions	-3965
▁aangeleenthede	-3966
▁recommendations	-3967
LL	-3968
ob	-3969
agn	-3970
lim	-3971
man	-3972
▁OF	-3973
icro	-3974
▁FOR	-3975
abase	-3976
ester	-3977
aardie	-3978
ardian	-3979
iteite	-3980
ourses	-3981
▁Phase	-3982
fontein	-3983
▁grants	-3984
annaland	-3985
preneurs	-3986
▁appears	-3987
▁changes	-3988
▁permits	-3989
▁possess	-3990
▁position	-3991
▁teenague	-3992
▁unemploy	-3993
▁voorheen	-3994
▁permission	-3995
▁Chairpersons	-3996
▁immunisation	-3997
▁participated	-3998
DI	-3999
84,	-4000
alc	-4001
reik	-4002
etery	-4003
projek	-4004
▁Resol	-4005
▁draft	-4006
▁early	-4007
▁fever	-4008
▁restr	-4009
▁votes	-4010
▁Agency	-4011
▁Housing	-4012
▁daardie	-4013
▁neither	-4014
▁postpon	-4015
▁assembly	-4016
▁Elsenburg	-4017
▁certainly	-4018
▁commissioner	-4019
▁consideration	-4020
",	-4021
66	-4022
HO	-4023
uls	-4024
▁Ho	-4025
▁Tu	-4026
aces	-4027
uide	-4028
▁RSA	-4029
▁Red	-4030
▁deb	-4031
chest	-4032
mical	-4033
orial	-4034
worth	-4035
▁High	-4036
▁werk	-4037
▁ingev	-4038
▁phase	-4039
istrate	-4040
▁breast	-4041
iversary	-4042
▁equally	-4043
▁renewed	-4044
▁compared	-4045
▁substance	-4046
▁workshops	-4047
▁acquisition	-4048
oof	-4049
pat	-4050
Form	-4051
oles	-4052
ross	-4053
▁15.	-4054
▁Ref	-4055
overs	-4056
sthma	-4057
▁sche	-4058
vember	-4059
igation	-4060
▁supply	-4061
▁Subject	-4062
▁encoura	-4063
▁produce	-4064
▁vaccine	-4065
ighbridge	-4066
▁Kannaland	-4067
▁marketing	-4068
▁biological	-4069
▁composition	-4070
▁certificates	-4071
iii	-4072
ilt	-4073
ende	-4074
ilot	-4075
ruit	-4076
▁167	-4077
▁Pay	-4078
watch	-4079
▁exem	-4080
advant	-4081
▁Techn	-4082
▁koste	-4083
▁rates	-4084
▁advant	-4085
▁decade	-4086
▁invited	-4087
▁commence	-4088
▁creation	-4089
▁Infections	-4090
▁consisting	-4091
▁generation	-4092
78	-4093
wh	-4094
89.	-4095
TCT	-4096
▁lo	-4097
▁om	-4098
acks	-4099
iple	-4100
▁14.	-4101
▁400	-4102
▁Def	-4103
▁bur	-4104
▁nat	-4105
gener	-4106
▁Resp	-4107
▁bele	-4108
▁entr	-4109
▁unre	-4110
▁Third	-4111
▁overs	-4112
▁ready	-4113
▁Invest	-4114
▁remove	-4115
▁blocked	-4116
▁clinics	-4117
▁occurred	-4118
▁transfer	-4119
advantaged	-4120
▁telephone	-4121
▁cooperation	-4122
▁disadvantaged	-4123
_.	-4124
ae	-4125
yl	-4126
oph	-4127
▁Sc	-4128
Cape	-4129
enda	-4130
▁fil	-4131
▁Food	-4132
▁Post	-4133
▁mand	-4134
▁using	-4135
▁Consum	-4136
▁inside	-4137
▁needed	-4138
▁rocket	-4139
▁Univers	-4140
▁inspect	-4141
mpowerment	-4142
▁advantage	-4143
▁presented	-4144
▁rolledges	-4145
▁agreements	-4146
▁commencement	-4147
▁documentation	-4148
EF	-4149
Is	-4150
rs	-4151
STI	-4152
eka	-4153
hab	-4154
▁22	-4155
▁Bro	-4156
▁don	-4157
anger	-4158
eping	-4159
▁East	-4160
▁mill	-4161
▁diagn	-4162
▁magaz	-4163
verberg	-4164
▁Grants	-4165
▁former	-4166
▁prosec	-4167
▁natural	-4168
▁visited	-4169
▁rigorous	-4170
▁sessions	-4171
▁mentioned	-4172
▁incidental	-4173
ER	-4174
GA	-4175
cue	-4176
▁ir	-4177
anit	-4178
irst	-4179
phas	-4180
▁vas	-4181
atisf	-4182
▁2004.	-4183
dequate	-4184
ignment	-4185
▁accred	-4186
▁figures	-4187
▁players	-4188
risonment	-4189
▁identity	-4190
▁equitable	-4191
▁peakarles	-4192
▁allgebiede	-4193
▁governments	-4194
▁implemented	-4195
64	-4196
ICE	-4197
ott	-4198
par	-4199
olit	-4200
▁bev	-4201
▁mor	-4202
viral	-4203
▁hear	-4204
▁stat	-4205
▁took	-4206
▁drink	-4207
▁switch	-4208
▁Islands	-4209
▁preclude	-4210
ographical	-4211
▁governing	-4212
▁foreigners	-4213
09	-4214
AA	-4215
UN	-4216
ij	-4217
aro	-4218
▁26	-4219
▁Do	-4220
▁kl	-4221
ieve	-4222
ular	-4223
▁31.	-4224
astal	-4225
iddle	-4226
▁Arts	-4227
▁They	-4228
▁elig	-4229
panied	-4230
steris	-4231
▁Certif	-4232
▁become	-4233
▁delive	-4234
▁fields	-4235
▁gebeur	-4236
▁recovery	-4237
▁parliament	-4238
▁terminated	-4239
▁accompanied	-4240
▁imprisonment	-4241
13	-4242
ai	-4243
aps	-4244
orc	-4245
▁0,	-4246
▁70	-4247
▁er	-4248
asie	-4249
berc	-4250
▁mut	-4251
▁sus	-4252
arent	-4253
▁1997	-4254
▁Meas	-4255
▁Phot	-4256
▁beno	-4257
▁expl	-4258
ategor	-4259
▁kinds	-4260
▁units	-4261
Section	-4262
ception	-4263
▁Import	-4264
▁filled	-4265
▁refuse	-4266
▁Library	-4267
▁assists	-4268
▁removal	-4269
▁revenue	-4270
▁Projects	-4271
▁ispermit	-4272
▁Presiding	-4273
ns	-4274
ux	-4275
▁34	-4276
▁Pr	-4277
ands	-4278
iety	-4279
inct	-4280
oyal	-4281
ster	-4282
ysis	-4283
▁top	-4284
▁tow	-4285
andel	-4286
urses	-4287
useum	-4288
▁behe	-4289
eksies	-4290
lusive	-4291
verage	-4292
▁Infra	-4293
▁Plant	-4294
▁accum	-4295
▁intro	-4296
▁Resort	-4297
▁crimes	-4298
▁depends	-4299
▁subsequ	-4300
▁towards	-4301
▁November	-4302
▁minimise	-4303
▁reported	-4304
▁testicle	-4305
▁traditional	-4306
MA	-4307
cas	-4308
iet	-4309
nem	-4310
oos	-4311
roy	-4312
▁PAY	-4313
▁unw	-4314
▁web	-4315
apers	-4316
aught	-4317
orpor	-4318
valid	-4319
▁step	-4320
cement	-4321
▁2004,	-4322
▁Appro	-4323
▁fight	-4324
▁Breede	-4325
▁aspect	-4326
▁benoem	-4327
▁sports	-4328
▁affairs	-4329
▁ahether	-4330
▁deficit	-4331
▁instead	-4332
▁volunte	-4333
rolledICE	-4334
▁chemical	-4335
▁intended	-4336
▁operator	-4337
▁promotes	-4338
▁Standards	-4339
▁delivered	-4340
▁efficient	-4341
▁excluding	-4342
▁guidelines	-4343
▁unemployed	-4344
▁Registration	-4345
▁factorypermit	-4346
▁Infrastructure	-4347
▁havingrolledICE	-4348
oon	-4349
ayel	-4350
llen	-4351
▁enh	-4352
▁ins	-4353
▁waa	-4354
aging	-4355
ergis	-4356
ikels	-4357
itsha	-4358
konom	-4359
▁Coun	-4360
▁tour	-4361
idency	-4362
▁Fever	-4363
▁buite	-4364
▁lives	-4365
▁Travel	-4366
▁manual	-4367
▁portal	-4368
▁vermor	-4369
afenburg	-4370
lamation	-4371
▁energis	-4372
▁selling	-4373
ayelitsha	-4374
▁Campaign	-4375
▁Outeniqua	-4376
▁certified	-4377
▁elsewhere	-4378
▁authorised	-4379
▁photograph	-4380
▁Empowerment	-4381
▁recognition	-4382
3)	-4383
KK	-4384
KKEL	-4385
idav	-4386
mail	-4387
mark	-4388
oort	-4389
osit	-4390
▁Eng	-4391
▁kil	-4392
ivier	-4393
▁base	-4394
WIKKEL	-4395
ancies	-4396
▁young	-4397
▁Proced	-4398
▁device	-4399
▁likely	-4400
▁satisf	-4401
▁Contact	-4402
▁Workers	-4403
▁collect	-4404
▁kategor	-4405
▁peakles	-4406
WIKKELING	-4407
▁Landmark	-4408
▁recorded	-4409
▁repealed	-4410
▁standard	-4411
▁encouraged	-4412
▁Constitutional	-4413
▁constitutional	-4414
hesthesthesthest	-4415
.5	-4416
uc	-4417
▁(5	-4418
▁Am	-4419
▁Kl	-4420
days	-4421
dorp	-4422
ette	-4423
ikke	-4424
▁201	-4425
▁Cor	-4426
▁ONT	-4427
▁ges	-4428
urban	-4429
▁arch	-4430
essage	-4431
twikke	-4432
▁River	-4433
▁exhib	-4434
▁meant	-4435
ductive	-4436
rolling	-4437
▁contra	-4438
▁detail	-4439
orcester	-4440
udiciary	-4441
▁Further	-4442
▁adopted	-4443
▁dischar	-4444
▁database	-4445
▁incurred	-4446
▁precipit	-4447
▁produced	-4448
▁supports	-4449
▁competent	-4450
▁Assistance	-4451
▁interactions	-4452
▁establishment	-4453
-5	-4454
ENT	-4455
even	-4456
osis	-4457
▁Clo	-4458
▁Des	-4459
▁fri	-4460
▁ren	-4461
acher	-4462
anges	-4463
▁Fest	-4464
▁WCED	-4465
▁fair	-4466
▁accru	-4467
▁built	-4468
▁orders	-4469
▁broadly	-4470
▁express	-4471
▁reduced	-4472
ilitation	-4473
▁Disaster	-4474
▁Retender	-4475
▁divorced	-4476
▁unreason	-4477
▁Worcester	-4478
▁beginning	-4479
99	-4480
TH	-4481
oe	-4482
vey	-4483
▁ii	-4484
ider	-4485
iers	-4486
onde	-4487
▁Exp	-4488
▁via	-4489
udges	-4490
▁Life	-4491
▁mean	-4492
▁sale	-4493
▁sets	-4494
▁verk	-4495
lation	-4496
▁Grade	-4497
▁shown	-4498
▁simil	-4499
ruption	-4500
▁excess	-4501
▁comment	-4502
▁learner	-4503
▁proport	-4504
▁refuses	-4505
▁receiving	-4506
▁accumulated	-4507
▁significant	-4508
▁ONTWIKKELING	-4509
▁organization	-4510
EP	-4511
yt	-4512
ipt	-4513
rif	-4514
rim	-4515
unt	-4516
▁Op	-4517
▁vo	-4518
ades	-4519
gans	-4520
neys	-4521
offs	-4522
rack	-4523
unis	-4524
▁168	-4525
▁Kwa	-4526
▁Soc	-4527
▁Uit	-4528
▁eie	-4529
▁pri	-4530
inter	-4531
ricul	-4532
▁food	-4533
ancing	-4534
▁annex	-4535
▁spect	-4536
istence	-4537
▁vested	-4538
ekeeping	-4539
▁Justice	-4540
▁receipt	-4541
llenbosch	-4542
▁Physical	-4543
▁Portfoli	-4544
▁priority	-4545
▁redirect	-4546
▁directive	-4547
▁judiciary	-4548
▁principal	-4549
▁Production	-4550
▁assessment	-4551
▁discharged	-4552
habilitation	-4553
▁anniversary	-4554
zi	-4555
rig	-4556
tel	-4557
yer	-4558
▁cl	-4559
ipal	-4560
kets	-4561
Natal	-4562
points	-4563
▁Repro	-4564
▁floor	-4565
▁whate	-4566
erative	-4567
ighbraf	-4568
▁2009),	-4569
▁conven	-4570
▁judges	-4571
▁nomine	-4572
▁tariff	-4573
▁Program	-4574
▁affidav	-4575
▁infants	-4576
▁Judicial	-4577
▁Permitte	-4578
▁Register	-4579
▁Research	-4580
▁computer	-4581
▁exercise	-4582
▁proposal	-4583
▁salaries	-4584
▁selected	-4585
▁Portfolio	-4586
▁acknowled	-4587
▁reflecting	-4588
▁strengthening	-4589
sc	-4590
gel	-4591
mal	-4592
ona	-4593
▁SP	-4594
lets	-4595
▁kap	-4596
▁sam	-4597
after	-4598
orrow	-4599
▁Care	-4600
▁Comp	-4601
▁fest	-4602
asting	-4603
▁1994.	-4604
▁major	-4605
ovation	-4606
▁Indian	-4607
▁advice	-4608
▁recess	-4609
▁unique	-4610
▁central	-4611
▁visiting	-4612
▁accounting	-4613
▁weerspieaf	-4614
▁transaction	-4615
▁Stellenbosch	-4616
gy	-4617
aid	-4618
bed	-4619
lev	-4620
pay	-4621
▁Ve	-4622
dien	-4623
lish	-4624
omet	-4625
ored	-4626
sels	-4627
▁Acc	-4628
▁Rel	-4629
▁San	-4630
▁ende	-4631
▁leak	-4632
▁Block	-4633
▁First	-4634
▁vital	-4635
ourable	-4636
uriteit	-4637
▁United	-4638
▁common	-4639
▁confer	-4640
▁opened	-4641
▁similar	-4642
▁kategorie	-4643
▁Technology	-4644
62	-4645
hn	-4646
ina	-4647
ins	-4648
ipl	-4649
ked	-4650
kes	-4651
lys	-4652
▁33	-4653
▁55	-4654
▁Em	-4655
Ride	-4656
fund	-4657
hern	-4658
▁tas	-4659
▁dest	-4660
angers	-4661
▁Staff	-4662
▁forum	-4663
▁micro	-4664
▁agenda	-4665
▁called	-4666
▁honour	-4667
▁holding	-4668
▁however	-4669
struction	-4670
▁governed	-4671
▁guardian	-4672
▁affidavit	-4673
▁immovable	-4674
▁Sekuriteit	-4675
▁governance	-4676
▁occurrence	-4677
▁Directories	-4678
▁residential	-4679
▁Disabilities	-4680
▁Organisation	-4681
▁grossssssssssss	-4682
,"	-4683
15	-4684
45	-4685
SS	-4686
ani	-4687
cis	-4688
ler	-4689
▁47	-4690
▁83	-4691
▁Go	-4692
asic	-4693
eder	-4694
twer	-4695
▁Sit	-4696
▁eth	-4697
▁inj	-4698
▁oor	-4699
▁rad	-4700
ences	-4701
iquor	-4702
orses	-4703
aratus	-4704
▁2000,	-4705
▁energ	-4706
▁plaas	-4707
▁separ	-4708
▁Leader	-4709
▁linked	-4710
▁normal	-4711
▁organs	-4712
secutive	-4713
unisipal	-4714
▁failure	-4715
▁Hospital	-4716
▁Outbreak	-4717
▁february	-4718
▁notified	-4719
▁inspection	-4720
▁interaction	-4721
▁demonstrated	-4722
▁rehabilitation	-4723
PO	-4724
TU	-4725
mm	-4726
▁u	-4727
GOs	-4728
igr	-4729
lau	-4730
lyk	-4731
aroo	-4732
care	-4733
free	-4734
lyne	-4735
perk	-4736
roll	-4737
urch	-4738
▁ACT	-4739
▁CID	-4740
▁Cap	-4741
▁Pan	-4742
▁SGB	-4743
▁Top	-4744
▁abs	-4745
▁tyd	-4746
lords	-4747
orand	-4748
▁Safe	-4749
▁anti	-4750
iretro	-4751
▁Basic	-4752
▁fluct	-4753
▁raise	-4754
▁Animal	-4755
▁disclo	-4756
▁giving	-4757
▁verant	-4758
▁verrig	-4759
ippermit	-4760
▁Another	-4761
▁Bursary	-4762
▁expense	-4763
▁letters	-4764
▁setting	-4765
▁Consumer	-4766
▁Sheriffs	-4767
▁energise	-4768
▁features	-4769
▁Workshops	-4770
▁operators	-4771
▁satisfied	-4772
▁experience	-4773
▁Corporation	-4774
▁association	-4775
▁ofopleiding	-4776
▁conservation	-4777
▁woordebeheer	-4778
▁determination	-4779
▁questionnaire	-4780
CC	-4781
▁z	-4782
▁09.	-4783
▁Tel	-4784
▁Vol	-4785
aired	-4786
ervix	-4787
▁Code	-4788
▁Nort	-4789
▁Week	-4790
▁blan	-4791
▁calc	-4792
▁daar	-4793
▁ward	-4794
argest	-4795
▁Recre	-4796
▁aansp	-4797
▁careg	-4798
▁hulle	-4799
▁quant	-4800
▁urban	-4801
inating	-4802
▁Notice	-4803
▁discip	-4804
▁houses	-4805
▁taking	-4806
▁territ	-4807
▁Returch	-4808
▁discrim	-4809
▁Northern	-4810
▁delegate	-4811
▁detailed	-4812
▁connected	-4813
▁contained	-4814
▁improving	-4815
▁travelled	-4816
%.	-4817
9,	-4818
9.	-4819
150	-4820
bel	-4821
▁(0	-4822
▁2:	-4823
eens	-4824
ized	-4825
lder	-4826
onia	-4827
tray	-4828
▁Imm	-4829
▁Ras	-4830
▁THE	-4831
chers	-4832
estel	-4833
iplom	-4834
issue	-4835
uting	-4836
walks	-4837
status	-4838
strays	-4839
▁2005,	-4840
▁2008.	-4841
▁Guide	-4842
▁conte	-4843
▁sched	-4844
▁Museum	-4845
▁haarro	-4846
▁scheme	-4847
councils	-4848
novation	-4849
▁affects	-4850
▁chained	-4851
▁courses	-4852
▁interim	-4853
▁measure	-4854
▁profile	-4855
▁returns	-4856
▁sheriff	-4857
▁minister	-4858
▁separate	-4859
▁whatever	-4860
▁Represent	-4861
▁aanspreek	-4862
▁allpermit	-4863
▁amendments	-4864
▁evaluation	-4865
▁priorities	-4866
▁representations	-4867
IL	-4868
aug	-4869
ush	-4870
▁58	-4871
SETA	-4872
▁Ent	-4873
▁Map	-4874
▁wer	-4875
regte	-4876
uable	-4877
▁Mult	-4878
▁clar	-4879
▁inde	-4880
▁waar	-4881
▁word	-4882
endent	-4883
irekte	-4884
mitted	-4885
▁Crime	-4886
▁Joint	-4887
▁bevat	-4888
▁glass	-4889
ivation	-4890
▁debate	-4891
▁emphas	-4892
▁lodged	-4893
▁salary	-4894
▁search	-4895
▁voorde	-4896
▁Charles	-4897
▁Charter	-4898
▁English	-4899
▁Special	-4900
▁context	-4901
▁Forestry	-4902
▁exclusion	-4903
▁determines	-4904
▁exemptions	-4905
▁Khayelitsha	-4906
▁safekeeping	-4907
▁woordeprojek	-4908
▁identification	-4909
-4	-4910
DRA	-4911
IRS	-4912
ube	-4913
▁4,	-4914
▁65	-4915
MENT	-4916
bare	-4917
ivid	-4918
raaf	-4919
rees	-4920
▁(2)	-4921
▁80%	-4922
▁Mus	-4923
▁lay	-4924
▁sup	-4925
erals	-4926
twerp	-4927
▁1994	-4928
▁Jaar	-4929
▁oral	-4930
archar	-4931
dienst	-4932
encies	-4933
vision	-4934
▁2000)	-4935
▁2005.	-4936
▁SAHRC	-4937
konomie	-4938
sharing	-4939
sterisk	-4940
▁Liquor	-4941
▁figure	-4942
▁horses	-4943
▁indian	-4944
▁vacant	-4945
standing	-4946
▁restray	-4947
▁ensuring	-4948
▁growhere	-4949
▁overcome	-4950
▁preserve	-4951
▁quantity	-4952
▁smearing	-4953
▁apparatus	-4954
▁beopleiding	-4955
▁participating	-4956
CD	-4957
600	-4958
era	-4959
exp	-4960
ikel	-4961
qual	-4962
rica	-4963
▁195	-4964
▁196	-4965
aking	-4966
years	-4967
▁bill	-4968
▁rule	-4969
▁2009,	-4970
▁vergo	-4971
issions	-4972
▁Avenue	-4973
▁garden	-4974
▁verwag	-4975
▁yellow	-4976
diensted	-4977
▁Respons	-4978
▁intends	-4979
▁victims	-4980
infection	-4981
▁Facility	-4982
▁accessed	-4983
▁assisted	-4984
▁blankets	-4985
▁disputes	-4986
▁yourself	-4987
▁computers	-4988
▁potential	-4989
▁background	-4990
▁vergoeding	-4991
▁examination	-4992
▁successfully	-4993
dienstedienste	-4994
▁rollingpermit	-4995
."	-4996
52	-4997
98	-4998
Re	-4999
SI	-5000
.5.	-5001
den	-5002
ows	-5003
▁3,	-5004
bele	-5005
▁Per	-5006
▁eas	-5007
▁wet	-5008
apter	-5009
▁Have	-5010
▁join	-5011
▁poll	-5012
▁stop	-5013
▁ways	-5014
▁Adult	-5015
▁Langu	-5016
▁Point	-5017
▁Trust	-5018
▁close	-5019
▁resum	-5020
▁teach	-5021
anitary	-5022
artikel	-5023
illegal	-5024
irement	-5025
▁Ensure	-5026
▁forces	-5027
▁haarre	-5028
▁plekke	-5029
▁raised	-5030
▁deposit	-5031
▁operate	-5032
▁precurs	-5033
▁attorney	-5034
▁portions	-5035
▁testator	-5036
▁ofgebiede	-5037
▁subartikel	-5038
▁associations	-5039
47	-5040
IA	-5041
ST	-5042
300	-5043
ftw	-5044
▁Fl	-5045
▁pd	-5046
▁Imp	-5047
▁amp	-5048
▁dou	-5049
endar	-5050
▁0861	-5051
▁Pass	-5052
▁Whip	-5053
▁mass	-5054
▁onts	-5055
▁soos	-5056
ftware	-5057
uality	-5058
▁2007.	-5059
▁Chair	-5060
▁entre	-5061
▁limit	-5062
riculum	-5063
▁motion	-5064
▁resign	-5065
▁wishes	-5066
▁culture	-5067
▁damages	-5068
▁relates	-5069
▁Language	-5070
▁drinking	-5071
▁software	-5072
▁unwanted	-5073
▁buildings	-5074
▁depending	-5075
▁frequency	-5076
▁responded	-5077
▁teenagers	-5078
▁vooruitak	-5079
iretroviral	-5080
▁University	-5081
▁proportion	-5082
▁thegebiede	-5083
▁aansoekeing	-5084
▁accreditation	-5085
▁entrepreneurs	-5086
▁qualification	-5087
33	-5088
ND	-5089
jun	-5090
ude	-5091
ATED	-5092
ares	-5093
head	-5094
ooks	-5095
sive	-5096
uels	-5097
▁17.	-5098
▁dig	-5099
▁ess	-5100
▁pet	-5101
▁urg	-5102
onday	-5103
▁Grant	-5104
▁Karoo	-5105
▁produ	-5106
▁Before	-5107
▁During	-5108
▁Fiscal	-5109
▁Rescue	-5110
▁Valley	-5111
▁threat	-5112
▁verify	-5113
▁Charges	-5114
▁carried	-5115
▁overall	-5116
▁werknem	-5117
▁Equality	-5118
▁testicles	-5119
▁consistent	-5120
▁indicating	-5121
▁presidency	-5122
▁Departments	-5123
▁Partnership	-5124
▁precippermit	-5125
LS	-5126
MS	-5127
PA	-5128
aba	-5129
eng	-5130
enn	-5131
fit	-5132
▁88	-5133
▁El	-5134
▁My	-5135
acts	-5136
edge	-5137
rite	-5138
▁fis	-5139
ainst	-5140
anned	-5141
ariff	-5142
osits	-5143
▁Stay	-5144
▁moet	-5145
▁seke	-5146
▁1998,	-5147
▁Admin	-5148
▁Seven	-5149
▁Years	-5150
erature	-5151
ividual	-5152
▁manage	-5153
▁Chapter	-5154
▁handles	-5155
▁harmony	-5156
▁voorleg	-5157
▁employed	-5158
▁divisions	-5159
▁magazines	-5160
▁volunteer	-5161
▁Presidents	-5162
▁effectively	-5163
▁progressive	-5164
▁expectations	-5165
▁reconstitute	-5166
FO	-5167
nd	-5168
bul	-5169
ifi	-5170
ryf	-5171
ton	-5172
▁ms	-5173
etha	-5174
ourn	-5175
wide	-5176
▁Cle	-5177
▁Sur	-5178
▁sex	-5179
comes	-5180
gradu	-5181
ieved	-5182
spond	-5183
tinge	-5184
udice	-5185
▁phyt	-5186
▁saak	-5187
▁taxi	-5188
anging	-5189
▁2006.	-5190
▁Frequ	-5191
▁initi	-5192
quisite	-5193
▁breakd	-5194
▁chains	-5195
▁closed	-5196
▁geetha	-5197
▁states	-5198
ustomary	-5199
▁Defence	-5200
▁artists	-5201
▁partner	-5202
▁quicker	-5203
▁Everyone	-5204
▁agencies	-5205
▁breastfe	-5206
▁multiple	-5207
▁stricted	-5208
▁Behaviour	-5209
▁Maternity	-5210
▁conferred	-5211
▁Recreation	-5212
▁thereafter	-5213
▁partnerships	-5214
▁unreasonably	-5215
▁accountability	-5216
".	-5217
NC	-5218
ft	-5219
ka	-5220
34,	-5221
UIR	-5222
eto	-5223
appo	-5224
erde	-5225
owry	-5226
wise	-5227
▁092	-5228
▁12.	-5229
▁24-	-5230
▁Dec	-5231
▁Mag	-5232
▁Tax	-5233
▁Wes	-5234
▁lig	-5235
▁rap	-5236
anced	-5237
overe	-5238
▁NGOs	-5239
▁Once	-5240
▁clos	-5241
▁text	-5242
ounced	-5243
though	-5244
woorde	-5245
▁Roads	-5246
▁calls	-5247
▁regst	-5248
▁Select	-5249
▁divers	-5250
▁waarop	-5251
▁Animals	-5252
▁backlog	-5253
▁provins	-5254
▁applying	-5255
▁location	-5256
▁requires	-5257
▁strictly	-5258
▁whenever	-5259
twikkeling	-5260
▁diagnosed	-5261
▁finalised	-5262
▁recovered	-5263
▁selection	-5264
cheraamwerk	-5265
▁precaution	-5266
▁stipulated	-5267
▁functioning	-5268
▁verrigtinge	-5269
▁verantwoorde	-5270
):	-5271
69	-5272
dd	-5273
hod	-5274
try	-5275
▁38	-5276
▁Mo	-5277
ainf	-5278
orse	-5279
ping	-5280
▁bal	-5281
▁bid	-5282
▁cla	-5283
▁hyd	-5284
▁men	-5285
▁vry	-5286
oster	-5287
sterm	-5288
vents	-5289
▁John	-5290
▁Ster	-5291
▁drop	-5292
▁line	-5293
▁path	-5294
▁team	-5295
gebied	-5296
▁Colle	-5297
▁acted	-5298
▁point	-5299
▁recip	-5300
▁space	-5301
▁verst	-5302
▁asthma	-5303
▁sovere	-5304
▁superv	-5305
▁urgent	-5306
inations	-5307
sgebiede	-5308
▁coastal	-5309
▁complex	-5310
▁correct	-5311
▁ontwerp	-5312
▁Learners	-5313
▁complied	-5314
▁eligible	-5315
▁strictim	-5316
▁voorstel	-5317
▁demograph	-5318
▁directors	-5319
▁practical	-5320
▁regstreek	-5321
▁roadworth	-5322
▁correspond	-5323
▁Counselling	-5324
▁authorities	-5325
▁sertifikaat	-5326
75	-5327
UT	-5328
-73	-5329
Dis	-5330
UCT	-5331
iol	-5332
kap	-5333
ots	-5334
tre	-5335
000.	-5336
face	-5337
hour	-5338
ibos	-5339
road	-5340
▁012	-5341
▁Phil	-5342
▁cred	-5343
▁stud	-5344
ersons	-5345
▁2007,	-5346
▁grant	-5347
▁indem	-5348
▁occup	-5349
▁Anyone	-5350
▁Verify	-5351
▁eiebel	-5352
▁groups	-5353
▁reappo	-5354
▁sphere	-5355
▁suburb	-5356
▁Produce	-5357
▁arising	-5358
▁defence	-5359
▁monthly	-5360
▁objects	-5361
▁stopped	-5362
▁voorgel	-5363
▁ampsterm	-5364
▁complies	-5365
▁directed	-5366
▁happened	-5367
▁regulate	-5368
ifications	-5369
▁Neighbour	-5370
▁addresses	-5371
▁affecting	-5372
▁exclusive	-5373
▁otherwise	-5374
▁andgebiede	-5375
▁privileges	-5376
▁Certificate	-5377
▁Neighbourhood	-5378
▁verantwoordelik	-5379
kl	-5380
bre	-5381
ees	-5382
eve	-5383
▁1:	-5384
▁54	-5385
▁KB	-5386
ects	-5387
etic	-5388
hich	-5389
iese	-5390
ktes	-5391
oted	-5392
sper	-5393
ylum	-5394
▁Att	-5395
▁Hon	-5396
nergy	-5397
ubber	-5398
▁000,	-5399
▁Some	-5400
▁born	-5401
▁ends	-5402
▁cause	-5403
▁grade	-5404
▁manag	-5405
▁mouth	-5406
▁south	-5407
▁works	-5408
▁write	-5409
emetery	-5410
▁Branch	-5411
▁Cancer	-5412
▁Doorns	-5413
▁Family	-5414
▁aanseg	-5415
▁agrees	-5416
▁danger	-5417
▁female	-5418
▁method	-5419
▁picket	-5420
▁simply	-5421
▁Fridays	-5422
▁anticor	-5423
▁largest	-5424
ternative	-5425
▁Interest	-5426
▁Landlord	-5427
▁reviewed	-5428
▁valuable	-5429
▁voordele	-5430
▁Marketing	-5431
▁pollution	-5432
▁contacting	-5433
▁initiative	-5434
▁discussions	-5435
▁subsistence	-5436
▁verbindings	-5437
▁breastfeeding	-5438
imb	-5439
ooi	-5440
▁1%	-5441
▁52	-5442
▁57	-5443
▁WE	-5444
4040	-5445
ging	-5446
reen	-5447
resh	-5448
rete	-5449
▁843	-5450
▁Pal	-5451
umber	-5452
▁surv	-5453
School	-5454
livery	-5455
olitan	-5456
▁Based	-5457
▁YOUTH	-5458
▁unity	-5459
areness	-5460
expired	-5461
▁covers	-5462
▁medium	-5463
▁values	-5464
ientific	-5465
ordinate	-5466
▁digital	-5467
▁engaged	-5468
▁illegal	-5469
▁pleased	-5470
▁science	-5471
▁Councils	-5472
▁Strategic	-5473
▁admission	-5474
▁awareness	-5475
▁infectant	-5476
▁schedules	-5477
overnmental	-5478
▁retirement	-5479
▁Transmitted	-5480
▁replacement	-5481
▁translation	-5482
▁arrangements	-5483
▁chairpersons	-5484
▁distribution	-5485
▁subsequently	-5486
▁reconstruction	-5487
▁representation	-5488
OD	-5489
WP	-5490
com	-5491
ica	-5492
kte	-5493
lio	-5494
oer	-5495
▁45	-5496
anda	-5497
esty	-5498
oice	-5499
▁21.	-5500
▁24.	-5501
▁931	-5502
▁Bra	-5503
▁Est	-5504
▁geh	-5505
enced	-5506
large	-5507
oklyn	-5508
water	-5509
▁Aids	-5510
▁Make	-5511
▁Step	-5512
▁dial	-5513
▁pric	-5514
ulosis	-5515
▁Refer	-5516
▁seeks	-5517
▁soort	-5518
atories	-5519
regular	-5520
▁George	-5521
▁occurs	-5522
▁others	-5523
▁toonch	-5524
▁Homeced	-5525
▁organis	-5526
▁vryheid	-5527
▁Outenced	-5528
▁comments	-5529
▁landlords	-5530
▁mediation	-5531
▁privilege	-5532
▁contracted	-5533
▁paragraphs	-5534
▁represents	-5535
▁equivalents	-5536
▁photographs	-5537
▁Reproductive	-5538
▁proclamation	-5539
.3	-5540
4)	-5541
800	-5542
iks	-5543
sie	-5544
ula	-5545
▁Of	-5546
erly	-5547
ison	-5548
ream	-5549
rols	-5550
wers	-5551
▁10.	-5552
▁193	-5553
▁483	-5554
▁Fas	-5555
▁mob	-5556
ctive	-5557
heids	-5558
stant	-5559
▁book	-5560
afafaf	-5561
gewing	-5562
▁daten	-5563
▁makes	-5564
▁newsp	-5565
▁stead	-5566
ighbrge	-5567
▁Income	-5568
▁Should	-5569
▁Worker	-5570
▁absent	-5571
▁causes	-5572
▁detain	-5573
▁licens	-5574
▁varies	-5575
▁vermes	-5576
retation	-5577
▁Measles	-5578
▁Science	-5579
▁charter	-5580
▁convict	-5581
▁ontrain	-5582
▁restore	-5583
▁convened	-5584
▁humanity	-5585
▁restrict	-5586
▁teaching	-5587
▁foreigner	-5588
▁Resolution	-5589
▁productive	-5590
▁werknemers	-5591
▁enterprises	-5592
▁aanspreeklik	-5593
▁corresponding	-5594
▁developmental	-5595
▁Municipalities	-5596
41	-5597
8.	-5598
CA	-5599
yg	-5600
705	-5601
dat	-5602
iat	-5603
oek	-5604
▁32	-5605
▁63	-5606
▁AG	-5607
▁CB	-5608
▁Sk	-5609
▁du	-5610
1000	-5611
adat	-5612
ests	-5613
irls	-5614
▁40%	-5615
▁try	-5616
edere	-5617
field	-5618
ieval	-5619
iseer	-5620
ksies	-5621
opies	-5622
rains	-5623
reets	-5624
rende	-5625
urope	-5626
uster	-5627
▁Name	-5628
▁dube	-5629
1.1.1.	-5630
achers	-5631
▁Whips	-5632
▁nadat	-5633
aughter	-5634
▁Energy	-5635
▁Inform	-5636
▁Recogn	-5637
▁Topics	-5638
▁fourth	-5639
▁gebied	-5640
▁phytos	-5641
▁regime	-5642
▁saying	-5643
▁banking	-5644
▁goedere	-5645
▁streets	-5646
▁variety	-5647
▁positive	-5648
ordination	-5649
▁Directors	-5650
▁Emergency	-5651
▁excellent	-5652
▁rentishes	-5653
▁affordable	-5654
▁groeiopleiding	-5655
90	-5656
IVE	-5657
ash	-5658
izo	-5659
lag	-5660
▁5%	-5661
▁68	-5662
IPAL	-5663
gaam	-5664
lind	-5665
onym	-5666
ssil	-5667
verw	-5668
▁Fem	-5669
▁eye	-5670
▁nuc	-5671
AAIRS	-5672
BSITE	-5673
hever	-5674
rehen	-5675
▁Exch	-5676
▁Unus	-5677
▁hist	-5678
▁hoof	-5679
▁mild	-5680
▁ship	-5681
▁16:00	-5682
▁Under	-5683
▁Cervix	-5684
▁interp	-5685
▁recent	-5686
▁sample	-5687
▁000,000	-5688
▁Perform	-5689
▁WEBSITE	-5690
▁anticip	-5691
▁capital	-5692
▁exclude	-5693
▁funksie	-5694
rehensive	-5695
▁Regional	-5696
▁informed	-5697
▁happiness	-5698
▁incidents	-5699
▁officials	-5700
▁provinsies	-5701
▁regulatory	-5702
▁successful	-5703
▁controlling	-5704
gggggggggggggggg	-5705
400	-5706
aad	-5707
ait	-5708
dra	-5709
his	-5710
irs	-5711
rus	-5712
ung	-5713
▁67	-5714
▁75	-5715
▁CT	-5716
▁Mp	-5717
▁SN	-5718
ires	-5719
oors	-5720
stra	-5721
▁105	-5722
▁Bag	-5723
▁Bay	-5724
▁Box	-5725
▁But	-5726
▁MUN	-5727
▁SEC	-5728
▁Whe	-5729
▁bey	-5730
▁rou	-5731
ITEIT	-5732
eveel	-5733
oices	-5734
▁000.	-5735
▁Dial	-5736
▁More	-5737
▁bigg	-5738
▁weak	-5739
ISIPAL	-5740
alysis	-5741
istant	-5742
▁Cross	-5743
▁India	-5744
▁acron	-5745
▁feeds	-5746
▁goals	-5747
▁lists	-5748
▁phone	-5749
pendent	-5750
▁Events	-5751
▁Rasool	-5752
▁earned	-5753
ropriate	-5754
▁Chronic	-5755
▁aspects	-5756
▁follows	-5757
▁hoeveel	-5758
▁patient	-5759
▁prosper	-5760
▁smearer	-5761
▁uitreik	-5762
leviation	-5763
▁Brooklyn	-5764
▁anything	-5765
▁commonly	-5766
▁dissolve	-5767
▁division	-5768
▁excludes	-5769
▁reserves	-5770
▁Procedure	-5771
▁exercised	-5772
▁regarding	-5773
ISIPALITEIT	-5774
▁Investment	-5775
▁magistrate	-5776
▁consecutive	-5777
▁vooruitbraf	-5778
▁Organisations	-5779
▁comprehensive	-5780
42	-5781
IES	-5782
ati	-5783
ats	-5784
bus	-5785
tef	-5786
xes	-5787
▁35	-5788
▁49	-5789
▁7,	-5790
▁BE	-5791
▁ST	-5792
UUIR	-5793
amic	-5794
entr	-5795
umes	-5796
with	-5797
▁60%	-5798
▁Squ	-5799
▁Wit	-5800
ading	-5801
ander	-5802
andis	-5803
icult	-5804
itect	-5805
ivate	-5806
▁Farm	-5807
▁Tour	-5808
▁ofoy	-5809
▁surr	-5810
▁thus	-5811
▁turn	-5812
enders	-5813
igheid	-5814
imited	-5815
▁2002.	-5816
▁Annex	-5817
▁raped	-5818
▁Compan	-5819
▁belong	-5820
▁intend	-5821
▁plants	-5822
erential	-5823
▁Minutes	-5824
▁belange	-5825
▁liggaam	-5826
▁Delivery	-5827
▁Products	-5828
▁anywhere	-5829
▁ekonomie	-5830
▁operated	-5831
▁proposed	-5832
▁strongly	-5833
▁weekends	-5834
▁accrupted	-5835
▁forwarded	-5836
▁vooruitde	-5837
▁administer	-5838
▁allowances	-5839
▁controlled	-5840
▁disclosure	-5841
▁herselfare	-5842
▁protective	-5843
▁supportive	-5844
▁Programming	-5845
▁MUNISIPALITEIT	-5846
-7	-5847
-8.	-5848
ITY	-5849
ker	-5850
▁61	-5851
▁MA	-5852
anga	-5853
back	-5854
etch	-5855
ffer	-5856
imum	-5857
lock	-5858
uish	-5859
uity	-5860
vaar	-5861
▁27.	-5862
▁300	-5863
▁650	-5864
▁Gro	-5865
▁Med	-5866
▁Mis	-5867
▁arm	-5868
5,000	-5869
earer	-5870
illor	-5871
merke	-5872
ville	-5873
▁1977	-5874
▁SITE	-5875
▁Sund	-5876
▁beac	-5877
▁boxy	-5878
▁zone	-5879
6.6.6.	-5880
amples	-5881
elling	-5882
ferred	-5883
ources	-5884
selled	-5885
▁1998.	-5886
▁Impro	-5887
▁Ronde	-5888
▁Shead	-5889
▁abuse	-5890
jection	-5891
▁Handel	-5892
▁depend	-5893
▁shower	-5894
▁Provide	-5895
▁ability	-5896
▁becomes	-5897
▁deliver	-5898
▁destroy	-5899
▁managed	-5900
▁printed	-5901
▁teacher	-5902
▁weekend	-5903
▁Annexure	-5904
▁Clothing	-5905
▁Overberg	-5906
▁accounts	-5907
▁excluded	-5908
▁groeiies	-5909
▁partners	-5910
▁breakdown	-5911
▁chartered	-5912
▁chosenced	-5913
▁difficult	-5914
▁paragraaf	-5915
▁sidewalks	-5916
▁processing	-5917
▁restricted	-5918
▁improvement	-5919
17	-5920
57	-5921
TB	-5922
uf	-5923
10.	-5924
24,	-5925
@11	-5926
PPO	-5927
gro	-5928
isa	-5929
kke	-5930
mon	-5931
rsa	-5932
▁(,	-5933
fond	-5934
gaan	-5935
ince	-5936
rant	-5937
rome	-5938
ycle	-5939
▁108	-5940
▁25%	-5941
▁Day	-5942
▁FAS	-5943
▁ICT	-5944
▁Pet	-5945
▁Vot	-5946
▁ful	-5947
TIONS	-5948
anani	-5949
ivors	-5950
▁0989	-5951
▁Sign	-5952
▁bott	-5953
▁datt	-5954
▁gros	-5955
▁just	-5956
▁naam	-5957
▁slau	-5958
atform	-5959
iektes	-5960
orical	-5961
orning	-5962
▁1999.	-5963
▁2010.	-5964
▁Distr	-5965
▁Table	-5966
▁aanso	-5967
▁almal	-5968
▁based	-5969
▁brief	-5970
▁gelyk	-5971
▁gereg	-5972
infafaf	-5973
▁2000).	-5974
▁Determ	-5975
▁Easter	-5976
▁Grades	-5977
▁Immigr	-5978
▁Reisel	-5979
▁Unless	-5980
▁abroad	-5981
▁assets	-5982
▁chance	-5983
▁family	-5984
▁folder	-5985
▁simult	-5986
Overberg	-5987
▁Resoles	-5988
▁balance	-5989
▁besides	-5990
▁voorkom	-5991
elections	-5992
▁chaining	-5993
▁payments	-5994
▁presided	-5995
▁relation	-5996
▁Interests	-5997
▁Provinces	-5998
▁essential	-5999
▁leadership	-6000
governmental	-6001
zaertifikate	-6002
▁allocations	-6003
▁extractions	-6004
▁investigate	-6005
▁anticorruption	-6006
▁anertifikateche	-6007
LD	-6008
UL	-6009
aai	-6010
ben	-6011
bra	-6012
ift	-6013
ole	-6014
▁3:	-6015
▁89	-6016
▁PH	-6017
▁SC	-6018
anks	-6019
keys	-6020
oral	-6021
orum	-6022
spro	-6023
ugee	-6024
voor	-6025
▁600	-6026
▁850	-6027
▁Age	-6028
▁Die	-6029
▁Hel	-6030
▁bek	-6031
▁unf	-6032
ampte	-6033
argon	-6034
eracy	-6035
going	-6036
ibute	-6037
iform	-6038
izens	-6039
ogram	-6040
outes	-6041
south	-6042
▁Anti	-6043
▁Klip	-6044
▁SNLL	-6045
▁fert	-6046
▁mach	-6047
▁omit	-6048
▁raad	-6049
ateral	-6050
stasie	-6051
▁2008,	-6052
▁Found	-6053
▁Proof	-6054
▁Watch	-6055
▁class	-6056
▁mount	-6057
▁upgra	-6058
UUIRIES	-6059
urement	-6060
▁16-...	-6061
▁arrest	-6062
▁attain	-6063
▁expand	-6064
▁jargon	-6065
▁lewens	-6066
▁unders	-6067
▁acronse	-6068
▁cleaned	-6069
▁fifteen	-6070
▁gebiede	-6071
▁legally	-6072
▁message	-6073
▁naamlik	-6074
▁posters	-6075
▁repairs	-6076
▁species	-6077
▁tenants	-6078
▁violent	-6079
argaining	-6080
▁2003/200	-6081
▁Minerals	-6082
▁memorand	-6083
▁stations	-6084
aeological	-6085
infectants	-6086
▁Companies	-6087
▁announced	-6088
▁Conference	-6089
▁convictory	-6090
▁itsgebiede	-6091
▁prevention	-6092
▁competition	-6093
▁discovering	-6094
▁exhibitions	-6095
▁participants	-6096
▁precipitated	-6097
▁verification	-6098
.4	-6099
32	-6100
Ds	-6101
OP	-6102
oz	-6103
iel	-6104
PPPP	-6105
houd	-6106
lein	-6107
lyke	-6108
olen	-6109
tech	-6110
time	-6111
▁INF	-6112
▁Mod	-6113
▁dru	-6114
▁foc	-6115
▁kra	-6116
▁mov	-6117
▁pam	-6118
acles	-6119
iency	-6120
indes	-6121
sssss	-6122
thern	-6123
urder	-6124
▁ACTS	-6125
▁Mait	-6126
▁hour	-6127
▁ontp	-6128
▁stay	-6129
▁vide	-6130
aneous	-6131
iciary	-6132
ultana	-6133
▁Coast	-6134
▁Floor	-6135
▁North	-6136
▁advis	-6137
▁fully	-6138
▁march	-6139
▁reply	-6140
▁resil	-6141
getable	-6142
intment	-6143
iolence	-6144
outhern	-6145
▁Design	-6146
▁deputy	-6147
▁diplom	-6148
▁entire	-6149
▁freely	-6150
▁middle	-6151
▁occurr	-6152
▁verbal	-6153
▁visits	-6154
▁believe	-6155
▁ensures	-6156
▁morning	-6157
▁notices	-6158
▁suspect	-6159
▁vacated	-6160
▁Strategy	-6161
▁conclusion	-6162
opleidinginf	-6163
▁supervision	-6164
▁coordination	-6165
▁theopleiding	-6166
▁investigating	-6167
▁Administration	-6168
9)	-6169
IF	-6170
ku	-6171
11.	-6172
500	-6173
ART	-6174
hea	-6175
hol	-6176
lee	-6177
nys	-6178
ola	-6179
wes	-6180
▁56	-6181
▁98	-6182
▁CA	-6183
▁CR	-6184
▁Lo	-6185
▁Ob	-6186
aith	-6187
akes	-6188
cont	-6189
kapa	-6190
play	-6191
▁166	-6192
▁Rap	-6193
▁Sus	-6194
▁led	-6195
40.00	-6196
istre	-6197
itude	-6198
lysis	-6199
ontak	-6200
vaard	-6201
▁Fail	-6202
▁Fire	-6203
▁PAYE	-6204
▁Prom	-6205
▁flub	-6206
▁stel	-6207
essels	-6208
funday	-6209
profit	-6210
▁1994,	-6211
▁2009;	-6212
▁After	-6213
▁Among	-6214
▁Anton	-6215
▁farms	-6216
▁theoy	-6217
casting	-6218
program	-6219
reshold	-6220
▁Action	-6221
▁Clarem	-6222
▁Forums	-6223
▁Island	-6224
▁energy	-6225
▁fluids	-6226
▁passes	-6227
▁render	-6228
▁sought	-6229
▁tenure	-6230
eleindes	-6231
infected	-6232
istrates	-6233
▁College	-6234
▁actions	-6235
▁created	-6236
▁decides	-6237
▁markets	-6238
▁recover	-6239
▁thereto	-6240
▁woordee	-6241
ferential	-6242
ordinated	-6243
ronically	-6244
▁District	-6245
▁Standing	-6246
▁detainee	-6247
▁fittings	-6248
▁founding	-6249
▁solution	-6250
▁disciplin	-6251
▁eiebelang	-6252
▁electoral	-6253
▁increases	-6254
▁irregular	-6255
▁operation	-6256
▁prestasie	-6257
▁reconstit	-6258
▁remaining	-6259
▁Employment	-6260
▁immunities	-6261
▁Acquisition	-6262
▁Immigration	-6263
▁Legislation	-6264
▁alternative	-6265
▁initiatives	-6266
▁undertaking	-6267
▁developments	-6268
▁phytosanitary	-6269
-6	-6270
16	-6271
2)	-6272
37	-6273
8@	-6274
thy	-6275
▁Fo	-6276
▁IT	-6277
▁PM	-6278
▁PO	-6279
bert	-6280
iaal	-6281
iene	-6282
osen	-6283
ries	-6284
vian	-6285
▁Cal	-6286
▁Mad	-6287
▁Pub	-6288
▁Sun	-6289
▁buy	-6290
▁dit	-6291
▁het	-6292
▁lap	-6293
▁mid	-6294
anies	-6295
cents	-6296
ially	-6297
ivals	-6298
▁Adop	-6299
▁Roll	-6300
▁duly	-6301
▁gede	-6302
▁inte	-6303
▁marg	-6304
ectect	-6305
idates	-6306
udgets	-6307
▁2000.	-6308
▁Entre	-6309
▁betro	-6310
▁could	-6311
▁datas	-6312
▁going	-6313
▁highl	-6314
▁pills	-6315
▁rapid	-6316
▁skoon	-6317
▁somet	-6318
▁veter	-6319
aamwerk	-6320
▁Issues	-6321
▁Publik	-6322
▁Status	-6323
▁asylum	-6324
▁exists	-6325
▁friend	-6326
▁intens	-6327
▁leader	-6328
▁mainly	-6329
▁mainst	-6330
hospital	-6331
▁average	-6332
▁closest	-6333
▁creates	-6334
▁disqual	-6335
▁focused	-6336
▁imposed	-6337
▁issuing	-6338
▁options	-6339
▁pension	-6340
▁siektes	-6341
▁watches	-6342
▁Deposits	-6343
▁Southern	-6344
▁adequate	-6345
▁disposed	-6346
▁everyone	-6347
▁managers	-6348
▁instances	-6349
▁munisipal	-6350
▁undertake	-6351
ertifikater	-6352
▁electrical	-6353
▁expression	-6354
▁Publikasies	-6355
▁considering	-6356
▁hoeveelheid	-6357
▁inspections	-6358
▁nominations	-6359
▁possessions	-6360
▁restitution	-6361
▁roadworthiness	-6362
▁environmentally	-6363
▁munisipaliteite	-6364
0.	-6365
DS	-6366
In	-6367
IST	-6368
RIC	-6369
ars	-6370
fen	-6371
got	-6372
olo	-6373
oog	-6374
▁EM	-6375
▁Je	-6376
izen	-6377
paid	-6378
thal	-6379
umal	-6380
utor	-6381
▁(94	-6382
▁163	-6383
▁DEP	-6384
▁pop	-6385
▁roo	-6386
▁soc	-6387
bruik	-6388
eries	-6389
illip	-6390
mouth	-6391
oreen	-6392
▁Cham	-6393
▁Phys	-6394
▁Susp	-6395
▁host	-6396
▁komm	-6397
▁quot	-6398
▁susp	-6399
arency	-6400
erties	-6401
ground	-6402
▁2009?	-6403
▁Green	-6404
▁Other	-6405
▁drugs	-6406
▁pilot	-6407
▁werks	-6408
angible	-6409
asiteit	-6410
cturing	-6411
patient	-6412
▁DEPART	-6413
▁Reisas	-6414
▁corpor	-6415
▁endeav	-6416
▁prohib	-6417
ustained	-6418
▁auditor	-6419
▁bestaan	-6420
▁constru	-6421
▁diverse	-6422
▁focuses	-6423
▁mandate	-6424
▁nuclear	-6425
▁qualify	-6426
operative	-6427
▁Accident	-6428
▁betrokke	-6429
▁Employees	-6430
▁Investing	-6431
▁Resources	-6432
▁annexures	-6433
▁defaulted	-6434
▁recipient	-6435
▁solutions	-6436
▁tradeport	-6437
▁woordeide	-6438
▁Frequently	-6439
▁Honourable	-6440
▁curriculum	-6441
▁discussion	-6442
▁precursors	-6443
▁Declaration	-6444
▁alleviation	-6445
▁demographic	-6446
▁Geographical	-6447
▁acknowledges	-6448
▁anertifikate	-6449
▁disciplinary	-6450
▁grosssssssss	-6451
▁grossssssssss	-6452
▁transformation	-6453
.7	-6454
86	-6455
IE	-6456
/06	-6457
aak	-6458
cks	-6459
nel	-6460
▁72	-6461
▁82	-6462
▁Sw	-6463
▁ce	-6464
cher	-6465
lden	-6466
▁180	-6467
▁194	-6468
▁22.	-6469
▁SGA	-6470
▁Vit	-6471
▁due	-6472
▁nav	-6473
▁pal	-6474
▁wys	-6475
arity	-6476
cohol	-6477
gtens	-6478
itive	-6479
▁Berg	-6480
▁Summ	-6481
▁cape	-6482
▁spes	-6483
▁wide	-6484
lement	-6485
rivier	-6486
rolles	-6487
▁08:00	-6488
▁1996.	-6489
▁Ikapa	-6490
▁Inter	-6491
▁bound	-6492
▁faces	-6493
▁files	-6494
▁flood	-6495
▁green	-6496
▁lasts	-6497
▁leave	-6498
▁relig	-6499
▁wider	-6500
▁Export	-6501
▁Nature	-6502
▁player	-6503
▁quorum	-6504
ractions	-6505
▁Reading	-6506
▁bystand	-6507
▁examine	-6508
▁friends	-6509
▁injured	-6510
▁manuals	-6511
▁tourist	-6512
ilisation	-6513
▁groeiial	-6514
▁kragtens	-6515
berculosis	-6516
▁buiteland	-6517
▁companies	-6518
▁discovery	-6519
▁registrar	-6520
▁sometimes	-6521
▁grosssssss	-6522
▁individual	-6523
▁introduced	-6524
▁practition	-6525
▁transition	-6526
▁verhbridge	-6527
ontwikkeling	-6528
▁designation	-6529
▁thesepermit	-6530
▁thoseeksies	-6531
▁contravention	-6532
-9	-6533
07	-6534
58	-6535
NB	-6536
xy	-6537
yk	-6538
29.	-6539
DTI	-6540
ken	-6541
rel	-6542
van	-6543
▁64	-6544
▁AF	-6545
▁Di	-6546
▁Sp	-6547
acht	-6548
afoy	-6549
baai	-6550
gest	-6551
quir	-6552
ront	-6553
view	-6554
▁191	-6555
▁750	-6556
▁Mel	-6557
▁bag	-6558
▁hol	-6559
▁rot	-6560
▁tot	-6561
afana	-6562
ctors	-6563
iling	-6564
inees	-6565
isive	-6566
olled	-6567
orest	-6568
right	-6569
▁Sand	-6570
▁Stru	-6571
▁band	-6572
▁whic	-6573
ablish	-6574
accept	-6575
estrem	-6576
iatric	-6577
iesing	-6578
▁1989.	-6579
▁Capap	-6580
▁Class	-6581
▁Early	-6582
▁Edays	-6583
▁Frome	-6584
▁Multi	-6585
▁Photo	-6586
▁backy	-6587
▁happy	-6588
▁minor	-6589
▁plann	-6590
▁sheet	-6591
▁sound	-6592
▁voors	-6593
stelsel	-6594
▁Parent	-6595
▁across	-6596
▁assent	-6597
▁smells	-6598
▁thirds	-6599
ambanani	-6600
ruitment	-6601
umalanga	-6602
▁Against	-6603
▁Details	-6604
▁Payment	-6605
▁Tourist	-6606
▁compile	-6607
▁decades	-6608
▁samples	-6609
▁serving	-6610
▁stelsel	-6611
▁trainer	-6612
▁tydperk	-6613
amination	-6614
▁Adoption	-6615
▁Although	-6616
▁acquired	-6617
▁mutandis	-6618
▁networks	-6619
▁nominees	-6620
▁ventures	-6621
▁voorkomf	-6622
regulation	-6623
▁Establish	-6624
▁accidents	-6625
▁customary	-6626
▁illnesses	-6627
▁oversight	-6628
▁proposals	-6629
▁containing	-6630
▁doeleindes	-6631
▁maintained	-6632
generational	-6633
▁Recognition	-6634
▁temperature	-6635
▁transferred	-6636
▁Parliamentary	-6637
▁andsertifikaat	-6638
▁interpretation	-6639
▁menseopleiding	-6640
CI	-6641
_6	-6642
52,	-6643
67.	-6644
FAS	-6645
OLS	-6646
aal	-6647
eth	-6648
gen	-6649
ini	-6650
lae	-6651
tho	-6652
uie	-6653
urf	-6654
urt	-6655
wel	-6656
▁39	-6657
▁69	-6658
▁NE	-6659
▁PA	-6660
▁Us	-6661
▁il	-6662
▁ut	-6663
brid	-6664
iend	-6665
iner	-6666
iven	-6667
ivor	-6668
jies	-6669
olge	-6670
untu	-6671
▁10:	-6672
▁Hex	-6673
▁Let	-6674
▁Mon	-6675
▁PRE	-6676
▁bat	-6677
▁dra	-6678
▁lab	-6679
▁max	-6680
▁oud	-6681
▁pip	-6682
▁sum	-6683
▁toe	-6684
▁vra	-6685
aflet	-6686
inder	-6687
istry	-6688
sburg	-6689
ssils	-6690
sting	-6691
trays	-6692
▁1209	-6693
▁Prof	-6694
▁tans	-6695
azette	-6696
charge	-6697
eening	-6698
judice	-6699
liance	-6700
▁Asked	-6701
▁Polio	-6702
▁Rades	-6703
▁bring	-6704
▁repex	-6705
▁rooms	-6706
▁swall	-6707
estelle	-6708
▁Secret	-6709
▁Speech	-6710
▁africa	-6711
▁conjun	-6712
▁gedeel	-6713
▁impose	-6714
▁little	-6715
▁papers	-6716
▁plates	-6717
▁postal	-6718
▁treats	-6719
▁voting	-6720
archarch	-6721
fondsing	-6722
gistered	-6723
▁Beampte	-6724
▁Eastern	-6725
▁chaired	-6726
▁interru	-6727
▁nothing	-6728
▁succeed	-6729
▁Claimhed	-6730
▁Features	-6731
▁beenoste	-6732
▁judicial	-6733
▁ligation	-6734
▁promoted	-6735
▁Employers	-6736
▁Workplace	-6737
▁continent	-6738
▁discharge	-6739
▁enhancing	-6740
▁generates	-6741
▁portfolio	-6742
▁pressures	-6743
▁treatened	-6744
istribution	-6745
▁instelling	-6746
▁prohibited	-6747
▁statistics	-6748
▁understand	-6749
▁dissolution	-6750
▁learnership	-6751
▁procurement	-6752
▁appointments	-6753
▁Entrepreneurs	-6754
▁reconstituted	-6755
▁Representation	-6756
Gra	-6757
hyd	-6758
ius	-6759
may	-6760
tor	-6761
▁87	-6762
▁CL	-6763
▁FF	-6764
appe	-6765
fair	-6766
gene	-6767
ifik	-6768
iret	-6769
phen	-6770
uous	-6771
vert	-6772
▁09:	-6773
▁27,	-6774
▁Fil	-6775
▁Met	-6776
▁Nie	-6777
▁Sex	-6778
▁hyg	-6779
▁pdf	-6780
▁san	-6781
▁sou	-6782
asure	-6783
ettle	-6784
uards	-6785
waard	-6786
▁LRAD	-6787
▁Many	-6788
▁Rail	-6789
▁SCHO	-6790
▁cust	-6791
▁deur	-6792
▁hard	-6793
▁talk	-6794
emeens	-6795
ienced	-6796
ighede	-6797
onomic	-6798
rences	-6799
▁1996,	-6800
▁Clear	-6801
▁Cobus	-6802
▁Deeds	-6803
▁Music	-6804
▁Pregn	-6805
▁Sorge	-6806
▁Waste	-6807
▁fifth	-6808
▁haver	-6809
▁kapit	-6810
istical	-6811
▁Attach	-6812
▁Gender	-6813
▁Region	-6814
▁Sports	-6815
▁advise	-6816
▁allerg	-6817
▁foster	-6818
▁kontak	-6819
▁vacate	-6820
▁Central	-6821
▁Nations	-6822
▁Private	-6823
▁Process	-6824
▁Station	-6825
▁describ	-6826
▁firface	-6827
afafighbr	-6828
istreerde	-6829
▁Cemetery	-6830
▁Managing	-6831
▁assigned	-6832
▁confirms	-6833
▁followed	-6834
▁minority	-6835
▁precinct	-6836
▁surround	-6837
▁trainers	-6838
resholding	-6839
sprogramme	-6840
▁Institute	-6841
▁construed	-6842
▁direction	-6843
▁existence	-6844
▁offenders	-6845
▁processes	-6846
▁whichever	-6847
appropriate	-6848
▁DEPARTMENT	-6849
▁Opleidings	-6850
▁collective	-6851
▁completing	-6852
▁counselled	-6853
▁prosperity	-6854
▁conjunction	-6855
▁precapermit	-6856
▁Participants	-6857
▁introduction	-6858
▁geregistreerde	-6859
BD	-6860
Se	-6861
lf	-6862
acc	-6863
bou	-6864
iso	-6865
lie	-6866
tsh	-6867
▁Ab	-6868
▁CS	-6869
)@11	-6870
5.00	-6871
LRAD	-6872
adia	-6873
baar	-6874
ente	-6875
ersi	-6876
iest	-6877
laan	-6878
luit	-6879
rety	-6880
▁165	-6881
▁90%	-6882
▁ARE	-6883
▁BEE	-6884
▁Chr	-6885
▁Mas	-6886
▁tek	-6887
▁too	-6888
ATION	-6889
STITU	-6890
bring	-6891
datum	-6892
plans	-6893
riend	-6894
zainf	-6895
▁(1).	-6896
▁(2).	-6897
▁Help	-6898
▁Meet	-6899
▁anim	-6900
▁cult	-6901
▁file	-6902
▁geld	-6903
▁prep	-6904
▁reis	-6905
▁shel	-6906
▁tipe	-6907
▁visa	-6908
echers	-6909
hesion	-6910
ivated	-6911
nyside	-6912
retely	-6913
riages	-6914
ridged	-6915
▁Close	-6916
▁Fraud	-6917
▁beoog	-6918
▁cough	-6919
▁dataf	-6920
▁effic	-6921
▁grond	-6922
▁lewis	-6923
▁midge	-6924
▁norms	-6925
▁price	-6926
▁views	-6927
ansards	-6928
rolysis	-6929
tellect	-6930
▁Asthma	-6931
▁Skills	-6932
▁Veract	-6933
▁citrus	-6934
▁enough	-6935
▁exting	-6936
▁indemn	-6937
▁invoer	-6938
▁moment	-6939
▁saving	-6940
▁soccer	-6941
▁unable	-6942
▁vasect	-6943
ffective	-6944
▁Discuss	-6945
▁SCHOOLS	-6946
▁assumes	-6947
▁busways	-6948
▁closing	-6949
▁defines	-6950
▁divorce	-6951
▁expired	-6952
▁explain	-6953
▁exports	-6954
▁married	-6955
▁regions	-6956
▁stating	-6957
▁visitor	-6958
▁withdra	-6959
▁Sexually	-6960
▁grosssss	-6961
▁policing	-6962
▁generated	-6963
▁mandatory	-6964
▁personnel	-6965
▁temporary	-6966
▁caregivers	-6967
▁everything	-6968
▁excellence	-6969
▁haverolled	-6970
▁identified	-6971
▁weaknesses	-6972
▁Magistrates	-6973
▁acknowledge	-6974
▁precautions	-6975
▁precluctors	-6976
▁weerspieing	-6977
▁Buurtwagteis	-6978
▁contributing	-6979
▁difficulties	-6980
▁thosegebiede	-6981
▁discriminated	-6982
▁organizations	-6983
▁aansoekebeheer	-6984
▁antiretroviral	-6985
CS	-6986
St	-6987
UD	-6988
iw	-6989
ko	-6990
160	-6991
ISA	-6992
cuk	-6993
igs	-6994
ira	-6995
liz	-6996
rek	-6997
uts	-6998
yed	-6999
▁0.	-7000
▁AT	-7001
▁ev	-7002
2.2.	-7003
abwe	-7004
amil	-7005
ding	-7006
fire	-7007
iled	-7008
info	-7009
laws	-7010
lers	-7011
prol	-7012
▁(5_	-7013
▁350	-7014
▁450	-7015
▁Bec	-7016
▁CIP	-7017
▁Che	-7018
▁Lek	-7019
▁Mal	-7020
▁PRO	-7021
▁fre	-7022
▁low	-7023
▁tab	-7024
▁ult	-7025
arian	-7026
arney	-7027
gging	-7028
iners	-7029
maily	-7030
reach	-7031
▁Back	-7032
▁Leka	-7033
▁YOUR	-7034
▁Yell	-7035
▁erad	-7036
▁film	-7037
▁goes	-7038
▁magn	-7039
▁mini	-7040
▁stig	-7041
▁woon	-7042
NAAIRS	-7043
ariffs	-7044
arters	-7045
llings	-7046
ooking	-7047
strand	-7048
▁1997.	-7049
▁Force	-7050
▁brand	-7051
▁comes	-7052
▁cover	-7053
▁erfen	-7054
▁fears	-7055
▁lines	-7056
▁parks	-7057
▁voort	-7058
ybridge	-7059
▁1999).	-7060
▁Associ	-7061
▁Bafana	-7062
▁Monday	-7063
▁Promot	-7064
▁Rivier	-7065
▁eleven	-7066
▁marine	-7067
▁ontply	-7068
▁queens	-7069
Hansards	-7070
missions	-7071
▁accused	-7072
▁deliber	-7073
▁partial	-7074
▁slaught	-7075
▁vermors	-7076
▁Analysis	-7077
▁Maintain	-7078
▁Violence	-7079
▁archives	-7080
▁budgeted	-7081
▁entrance	-7082
▁Detection	-7083
▁consulted	-7084
▁itspermit	-7085
▁overwhere	-7086
▁secondary	-7087
▁Mpumalanga	-7088
▁competency	-7089
▁efficiency	-7090
▁exhibition	-7091
▁kapasiteit	-7092
▁regulation	-7093
▁resilience	-7094
▁scientific	-7095
▁exceptional	-7096
▁experienced	-7097
▁thosepermit	-7098
ualifications	-7099
▁coordinating	-7100
▁theinfection	-7101
ssssssssssssss	-7102
▁infectiousness	-7103
);	-7104
-3	-7105
06	-7106
82	-7107
88	-7108
NP	-7109
50.	-7110
bia	-7111
bit	-7112
del	-7113
die	-7114
ere	-7115
fin	-7116
ued	-7117
uis	-7118
yes	-7119
▁53	-7120
File	-7121
elch	-7122
fort	-7123
ilst	-7124
ones	-7125
roud	-7126
▁(),	-7127
▁164	-7128
▁Cur	-7129
▁Mac	-7130
▁Ros	-7131
▁bar	-7132
▁emp	-7133
▁las	-7134
▁mix	-7135
RICUL	-7136
andem	-7137
ports	-7138
tifik	-7139
▁1992	-7140
▁Best	-7141
▁Buit	-7142
▁Cust	-7143
▁Goed	-7144
▁Outp	-7145
▁Proj	-7146
▁park	-7147
▁redu	-7148
▁taal	-7149
iendom	-7150
komste	-7151
tenare	-7152
▁Dowry	-7153
▁Thurs	-7154
▁Units	-7155
▁ahead	-7156
▁chass	-7157
▁frame	-7158
▁gehou	-7159
▁heard	-7160
▁heart	-7161
▁lands	-7162
▁photo	-7163
▁pride	-7164
▁uitge	-7165
▁vouch	-7166
estatus	-7167
holders	-7168
iations	-7169
uropean	-7170
▁Copies	-7171
▁Within	-7172
▁anyone	-7173
▁brings	-7174
▁convey	-7175
▁restru	-7176
eratives	-7177
iliteite	-7178
▁16-5.5.	-7179
▁Gestrem	-7180
▁Unusual	-7181
▁aanvaar	-7182
▁closure	-7183
▁leading	-7184
▁nominee	-7185
▁obliged	-7186
▁privacy	-7187
▁sekeres	-7188
▁vessels	-7189
ropolitan	-7190
▁Randburg	-7191
▁Ruestion	-7192
▁attaches	-7193
▁estimate	-7194
▁relative	-7195
▁sheriffs	-7196
▁sittings	-7197
▁Bambanani	-7198
▁maternity	-7199
▁sustained	-7200
▁verminder	-7201
▁voortgaan	-7202
▁vooruitch	-7203
▁Protection	-7204
▁befondsing	-7205
▁compliance	-7206
▁inligtings	-7207
▁properties	-7208
▁Association	-7209
▁Byopleiding	-7210
▁aansoekeies	-7211
▁consistency	-7212
▁restorative	-7213
▁specialised	-7214
unisipaliteit	-7215
▁Gestremdhede	-7216
permitopleiding	-7217
▁organisational	-7218
)?	-7219
WA	-7220
iN	-7221
su	-7222
sy	-7223
ISK	-7224
kei	-7225
per	-7226
rag	-7227
ump	-7228
voe	-7229
▁AC	-7230
▁WH	-7231
▁kg	-7232
▁ur	-7233
.00.	-7234
DRAD	-7235
Link	-7236
aars	-7237
ager	-7238
atur	-7239
illi	-7240
izes	-7241
norm	-7242
rach	-7243
uate	-7244
▁1,5	-7245
▁101	-7246
▁18,	-7247
▁MAY	-7248
▁Tsh	-7249
▁bra	-7250
▁hor	-7251
▁nou	-7252
▁pap	-7253
▁war	-7254
amine	-7255
asing	-7256
ierre	-7257
orced	-7258
reted	-7259
which	-7260
▁500.	-7261
▁Copy	-7262
▁Oran	-7263
▁RISK	-7264
▁Spat	-7265
▁cand	-7266
▁flow	-7267
▁rede	-7268
▁srsa	-7269
▁town	-7270
▁vacc	-7271
▁wait	-7272
anteer	-7273
holder	-7274
ighter	-7275
urance	-7276
uropex	-7277
▁Think	-7278
▁Value	-7279
▁Whole	-7280
▁adopt	-7281
▁adult	-7282
▁ambul	-7283
▁artef	-7284
▁doors	-7285
▁fruit	-7286
▁hands	-7287
▁helps	-7288
▁intra	-7289
▁medic	-7290
▁moder	-7291
▁pamph	-7292
▁pipes	-7293
▁safeg	-7294
▁stage	-7295
▁table	-7296
iratory	-7297
▁Closed	-7298
▁Except	-7299
▁Pierre	-7300
▁beyond	-7301
▁burden	-7302
▁easily	-7303
▁equity	-7304
▁highet	-7305
▁integr	-7306
▁ticket	-7307
ineering	-7308
voerende	-7309
▁AGRICUL	-7310
▁Alcohol	-7311
▁Coastal	-7312
▁Control	-7313
▁Failure	-7314
▁Postbox	-7315
▁attacks	-7316
▁closely	-7317
▁consequ	-7318
▁gardens	-7319
▁hanteer	-7320
▁hygiene	-7321
▁refused	-7322
▁sharing	-7323
▁uniform	-7324
iferation	-7325
infectant	-7326
traysburg	-7327
▁Employer	-7328
▁Ensuring	-7329
▁Material	-7330
▁Sevision	-7331
▁dialogue	-7332
▁elements	-7333
▁internet	-7334
▁properly	-7335
▁Relations	-7336
▁belonging	-7337
▁campaigns	-7338
▁gelykheid	-7339
▁intensify	-7340
▁postboxes	-7341
▁reduction	-7342
▁appointing	-7343
▁candidates	-7344
▁honourable	-7345
▁verhoogred	-7346
▁preventable	-7347
▁corporations	-7348
▁beenostereted	-7349
▁inappropriate	-7350
▁Redistribution	-7351
▁investigations	-7352
-;	-7353
6,	-7354
83	-7355
vu	-7356
ANS	-7357
ama	-7358
iko	-7359
iph	-7360
mat	-7361
nes	-7362
tig	-7363
yks	-7364
▁Ha	-7365
▁SS	-7366
▁Si	-7367
▁Ty	-7368
▁UF	-7369
alks	-7370
aths	-7371
iday	-7372
inge	-7373
ipul	-7374
isan	-7375
itis	-7376
lick	-7377
opho	-7378
room	-7379
uter	-7380
wing	-7381
▁142	-7382
▁150	-7383
▁20-	-7384
▁23.	-7385
▁AND	-7386
▁Ban	-7387
▁Han	-7388
▁Har	-7389
▁Jud	-7390
▁Oud	-7391
▁dyn	-7392
afize	-7393
amera	-7394
amics	-7395
cukha	-7396
endor	-7397
hered	-7398
river	-7399
utory	-7400
▁Gear	-7401
▁Rene	-7402
▁Suid	-7403
▁flue	-7404
▁hulp	-7405
▁paia	-7406
▁vand	-7407
entive	-7408
infire	-7409
normal	-7410
omated	-7411
rising	-7412
ulsory	-7413
▁1973.	-7414
▁1989,	-7415
▁1997,	-7416
▁Level	-7417
▁Union	-7418
▁afric	-7419
▁ideas	-7420
▁illeg	-7421
▁lower	-7422
▁ports	-7423
▁proud	-7424
▁prove	-7425
▁taxes	-7426
▁union	-7427
▁vertr	-7428
onymous	-7429
ophobia	-7430
werheid	-7431
▁Clinic	-7432
▁Master	-7433
▁Wesgro	-7434
▁aanlyn	-7435
▁beperk	-7436
▁bereik	-7437
▁bighet	-7438
▁frames	-7439
▁inflip	-7440
▁prosed	-7441
▁strain	-7442
▁transp	-7443
idential	-7444
lindness	-7445
▁Spatial	-7446
▁capable	-7447
▁cluster	-7448
▁eiendom	-7449
▁expires	-7450
▁looking	-7451
▁studied	-7452
▁virtles	-7453
effective	-7454
▁changing	-7455
▁chloride	-7456
▁cohesion	-7457
▁kommersi	-7458
▁publicly	-7459
▁unaccept	-7460
▁Following	-7461
▁endeavour	-7462
▁excessive	-7463
▁motorists	-7464
▁proceeded	-7465
▁Profession	-7466
▁acceptable	-7467
▁attainment	-7468
▁directives	-7469
▁itskantoor	-7470
▁newspapers	-7471
▁nomination	-7472
▁restorated	-7473
▁Appropriate	-7474
▁Fasiliteite	-7475
▁prosecution	-7476
▁increasingly	-7477
▁toertifikaat	-7478
▁direkraamwerk	-7479
▁subregulation	-7480
▁BuurtwagteTORE	-7481
%,	-7482
/1	-7483
As	-7484
DU	-7485
/10	-7486
14.	-7487
5.,	-7488
945	-7489
ATI	-7490
ERS	-7491
amo	-7492
apy	-7493
clo	-7494
ded	-7495
eld	-7496
son	-7497
ugh	-7498
▁44	-7499
▁66	-7500
▁73	-7501
▁77	-7502
▁97	-7503
▁wy	-7504
cted	-7505
eman	-7506
gles	-7507
inde	-7508
okra	-7509
omon	-7510
oorn	-7511
rand	-7512
roup	-7513
sses	-7514
ture	-7515
uise	-7516
vang	-7517
▁044	-7518
▁1.5	-7519
▁102	-7520
▁107	-7521
▁120	-7522
▁16:	-7523
▁Bla	-7524
▁Inc	-7525
▁Men	-7526
▁Mor	-7527
▁NPO	-7528
▁Pri	-7529
▁RED	-7530
▁WHO	-7531
▁Wal	-7532
▁cal	-7533
▁dup	-7534
▁far	-7535
▁sow	-7536
aarde	-7537
erise	-7538
gings	-7539
inary	-7540
never	-7541
uberc	-7542
▁2014	-7543
▁Even	-7544
▁Hear	-7545
▁Inde	-7546
▁Ment	-7547
▁Prop	-7548
▁STIs	-7549
▁Sher	-7550
▁dist	-7551
▁gave	-7552
▁hose	-7553
▁seek	-7554
▁teas	-7555
▁verg	-7556
▁wage	-7557
▁wash	-7558
▁wife	-7559
entrum	-7560
ighest	-7561
orneys	-7562
outine	-7563
thwith	-7564
uesday	-7565
yearer	-7566
▁Bills	-7567
▁Broad	-7568
▁Enter	-7569
▁Klein	-7570
▁Maart	-7571
▁Marit	-7572
▁gross	-7573
▁might	-7574
▁minus	-7575
▁spons	-7576
▁werke	-7577
ellings	-7578
gebruik	-7579
ifiseer	-7580
imbabwe	-7581
iration	-7582
lasting	-7583
okrasie	-7584
tshoorn	-7585
▁Custom	-7586
▁Philip	-7587
▁adhere	-7588
▁assume	-7589
▁duplic	-7590
▁ethics	-7591
▁instel	-7592
▁recons	-7593
▁steady	-7594
ferences	-7595
graduate	-7596
▁Company	-7597
▁Facilit	-7598
▁Primary	-7599
▁Related	-7600
▁african	-7601
▁audited	-7602
▁beaches	-7603
▁daarvan	-7604
▁dispute	-7605
▁enhance	-7606
▁getting	-7607
▁maximum	-7608
▁oversee	-7609
▁teenage	-7610
▁vertrou	-7611
ournament	-7612
stellings	-7613
▁Festival	-7614
▁Parkliks	-7615
▁Whenever	-7616
▁interact	-7617
▁realised	-7618
▁swelling	-7619
▁waarvoor	-7620
▁Depending	-7621
▁calculate	-7622
▁continues	-7623
▁measuring	-7624
▁petitions	-7625
▁territory	-7626
▁Oudtshoorn	-7627
▁Performing	-7628
▁demokrasie	-7629
▁imperative	-7630
▁performing	-7631
▁redirectly	-7632
▁redistrict	-7633
▁Buurtwagter	-7634
▁Expenditure	-7635
▁consignment	-7636
▁coordinated	-7637
▁generations	-7638
▁territorial	-7639
▁vooruitaken	-7640
▁Tuberculosis	-7641
▁broadcasting	-7642
▁simultaneous	-7643
▁installations	-7644
▁provisionally	-7645
/3	-7646
14	-7647
DF	-7648
OC	-7649
ah	-7650
ea	-7651
00.	-7652
64.	-7653
66.	-7654
eek	-7655
ldg	-7656
lot	-7657
rug	-7658
uid	-7659
zil	-7660
▁79	-7661
▁IM	-7662
▁Ko	-7663
▁SG	-7664
booi	-7665
gesk	-7666
idse	-7667
iewe	-7668
isie	-7669
izon	-7670
oire	-7671
punt	-7672
wage	-7673
week	-7674
▁096	-7675
▁160	-7676
▁189	-7677
▁190	-7678
▁861	-7679
▁Car	-7680
▁Cit	-7681
▁Dia	-7682
▁Gam	-7683
▁Ins	-7684
▁Lic	-7685
▁New	-7686
▁Non	-7687
▁Pla	-7688
▁Sar	-7689
▁mir	-7690
▁pan	-7691
idney	-7692
issal	-7693
▁Body	-7694
▁Calc	-7695
▁cell	-7696
▁geno	-7697
▁vary	-7698
▁walk	-7699
enberg	-7700
inator	-7701
oluntu	-7702
opping	-7703
otline	-7704
ssssss	-7705
▁12:00	-7706
▁1995,	-7707
▁Brand	-7708
▁Horse	-7709
▁Raily	-7710
▁Start	-7711
▁alter	-7712
▁armed	-7713
▁faxed	-7714
▁feels	-7715
▁hears	-7716
▁holds	-7717
▁print	-7718
▁tasks	-7719
▁taxis	-7720
emeensk	-7721
ifiable	-7722
oordeel	-7723
roducts	-7724
▁Access	-7725
▁Middle	-7726
▁Scheme	-7727
▁agreed	-7728
▁beaced	-7729
▁boxing	-7730
▁explan	-7731
▁happen	-7732
▁highly	-7733
▁infrav	-7734
▁murder	-7735
▁partye	-7736
▁stated	-7737
▁topics	-7738
▁vermic	-7739
▁voters	-7740
▁worked	-7741
1.1.1.1.	-7742
Business	-7743
ceedings	-7744
▁Budgets	-7745
▁Matters	-7746
▁Peoples	-7747
▁Phillip	-7748
▁Sandton	-7749
▁Summons	-7750
▁comfort	-7751
▁diegene	-7752
▁entered	-7753
▁ethical	-7754
▁finance	-7755
▁haarent	-7756
▁justice	-7757
▁lasting	-7758
▁methods	-7759
▁opening	-7760
▁outcome	-7761
▁replace	-7762
ettlement	-7763
▁2002/200	-7764
▁Internal	-7765
▁Maitland	-7766
▁Memorial	-7767
▁Reisests	-7768
▁attained	-7769
▁defended	-7770
▁discover	-7771
▁examined	-7772
▁groeired	-7773
▁haarrols	-7774
▁husbands	-7775
▁imported	-7776
▁importer	-7777
▁marginal	-7778
▁memorial	-7779
▁released	-7780
▁teenagon	-7781
▁vergader	-7782
▁Resistant	-7783
▁designate	-7784
▁eradicate	-7785
▁postponed	-7786
▁prejudice	-7787
▁vooruitte	-7788
▁aansegging	-7789
▁electronic	-7790
▁importance	-7791
▁resumption	-7792
▁submitting	-7793
▁Proceedings	-7794
▁consequence	-7795
▁destination	-7796
▁eiebelangks	-7797
▁infectation	-7798
▁minimisation	-7799
▁transparency	-7800
▁reappointment	-7801
/4	-7802
RD	-7803
VE	-7804
hl	-7805
-11	-7806
/07	-7807
130	-7808
20,	-7809
250	-7810
AST	-7811
LAN	-7812
loc	-7813
vol	-7814
▁74	-7815
▁84	-7816
▁85	-7817
▁CP	-7818
▁Cl	-7819
▁Ng	-7820
▁Ry	-7821
▁US	-7822
▁ik	-7823
-12.	-7824
5151	-7825
7070	-7826
SAPS	-7827
agte	-7828
irty	-7829
iste	-7830
luor	-7831
onga	-7832
urse	-7833
▁111	-7834
▁112	-7835
▁700	-7836
▁93.	-7837
▁CTC	-7838
▁God	-7839
▁IiN	-7840
▁Mey	-7841
▁Pap	-7842
▁Sil	-7843
▁Sis	-7844
▁Sol	-7845
▁Son	-7846
▁Tim	-7847
▁ans	-7848
▁asp	-7849
▁gen	-7850
▁kne	-7851
▁tru	-7852
aeont	-7853
chure	-7854
dheid	-7855
etter	-7856
itors	-7857
lined	-7858
osoph	-7859
ostig	-7860
▁1990	-7861
▁1991	-7862
▁500,	-7863
▁Apex	-7864
▁Educ	-7865
▁Eval	-7866
▁Oral	-7867
▁Page	-7868
▁SABS	-7869
▁cars	-7870
▁diar	-7871
▁gele	-7872
▁pace	-7873
▁task	-7874
▁toep	-7875
africa	-7876
ective	-7877
icated	-7878
vement	-7879
▁0925.	-7880
▁Focus	-7881
▁Sterk	-7882
▁Thank	-7883
▁bands	-7884
▁cance	-7885
▁chann	-7886
▁famil	-7887
▁flubs	-7888
▁fresh	-7889
▁grave	-7890
▁landf	-7891
▁noise	-7892
▁ontte	-7893
▁pharm	-7894
▁route	-7895
ambling	-7896
ievance	-7897
ression	-7898
▁1993).	-7899
▁Acting	-7900
▁Blocks	-7901
▁Muslim	-7902
▁Schalk	-7903
▁deaths	-7904
▁headed	-7905
▁injury	-7906
▁mostly	-7907
▁nurses	-7908
▁overar	-7909
▁sellow	-7910
▁stands	-7911
▁theinf	-7912
▁wetgew	-7913
▁winter	-7914
Aighbrge	-7915
icoricor	-7916
programm	-7917
▁Firearm	-7918
▁Volunte	-7919
▁Whitect	-7920
▁backgra	-7921
▁	-7922
e	-7923
t	-7924
o	-7925
a	-7926
i	-7927
r	-7928
n	-7929
s	-7930
h	-7931
l	-7932
c	-7933
d	-7934
f	-7935
u	-7936
p	-7937
m	-7938
g	-7939
y	-7940
w	-7941
b	-7942
v	-7943
.	-7944
,	-7945
k	-7946
0	-7947
T	-7948
A	-7949
I	-7950
C	-7951
S	-7952
1	-7953
P	-7954
R	-7955
2	-7956
D	-7957
-	-7958
x	-7959
9	-7960
H	-7961
W	-7962
6	-7963
(	-7964
?	-7965
)	-7966
q	-7967
B	-7968
M	-7969
4	-7970
8	-7971
E	-7972
3	-7973
F	-7974
5	-7975
V	-7976
:	-7977
'	-7978
O	-7979
z	-7980
j	-7981
7	-7982
N	-7983
L	-7984
@	-7985
/	-7986
G	-7987
Y	-7988
;	-7989
K	-7990
J	-7991
"	-7992
U	-7993
>	-7994
_	-7995
%	-7996
