<unk>	0
<s>	0
</s>	0
go	-0
le	-1
tš	-2
▁go	-3
▁k	-4
▁b	-5
la	-6
di	-7
▁m	-8
lo	-9
▁le	-10
▁y	-11
wa	-12
se	-13
▁di	-14
▁ka	-15
ga	-16
▁t	-17
na	-18
▁ya	-19
▁a	-20
▁tš	-21
ng	-22
▁ba	-23
we	-24
▁e	-25
re	-26
▁mo	-27
▁se	-28
ka	-29
▁bo	-30
ba	-31
▁ma	-32
th	-33
ne	-34
▁ga	-35
iš	-36
mo	-37
he	-38
▁o	-39
ha	-40
▁tša	-41
pe	-42
ko	-43
▁s	-44
▁ye	-45
▁M	-46
me	-47
▁f	-48
ra	-49
te	-50
ge	-51
ro	-52
šo	-53
ny	-54
▁tše	-55
tše	-56
▁ke	-57
tša	-58
▁la	-59
▁h	-60
no	-61
▁wa	-62
▁p	-63
ma	-64
ja	-65
ke	-66
▁gore	-67
ta	-68
ho	-69
▁K	-70
pa	-71
▁me	-72
to	-73
tho	-74
bo	-75
▁sa	-76
▁na	-77
ile	-78
▁bja	-79
▁B	-80
tšo	-81
lwa	-82
fe	-83
be	-84
▁G	-85
▁kgo	-86
▁Mo	-87
▁be	-88
nya	-89
▁T	-90
▁re	-91
▁n	-92
hu	-93
po	-94
▁tla	-95
tšwe	-96
▁ge	-97
▁goba	-98
ti	-99
ts	-100
ngwa	-101
hla	-102
ngwe	-103
▁swa	-104
▁S	-105
▁fe	-106
tši	-107
kgo	-108
iša	-109
fa	-110
du	-111
▁yeo	-112
▁D	-113
ri	-114
tla	-115
ša	-116
▁i	-117
tšha	-118
lao	-119
tse	-120
hlo	-121
▁tse	-122
▁Di	-123
▁yo	-124
lwe	-125
▁ts	-126
▁L	-127
▁Ma	-128
▁pe	-129
▁Se	-130
lela	-131
gwe	-132
▁fa	-133
▁swane	-134
▁hlo	-135
lelo	-136
▁(	-137
▁Bo	-138
tha	-139
išo	-140
wo	-141
▁Go	-142
▁wo	-143
▁A	-144
mi	-145
▁Le	-146
lha	-147
▁swanetše	-148
tšhaba	-149
tšwa	-150
▁hla	-151
▁P	-152
▁te	-153
▁tšeo	-154
▁N	-155
phe	-156
hi	-157
ni	-158
še	-159
kwa	-160
..	-161
sa	-162
the	-163
▁tšwe	-164
dimo	-165
▁šo	-166
gwa	-167
rwa	-168
▁Ka	-169
▁tshe	-170
▁bona	-171
▁Ba	-172
kga	-173
▁kga	-174
tšwego	-175
hle	-176
▁nya	-177
tlo	-178
▁po	-179
▁ngwa	-180
▁fi	-181
pha	-182
mme	-183
▁bjalo	-184
▁..	-185
tle	-186
si	-187
▁ti	-188
iše	-189
ši	-190
▁gona	-191
ona	-192
▁gomme	-193
thu	-194
▁ko	-195
mu	-196
fo	-197
kolo	-198
▁ao	-199
▁pele	-200
šomo	-201
baka	-202
▁dira	-203
tšego	-204
▁tlo	-205
pi	-206
▁ta	-207
▁thu	-208
felo	-209
▁ku	-210
▁batho	-211
lago	-212
▁O	-213
▁1	-214
so	-215
▁phe	-216
iši	-217
ku	-218
ilego	-219
▁bao	-220
li	-221
hwa	-222
▁the	-223
▁Molao	-224
rolo	-225
tshe	-226
▁lego	-227
letša	-228
rika	-229
▁du	-230
▁seo	-231
▁Ge	-232
▁ile	-233
ki	-234
jo	-235
frika	-236
ru	-237
lete	-238
išwa	-239
▁moka	-240
letšo	-241
loko	-242
▁R	-243
▁mai	-244
▁Ke	-245
▁gago	-246
emo	-247
nye	-248
▁ra	-249
lwego	-250
▁tlha	-251
ntš	-252
swa	-253
nyo	-254
▁hwe	-255
▁E	-256
▁nako	-257
mušo	-258
▁gagwe	-259
▁Afrika	-260
▁mme	-261
nte	-262
▁ne	-263
nse	-264
kare	-265
▁setšhaba	-266
▁tl	-267
relo	-268
kgwa	-269
kelo	-270
▁motho	-271
rago	-272
▁yona	-273
▁kgope	-274
▁tšwa	-275
▁kudu	-276
▁tho	-277
helete	-278
pho	-279
▁leo	-280
olo	-281
gago	-282
▁-	-283
ntši	-284
▁dir	-285
▁Kgo	-286
▁pa	-287
▁2	-288
wi	-289
llo	-290
▁boi	-291
▁lo	-292
nane	-293
▁dipo	-294
pedi	-295
belo	-296
▁moo	-297
naneo	-298
mela	-299
▁bohlo	-300
▁gape	-301
leng	-302
▁to	-303
moge	-304
tlha	-305
▁maba	-306
▁male	-307
▁Ga	-308
▁no	-309
elo	-310
▁nngwe	-311
▁karolo	-312
aka	-313
▁šom	-314
ledi	-315
▁dik	-316
▁bjo	-317
▁mošomo	-318
ela	-319
▁fela	-320
▁šoma	-321
▁kge	-322
▁godimo	-323
▁morago	-324
▁diti	-325
▁Borwa	-326
▁pha	-327
ya	-328
▁dikgo	-329
▁fo	-330
theo	-331
▁gare	-332
▁molao	-333
00	-334
▁maleba	-335
fatša	-336
▁lebaka	-337
dimošo	-338
▁rena	-339
▁Me	-340
naga	-341
▁nyaka	-342
▁naga	-343
botse	-344
thi	-345
▁bohlokwa	-346
tšatši	-347
▁maemo	-348
phelo	-349
golo	-350
bja	-351
▁maa	-352
tso	-353
▁hwetša	-354
pana	-355
▁mongwe	-356
nego	-357
▁akare	-358
▁mabapi	-359
pele	-360
▁H	-361
bi	-362
▁I	-363
▁ntle	-364
▁Re	-365
▁leka	-366
▁dite	-367
keng	-368
tu	-369
▁u	-370
▁dika	-371
▁nago	-372
▁mola	-373
ntšha	-374
hom	-375
▁tshedimošo	-376
▁dingwe	-377
medi	-378
tšwele	-379
▁Na	-380
kgoni	-381
▁mmušo	-382
▁mohla	-383
petšo	-384
zi	-385
lele	-386
▁lae	-387
rofe	-388
lelwa	-389
▁din	-390
▁C	-391
fi	-392
pša	-393
▁kgopelo	-394
).	-395
▁maga	-396
▁tsela	-397
rero	-398
▁swana	-399
huta	-400
▁feta	-401
▁lefelo	-402
▁bego	-403
nd	-404
▁"	-405
gwebo	-406
tswa	-407
nyane	-408
▁hloko	-409
▁leba	-410
▁efe	-411
melo	-412
mogo	-413
▁kwa	-414
▁late	-415
ele	-416
▁tšhelete	-417
▁tšona	-418
▁še	-419
▁kgone	-420
kologo	-421
geng	-422
bedi	-423
▁amoge	-424
▁ditš	-425
fn	-426
▁dume	-427
nywa	-428
gi	-429
reng	-430
▁dita	-431
etse	-432
▁tšea	-433
▁tloga	-434
▁gabotse	-435
▁mokgwa	-436
pu	-437
letše	-438
▁tha	-439
pano	-440
lla	-441
▁maatla	-442
▁polelo	-443
▁tee	-444
ithu	-445
mana	-446
▁dinya	-447
▁mma	-448
diša	-449
▁sego	-450
▁fao	-451
▁sepe	-452
▁kwe	-453
▁Kgoro	-454
ithuti	-455
▁tlho	-456
ntšu	-457
▁ro	-458
polo	-459
šwa	-460
rofense	-461
▁lebe	-462
▁19	-463
▁taolo	-464
miše	-465
▁tu	-466
▁dire	-467
▁lefa	-468
▁hlalo	-469
▁we	-470
bu	-471
▁tseba	-472
▁thuša	-473
kiš	-474
thata	-475
▁lefe	-476
▁feto	-477
sadi	-478
▁mengwa	-479
kara	-480
raga	-481
hlopha	-482
pego	-483
lego	-484
bela	-485
▁fase	-486
▁eng	-487
nke	-488
▁F	-489
▁meetse	-490
gelo	-491
mente	-492
▁kgona	-493
▁nyake	-494
▁maloko	-495
▁Pa	-496
tsi	-497
▁dito	-498
▁fihle	-499
gala	-500
▁pu	-501
▁lao	-502
khu	-503
▁bu	-504
melwa	-505
nolo	-506
▁mešomo	-507
▁bolela	-508
šomi	-509
kgotla	-510
▁ngwaga	-511
▁lenaneo	-512
▁akaretša	-513
lwetši	-514
nete	-515
▁phetha	-516
▁ditirelo	-517
▁ru	-518
šu	-519
▁Ko	-520
kemiše	-521
▁bana	-522
▁bose	-523
▁woo	-524
kgatlo	-525
▁ši	-526
upša	-527
bollo	-528
▁hloka	-529
nna	-530
pedišo	-531
gwedi	-532
išano	-533
▁3	-534
phetho	-535
▁yena	-536
▁kgolo	-537
thomo	-538
nta	-539
one	-540
▁fiwa	-541
▁tšweletša	-542
gilego	-543
▁dirwa	-544
lega	-545
neng	-546
▁bile	-547
▁thoma	-548
bile	-549
▁kgoro	-550
▁nete	-551
▁mabaka	-552
kha	-553
lwana	-554
▁mafelo	-555
wana	-556
▁200	-557
nyi	-558
▁dina	-559
tsheko	-560
gile	-561
▁bokgoni	-562
▁yoo	-563
▁Tš	-564
ngwalo	-565
kaga	-566
▁mathomo	-567
swi	-568
pelo	-569
miti	-570
lu	-571
▁diriša	-572
▁fet	-573
▁šomiša	-574
dišo	-575
karabelo	-576
▁maphelo	-577
bjalo	-578
kala	-579
ditše	-580
▁fapa	-581
▁tseb	-582
▁foko	-583
melelo	-584
▁tikologo	-585
tšhe	-586
de	-587
▁eupša	-588
▁swanetšego	-589
tšišo	-590
▁Ti	-591
phodi	-592
▁diko	-593
▁bi	-594
▁bangwe	-595
hlatse	-596
▁tsene	-597
fsa	-598
▁tlase	-599
▁tshwa	-600
▁Ts	-601
▁letšatši	-602
ago	-603
▁ngwana	-604
▁fihla	-605
▁Po	-606
▁Ta	-607
▁W	-608
hwe	-609
felelo	-610
▁ithu	-611
phodisa	-612
nto	-613
▁dinyakwa	-614
▁thi	-615
▁khu	-616
▁Tlha	-617
tšweletši	-618
kišišo	-619
kgolo	-620
tšwago	-621
▁ditse	-622
▁bjale	-623
ps	-624
je	-625
nga	-626
▁tšhi	-627
▁tokelo	-628
lwago	-629
dir	-630
ditšwego	-631
tlalo	-632
▁dilo	-633
hlano	-634
▁dijo	-635
▁Setšhaba	-636
▁ditshe	-637
tshwa	-638
▁Mma	-639
mmogo	-640
▁lemo	-641
▁kgwebo	-642
▁Y	-643
▁magareng	-644
▁mang	-645
nelo	-646
▁dipa	-647
dire	-648
ntšho	-649
kemišetšo	-650
▁ditšhelete	-651
nomi	-652
▁setšo	-653
▁taba	-654
▁phethaga	-655
konomi	-656
hwi	-657
bopego	-658
▁ofe	-659
▁Molaotheo	-660
kge	-661
akanyo	-662
▁netefatša	-663
▁bei	-664
tšweletšwa	-665
iti	-666
▁tšwela	-667
▁kweš	-668
▁rata	-669
karetšo	-670
▁laetša	-671
hola	-672
▁tir	-673
tong	-674
▁tšhom	-675
letšwego	-676
),	-677
▁botlalo	-678
thwa	-679
nt	-680
mane	-681
▁kgetho	-682
nwa	-683
hlala	-684
▁ame	-685
ngwalwa	-686
▁lengwe	-687
kego	-688
▁mafelelo	-689
▁thušo	-690
▁sengwe	-691
▁nakong	-692
beng	-693
diro	-694
letšego	-695
▁dintlha	-696
▁Mai	-697
▁bjang	-698
foko	-699
▁šu	-700
▁mengwaga	-701
tlala	-702
lano	-703
▁thuto	-704
▁matšatši	-705
twa	-706
komelo	-707
▁ama	-708
tlamo	-709
▁temo	-710
▁pho	-711
▁To	-712
▁dula	-713
▁maikarabelo	-714
▁mohuta	-715
▁dipe	-716
▁dithu	-717
pala	-718
teri	-719
▁leloko	-720
▁mekgwa	-721
▁melao	-722
xt	-723
▁Ngwa	-724
kano	-725
fatšo	-726
▁hu	-727
▁ditaba	-728
nago	-729
▁sekolo	-730
▁<	-731
▁lefase	-732
</	-733
txt	-734
▁tšweletšo	-735
▁latelago	-736
▁tumelelo	-737
▁fapana	-738
ngo	-739
laodi	-740
nkedi	-741
▁ithuta	-742
▁lona	-743
▁tema	-744
in	-745
laga	-746
tulo	-747
▁sephetho	-748
▁kgon	-749
▁botse	-750
lase	-751
▁lebo	-752
folo	-753
▁oke	-754
▁mela	-755
gela	-756
▁bophelo	-757
▁Tshe	-758
▁ebile	-759
▁dipho	-760
▁4	-761
thopo	-762
▁mangwe	-763
rwe	-764
▁bago	-765
▁merero	-766
romo	-767
▁kaona	-768
išene	-769
▁itšego	-770
▁kala	-771
rolwana	-772
▁wena	-773
▁dikga	-774
ragalo	-775
▁wona	-776
reletšo	-777
▁kotsi	-778
▁mong	-779
▁Bose	-780
▁bašomi	-781
▁tsebe	-782
▁dikolo	-783
▁gae	-784
▁bolo	-785
▁ngwadi	-786
▁Tona	-787
▁tshepedišo	-788
on	-789
▁sona	-790
▁dithe	-791
▁motheo	-792
kane	-793
▁tlhokomelo	-794
▁mantšu	-795
▁dia	-796
▁lefelong	-797
ina	-798
phi	-799
lediša	-800
▁maswa	-801
▁Mmušo	-802
▁gammogo	-803
diredi	-804
EM	-805
tswadi	-806
▁199	-807
▁Thu	-808
▁nga	-809
▁tirelo	-810
▁palo	-811
▁tsena	-812
▁J	-813
etša	-814
▁diri	-815
▁nnete	-816
tshepetšo	-817
moro	-818
▁beaka	-819
01	-820
kišo	-821
▁ntši	-822
telele	-823
▁diphe	-824
bele	-825
lošo	-826
▁bobedi	-827
▁ngwala	-828
za	-829
ula	-830
teng	-831
▁mananeo	-832
nyana	-833
▁Kha	-834
▁bontši	-835
letšwe	-836
nnyane	-837
▁maikemišetšo	-838
▁La	-839
▁mathata	-840
legae	-841
▁baithuti	-842
▁5	-843
▁tswa	-844
▁ditho	-845
uswi	-846
kiša	-847
▁Bja	-848
▁ditokelo	-849
▁tšhomišo	-850
▁kae	-851
▁tlago	-852
▁mohlala	-853
▁hlohle	-854
ntoro	-855
▁tsebo	-856
▁Batho	-857
▁gwa	-858
▁dibjalo	-859
lho	-860
▁šomišwa	-861
▁c	-862
lelago	-863
lamente	-864
▁Pe	-865
▁teka	-866
▁tshepetšo	-867
▁bae	-868
▁hlogo	-869
▁profense	-870
▁'	-871
bolo	-872
▁tlwa	-873
letšwa	-874
▁tlhabollo	-875
nso	-876
▁nageng	-877
raro	-878
ditšwe	-879
sepala	-880
▁SA	-881
▁bohlatse	-882
▁kgopela	-883
▁bontšha	-884
▁dipha	-885
▁The	-886
ntšwego	-887
▁molato	-888
ce	-889
▁beilwego	-890
▁tšho	-891
▁baka	-892
▁mabo	-893
▁kakaretšo	-894
tšhi	-895
▁tirišo	-896
▁pedi	-897
▁basadi	-898
mpha	-899
▁No	-900
▁uku	-901
▁methopo	-902
▁nna	-903
▁dirišwa	-904
▁Lekgotla	-905
gale	-906
▁fihlelela	-907
ano	-908
nka	-909
▁šetše	-910
kho	-911
▁mmu	-912
▁kho	-913
hlego	-914
▁seka	-915
▁kgauswi	-916
Bo	-917
▁leko	-918
hlelelo	-919
ropo	-920
psha	-921
▁dip	-922
▁ditlha	-923
▁sehlopha	-924
▁bodi	-925
▁tso	-926
dudi	-927
▁phi	-928
▁Te	-929
▁6	-930
nsele	-931
▁dipotšišo	-932
▁Bosetšhaba	-933
▁selo	-934
▁mmogo	-935
yo	-936
▁fana	-937
▁tshwanelo	-938
ye	-939
etšo	-940
▁bala	-941
mmušo	-942
kela	-943
▁amogela	-944
rabo	-945
▁boe	-946
kwe	-947
mile	-948
rego	-949
▁dit	-950
nyegelo	-951
▁morero	-952
▁Palamente	-953
mano	-954
▁laola	-955
▁kha	-956
▁kopa	-957
▁mehla	-958
▁U	-959
▁Phe	-960
▁lega	-961
So	-962
is	-963
▁Dikgo	-964
▁dife	-965
▁tle	-966
▁Tse	-967
▁boka	-968
pre	-969
▁ekonomi	-970
▁mehuta	-971
raka	-972
▁mmalwa	-973
▁bosenyi	-974
tapele	-975
▁thekgo	-976
▁,	-977
▁ditla	-978
kutlo	-979
▁dinaga	-980
▁dipolelo	-981
tšho	-982
▁nnyane	-983
▁Tirelo	-984
dirišwa	-985
▁sepelela	-986
▁kua	-987
▁swe	-988
▁hlaloša	-989
▁sebopego	-990
▁baa	-991
ze	-992
nda	-993
telo	-994
▁karolwana	-995
koto	-996
llwa	-997
bišo	-998
GO	-999
molao	-1000
▁tlhahlo	-1001
hl	-1002
▁tšhireletšo	-1003
hlako	-1004
▁phatlala	-1005
maga	-1006
.2	-1007
pola	-1008
▁kelo	-1009
kanywa	-1010
ca	-1011
išitšwe	-1012
uta	-1013
▁semmušo	-1014
▁nyakegago	-1015
▁latela	-1016
▁kgotso	-1017
giša	-1018
▁sebaka	-1019
▁lemoga	-1020
▁tlhago	-1021
EMS	-1022
▁fapafa	-1023
▁Sa	-1024
▁mpsha	-1025
▁thekga	-1026
Le	-1027
phara	-1028
▁monna	-1029
▁kgahlano	-1030
kile	-1031
padi	-1032
loga	-1033
Ma	-1034
▁mono	-1035
išetša	-1036
nyetšo	-1037
▁amana	-1038
▁filwego	-1039
rasi	-1040
▁GEMS	-1041
mogelo	-1042
ve	-1043
▁ona	-1044
rotše	-1045
▁phu	-1046
▁kgwedi	-1047
▁bothata	-1048
▁amegago	-1049
išitšwego	-1050
khwi	-1051
▁nepa	-1052
▁eme	-1053
hono	-1054
hlela	-1055
▁bolwetši	-1056
kwana	-1057
gwera	-1058
▁lebakeng	-1059
tara	-1060
▁dinyakišišo	-1061
▁d	-1062
▁akaretšwa	-1063
▁šire	-1064
▁leso	-1065
▁tšewa	-1066
▁mosadi	-1067
▁maphodisa	-1068
▁Mna	-1069
getho	-1070
eletšo	-1071
▁peakanyo	-1072
▁kgonaga	-1073
kong	-1074
▁bea	-1075
▁maikutlo	-1076
▁matla	-1077
▁Kga	-1078
▁kgokaga	-1079
▁batšweletši	-1080
▁Pha	-1081
▁kgonth	-1082
▁kgahlanong	-1083
tiki	-1084
▁kopano	-1085
▁sega	-1086
hloko	-1087
▁dihla	-1088
lomo	-1089
swantšho	-1090
vi	-1091
▁hlola	-1092
▁gate	-1093
Mo	-1094
st	-1095
▁bophara	-1096
▁dikgopolo	-1097
▁r	-1098
išago	-1099
kgopedi	-1100
▁fokotša	-1101
▁mafelong	-1102
▁phihlelelo	-1103
▁dikho	-1104
▁šupa	-1105
ebe	-1106
tišo	-1107
Borwa	-1108
ngwadi	-1109
▁swara	-1110
▁mekgatlo	-1111
▁Maloko	-1112
alo	-1113
▁sae	-1114
▁mengwe	-1115
▁Thuto	-1116
▁kaone	-1117
▁kgontšha	-1118
▁bola	-1119
▁foromo	-1120
tšhabeng	-1121
kanyo	-1122
▁ditsela	-1123
išitše	-1124
▁bosetšhaba	-1125
uni	-1126
▁ša	-1127
▁aba	-1128
presi	-1129
thiši	-1130
nge	-1131
nolotši	-1132
lemi	-1133
gatša	-1134
▁Gape	-1135
▁ja	-1136
mego	-1137
▁leina	-1138
▁Lenaneo	-1139
▁kgale	-1140
niki	-1141
▁mmo	-1142
ns	-1143
▁nyakago	-1144
rata	-1145
▁dihlo	-1146
togo	-1147
▁dikarolo	-1148
pile	-1149
▁ditšhaba	-1150
▁so	-1151
▁Khansele	-1152
fu	-1153
▁lapa	-1154
▁mohola	-1155
rotšeke	-1156
▁fapanego	-1157
▁kgetha	-1158
▁maše	-1159
▁mafoko	-1160
ete	-1161
tsa	-1162
bjale	-1163
▁tsheko	-1164
▁gabo	-1165
▁bonolo	-1166
▁dumelela	-1167
▁mokgatlo	-1168
edi	-1169
▁tharo	-1170
lle	-1171
▁moya	-1172
mphani	-1173
ragatšo	-1174
▁dino	-1175
tseno	-1176
▁Karolo	-1177
▁magato	-1178
tela	-1179
tlego	-1180
▁maano	-1181
rut	-1182
▁maite	-1183
▁hloke	-1184
010	-1185
▁dike	-1186
▁sengwalwa	-1187
peng	-1188
▁lebelela	-1189
nwe	-1190
šitšwego	-1191
▁hlokomela	-1192
▁kopana	-1193
▁selegae	-1194
zo	-1195
▁polo	-1196
▁bogolo	-1197
▁dirago	-1198
khwa	-1199
▁Mole	-1200
polelo	-1201
▁aka	-1202
DI	-1203
▁mogolo	-1204
ledišano	-1205
hlankedi	-1206
ntle	-1207
raba	-1208
▁swanela	-1209
miša	-1210
▁kgoši	-1211
▁Efa	-1212
▁moe	-1213
steri	-1214
homišene	-1215
▁dithoto	-1216
▁dihlopha	-1217
▁kaonafatša	-1218
▁Ra	-1219
▁tšhe	-1220
tshwaro	-1221
fala	-1222
▁baswa	-1223
▁malebana	-1224
nelwa	-1225
ntšhi	-1226
lelwago	-1227
kakanywa	-1228
▁Diti	-1229
▁gantši	-1230
▁nka	-1231
▁ditshenyegelo	-1232
▁die	-1233
▁Tšwe	-1234
▁tliša	-1235
▁ditiro	-1236
▁thibela	-1237
▁pela	-1238
▁šomago	-1239
SA	-1240
tlotlo	-1241
hlwa	-1242
▁dikgoro	-1243
▁bewa	-1244
kgoba	-1245
▁kgatha	-1246
▁hlohleletša	-1247
▁raro	-1248
dente	-1249
▁ngo	-1250
▁phethagatša	-1251
▁ho	-1252
▁pego	-1253
▁didirišwa	-1254
▁buše	-1255
▁ilego	-1256
▁lehono	-1257
nti	-1258
gase	-1259
šwe	-1260
▁fapafapana	-1261
šene	-1262
▁maemong	-1263
▁dipoelo	-1264
tolo	-1265
fela	-1266
tlwa	-1267
putso	-1268
▁ditiragalo	-1269
▁Moga	-1270
lasetulo	-1271
dulasetulo	-1272
mong	-1273
▁tlogo	-1274
▁7	-1275
▁tšha	-1276
lelano	-1277
telelo	-1278
▁leago	-1279
co	-1280
▁sepela	-1281
▁dipu	-1282
▁mediro	-1283
▁fetilego	-1284
▁eba	-1285
▁dikgetho	-1286
tion	-1287
▁aga	-1288
▁kago	-1289
▁lengwalo	-1290
pela	-1291
▁kgorotsheko	-1292
▁9	-1293
mele	-1294
▁hlwe	-1295
rutiši	-1296
0.	-1297
▁sea	-1298
tona	-1299
tifi	-1300
▁iša	-1301
fata	-1302
▁tšo	-1303
▁tlale	-1304
▁moa	-1305
▁boleng	-1306
▁malwetši	-1307
▁V	-1308
▁Hlo	-1309
gare	-1310
wele	-1311
▁tsenya	-1312
▁mošomong	-1313
▁kgobo	-1314
raebe	-1315
▁ntšha	-1316
▁diphošo	-1317
▁dikgopelo	-1318
reke	-1319
▁reka	-1320
▁Motho	-1321
getšego	-1322
▁thei	-1323
galago	-1324
▁kalafo	-1325
▁Khomišene	-1326
▁bantši	-1327
IV	-1328
▁hloma	-1329
▁kwešiša	-1330
▁melawana	-1331
▁setšhabeng	-1332
raebete	-1333
▁tšweledi	-1334
hea	-1335
▁Hla	-1336
ngorego	-1337
▁seri	-1338
▁phela	-1339
mohlala	-1340
▁Mopresi	-1341
▁tsebišo	-1342
odi	-1343
nyalo	-1344
ofolo	-1345
▁mogo	-1346
rale	-1347
getše	-1348
▁8	-1349
tšago	-1350
▁mafelelong	-1351
šiši	-1352
an	-1353
...	-1354
▁dio	-1355
keiti	-1356
dulo	-1357
▁HIV	-1358
▁mabokgoni	-1359
riša	-1360
▁šedi	-1361
▁nyakega	-1362
-0	-1363
▁in	-1364
krasi	-1365
▁temana	-1366
tamente	-1367
▁fetola	-1368
▁modiro	-1369
eng	-1370
▁kgethi	-1371
▁seemo	-1372
▁mantši	-1373
▁fete	-1374
▁kgopolo	-1375
nonelwa	-1376
ter	-1377
gišo	-1378
tori	-1379
▁atle	-1380
▁polokego	-1381
ben	-1382
hli	-1383
khe	-1384
▁difo	-1385
▁mole	-1386
▁dithuto	-1387
▁epa	-1388
▁lwa	-1389
▁bopa	-1390
▁thwa	-1391
▁tšwago	-1392
▁mohlankedi	-1393
phu	-1394
▁bj	-1395
išwe	-1396
▁bone	-1397
▁katlego	-1398
▁semolao	-1399
▁kantoro	-1400
▁mokgopedi	-1401
▁boletšwego	-1402
▁ditšweletšwa	-1403
kudu	-1404
▁tlhalošo	-1405
."	-1406
▁madi	-1407
▁ntlo	-1408
▁realo	-1409
▁MogaLe	-1410
▁bogo	-1411
▁inta	-1412
▁lekane	-1413
▁tseleng	-1414
▁dirilwego	-1415
▁Bjale	-1416
▁taelo	-1417
▁setšweletšwa	-1418
5.	-1419
tšhelo	-1420
▁boima	-1421
▁dinamelwa	-1422
▁dibe	-1423
▁romela	-1424
▁tiragatšo	-1425
kisi	-1426
▁mala	-1427
▁godiša	-1428
fatanaga	-1429
▁So	-1430
nerale	-1431
tšhabatšhaba	-1432
▁Maemo	-1433
▁badudi	-1434
▁batswadi	-1435
▁kabo	-1436
▁maina	-1437
▁sefe	-1438
isi	-1439
▁šiši	-1440
▁Komiti	-1441
▁lebelo	-1442
▁Tše	-1443
ketšo	-1444
▁kolo	-1445
▁Polelo	-1446
▁dikgwedi	-1447
▁mohlagase	-1448
▁Kgorotsheko	-1449
▁ite	-1450
eletša	-1451
ere	-1452
▁Naa	-1453
▁dibo	-1454
▁mafa	-1455
▁leano	-1456
▁Setlamo	-1457
ua	-1458
tifikeiti	-1459
el	-1460
ngwana	-1461
▁tlile	-1462
palo	-1463
▁lehu	-1464
rišano	-1465
▁sware	-1466
▁lebanego	-1467
▁tšatši	-1468
▁badiredi	-1469
▁mabakeng	-1470
▁šireletša	-1471
▁Boi	-1472
▁Kho	-1473
▁mahlo	-1474
gauta	-1475
▁dumela	-1476
▁amanago	-1477
▁Mmagauta	-1478
▁Moithuti	-1479
▁dipapadi	-1480
Ka	-1481
kopa	-1482
▁ike	-1483
▁bong	-1484
▁Taolo	-1485
▁tekate	-1486
rese	-1487
▁rile	-1488
▁00	-1489
▁banna	-1490
tšopele	-1491
▁sere	-1492
tšiša	-1493
▁badi	-1494
▁pelo	-1495
▁lehlako	-1496
▁mago	-1497
gaka	-1498
gana	-1499
sete	-1500
▁poelo	-1501
▁mmele	-1502
▁oketša	-1503
▁toka	-1504
▁tšwele	-1505
▁tsenela	-1506
Se	-1507
šego	-1508
▁lena	-1509
▁lefela	-1510
▁bjala	-1511
▁mose	-1512
▁dikgwebo	-1513
".	-1514
ur	-1515
▁hlabo	-1516
▁romelwa	-1517
rafe	-1518
▁maso	-1519
▁hlaka	-1520
▁ditefelo	-1521
▁ezi	-1522
▁gana	-1523
▁tšwelela	-1524
▁tšee	-1525
▁sekase	-1526
▁swarwa	-1527
▁tšwetša	-1528
rong	-1529
▁leb	-1530
fetša	-1531
▁ngaka	-1532
mpa	-1533
▁šome	-1534
▁kalafi	-1535
▁leboga	-1536
▁tsebiša	-1537
1.	-1538
da	-1539
▁Ye	-1540
patšo	-1541
▁ditha	-1542
▁Ao	-1543
rena	-1544
▁dii	-1545
fatšwa	-1546
▁theko	-1547
▁diphetho	-1548
▁10	-1549
kgwedi	-1550
▁sepedi	-1551
▁Molaodi	-1552
milwe	-1553
tpa	-1554
▁nagana	-1555
▁ditekolo	-1556
▁bašo	-1557
tšhene	-1558
▁Bolaodi	-1559
▁ditaelo	-1560
▁mangwalo	-1561
lelwe	-1562
▁filwe	-1563
▁ntlha	-1564
liki	-1565
melao	-1566
▁bjoo	-1567
▁ikemiše	-1568
▁kgatelelo	-1569
▁diteko	-1570
▁nyakiš	-1571
▁legatong	-1572
▁/	-1573
▁ikge	-1574
▁dirile	-1575
▁Bokgoni	-1576
▁Molekgotla	-1577
▁kgethilwego	-1578
▁Fo	-1579
pshi	-1580
▁fedi	-1581
▁maka	-1582
▁karabo	-1583
▁laolwa	-1584
▁LE	-1585
roga	-1586
tema	-1587
▁fele	-1588
▁reng	-1589
▁tšohle	-1590
▁setho	-1591
loša	-1592
tiša	-1593
tsela	-1594
▁rulaga	-1595
lisi	-1596
thara	-1597
▁Dito	-1598
▁kudukudu	-1599
ID	-1600
atla	-1601
▁boa	-1602
tleng	-1603
kgwebo	-1604
▁Setšo	-1605
▁maitshwaro	-1606
lli	-1607
▁thwi	-1608
▁sehla	-1609
▁boletše	-1610
legi	-1611
šiša	-1612
ET	-1613
elano	-1614
tsogo	-1615
▁telele	-1616
▁Tshedimošo	-1617
mma	-1618
hiši	-1619
▁ela	-1620
▁lehea	-1621
▁bitšwa	-1622
▁kgonthiša	-1623
hek	-1624
▁Wa	-1625
▁abe	-1626
hleng	-1627
▁dintlo	-1628
▁Mohlala	-1629
Ba	-1630
▁gane	-1631
tro	-1632
▁Be	-1633
šetšo	-1634
▁beng	-1635
išetšo	-1636
▁motšweletši	-1637
tlele	-1638
komane	-1639
▁makala	-1640
▁Mopresidente	-1641
▁Ngwala	-1642
▁fihlela	-1643
kgabo	-1644
▁amago	-1645
▁thwii	-1646
▁Kopano	-1647
mpe	-1648
▁tefelo	-1649
EDI	-1650
dia	-1651
▁seta	-1652
▁kanye	-1653
hišinyo	-1654
▁lentšu	-1655
▁kgahlego	-1656
epo	-1657
mpi	-1658
bala	-1659
▁lef	-1660
▁peu	-1661
milego	-1662
▁lekanego	-1663
▁dikholego	-1664
▁diphetogo	-1665
WA	-1666
tšeng	-1667
▁mohu	-1668
▁araba	-1669
▁lekola	-1670
▁rarolla	-1671
▁Ditirelo	-1672
SoSo	-1673
kana	-1674
▁Seo	-1675
▁hlao	-1676
▁abela	-1677
▁LeSoSo	-1678
▁lefaseng	-1679
▁mengwageng	-1680
▁30	-1681
▁seke	-1682
▁tiro	-1683
šitšwe	-1684
▁ngwalwa	-1685
fase	-1686
hlodi	-1687
▁kgonago	-1688
kilego	-1689
odikga	-1690
▁Merero	-1691
▁gobane	-1692
knolotši	-1693
mere	-1694
▁uka	-1695
▁Aowa	-1696
▁Dite	-1697
mabolo	-1698
▁nomoro	-1699
▁lenyalo	-1700
▁maswaodikga	-1701
▁ele	-1702
tlela	-1703
dišano	-1704
rg	-1705
ntše	-1706
poro	-1707
taba	-1708
▁boo	-1709
▁Mola	-1710
milwego	-1711
▁Mošomo	-1712
▁tpa	-1713
.2010	-1714
kišwa	-1715
▁ruta	-1716
▁baemedi	-1717
▁tlwaele	-1718
▁tlwaelo	-1719
ci	-1720
▁Pu	-1721
▁rwa	-1722
ntšwe	-1723
▁kamano	-1724
▁MM	-1725
▁Kapa	-1726
▁Leko	-1727
▁morwa	-1728
▁Phethiši	-1729
▁tokologo	-1730
▁beakanya	-1731
moka	-1732
▁afe	-1733
ngwago	-1734
▁tloge	-1735
▁bohloko	-1736
▁potšišo	-1737
nedi	-1738
▁motse	-1739
▁thomile	-1740
hlokomedi	-1741
▁moithuti	-1742
▁bora	-1743
▁mofsa	-1744
namelwa	-1745
-2	-1746
tp	-1747
▁(1	-1748
▁tšhu	-1749
tsebišo	-1750
▁dipalo	-1751
▁mošomi	-1752
▁matšatšing	-1753
▁tekatekano	-1754
miši	-1755
roje	-1756
▁mao	-1757
▁thoko	-1758
▁khutšo	-1759
▁Botelele	-1760
▁karolong	-1761
▁dingwalwa	-1762
▁ikgo	-1763
▁Hlogo	-1764
▁hlama	-1765
▁kwano	-1766
▁Sehlopha	-1767
rui	-1768
▁12	-1769
fane	-1770
▁kgao	-1771
laseng	-1772
▁dikha	-1773
rs	-1774
kgowa	-1775
▁tate	-1776
▁bohle	-1777
▁selete	-1778
▁tiragalo	-1779
RM	-1780
onal	-1781
bona	-1782
▁mare	-1783
▁bohla	-1784
▁dutše	-1785
kumente	-1786
tlontšu	-1787
▁komiti	-1788
▁ngwageng	-1789
va	-1790
▁bolelwago	-1791
▁kgotsofatša	-1792
▁tsenywa	-1793
▁sepelelana	-1794
▁Fa	-1795
▁nye	-1796
▁nepo	-1797
ntšhwa	-1798
▁ditlho	-1799
▁peleng	-1800
hlaa	-1801
phiri	-1802
▁base	-1803
▁gaMa	-1804
▁Nomoro	-1805
▁amogele	-1806
▁pula	-1807
llwane	-1808
▁sekolong	-1809
▁bonwa	-1810
ditšego	-1811
▁dinako	-1812
▁kgethe	-1813
▁diprofense	-1814
netšo	-1815
bakeng	-1816
▁diphoofolo	-1817
AK	-1818
ste	-1819
▁Co	-1820
kwane	-1821
▁maswanedi	-1822
▁kgahl	-1823
▁tlogela	-1824
▁dumelelwa	-1825
sti	-1826
mola	-1827
reiti	-1828
lopele	-1829
ntraka	-1830
▁sehlo	-1831
▁dinageng	-1832
▁Tho	-1833
nagano	-1834
thwadi	-1835
▁Bjalo	-1836
▁kwešišo	-1837
cle	-1838
▁Repa	-1839
▁Tlho	-1840
▁bale	-1841
▁amogelwa	-1842
▁hlalošwa	-1843
sea	-1844
pheng	-1845
khwama	-1846
▁tirišano	-1847
mba	-1848
▁Bu	-1849
▁CB	-1850
▁Dika	-1851
▁phethagatšo	-1852
leme	-1853
▁ditšhi	-1854
▁segalo	-1855
LO	-1856
▁godi	-1857
▁gopola	-1858
▁kgonegago	-1859
▁nyakišišo	-1860
▁ema	-1861
▁pheto	-1862
▁seabe	-1863
▁lesome	-1864
▁swerwe	-1865
nsi	-1866
▁oba	-1867
▁dimi	-1868
▁sebo	-1869
▁bolaodi	-1870
.2010-0	-1871
laganyo	-1872
▁babedi	-1873
▁boloke	-1874
▁gola	-1875
▁diteng	-1876
▁oketše	-1877
lae	-1878
rea	-1879
tee	-1880
▁Ee	-1881
goba	-1882
khale	-1883
▁moso	-1884
▁seripa	-1885
▁toropo	-1886
▁tlhokego	-1887
▁temokrasi	-1888
IDS	-1889
fisi	-1890
▁ntš	-1891
šetša	-1892
▁Kgobo	-1893
išetšwa	-1894
▁Tlhahlo	-1895
▁ph	-1896
ruti	-1897
▁lahle	-1898
▁Molaokakanywa	-1899
▁letla	-1900
▁hlagiša	-1901
NRM	-1902
utu	-1903
▁bee	-1904
leswa	-1905
▁Seta	-1906
▁fediša	-1907
▁mabele	-1908
▁hlokago	-1909
▁kgonagalo	-1910
do	-1911
eto	-1912
tlelo	-1913
belelo	-1914
istori	-1915
▁senya	-1916
▁tloša	-1917
▁tshwe	-1918
▁dikopano	-1919
▁Ca	-1920
galo	-1921
▁leswa	-1922
▁moswa	-1923
▁dulago	-1924
▁hlahlo	-1925
▁rekiša	-1926
▁dirwago	-1927
sehla	-1928
tlana	-1929
▁dine	-1930
▁bolediša	-1931
▁direkoto	-1932
▁boloka	-1933
▁swanago	-1934
▁swanelwa	-1935
ph	-1936
kagano	-1937
▁phepo	-1938
▁molaotheo	-1939
paro	-1940
▁naa	-1941
bliki	-1942
pheko	-1943
tledi	-1944
▁2009	-1945
mošomo	-1946
▁CBNRM	-1947
▁tšhoga	-1948
▁kgethwa	-1949
▁hlabolla	-1950
▁Tlhabollo	-1951
gelwa	-1952
▁mabedi	-1953
gego	-1954
tional	-1955
▁lekana	-1956
▁ratago	-1957
▁Maikemišetšo	-1958
▁dumeletšwego	-1959
Na	-1960
rd	-1961
▁dirilwe	-1962
▁bitšwago	-1963
ry	-1964
poši	-1965
▁pola	-1966
▁tata	-1967
▁nyala	-1968
tlwaedi	-1969
▁Dikgoro	-1970
▁intasteri	-1971
kete	-1972
odišo	-1973
▁dise	-1974
▁bošego	-1975
▁rekoto	-1976
▁palelwa	-1977
hekta	-1978
▁bape	-1979
peleto	-1980
▁boitsebišo	-1981
rti	-1982
▁Khu	-1983
▁lema	-1984
Afrika	-1985
▁tlaleletšo	-1986
▁tšwelelago	-1987
▁nama	-1988
▁kgato	-1989
thatema	-1990
▁hwetšwa	-1991
▁modiredi	-1992
▁Tu	-1993
▁sepediša	-1994
▁šomišwago	-1995
7.	-1996
ale	-1997
▁bitša	-1998
▁Ditokelo	-1999
nne	-2000
▁tsa	-2001
▁thekišo	-2002
▁akaretšago	-2003
▁setifikeiti	-2004
▁Modulasetulo	-2005
AL	-2006
mv	-2007
▁Bodi	-2008
▁gopo	-2009
tlatša	-2010
▁ngwadišo	-2011
▁diragatša	-2012
ME	-2013
us	-2014
idi	-2015
rato	-2016
▁Dip	-2017
▁feela	-2018
▁phapano	-2019
▁ngwadilwego	-2020
šitše	-2021
▁bega	-2022
▁fetša	-2023
mikhale	-2024
▁tlatša	-2025
kgathatema	-2026
rama	-2027
▁Din	-2028
▁melato	-2029
▁molaong	-2030
▁Maphodisa	-2031
▁kgokagano	-2032
AR	-2033
šweu	-2034
▁lekala	-2035
▁ntšhwa	-2036
▁si	-2037
negelo	-2038
▁mehola	-2039
batši	-2040
▁kwala	-2041
▁beilwe	-2042
faditšwego	-2043
▁Repabliki	-2044
hlolo	-2045
rojeke	-2046
▁kgethollo	-2047
▁ape	-2048
saete	-2049
sense	-2050
▁motšhelo	-2051
▁theilwego	-2052
▁bahlankedi	-2053
▁Ro	-2054
rišo	-2055
▁kgwe	-2056
tswalo	-2057
▁izi	-2058
▁beke	-2059
seteri	-2060
▁hlatlo	-2061
▁botšiša	-2062
-1	-2063
▁Leso	-2064
▁lefsa	-2065
▁fetiša	-2066
▁dikotsi	-2067
▁khamphani	-2068
▁tšwetšopele	-2069
rele	-2070
▁sele	-2071
kelong	-2072
piletšo	-2073
.2010-03	-2074
▁dikgoba	-2075
biša	-2076
noši	-2077
seben	-2078
▁lete	-2079
eletši	-2080
hektare	-2081
▁hlokome	-2082
▁ikonomi	-2083
▁meputso	-2084
bje	-2085
▁bon	-2086
▁Diko	-2087
▁puku	-2088
▁sete	-2089
▁temaneng	-2090
PE	-2091
es	-2092
išiša	-2093
▁botša	-2094
▁tikologong	-2095
▁ditshepedišo	-2096
ngi	-2097
-25.	-2098
lamo	-2099
nale	-2100
sana	-2101
▁ipo	-2102
thala	-2103
hompho	-2104
▁thoto	-2105
▁mebedi	-2106
▁dirilego	-2107
▁kgopelwa	-2108
▁lekgotla	-2109
GOV	-2110
▁boraro	-2111
▁mopeleto	-2112
.2010-03-25.	-2113
ble	-2114
thile	-2115
tsana	-2116
▁maša	-2117
sehlabelo	-2118
ketša	-2119
legwa	-2120
šetši	-2121
▁bolaya	-2122
▁tshela	-2123
▁šetšego	-2124
▁Tšweletšo	-2125
▁ditlabelo	-2126
mbi	-2127
▁In	-2128
▁Dinya	-2129
▁histori	-2130
▁fihleletše	-2131
al	-2132
pišo	-2133
ranta	-2134
▁pušo	-2135
▁neela	-2136
▁diraga	-2137
▁molomo	-2138
▁tekolo	-2139
tšwasehlabelo	-2140
2)	-2141
rk	-2142
ces	-2143
▁18	-2144
baso	-2145
lione	-2146
▁Temo	-2147
▁bapa	-2148
▁Tsela	-2149
▁Letona	-2150
▁direga	-2151
▁papatšo	-2152
▁boikarabelo	-2153
▁Dipo	-2154
▁dipego	-2155
▁kgatišo	-2156
▁nyakišiša	-2157
para	-2158
rekere	-2159
▁bafsa	-2160
▁emela	-2161
▁swere	-2162
▁lapeng	-2163
▁hlokega	-2164
▁Profense	-2165
▁Tonakgolo	-2166
ty	-2167
▁Ku	-2168
teka	-2169
▁nwa	-2170
▁lewa	-2171
kenolotši	-2172
▁mogala	-2173
▁dihlare	-2174
▁diswantšho	-2175
mmu	-2176
▁Tšhi	-2177
▁laela	-2178
▁Maphelo	-2179
▁sephiri	-2180
▁Baithuti	-2181
er	-2182
yi	-2183
▁14	-2184
mphe	-2185
Molao	-2186
rense	-2187
▁Bala	-2188
▁bare	-2189
▁phošo	-2190
▁Morago	-2191
▁hlongwa	-2192
▁kotsing	-2193
▁hweditše	-2194
šemane	-2195
▁Lekope	-2196
▁Mešomo	-2197
▁balemi	-2198
▁monagano	-2199
▁sekaseka	-2200
laya	-2201
šole	-2202
▁mpe	-2203
▁Moka	-2204
▁ikga	-2205
▁Mohla	-2206
▁boela	-2207
kobatši	-2208
▁boitha	-2209
▁otlela	-2210
▁nyalela	-2211
▁poledišano	-2212
EP	-2213
▁Tha	-2214
▁kgorong	-2215
▁kgotsofa	-2216
tl	-2217
▁0	-2218
▁Mu	-2219
thek	-2220
▁Moo	-2221
ganya	-2222
▁badir	-2223
▁botho	-2224
▁madulo	-2225
▁gaMamabolo	-2226
ban	-2227
ema	-2228
▁Lo	-2229
tsha	-2230
▁Bana	-2231
▁maswi	-2232
melelano	-2233
▁hwetšagala	-2234
akang	-2235
▁Naga	-2236
▁hlag	-2237
▁tefo	-2238
kgetho	-2239
▁dikamano	-2240
▁tšwelopele	-2241
tswe	-2242
thuto	-2243
tsopo	-2244
▁neng	-2245
▁khuetšo	-2246
2.	-2247
▁mmi	-2248
▁dibaka	-2249
▁kabelo	-2250
▁lebane	-2251
▁lokiša	-2252
▁Sekhwama	-2253
▁mengwang	-2254
▁tiišetša	-2255
▁dirišwago	-2256
▁lebeletše	-2257
▁tšhomišano	-2258
lwane	-2259
▁theo	-2260
išwago	-2261
▁dintši	-2262
▁mentši	-2263
▁matlakala	-2264
▁dipalopalo	-2265
▁rego	-2266
▁magolo	-2267
▁ditlamo	-2268
▁lefapha	-2269
▁We	-2270
▁nge	-2271
▁moko	-2272
▁diaparo	-2273
▁Sebopego	-2274
▁:	-2275
▁Jo	-2276
▁000	-2277
▁Ditš	-2278
▁thwe	-2279
▁šala	-2280
rticle	-2281
▁fiwago	-2282
▁tlhamo	-2283
▁moemedi	-2284
▁ditherišano	-2285
meng	-2286
mvula	-2287
uniti	-2288
▁bohwa	-2289
▁hwetše	-2290
▁lefelwa	-2291
▁letseno	-2292
▁mašeleng	-2293
▁polaseng	-2294
EE	-2295
bj	-2296
▁15	-2297
▁ala	-2298
ruiwa	-2299
▁Selegae	-2300
▁ditshwa	-2301
twe	-2302
▁198	-2303
taolo	-2304
twana	-2305
holegi	-2306
▁itšeng	-2307
▁baetapele	-2308
sha	-2309
tile	-2310
nyetša	-2311
▁Ngaka	-2312
leditše	-2313
▁mahlako	-2314
▁dipoledišano	-2315
su	-2316
ntshe	-2317
afrika	-2318
▁mmung	-2319
▁setla	-2320
Article	-2321
▁Kwa	-2322
▁oku	-2323
▁loke	-2324
loganyo	-2325
▁barutiši	-2326
fetše	-2327
▁hlwa	-2328
▁nolo	-2329
▁ahlaa	-2330
▁bonala	-2331
AC	-2332
▁meba	-2333
▁Eupša	-2334
▁Bašomi	-2335
▁Kgwebo	-2336
phethiši	-2337
▁Mokgatlo	-2338
▁nepagetšego	-2339
▁tseneletšego	-2340
▁koloi	-2341
▁Letšatši	-2342
▁tlhompho	-2343
LE	-2344
rvi	-2345
kiši	-2346
elelo	-2347
▁Pele	-2348
▁fago	-2349
▁bokaone	-2350
▁metšhene	-2351
▁kgontšhago	-2352
▁Kelo	-2353
▁Taba	-2354
akanyetšo	-2355
▁bašomedi	-2356
▁swanetšwe	-2357
'.	-2358
PS	-2359
▁Si	-2360
fatši	-2361
kwago	-2362
▁etela	-2363
▁thibe	-2364
▁fetoga	-2365
▁gatelela	-2366
▁lwantšha	-2367
▁laeditšwego	-2368
ll	-2369
▁fu	-2370
▁...	-2371
▁ditu	-2372
▁loka	-2373
▁ipshi	-2374
▁mahla	-2375
▁ditšhu	-2376
▁dikgomo	-2377
▁tebelelo	-2378
▁lenaneong	-2379
nthe	-2380
▁eya	-2381
▁Gore	-2382
▁mara	-2383
▁rwala	-2384
▁Kgopelo	-2385
▁hlabolo	-2386
▁hlolago	-2387
▁phelago	-2388
▁phemiti	-2389
▁tsebaga	-2390
▁letelele	-2391
▁mongwadi	-2392
▁seswantšho	-2393
ch	-2394
cha	-2395
mpo	-2396
▁De	-2397
ense	-2398
gano	-2399
kwala	-2400
▁Pego	-2401
▁malapa	-2402
▁Kantoro	-2403
▁tekanyo	-2404
▁kantorong	-2405
▁hi	-2406
▁Gau	-2407
▁Nya	-2408
▁Gona	-2409
bišano	-2410
▁phathi	-2411
▁kwešiše	-2412
▁letsogo	-2413
▁protšeke	-2414
▁hlokegago	-2415
▁tšweletšwa	-2416
rt	-2417
amo	-2418
▁MA	-2419
rogo	-2420
▁Max	-2421
tente	-2422
▁ngwe	-2423
▁rome	-2424
Imvula	-2425
▁šomiše	-2426
temogelo	-2427
▁gabonolo	-2428
nk	-2429
▁Tla	-2430
▁maoto	-2431
▁lesolo	-2432
▁diruiwa	-2433
▁tšweletše	-2434
▁tšweleditše	-2435
4.	-2436
8.	-2437
▁IK	-2438
▁Ja	-2439
bane	-2440
▁elwa	-2441
▁fihl	-2442
▁holo	-2443
▁nale	-2444
▁ntwa	-2445
mogedi	-2446
thamaga	-2447
▁reriša	-2448
▁mathomong	-2449
▁theknolotši	-2450
▁pi	-2451
burg	-2452
▁(1)	-2453
akarolo	-2454
ramelao	-2455
▁bagolo	-2456
▁tšhaba	-2457
▁tšhila	-2458
▁Peakanyo	-2459
▁ikgokaga	-2460
os	-2461
tpo	-2462
gadi	-2463
▁adi	-2464
▁iti	-2465
nente	-2466
▁hlahla	-2467
hemikhale	-2468
kakaretšo	-2469
▁dikgahlego	-2470
3.	-2471
nthara	-2472
▁ikopa	-2473
thaladi	-2474
▁Mokgwa	-2475
▁Gauteng	-2476
▁gannyane	-2477
▁maitekelo	-2478
▁boledišana	-2479
▁maitemogelo	-2480
nare	-2481
▁lwe	-2482
▁twa	-2483
▁medu	-2484
▁ntlong	-2485
▁mellwane	-2486
▁molawana	-2487
▁KG	-2488
....	-2489
▁esi	-2490
▁Lebo	-2491
▁Godimo	-2492
▁akanya	-2493
▁ukuthi	-2494
▁bontšhi	-2495
▁praebete	-2496
▁tšwelago	-2497
▁sepelelanago	-2498
▁tpe	-2499
telopele	-2500
sela	-2501
tsho	-2502
▁leša	-2503
▁napa	-2504
dumedi	-2505
khutšo	-2506
▁meago	-2507
fetšego	-2508
▁dikgato	-2509
duthamaga	-2510
▁tharollo	-2511
▁mehutahuta	-2512
▁Kwe	-2513
▁Boto	-2514
▁kotlo	-2515
▁ntšhi	-2516
▁ikgetha	-2517
▁kgolego	-2518
▁setlamo	-2519
▁thulano	-2520
▁ngongorego	-2521
terese	-2522
▁metse	-2523
▁Lefelo	-2524
▁bonnyane	-2525
▁tlotlontšu	-2526
▁kgethegilego	-2527
▁16	-2528
etše	-2529
tlho	-2530
hlobi	-2531
kotšo	-2532
pšane	-2533
▁tsheka	-2534
kgala	-2535
▁išwa	-2536
▁dipuku	-2537
▁eletša	-2538
▁balaodi	-2539
▁tirišong	-2540
▁Diprofense	-2541
▁Setšweletšwa	-2542
Pula	-2543
tpwa	-2544
▁Nna	-2545
▁moša	-2546
▁mollo	-2547
▁lehlakoreng	-2548
▁bakgathatema	-2549
▁ngwadišitšwego	-2550
▁ntše	-2551
panego	-2552
folofolo	-2553
▁kgafetša	-2554
▁mererong	-2555
ulu	-2556
pong	-2557
▁rwe	-2558
▁bilego	-2559
▁legolo	-2560
▁tatelano	-2561
tšeakarolo	-2562
▁boetapele	-2563
▁sefatanaga	-2564
shi	-2565
nwego	-2566
zwe	-2567
▁Moa	-2568
▁geno	-2569
gareng	-2570
kgahlo	-2571
▁Servi	-2572
metšego	-2573
▁lefoko	-2574
▁ditemana	-2575
▁Tšhireletšo	-2576
ck	-2577
▁MO	-2578
▁Pho	-2579
khulu	-2580
lweng	-2581
▁theeletša	-2582
▁mafolofolo	-2583
▁tlwaelegilego	-2584
Ta	-2585
▁TEE	-2586
▁2010	-2587
▁noku	-2588
▁semo	-2589
▁Tshwa	-2590
▁bomma	-2591
▁tlala	-2592
▁matswalo	-2593
swai	-2594
▁aro	-2595
▁mmala	-2596
▁lehlakore	-2597
šišo	-2598
▁Kala	-2599
▁poso	-2600
nyetla	-2601
▁amega	-2602
▁bodiidi	-2603
▁fokotše	-2604
▁thušago	-2605
▁Motlatša	-2606
▁diokobatši	-2607
▁lebeletšwe	-2608
bušo	-2609
hodu	-2610
jana	-2611
khao	-2612
phare	-2613
▁more	-2614
▁Kgoši	-2615
▁kgole	-2616
▁tšere	-2617
▁Selete	-2618
▁polasa	-2619
ngwadišo	-2620
▁Kgobokano	-2621
▁kgatelopele	-2622
molo	-2623
▁(2)	-2624
▁uto	-2625
thalo	-2626
binete	-2627
mongwe	-2628
kišetša	-2629
▁kwagala	-2630
▁tshenyo	-2631
▁Bodikela	-2632
▁senamelwa	-2633
boro	-2634
leka	-2635
kwano	-2636
nyaga	-2637
sente	-2638
▁Gomme	-2639
▁Leano	-2640
▁Melao	-2641
▁mohlo	-2642
▁senye	-2643
ngišano	-2644
▁kgotle	-2645
▁tsebja	-2646
▁bokgabo	-2647
▁bonnete	-2648
▁bolelago	-2649
▁20	-2650
lana	-2651
tiro	-2652
petša	-2653
rofeše	-2654
▁sekgoba	-2655
▁phatlalatša	-2656
EMA	-2657
IPE	-2658
▁of	-2659
negwa	-2660
▁teko	-2661
▁bahla	-2662
▁bjona	-2663
▁obamela	-2664
▁setlwaedi	-2665
▁mabu	-2666
kerama	-2667
▁panka	-2668
▁tsošo	-2669
▁Mogale	-2670
▁bogoši	-2671
▁maleme	-2672
▁tletšego	-2673
rofešenale	-2674
▁Tshepedišo	-2675
▁dipeakanyo	-2676
▁ikemišeditše	-2677
▁11	-2678
ramo	-2679
▁lla	-2680
▁nne	-2681
mpiri	-2682
▁rate	-2683
▁ruri	-2684
▁MMIPE	-2685
▁poloko	-2686
▁tšerwe	-2687
▁yekhwi	-2688
▁molaodi	-2689
▁sepetša	-2690
▁thibelo	-2691
tswadiatla	-2692
▁kgethologanyo	-2693
tane	-2694
pwele	-2695
thiša	-2696
▁Dira	-2697
phethe	-2698
▁Ngwana	-2699
PulaImvula	-2700
Te	-2701
▁w	-2702
tra	-2703
stra	-2704
šupo	-2705
▁swi	-2706
▁loko	-2707
▁bagwera	-2708
▁dikarabo	-2709
▁hlabollo	-2710
▁thulaganyo	-2711
LA	-2712
kan	-2713
gedi	-2714
▁loga	-2715
kgethe	-2716
▁masome	-2717
▁šitiša	-2718
National	-2719
▁mmeleng	-2720
▁hlakahla	-2721
▁Dinyakišišo	-2722
puku	-2723
▁fiwe	-2724
khukhu	-2725
tšhisi	-2726
▁diiri	-2727
▁meraro	-2728
▁taodišo	-2729
▁.	-2730
ngua	-2731
nkwe	-2732
▁bote	-2733
▁atlega	-2734
▁felele	-2735
▁legato	-2736
▁Dintlha	-2737
▁latelwa	-2738
▁mafapha	-2739
▁pukwana	-2740
▁diepšane	-2741
▁boipiletšo	-2742
▁dikhamphani	-2743
▁ditšhišinyo	-2744
ine	-2745
ria	-2746
mene	-2747
tswi	-2748
▁Boe	-2749
▁Tra	-2750
▁nke	-2751
gilwe	-2752
▁Nete	-2753
nguage	-2754
tšhomo	-2755
▁lefelwe	-2756
▁Dipolelo	-2757
▁Services	-2758
▁rulaganya	-2759
▁ditokomane	-2760
▁hlalošwago	-2761
BaTa	-2762
▁Mpha	-2763
balano	-2764
▁SeBaTa	-2765
▁kakanyo	-2766
▁tiilego	-2767
▁kamogelo	-2768
▁je	-2769
mega	-2770
moso	-2771
▁ara	-2772
ALEMA	-2773
▁boma	-2774
▁iphe	-2775
▁Dipho	-2776
▁humana	-2777
▁Hlaloša	-2778
▁KGALEMA	-2779
▁Language	-2780
▁nepagalo	-2781
▁difatanaga	-2782
rikhu	-2783
thilego	-2784
▁Mafelo	-2785
▁dipolo	-2786
▁lerato	-2787
▁dihlapi	-2788
▁pholisi	-2789
▁dikomiti	-2790
▁diprotšeke	-2791
kele	-2792
piša	-2793
▁Tlo	-2794
khura	-2795
▁buša	-2796
▁dikhu	-2797
▁huetša	-2798
▁korong	-2799
▁segolo	-2800
▁mehleng	-2801
▁hwetšago	-2802
tšhotšhisi	-2803
▁phadišano	-2804
▁ditlamorago	-2805
▁bofe	-2806
▁sebe	-2807
▁Dinaga	-2808
▁katolo	-2809
▁rilego	-2810
ngwaledi	-2811
rikhulamo	-2812
▁mmasepala	-2813
▁ri	-2814
▁Kge	-2815
tšana	-2816
▁Polo	-2817
▁ofisi	-2818
hlegelo	-2819
▁leleme	-2820
▁mošate	-2821
▁molaleng	-2822
jis	-2823
nde	-2824
fani	-2825
lala	-2826
▁Gra	-2827
sebenzi	-2828
▁Bontši	-2829
▁mehlala	-2830
▁Mohlankedi	-2831
▁molaotshepetšo	-2832
AT	-2833
pea	-2834
shu	-2835
tal	-2836
▁zi	-2837
wago	-2838
išani	-2839
nkhwa	-2840
ntšhe	-2841
▁Difo	-2842
▁mpho	-2843
semere	-2844
▁hlago	-2845
▁kganyo	-2846
▁abelana	-2847
▁tsebišwa	-2848
",	-2849
▁KA	-2850
▁Lu	-2851
▁ME	-2852
▁ik	-2853
dine	-2854
rela	-2855
▁196	-2856
▁Seka	-2857
▁malo	-2858
ngwang	-2859
tsotso	-2860
▁Leina	-2861
nkhwane	-2862
šorense	-2863
▁Lefase	-2864
▁abelwa	-2865
tsopolwa	-2866
▁keletšo	-2867
▁Bohlatse	-2868
▁hlokomelwa	-2869
▁Af	-2870
sithi	-2871
▁sefa	-2872
▁lesea	-2873
▁dinepo	-2874
▁kgonne	-2875
▁ukangwe	-2876
gongorego	-2877
▁nepagetše	-2878
▁tšweletšwago	-2879
ndi	-2880
▁1.	-2881
▁Phi	-2882
▁pro	-2883
▁kapa	-2884
▁mošo	-2885
▁Dithe	-2886
▁MaiTe	-2887
▁Gantši	-2888
▁tsenye	-2889
▁tšeago	-2890
▁diphedi	-2891
▁ditseno	-2892
▁mapheko	-2893
▁theilwe	-2894
▁Matlotlo	-2895
ini	-2896
▁Tša	-2897
▁lepa	-2898
▁noši	-2899
balelo	-2900
▁letha	-2901
leletšo	-2902
▁Karabo	-2903
▁lokolo	-2904
▁phetogo	-2905
▁fokolago	-2906
▁bophelong	-2907
3)	-2908
IS	-2909
ss	-2910
bble	-2911
▁Sete	-2912
▁kwana	-2913
▁bakeng	-2914
▁mothopo	-2915
▁Tikologo	-2916
▁kopanong	-2917
▁mothwadi	-2918
▁amogelegago	-2919
▁gat	-2920
▁Tsebo	-2921
▁baagi	-2922
▁laetše	-2923
▁mogwera	-2924
▁Kabinete	-2925
▁tšweletšago	-2926
▁Ne	-2927
lara	-2928
lefa	-2929
sedi	-2930
▁dule	-2931
kanelwa	-2932
▁bodulo	-2933
▁setulo	-2934
▁thobalano	-2935
6.	-2936
šha	-2937
▁boro	-2938
litiki	-2939
▁diatla	-2940
▁Mmatlala	-2941
▁dibopego	-2942
▁dipeelano	-2943
▁tekanyetšo	-2944
▁hlatswadiatla	-2945
nce	-2946
▁Yo	-2947
fišo	-2948
kiri	-2949
nele	-2950
▁isi	-2951
▁AIDS	-2952
▁file	-2953
▁šoro	-2954
▁Tšhelete	-2955
▁bonagala	-2956
▁ikgokaganya	-2957
▁fapafapanego	-2958
▁Nka	-2959
▁bele	-2960
▁foša	-2961
tswana	-2962
▁ngwadiša	-2963
▁mahlakore	-2964
▁poraebete	-2965
ver	-2966
▁Fe	-2967
nywe	-2968
▁ete	-2969
nyego	-2970
▁Toko	-2971
liniki	-2972
▁mokgo	-2973
thomelo	-2974
▁sengwa	-2975
seterata	-2976
▁dihlogo	-2977
▁Mongwadi	-2978
▁ditšhila	-2979
▁Mmasepala	-2980
▁bookelong	-2981
▁ukangwego	-2982
▁Du	-2983
tšhu	-2984
bbles	-2985
dišiša	-2986
nkweng	-2987
▁Modimo	-2988
▁Saense	-2989
▁Toropo	-2990
tšwantle	-2991
▁moputso	-2992
▁dikolong	-2993
▁motswadi	-2994
▁boithabišo	-2995
▁dingongorego	-2996
▁phethagatšwa	-2997
▁hlalošitšwego	-2998
ar	-2999
ms	-3000
▁em	-3001
▁hle	-3002
sotho	-3003
▁goga	-3004
▁Monna	-3005
▁nnoši	-3006
bentshe	-3007
▁netefa	-3008
▁bapetšwa	-3009
▁boitemogelo	-3010
▁21	-3011
tala	-3012
▁baba	-3013
▁Araba	-3014
▁gatee	-3015
▁Lekala	-3016
▁boikga	-3017
▁fetago	-3018
polotiki	-3019
▁hlamilwe	-3020
▁bjalobjalo	-3021
▁Ho	-3022
limi	-3023
role	-3024
bjana	-3025
▁Toka	-3026
▁boso	-3027
▁Water	-3028
▁nkabe	-3029
▁bolele	-3030
▁dilete	-3031
▁saense	-3032
▁Bubbles	-3033
▁dihlongwa	-3034
▁gonabjale	-3035
▁mogononelwa	-3036
▁modulasetulo	-3037
200	-3038
▁da	-3039
rebe	-3040
▁Tso	-3041
▁mora	-3042
▁puno	-3043
bakelo	-3044
▁hlatse	-3045
▁Mananeo	-3046
▁peeletšo	-3047
▁nolofatša	-3048
▁hweditšwego	-3049
DC	-3050
▁g	-3051
man	-3052
ndo	-3053
▁Li	-3054
▁YA	-3055
budi	-3056
nagalo	-3057
▁thata	-3058
▁Meetse	-3059
▁itekane	-3060
▁laesense	-3061
▁porofense	-3062
▁197	-3063
▁diy	-3064
▁wela	-3065
▁kamoka	-3066
▁mararo	-3067
▁monola	-3068
▁tswala	-3069
▁tsebago	-3070
▁Tumelelo	-3071
▁dipolotiki	-3072
▁ditokumente	-3073
Lo	-3074
ds	-3075
lei	-3076
rica	-3077
▁web	-3078
tsebi	-3079
▁bula	-3080
▁kile	-3081
▁Kgetho	-3082
▁bohlale	-3083
▁nyakego	-3084
▁phapoši	-3085
▁sererwa	-3086
robentshe	-3087
▁morutiši	-3088
▁diphapano	-3089
▁akantšwego	-3090
9.	-3091
leb	-3092
isie	-3093
▁efo	-3094
▁mpo	-3095
▁oli	-3096
phiwa	-3097
▁Mate	-3098
▁meno	-3099
porasi	-3100
▁Tlatša	-3101
▁dimela	-3102
hleletšo	-3103
▁dingaka	-3104
▁magaeng	-3105
▁mehlano	-3106
▁moletlo	-3107
▁laolwago	-3108
▁dikhemikhale	-3109
selo	-3110
▁ito	-3111
unibe	-3112
▁utswi	-3113
▁modudi	-3114
kanyetšo	-3115
ntinente	-3116
▁ditsebi	-3117
▁matlotlo	-3118
▁kgolegong	-3119
Di	-3120
ji	-3121
▁v	-3122
▁Mela	-3123
▁boeti	-3124
kangala	-3125
▁Diteng	-3126
▁bareki	-3127
▁Sekwala	-3128
▁ipshina	-3129
▁kahlolo	-3130
▁nyakile	-3131
▁mašemong	-3132
▁bokaakang	-3133
▁letlakala	-3134
ARO	-3135
▁li	-3136
▁peo	-3137
elela	-3138
thunya	-3139
▁aroga	-3140
▁Lesoso	-3141
▁bonago	-3142
▁mebušo	-3143
▁šomana	-3144
▁Ikangala	-3145
▁maikhutšo	-3146
▁setatamente	-3147
balo	-3148
kgwe	-3149
▁Dimi	-3150
▁Ithu	-3151
▁Morena	-3152
▁koketšo	-3153
▁mongmošomo	-3154
▁bagononelwa	-3155
▁ika	-3156
▁Leago	-3157
▁dirwe	-3158
▁matha	-3159
▁Meisie	-3160
▁merogo	-3161
▁thokong	-3162
▁swerwego	-3163
▁baamogedi	-3164
▁dikakanyo	-3165
▁lebelelwa	-3166
▁dikgokagano	-3167
▁ditshepetšo	-3168
▁lekanetšego	-3169
uto	-3170
▁DI	-3171
betše	-3172
▁mobu	-3173
▁diswa	-3174
teriale	-3175
▁Ditshe	-3176
▁tsebega	-3177
▁diforomo	-3178
▁ngwadišwa	-3179
bana	-3180
nsti	-3181
pšalo	-3182
▁Kgon	-3183
▁bole	-3184
▁mabe	-3185
▁mahu	-3186
▁sefo	-3187
▁Bokgabo	-3188
▁tlatšwa	-3189
▁ditlhohlo	-3190
▁Ditšhelete	-3191
▁letšatšing	-3192
ize	-3193
▁Cape	-3194
kaleng	-3195
▁Lebaka	-3196
▁Tlhamo	-3197
▁tumelo	-3198
kgafetša	-3199
▁lethabo	-3200
▁phethwa	-3201
▁tatagwe	-3202
▁hlatloša	-3203
▁lemogile	-3204
▁dikantoro	-3205
▁sedirišwa	-3206
Go	-3207
or	-3208
.200	-3209
▁Mme	-3210
▁dim	-3211
▁felo	-3212
bilego	-3213
▁Basadi	-3214
▁ngwale	-3215
▁makhura	-3216
nolofatši	-3217
▁rerišana	-3218
▁diragatšwa	-3219
▁tlaleletša	-3220
▁bommasepala	-3221
NG	-3222
nop	-3223
ntu	-3224
▁zo	-3225
nkele	-3226
nwago	-3227
nwana	-3228
tšene	-3229
▁Mabo	-3230
▁mpha	-3231
toropo	-3232
▁Hloko	-3233
išeneng	-3234
▁marega	-3235
▁dikoloi	-3236
▁šomišwe	-3237
▁laetšago	-3238
▁Dikgopelo	-3239
▁dimilione	-3240
▁Setatamente	-3241
▁kgonagalago	-3242
50	-3243
et	-3244
insti	-3245
urban	-3246
▁boemo	-3247
khabudi	-3248
patsela	-3249
▁Morero	-3250
▁fetoša	-3251
▁megolo	-3252
▁tletše	-3253
dimogolo	-3254
ntasteri	-3255
▁bušetša	-3256
▁sebjalo	-3257
▁kwalakwa	-3258
tlaleletšo	-3259
unibesithi	-3260
▁intaseteri	-3261
AD	-3262
Logo	-3263
ware	-3264
nyago	-3265
rwedi	-3266
▁tiiša	-3267
noplomo	-3268
▁Kgetha	-3269
▁tshepa	-3270
▁Maafrika	-3271
▁TokoLogo	-3272
▁dinomoro	-3273
il	-3274
nko	-3275
bedu	-3276
fere	-3277
mago	-3278
ment	-3279
miwa	-3280
kollo	-3281
pikara	-3282
▁kadimo	-3283
▁hlompha	-3284
▁Mafelelo	-3285
▁kwagalago	-3286
▁theramelao	-3287
▁Bao	-3288
▁lei	-3289
▁Durban	-3290
▁Tokelo	-3291
▁marapo	-3292
▁papadi	-3293
▁Setaele	-3294
▁laolago	-3295
▁kanegelo	-3296
▁semorafe	-3297
▁bontšhago	-3298
▁gapeletša	-3299
▁tšhoganetšo	-3300
pene	-3301
tshi	-3302
shudu	-3303
▁Fela	-3304
▁Grain	-3305
▁bjako	-3306
▁kgomo	-3307
▁potla	-3308
▁Ditaba	-3309
▁Ithuta	-3310
▁letšho	-3311
▁šomela	-3312
rokerama	-3313
▁thekgwa	-3314
▁Matebele	-3315
▁feleletša	-3316
eno	-3317
per	-3318
uba	-3319
AKGO	-3320
mula	-3321
ring	-3322
▁khe	-3323
▁moi	-3324
thola	-3325
▁Mong	-3326
▁khom	-3327
▁ralo	-3328
legago	-3329
▁meepo	-3330
kgonthe	-3331
▁Kalafo	-3332
▁dibeke	-3333
▁direla	-3334
▁fihlile	-3335
▁nakwana	-3336
▁neelana	-3337
▁beakanywa	-3338
▁hlwekilego	-3339
▁dikgorotsheko	-3340
ly	-3341
▁MAI	-3342
▁Sta	-3343
rišwa	-3344
tlogo	-3345
▁Tšhom	-3346
▁emiša	-3347
▁itlha	-3348
▁badimo	-3349
▁lokile	-3350
▁pelaelo	-3351
▁phetošo	-3352
▁thwalwa	-3353
▁botelele	-3354
▁mašaledi	-3355
▁molaetša	-3356
leditšwego	-3357
▁sepolotiki	-3358
▁08	-3359
▁ki	-3360
rase	-3361
▁noka	-3362
▁robala	-3363
▁taetšo	-3364
▁masepala	-3365
▁phatlalatšo	-3366
▁ditšhabatšhaba	-3367
MS	-3368
lio	-3369
šeng	-3370
▁(3)	-3371
fapha	-3372
▁wate	-3373
tshwao	-3374
troniki	-3375
▁tshwaro	-3376
▁šišinya	-3377
▁kgoboketša	-3378
);	-3379
10	-3380
AGO	-3381
▁Bae	-3382
▁šit	-3383
hlobo	-3384
metše	-3385
ndela	-3386
thuša	-3387
▁babo	-3388
▁hudu	-3389
▁kiti	-3390
kopana	-3391
▁tiiše	-3392
menetša	-3393
reletši	-3394
šitšego	-3395
▁Ngwaga	-3396
▁bararo	-3397
▁bofelo	-3398
▁bogale	-3399
▁Mashudu	-3400
▁aterese	-3401
▁feditše	-3402
▁kaonafa	-3403
▁kgodišo	-3404
▁bontšhwa	-3405
▁šomišitše	-3406
▁ditlhalošo	-3407
▁maatlafatša	-3408
ruru	-3409
▁Dia	-3410
▁Mogo	-3411
▁bela	-3412
▁botš	-3413
▁makga	-3414
direlwa	-3415
▁Boleng	-3416
▁dikwano	-3417
▁ganetša	-3418
nyagalelo	-3419
▁bokamoso	-3420
▁ditlhamo	-3421
▁mahlatse	-3422
▁šomišago	-3423
▁Kgonthiša	-3424
▁Mukhabudi	-3425
▁hwetšwago	-3426
▁methaladi	-3427
▁dumeletšwe	-3428
▁hlohleletšwa	-3429
tšu	-3430
AIDS	-3431
gato	-3432
wini	-3433
▁100	-3434
▁Nako	-3435
▁huma	-3436
kanego	-3437
morago	-3438
tswele	-3439
▁MAIME	-3440
▁Kgaolo	-3441
▁diriše	-3442
▁temošo	-3443
▁theele	-3444
▁gabjale	-3445
▁segwera	-3446
▁sebakeng	-3447
▁dihektare	-3448
▁Diminerale	-3449
▁kgonthišiša	-3450
▁co	-3451
▁de	-3452
sele	-3453
▁pla	-3454
▁modu	-3455
▁Kgale	-3456
▁Thušo	-3457
▁akhao	-3458
thanete	-3459
▁Matšhe	-3460
▁bapala	-3461
▁baholegi	-3462
▁kgahliša	-3463
▁monontšha	-3464
▁lahlegelwa	-3465
6,	-3466
Ke	-3467
she	-3468
kani	-3469
nong	-3470
▁eta	-3471
kilwe	-3472
nteng	-3473
tpego	-3474
▁1998	-3475
▁dime	-3476
AKGOWA	-3477
ntšene	-3478
▁rutwa	-3479
gilwego	-3480
▁Diriša	-3481
legilego	-3482
▁MMAKGOWA	-3483
▁diragala	-3484
▁sepelelane	-3485
▁mohlakanelwa	-3486
NC	-3487
en	-3488
wn	-3489
gae	-3490
▁Lebe	-3491
▁Palo	-3492
▁ikwa	-3493
pokisi	-3494
▁Ditho	-3495
▁ikhwe	-3496
▁thaba	-3497
hlabela	-3498
▁Foromo	-3499
▁Khoutu	-3500
kgalabje	-3501
leditšwe	-3502
▁tšhišinyo	-3503
▁tumelelano	-3504
IA	-3505
rei	-3506
kiše	-3507
riti	-3508
▁Ame	-3509
išišo	-3510
thela	-3511
▁šele	-3512
phutha	-3513
▁tlhako	-3514
▁Bosenyi	-3515
▁bolelwa	-3516
▁fedišwa	-3517
▁tlilego	-3518
▁palomoka	-3519
▁Tshepetšo	-3520
▁sonoplomo	-3521
▁dirišitšwego	-3522
▁phatlalatšwa	-3523
sta	-3524
▁50	-3525
long	-3526
ngaka	-3527
petši	-3528
▁SAPS	-3529
▁molo	-3530
▁Dikho	-3531
▁ngoku	-3532
rofensi	-3533
▁Temana	-3534
▁ditulo	-3535
▁thušwa	-3536
peamelao	-3537
▁lekolwa	-3538
▁matsogo	-3539
▁swerego	-3540
šireletši	-3541
▁Mekgatlo	-3542
▁ikopanya	-3543
▁kontraka	-3544
▁mešomong	-3545
▁ukangwago	-3546
▁badirišani	-3547
▁fihlelelwa	-3548
▁Batšweletši	-3549
▁boingwadišo	-3550
▁kgotsofatšago	-3551
khi	-3552
nzi	-3553
sae	-3554
tpe	-3555
▁60	-3556
bogo	-3557
nela	-3558
▁IKS	-3559
mollo	-3560
nšene	-3561
▁Male	-3562
▁demo	-3563
▁pono	-3564
▁Lehono	-3565
▁bogole	-3566
▁ditlwa	-3567
▁tšhemo	-3568
▁fihlele	-3569
▁sethunya	-3570
▁tlhagišo	-3571
▁beakantšwego	-3572
▁bolokegilego	-3573
▁PA	-3574
mare	-3575
hlele	-3576
tseka	-3577
▁Dipa	-3578
▁aowa	-3579
▁hlom	-3580
▁lešo	-3581
▁mašo	-3582
faladi	-3583
▁Rejis	-3584
▁Tlhako	-3585
išitšego	-3586
kgopolelo	-3587
▁hlolwago	-3588
▁mogopolo	-3589
▁paletšwe	-3590
▁Hlokomela	-3591
▁hlabologago	-3592
▁tshekatsheko	-3593
▁tšatšikgwedi	-3594
um	-3595
nki	-3596
▁he	-3597
bapi	-3598
lege	-3599
rumo	-3600
▁khi	-3601
▁2000	-3602
▁empa	-3603
hlokwa	-3604
meetse	-3605
▁baeti	-3606
▁megala	-3607
▁sepele	-3608
▁seswai	-3609
peneneng	-3610
▁Dipoelo	-3611
▁dibetša	-3612
▁kopanya	-3613
kgobapuku	-3614
▁ahlaahla	-3615
▁dikgweding	-3616
▁kontinente	-3617
▁lebakanyana	-3618
▁Molaotshepetšo	-3619
ld	-3620
bwe	-3621
▁ha	-3622
▁NEP	-3623
▁Pre	-3624
▁efa	-3625
etulo	-3626
kanya	-3627
ntere	-3628
▁Lego	-3629
▁Sebo	-3630
▁fepa	-3631
▁kata	-3632
ripana	-3633
▁tsoga	-3634
▁Motheo	-3635
▁emelwa	-3636
▁hlaola	-3637
▁maswao	-3638
▁twatši	-3639
▁kgonega	-3640
▁trekere	-3641
▁mebaraka	-3642
▁amogetšwe	-3643
▁hweditšwe	-3644
▁segašetši	-3645
▁tšweleditšwego	-3646
ct	-3647
AKA	-3648
were	-3649
▁Moko	-3650
▁khwa	-3651
▁LEAGO	-3652
▁kgašo	-3653
kilwego	-3654
▁Moruti	-3655
▁bolawa	-3656
▁hlolwa	-3657
▁mašemo	-3658
▁pejana	-3659
ktroniki	-3660
▁lewatle	-3661
▁rekišwa	-3662
▁Mankweng	-3663
▁bašomiši	-3664
▁matlafatša	-3665
pp	-3666
▁31	-3667
BEDI	-3668
moga	-3669
stara	-3670
▁balwa	-3671
▁kwane	-3672
▁modir	-3673
▁Mosadi	-3674
▁hlatho	-3675
▁mašole	-3676
▁swikiri	-3677
phiwafela	-3678
▁bonalago	-3679
▁tsebagatša	-3680
▁ditlabakelo	-3681
▁šišintšwego	-3682
fra	-3683
▁BI	-3684
kere	-3685
▁Dita	-3686
▁Labo	-3687
▁ahlo	-3688
▁fiša	-3689
▁mego	-3690
▁pomi	-3691
kišiši	-3692
▁badiš	-3693
▁hlano	-3694
▁Africa	-3695
▁mmagwe	-3696
tseletšo	-3697
▁hlaloše	-3698
▁holofela	-3699
▁Tlhokomelo	-3700
son	-3701
▁Ha	-3702
▁Wi	-3703
mišo	-3704
thwe	-3705
šalo	-3706
▁Mmi	-3707
▁imi	-3708
šaedi	-3709
▁Bona	-3710
▁etla	-3711
leloko	-3712
▁Mohlo	-3713
▁mmino	-3714
tišetšo	-3715
▁dikelo	-3716
▁temogo	-3717
▁tokišo	-3718
▁boemedi	-3719
▁metsotso	-3720
▁atlegilego	-3721
▁godingwana	-3722
▁pepeneneng	-3723
7,	-3724
OP	-3725
▁Da	-3726
išego	-3727
kathi	-3728
netši	-3729
▁mase	-3730
tilego	-3731
▁Dikga	-3732
▁kholo	-3733
▁leeto	-3734
nselara	-3735
▁bongwe	-3736
▁kgohla	-3737
khukhune	-3738
▁Kgalema	-3739
▁Methopo	-3740
▁kgoboke	-3741
▁matseno	-3742
▁Modiredi	-3743
▁mootledi	-3744
▁tshwenye	-3745
▁kgwebišano	-3746
▁mohlokomedi	-3747
gu	-3748
nu	-3749
sho	-3750
▁yi	-3751
imba	-3752
song	-3753
ting	-3754
▁leta	-3755
parara	-3756
▁baabi	-3757
▁thuše	-3758
▁bjalwa	-3759
▁molemi	-3760
▁tlošwa	-3761
▁Tsopola	-3762
ntaseteri	-3763
▁Melawana	-3764
▁ditoropo	-3765
▁kganetšo	-3766
▁monnyane	-3767
▁kaonafatšo	-3768
▁Tšwetšopele	-3769
cu	-3770
ngu	-3771
▁13	-3772
kodi	-3773
lithi	-3774
▁Ntle	-3775
tswako	-3776
▁NEPAD	-3777
nkeleng	-3778
▁filego	-3779
▁lebana	-3780
▁thwala	-3781
▁dikologa	-3782
▁phokotšo	-3783
▁dithekisi	-3784
▁ikgethago	-3785
▁mi	-3786
diri	-3787
fula	-3788
nkere	-3789
▁Bale	-3790
▁Dikha	-3791
▁Maite	-3792
▁Sehlo	-3793
▁botšo	-3794
▁etšwa	-3795
▁ntshe	-3796
▁pšalo	-3797
▁thopa	-3798
▁kreiti	-3799
▁lokago	-3800
▁mpholo	-3801
▁tshepe	-3802
▁phekolo	-3803
▁demokrasi	-3804
▁gapeletše	-3805
▁nyalelana	-3806
▁bonagalago	-3807
▁l	-3808
ise	-3809
▁Ya	-3810
yena	-3811
▁nwe	-3812
▁agwa	-3813
▁diku	-3814
▁apara	-3815
▁begwa	-3816
▁kwele	-3817
▁thewa	-3818
imbabwe	-3819
▁Tefelo	-3820
▁Fahlela	-3821
▁ingwadi	-3822
▁kgonego	-3823
nyakišiši	-3824
▁Bolwetši	-3825
▁Mangwalo	-3826
▁Tšhomišo	-3827
▁tšerwego	-3828
▁Kharikhulamo	-3829
▁šomišitšwego	-3830
DP	-3831
▁Bi	-3832
▁He	-3833
▁Mi	-3834
fora	-3835
roto	-3836
toka	-3837
toro	-3838
▁tsi	-3839
▁Dijo	-3840
jalefa	-3841
khathi	-3842
▁Maime	-3843
▁ditšo	-3844
▁itšhi	-3845
▁Mengwa	-3846
▁Mogolo	-3847
▁kgwele	-3848
▁tabeng	-3849
▁Amerika	-3850
▁Bothata	-3851
▁Potšišo	-3852
▁golegwa	-3853
▁hlangwa	-3854
▁itemoge	-3855
▁boikgafo	-3856
▁menyetla	-3857
▁dikarolong	-3858
▁dipeeletšo	-3859
IF	-3860
▁Fre	-3861
▁Uku	-3862
ndawo	-3863
▁folo	-3864
▁maele	-3865
▁seatla	-3866
▁mabotse	-3867
▁thomelo	-3868
▁tlogago	-3869
▁boripana	-3870
▁laeditše	-3871
▁letlotlo	-3872
▁Dinamelwa	-3873
▁Karolwana	-3874
▁tlhaelelo	-3875
▁dikanegelo	-3876
▁hlomilwego	-3877
▁hlokofetšego	-3878
4,	-3879
5,	-3880
ola	-3881
ted	-3882
ropa	-3883
seng	-3884
wena	-3885
ntara	-3886
▁maro	-3887
logadi	-3888
rakeng	-3889
▁2009.	-3890
▁mmadi	-3891
▁phaga	-3892
▁šetša	-3893
▁tatago	-3894
▁phetolo	-3895
▁Sekatane	-3896
tshepedišo	-3897
▁bomenetša	-3898
▁inšorense	-3899
▁materiale	-3900
▁Tlotlontšu	-3901
▁profenseng	-3902
▁batšeakarolo	-3903
nze	-3904
nono	-3905
some	-3906
▁Dik	-3907
▁mapa	-3908
melela	-3909
▁maeto	-3910
▁moabi	-3911
pilwego	-3912
▁lekale	-3913
▁selemo	-3914
▁tekano	-3915
▁kholego	-3916
▁badiriši	-3917
▁dibolaya	-3918
▁hlomilwe	-3919
▁tšhemong	-3920
▁šomišana	-3921
▁tshwarelo	-3922
▁fihlelelwe	-3923
▁hlamilwego	-3924
▁kgokaganyo	-3925
▁šomišitšwe	-3926
▁2.	-3927
▁43	-3928
▁PO	-3929
▁TH	-3930
▁um	-3931
fadi	-3932
▁hwa	-3933
▁Kgwe	-3934
▁gaka	-3935
▁nezi	-3936
▁yago	-3937
thollo	-3938
▁borwa	-3939
▁saena	-3940
▁Bobedi	-3941
▁tlhoko	-3942
setoropo	-3943
▁Kgopolo	-3944
▁fetolwa	-3945
▁hektare	-3946
▁tšewago	-3947
▁Lengwalo	-3948
▁thomilego	-3949
▁dumelelana	-3950
▁Toropokgolo	-3951
▁Mopresitente	-3952
▁hwetšagalago	-3953
▁batšwasehlabelo	-3954
NA	-3955
00.	-3956
che	-3957
bong	-3958
kimi	-3959
lale	-3960
soya	-3961
tlou	-3962
▁ena	-3963
▁iše	-3964
▁mae	-3965
DIAKA	-3966
▁Mari	-3967
▁Wena	-3968
▁bane	-3969
▁karo	-3970
nywago	-3971
▁lefša	-3972
▁sekga	-3973
▁Leloko	-3974
▁Mekgwa	-3975
▁moruti	-3976
▁bobotse	-3977
▁bolokwa	-3978
▁diinsti	-3979
pweletpwa	-3980
▁balwetši	-3981
▁diphahlo	-3982
▁tokomane	-3983
▁tsebegago	-3984
▁Moe	-3985
gwana	-3986
▁Yena	-3987
▁itho	-3988
wasoya	-3989
▁hlaba	-3990
▁fetile	-3991
▁kereke	-3992
▁KADIAKA	-3993
▁Theledi	-3994
▁angwago	-3995
▁kgonthe	-3996
▁mobotse	-3997
▁dithaere	-3998
▁ditlhaka	-3999
▁dumelele	-4000
▁ditlakala	-4001
▁hlokofala	-4002
▁inthanete	-4003
▁Mongwadiši	-4004
▁mphiwafela	-4005
▁amogetšwego	-4006
▁boikgopolelo	-4007
RS	-4008
lia	-4009
▁("	-4010
▁Pro	-4011
folio	-4012
▁Modu	-4013
▁data	-4014
▁yohle	-4015
▁Mabapi	-4016
▁Mafoko	-4017
▁bohodu	-4018
▁morafe	-4019
▁sedimo	-4020
▁sereto	-4021
▁mmaraka	-4022
▁diphathi	-4023
▁oketšega	-4024
▁dikeletšo	-4025
▁feletšego	-4026
▁lefelwago	-4027
▁moetapele	-4028
▁diminerale	-4029
▁ditšhabeng	-4030
▁ngwetšwego	-4031
▁tshepedišong	-4032
▁4.	-4033
▁ii	-4034
land	-4035
▁2001	-4036
▁lela	-4037
▁yoku	-4038
hlanga	-4039
▁Leboa	-4040
▁bahlo	-4041
▁gohle	-4042
▁moago	-4043
▁Gopola	-4044
▁ditheo	-4045
▁emetše	-4046
▁leihlo	-4047
▁pelego	-4048
▁Gabotse	-4049
▁dikgolo	-4050
▁setaele	-4051
▁khansele	-4052
▁Dikgopolo	-4053
▁dithulano	-4054
▁hlokomelo	-4055
▁hweditšego	-4056
▁Bahlokomedi	-4057
▁ditšhupetšo	-4058
▁elektroniki	-4059
▁letlakaleng	-4060
▁ditpweletpwa	-4061
▁maanotshepetšo	-4062
ed	-4063
▁j	-4064
▁Pi	-4065
▁Ru	-4066
ding	-4067
kago	-4068
▁and	-4069
tharo	-4070
thuši	-4071
▁PEDI	-4072
▁befe	-4073
rsente	-4074
tapišo	-4075
▁bokgo	-4076
▁botha	-4077
▁polao	-4078
▁Dikolo	-4079
▁Sepedi	-4080
▁gongwe	-4081
▁lemoša	-4082
▁nadine	-4083
▁seporo	-4084
▁tlišwa	-4085
▁Tsebišo	-4086
▁mogatša	-4087
▁morwedi	-4088
taolotoka	-4089
▁Mmakgowa	-4090
▁Ngwadišo	-4091
▁baanegwa	-4092
▁mmakgonthe	-4093
▁Setifikeiti	-4094
▁kopantšwego	-4095
▁thekenolotši	-4096
mbo	-4097
pro	-4098
▁Kabo	-4099
▁Mang	-4100
▁mona	-4101
▁yela	-4102
oswere	-4103
▁dilae	-4104
▁Sekolo	-4105
▁ditefo	-4106
▁lokela	-4107
▁motšwa	-4108
▁seriti	-4109
▁tlhalo	-4110
▁tšhomo	-4111
▁amogetše	-4112
▁makgotla	-4113
▁dithekišo	-4114
▁fetišetša	-4115
▁sepetlele	-4116
▁tahlegelo	-4117
▁dikarolwana	-4118
ksi	-4119
▁25	-4120
dima	-4121
▁LES	-4122
ganyo	-4123
pilwe	-4124
▁dima	-4125
▁thea	-4126
phephe	-4127
▁efoga	-4128
thekeng	-4129
▁Romela	-4130
▁Lefapha	-4131
▁bathong	-4132
▁morwalo	-4133
▁sehleng	-4134
reletšego	-4135
▁Ditšhaba	-4136
▁dikgaruru	-4137
▁lepatlelo	-4138
▁tokumente	-4139
gov	-4140
ton	-4141
▁1,	-4142
▁17	-4143
▁at	-4144
tpwe	-4145
yale	-4146
▁hue	-4147
▁ita	-4148
▁nje	-4149
▁Mpho	-4150
▁boru	-4151
lomoka	-4152
▁Motse	-4153
▁baeng	-4154
▁ingwa	-4155
▁kgogo	-4156
▁leswi	-4157
▁putla	-4158
▁kemedi	-4159
▁keteka	-4160
▁kopane	-4161
▁ditheko	-4162
▁maiteko	-4163
▁lokilego	-4164
▁molwetši	-4165
▁seleteng	-4166
▁Netefatšo	-4167
▁Phihlelelo	-4168
▁toropokgolo	-4169
▁tšweleditšwe	-4170
4)	-4171
KA	-4172
▁3.	-4173
moya	-4174
thla	-4175
▁Mdi	-4176
▁ipe	-4177
lanka	-4178
▁sepo	-4179
mogolo	-4180
tišišo	-4181
▁bakgo	-4182
▁phala	-4183
▁phapo	-4184
▁fetego	-4185
▁fokola	-4186
▁gabedi	-4187
▁thwalo	-4188
▁utolla	-4189
▁akanywa	-4190
▁bohloki	-4191
▁hlamega	-4192
▁setlogo	-4193
tšweletša	-4194
▁lesogana	-4195
▁mosegare	-4196
▁ditseleng	-4197
▁fokotšega	-4198
▁hlalošago	-4199
▁phetolelo	-4200
▁ditshenyagalelo	-4201
60	-4202
TE	-4203
bhe	-4204
▁Ni	-4205
▁SE	-4206
dile	-4207
gatšo	-4208
thišo	-4209
▁paka	-4210
pilego	-4211
▁gampe	-4212
otshwao	-4213
reišene	-4214
▁Maatla	-4215
▁legora	-4216
lebišene	-4217
▁hlokego	-4218
▁motseng	-4219
▁pampiri	-4220
▁baotledi	-4221
▁ditetelo	-4222
▁Tselapedi	-4223
▁ingwadiša	-4224
▁Mafelelong	-4225
▁dinagamaga	-4226
▁Thekenolotši	-4227
▁Ditshenyegelo	-4228
HO	-4229
SP	-4230
od	-4231
mpu	-4232
▁5.	-4233
▁ze	-4234
elwa	-4235
lane	-4236
nthi	-4237
redi	-4238
yeng	-4239
▁Joha	-4240
▁bata	-4241
▁leke	-4242
▁thuta	-4243
tlogolo	-4244
▁bolemi	-4245
▁Solanka	-4246
▁leletša	-4247
▁tlogele	-4248
▁bašemane	-4249
▁fokotšwa	-4250
▁katološa	-4251
▁mošemane	-4252
▁basetsana	-4253
▁ditrekere	-4254
▁khwalithi	-4255
▁kgahlišago	-4256
RC	-4257
nia	-4258
feto	-4259
kese	-4260
nkga	-4261
tata	-4262
▁1996	-4263
▁kato	-4264
▁seno	-4265
▁Diphe	-4266
▁Maano	-4267
▁matsa	-4268
▁mmago	-4269
▁thala	-4270
ketšego	-4271
nteraka	-4272
▁Ditlha	-4273
▁LESEDI	-4274
▁maloba	-4275
▁sebjale	-4276
▁Setemere	-4277
▁tshedimo	-4278
▁dumelelwe	-4279
▁lefelelwa	-4280
▁sengwalwana	-4281
mbu	-4282
sia	-4283
une	-4284
falo	-4285
fiša	-4286
nter	-4287
šana	-4288
▁Phu	-4289
▁apa	-4290
dišwa	-4291
kgadi	-4292
laelo	-4293
lefsa	-4294
trole	-4295
tshwe	-4296
▁....	-4297
▁Dipe	-4298
▁Makha	-4299
▁insti	-4300
▁khudu	-4301
▁ntsho	-4302
bohloko	-4303
thwalwa	-4304
▁sekhwi	-4305
▁boitshe	-4306
▁bošaedi	-4307
▁dithušo	-4308
▁lemogwa	-4309
▁lekaleng	-4310
▁tshenyego	-4311
▁hlokofetše	-4312
▁moragonyana	-4313
▁Dikgorotsheko	-4314
3,	-4315
mp	-4316
xa	-4317
hlu	-4318
dina	-4319
fola	-4320
▁Ike	-4321
mišwa	-4322
▁Nepo	-4323
▁ekwa	-4324
▁noma	-4325
▁sena	-4326
tshepe	-4327
▁Mahla	-4328
▁Meepo	-4329
▁hlaga	-4330
▁swaya	-4331
legilwe	-4332
▁Laetša	-4333
▁magoro	-4334
▁tswalo	-4335
▁hlatswa	-4336
kgoparara	-4337
▁banamedi	-4338
▁hlahloba	-4339
▁malapeng	-4340
▁sepelago	-4341
▁kholofelo	-4342
▁Seswantšho	-4343
▁bontšhitše	-4344
▁mpshafatšo	-4345
▁sebjalebjale	-4346
gra	-4347
▁As	-4348
▁TB	-4349
file	-4350
pšha	-4351
sari	-4352
▁Uni	-4353
▁lea	-4354
▁Mose	-4355
▁modi	-4356
▁yola	-4357
▁Baswa	-4358
▁dintwa	-4359
▁dišupo	-4360
▁ralala	-4361
▁tefišo	-4362
........	-4363
▁Kwešiša	-4364
▁Mandela	-4365
▁Tshwane	-4366
▁senyane	-4367
▁Palomoka	-4368
▁gaborena	-4369
▁tswalela	-4370
▁tsenelela	-4371
▁fetišetšwa	-4372
▁Mošireletši	-4373
▁feleletšego	-4374
▁tshekoleswa	-4375
▁tshepetšong	-4376
▁Khuduthamaga	-4377
▁dikhunkhwane	-4378
▁maatlataolotoka	-4379
92	-4380
vu	-4381
ego	-4382
▁Ri	-4383
▁za	-4384
rafo	-4385
sburg	-4386
▁Park	-4387
▁Tate	-4388
▁baso	-4389
▁fane	-4390
▁gata	-4391
▁ithe	-4392
▁kere	-4393
▁mane	-4394
▁thek	-4395
filimi	-4396
▁golago	-4397
▁golega	-4398
▁itshwa	-4399
▁masolo	-4400
▁hlatsela	-4401
▁hlwekiša	-4402
▁seboledi	-4403
▁setlabelo	-4404
▁khuduthamaga	-4405
',	-4406
UA	-4407
sh	-4408
▁80	-4409
▁Vi	-4410
resi	-4411
weni	-4412
▁Chi	-4413
▁Mare	-4414
▁Tšha	-4415
▁digo	-4416
▁koko	-4417
tšhupo	-4418
▁2001.	-4419
▁Banna	-4420
▁Kwano	-4421
▁Phaka	-4422
▁dipeu	-4423
▁gotee	-4424
saeteng	-4425
▁Maribe	-4426
ndasteri	-4427
▁Ditlamo	-4428
▁toropong	-4429
▁dipelaelo	-4430
▁ditlhagišo	-4431
▁godimodimo	-4432
▁ngangišano	-4433
▁dipeakanyetšo	-4434
)?	-4435
dwa	-4436
hala	-4437
pama	-4438
yona	-4439
▁Che	-4440
▁WUA	-4441
▁ane	-4442
▁Dire	-4443
▁Mase	-4444
▁difa	-4445
▁lota	-4446
▁mana	-4447
▁tima	-4448
▁Bohwa	-4449
▁bonwe	-4450
▁ikara	-4451
▁leboa	-4452
▁lwela	-4453
kišetšo	-4454
▁fedile	-4455
▁felela	-4456
▁tshepo	-4457
▁tšhela	-4458
rofešene	-4459
▁tšekhwi	-4460
▁Dihlopha	-4461
▁diregago	-4462
▁Sengwalwa	-4463
▁lefapheng	-4464
ETA	-4465
for	-4466
▁24	-4467
sasa	-4468
▁App	-4469
▁Sou	-4470
elana	-4471
hlelo	-4472
metša	-4473
rollo	-4474
▁Ntlo	-4475
▁hola	-4476
▁kota	-4477
▁radi	-4478
▁roba	-4479
bileng	-4480
cation	-4481
lwaneng	-4482
thušene	-4483
▁bodudi	-4484
▁dirang	-4485
▁fanago	-4486
▁laetpa	-4487
▁lekile	-4488
tekanelo	-4489
▁kgatong	-4490
▁pušetšo	-4491
▁thomago	-4492
▁MaAfrika	-4493
▁Polokego	-4494
▁bogareng	-4495
▁diatleng	-4496
▁koporasi	-4497
▁ngwalela	-4498
▁websaete	-4499
ngongorego	-4500
▁Bathobaso	-4501
▁Sephodisa	-4502
▁kgonegiša	-4503
▁hlokometše	-4504
▁bahlokomedi	-4505
HA	-4506
▁Tšo	-4507
nkeng	-4508
šwana	-4509
▁Kopa	-4510
legile	-4511
▁bopša	-4512
▁khopi	-4513
▁maaka	-4514
peletšo	-4515
tswalle	-4516
▁boradi	-4517
▁gareng	-4518
▁karata	-4519
▁leswao	-4520
▁mesong	-4521
▁modumo	-4522
▁mphato	-4523
▁welago	-4524
▁mehlare	-4525
▁ofising	-4526
▁seemong	-4527
▁thabile	-4528
▁Tokologo	-4529
▁dithunya	-4530
▁meetseng	-4531
▁moahlodi	-4532
▁pabalelo	-4533
▁tiišetšo	-4534
▁tsebjago	-4535
presidente	-4536
▁Tšweletša	-4537
):	-4538
ene	-4539
ral	-4540
nkana	-4541
▁Dise	-4542
▁Town	-4543
▁babe	-4544
▁boike	-4545
▁ikana	-4546
▁hlohlo	-4547
▁mabone	-4548
▁mothalo	-4549
▁sebotse	-4550
▁akaretše	-4551
▁bušetšwa	-4552
▁dirišago	-4553
▁mebileng	-4554
▁beetšwego	-4555
▁maitapišo	-4556
hlodimogolo	-4557
▁Dingongorego	-4558
▁dinyakwapšalo	-4559
▁Is	-4560
▁Su	-4561
▁UN	-4562
▁Tau	-4563
▁bje	-4564
▁tra	-4565
▁van	-4566
rwana	-4567
▁Mala	-4568
▁mešo	-4569
kamedi	-4570
matlou	-4571
▁adima	-4572
▁boele	-4573
▁bouta	-4574
▁hlase	-4575
▁Balemi	-4576
▁bobona	-4577
▁diripa	-4578
▁lešata	-4579
▁magoši	-4580
▁meloko	-4581
▁metheo	-4582
▁popego	-4583
▁dienywa	-4584
▁hlogong	-4585
theeletši	-4586
▁Desemere	-4587
▁sepetšwa	-4588
▁Intaseteri	-4589
▁ikemišeditšego	-4590
ane	-4591
ong	-4592
khom	-4593
pago	-4594
tošo	-4595
▁Ira	-4596
▁bai	-4597
nyeng	-4598
tswai	-4599
▁diwa	-4600
mileng	-4601
mphegi	-4602
tswetši	-4603
▁bewago	-4604
▁medumo	-4605
▁sefane	-4606
▁Disemere	-4607
▁bathobaso	-4608
▁boletšego	-4609
▁dikgatišo	-4610
▁ditlwaelo	-4611
▁palamente	-4612
▁Ikemetšego	-4613
▁Motlatšamo	-4614
▁kgohlagano	-4615
▁thelebišene	-4616
▁tšhireletšego	-4617
▁letšatšikgwedi	-4618
▁2,	-4619
▁GO	-4620
toria	-4621
▁2008	-4622
▁sera	-4623
▁Dipha	-4624
▁Ntšha	-4625
▁lehla	-4626
isimane	-4627
kgarebe	-4628
tlakala	-4629
tlhakwa	-4630
▁Sekhwi	-4631
▁Thekgo	-4632
▁boyena	-4633
▁dumele	-4634
▁kelelo	-4635
▁mmotša	-4636
▁namela	-4637
▁disenyi	-4638
▁Ditemana	-4639
▁Matšatši	-4640
▁bodumedi	-4641
▁molekane	-4642
▁Nyalelano	-4643
▁phapošing	-4644
▁sehlongwa	-4645
Ga	-4646
ese	-4647
nza	-4648
▁23	-4649
mala	-4650
nama	-4651
reti	-4652
ster	-4653
tedi	-4654
thao	-4655
▁NAC	-4656
▁eli	-4657
bolla	-4658
tlama	-4659
uropa	-4660
▁Leka	-4661
▁kuka	-4662
▁sedi	-4663
Sepedi	-4664
karolo	-4665
tswala	-4666
▁legae	-4667
▁ntšhe	-4668
▁tsama	-4669
▁utswa	-4670
laleago	-4671
▁bowena	-4672
▁phethi	-4673
▁hlomphe	-4674
▁hlwahlwa	-4675
▁iphediša	-4676
▁kgathago	-4677
▁kgweding	-4678
▁lekaleka	-4679
▁mekgahlo	-4680
▁lewatleng	-4681
direlaleago	-4682
▁Kgwebišano	-4683
▁dipolitiki	-4684
▁mohlahlobi	-4685
MA	-4686
▁1:	-4687
▁Do	-4688
▁ww	-4689
koko	-4690
▁194	-4691
▁abi	-4692
▁gwe	-4693
▁olu	-4694
▁oma	-4695
▁uma	-4696
▁www	-4697
petla	-4698
šwago	-4699
▁Dilo	-4700
▁šuth	-4701
godimo	-4702
▁Dihlo	-4703
▁tsoma	-4704
reletša	-4705
▁enetši	-4706
▁kgotha	-4707
▁lebala	-4708
▁sešupo	-4709
mišenare	-4710
thekniki	-4711
▁Diphošo	-4712
▁eletšwa	-4713
▁projeke	-4714
▁swaraga	-4715
tšhošetši	-4716
▁Lebelela	-4717
▁ditaetšo	-4718
▁kgethile	-4719
▁lekgetho	-4720
▁mongwalo	-4721
▁theeletšo	-4722
▁tlhahlobo	-4723
▁hlaotšwego	-4724
▁dinolofatši	-4725
▁tšwetšapele	-4726
▁badišišitšwe	-4727
TA	-4728
vo	-4729
ETI	-4730
IFA	-4731
ephe	-4732
kazi	-4733
swao	-4734
tive	-4735
▁Cha	-4736
▁age	-4737
▁set	-4738
▁Dina	-4739
▁Mohu	-4740
▁maru	-4741
▁mene	-4742
dišana	-4743
karabo	-4744
▁Kgato	-4745
▁Thoma	-4746
▁fenya	-4747
kaganyo	-4748
▁Ditona	-4749
▁Tekolo	-4750
▁golaga	-4751
▁lebese	-4752
▁sereti	-4753
kgetheng	-4754
▁belegwe	-4755
▁potlako	-4756
▁tokollo	-4757
▁felelago	-4758
▁fetogile	-4759
▁kgopetše	-4760
kišitšwego	-4761
▁Mokgopedi	-4762
▁Netefatša	-4763
▁Seisimane	-4764
▁Ditiragalo	-4765
▁Kgoboketšo	-4766
▁phatlalala	-4767
▁diintasteri	-4768
▁mohlomongwe	-4769
ila	-4770
tele	-4771
▁436	-4772
▁Swa	-4773
kholo	-4774
kubje	-4775
ngele	-4776
omiša	-4777
tetšo	-4778
tlolo	-4779
▁2002	-4780
▁Bago	-4781
▁sese	-4782
▁seti	-4783
▁thab	-4784
mišene	-4785
▁THARO	-4786
▁botše	-4787
▁dinku	-4788
▁lahla	-4789
▁leuba	-4790
▁šitwa	-4791
▁Mohuta	-4792
▁Nakong	-4793
▁Thekga	-4794
▁nyetše	-4795
katsheko	-4796
troleamo	-4797
▁Balekwa	-4798
▁Pukwana	-4799
▁mahlano	-4800
▁rwelego	-4801
tlhabollo	-4802
▁Dikomiti	-4803
▁Malwetši	-4804
▁dihlatse	-4805
▁letšhogo	-4806
▁thekgago	-4807
llathekeng	-4808
▁Kakaretšo	-4809
▁mafapheng	-4810
phethephethe	-4811
▁ditatamente	-4812
▁motšwaoswere	-4813
▁motšwasehlabelo	-4814
fau	-4815
gri	-4816
pwe	-4817
mamo	-4818
riel	-4819
tale	-4820
tladi	-4821
▁Bašo	-4822
▁loku	-4823
▁lwala	-4824
▁thome	-4825
▁lebiša	-4826
onafatšo	-4827
▁feletša	-4828
▁methalo	-4829
▁setsebi	-4830
▁phenšene	-4831
▁bušeletša	-4832
▁dikokwane	-4833
▁ngwadilwe	-4834
▁tsošološa	-4835
▁Sekhukhune	-4836
▁setsopolwa	-4837
MO	-4838
ELE	-4839
bha	-4840
kei	-4841
mbe	-4842
tor	-4843
▁2:	-4844
▁90	-4845
ilwe	-4846
mali	-4847
ntha	-4848
▁(4)	-4849
▁Baa	-4850
hwene	-4851
kaone	-4852
tilwe	-4853
boroko	-4854
▁MOETI	-4855
▁Maina	-4856
▁Nnete	-4857
▁dinga	-4858
▁rwele	-4859
keletšo	-4860
▁Mabaka	-4861
▁Modupi	-4862
▁belega	-4863
▁dikete	-4864
▁merafe	-4865
▁romele	-4866
▁šomile	-4867
▁šupago	-4868
▁Matseno	-4869
▁tsebiše	-4870
setlwaedi	-4871
▁Badiredi	-4872
▁Dikgwebo	-4873
▁Sephetho	-4874
▁dirišana	-4875
▁tlogetše	-4876
▁twantšho	-4877
▁amegilego	-4878
▁badirelwa	-4879
▁boitshepo	-4880
▁ikgantšha	-4881
▁kgethilwe	-4882
▁amogelwago	-4883
▁tšhilafatšo	-4884
KO	-4885
nfe	-4886
▁40	-4887
gane	-4888
llwe	-4889
riki	-4890
▁eku	-4891
▁ine	-4892
▁iri	-4893
.2009	-4894
phile	-4895
pišwa	-4896
trara	-4897
▁SARS	-4898
▁duma	-4899
▁meko	-4900
▁seko	-4901
fokodi	-4902
kopano	-4903
mešomo	-4904
▁tlame	-4905
▁Legato	-4906
▁Tsheko	-4907
▁holega	-4908
▁tlhaka	-4909
▁Johanne	-4910
▁Makhado	-4911
▁kankere	-4912
▁taolong	-4913
▁Dikgetho	-4914
▁beakanye	-4915
▁fapanago	-4916
▁lekanela	-4917
▁mollwane	-4918
▁dipholisi	-4919
▁hlokagala	-4920
▁kgoeletšo	-4921
▁kgokagana	-4922
▁tšhupetšo	-4923
▁ditsopolwa	-4924
▁tšwelapele	-4925
▁beakanyetša	-4926
▁tshenyegelo	-4927
ST	-4928
▁Al	-4929
gešo	-4930
indi	-4931
▁mpa	-4932
hlang	-4933
tlong	-4934
▁FIFA	-4935
▁Jula	-4936
▁koma	-4937
▁mele	-4938
▁moši	-4939
gišano	-4940
šetšwa	-4941
▁nyako	-4942
▁bogare	-4943
▁gatiša	-4944
▁ngwalo	-4945
baboroko	-4946
▁Sesotho	-4947
▁boikano	-4948
▁dirišwe	-4949
▁emetšwe	-4950
▁kwagale	-4951
▁matsapa	-4952
▁neelano	-4953
▁tlhohlo	-4954
▁Mamabolo	-4955
▁bannyane	-4956
▁lebelele	-4957
▁lepokisi	-4958
▁dikgobalo	-4959
▁hlokomele	-4960
▁kgopelago	-4961
▁mathateng	-4962
▁nyalelano	-4963
▁tsošološo	-4964
▁ngwadišitšwe	-4965
CIS	-4966
nku	-4967
pwa	-4968
tes	-4969
buru	-4970
funo	-4971
kate	-4972
uale	-4973
▁Nko	-4974
watle	-4975
▁fola	-4976
▁gešo	-4977
▁1998.	-4978
▁alafa	-4979
▁bjana	-4980
▁efela	-4981
▁gauta	-4982
▁kgoga	-4983
▁ukuba	-4984
tšušene	-4985
▁Mphaka	-4986
▁bobolo	-4987
▁ditone	-4988
▁gagolo	-4989
tlalatši	-4990
▁hlalosa	-4991
▁tahlego	-4992
▁baahlodi	-4993
▁hlaelela	-4994
▁hlagišwa	-4995
▁tšwetšwa	-4996
▁Mabokgoni	-4997
▁Maitekelo	-4998
▁kgotlelelo	-4999
▁tšhoganyetšo	-5000
nc	-5001
ue	-5002
dla	-5003
▁22	-5004
▁II	-5005
bole	-5006
lume	-5007
siti	-5008
zulu	-5009
▁195	-5010
ngore	-5011
▁area	-5012
▁disa	-5013
▁kgwa	-5014
▁ohle	-5015
etšedi	-5016
ngwane	-5017
thalwa	-5018
▁Julae	-5019
▁mareo	-5020
▁mmona	-5021
▁thuba	-5022
▁tlabe	-5023
frastra	-5024
rantamo	-5025
rutwana	-5026
▁Dipalo	-5027
▁Tšatši	-5028
▁Yuniti	-5029
▁ditšhe	-5030
▁hlohla	-5031
▁hlotše	-5032
▁šomego	-5033
▁Taodišo	-5034
▁bonyane	-5035
▁hlalosi	-5036
▁laetšwe	-5037
▁mmušong	-5038
▁Mologadi	-5039
▁boleloko	-5040
▁diyuniti	-5041
▁magatong	-5042
▁moholegi	-5043
▁thibelwa	-5044
▁tswalano	-5045
▁fošagetše	-5046
▁hlokomolo	-5047
▁sephodisa	-5048
▁Rejistrara	-5049
▁kgapeletšo	-5050
▁kgotsofatše	-5051
▁phrobentshe	-5052
DF	-5053
ad	-5054
ol	-5055
011	-5056
batho	-5057
kgale	-5058
ktšha	-5059
motho	-5060
tweng	-5061
▁abja	-5062
▁bobe	-5063
▁ruma	-5064
tšhila	-5065
▁South	-5066
▁Trans	-5067
▁bokae	-5068
▁thiba	-5069
▁tsoša	-5070
lokotsi	-5071
tirišwa	-5072
▁Tlhago	-5073
▁bekeng	-5074
▁bomang	-5075
▁karoga	-5076
▁tšeela	-5077
▁bapatša	-5078
▁tsebego	-5079
tšweletšo	-5080
▁Mabakeng	-5081
▁Masepala	-5082
▁Senthara	-5083
▁bothakga	-5084
▁modiriši	-5085
▁plantere	-5086
▁poeletšo	-5087
▁sekoloto	-5088
▁sefahlego	-5089
▁swanelago	-5090
profešenale	-5091
▁boitshwaro	-5092
▁dirišitšwe	-5093
▁kgotlelela	-5094
▁Dikgokagano	-5095
▁ditshwaotshwao	-5096
▁melaotshepetšo	-5097
ute	-5098
▁6.	-5099
Thek	-5100
tago	-5101
mpopo	-5102
ntshi	-5103
stere	-5104
▁mebe	-5105
olotši	-5106
pediši	-5107
thekgi	-5108
tirelo	-5109
unione	-5110
▁Dithu	-5111
▁bakge	-5112
▁hlame	-5113
▁hlapi	-5114
▁rekho	-5115
▁MEBEDI	-5116
▁bofora	-5117
▁dingwa	-5118
▁kgolwa	-5119
▁phatla	-5120
Thekwini	-5121
▁African	-5122
▁Phankga	-5123
▁dutšego	-5124
▁emelago	-5125
▁kopanyo	-5126
▁maabane	-5127
▁ntšhiwa	-5128
▁tsenago	-5129
▁tšwetše	-5130
▁lekanago	-5131
▁polelong	-5132
▁tlhaselo	-5133
▁tsamaišo	-5134
▁loketšego	-5135
▁Maseterata	-5136
▁ikemetšego	-5137
▁kgoboketšo	-5138
▁tsentšwego	-5139
frastraktšha	-5140
▁karolwaneng	-5141
▁Moahlodimogolo	-5142
ala	-5143
ent	-5144
lai	-5145
nyu	-5146
ris	-5147
▁32	-5148
▁Fi	-5149
:...	-5150
fana	-5151
▁tau	-5152
▁Kago	-5153
▁Lehu	-5154
▁bafe	-5155
▁dipi	-5156
▁furu	-5157
▁golo	-5158
▁khwe	-5159
bašweu	-5160
ndlela	-5161
poroto	-5162
tlokwa	-5163
▁Kgolo	-5164
▁kanti	-5165
▁kgaba	-5166
▁tonya	-5167
▁tšewe	-5168
sebenza	-5169
▁Bogolo	-5170
▁diarea	-5171
▁ketelo	-5172
▁lemoge	-5173
▁logaga	-5174
▁mofani	-5175
▁raloka	-5176
▁šongwa	-5177
faditšwe	-5178
▁Ditsela	-5179
▁bookelo	-5180
▁kgonege	-5181
▁lokišwa	-5182
▁Ditefelo	-5183
▁Lephephe	-5184
▁difofane	-5185
▁mošomedi	-5186
▁dithutong	-5187
▁kgonagala	-5188
▁lephodisa	-5189
▁itokišetša	-5190
▁tlhathollo	-5191
▁Bagononelwa	-5192
▁Palamenteng	-5193
▁fošagetšego	-5194
▁peakanyetšo	-5195
▁ditekanyetšo	-5196
ena	-5197
swe	-5198
tia	-5199
▁Au	-5200
▁IC	-5201
▁NC	-5202
bili	-5203
temo	-5204
ture	-5205
▁500	-5206
▁rea	-5207
▁tia	-5208
fonte	-5209
▁1999	-5210
▁Gare	-5211
▁Maga	-5212
▁Tswa	-5213
▁boga	-5214
▁bošo	-5215
▁gaSe	-5216
ntšego	-5217
▁mmuše	-5218
▁seema	-5219
▁seswa	-5220
kgogedi	-5221
▁Badudi	-5222
▁Mogala	-5223
▁boyona	-5224
▁ganong	-5225
pelaetšo	-5226
tšistara	-5227
▁basenyi	-5228
▁belegwa	-5229
▁boditše	-5230
▁letswai	-5231
▁masogana	-5232
▁motšhene	-5233
khanselara	-5234
▁laeditšwe	-5235
▁phraebete	-5236
▁ditharollo	-5237
▁letetšwego	-5238
▁hlalošitšwe	-5239
EC	-5240
om	-5241
boa	-5242
zwa	-5243
▁36	-5244
biti	-5245
gabo	-5246
▁Apo	-5247
ction	-5248
▁Bong	-5249
▁Tiro	-5250
▁Tšea	-5251
▁akgo	-5252
▁diše	-5253
▁lang	-5254
▁melo	-5255
▁papa	-5256
▁rute	-5257
▁sale	-5258
▁tsho	-5259
▁zoku	-5260
▁arabe	-5261
▁seela	-5262
nyagelo	-5263
▁Lerato	-5264
▁fetiše	-5265
▁nngele	-5266
▁pomipa	-5267
▁tsebje	-5268
▁Mathomo	-5269
▁Spikara	-5270
▁hlahlwa	-5271
▁pontšho	-5272
▁Molawana	-5273
▁Pretoria	-5274
▁dikarata	-5275
▁fetolela	-5276
▁lokollwa	-5277
▁melaetša	-5278
▁metšhelo	-5279
▁motswako	-5280
▁nabilego	-5281
▁nyalelane	-5282
▁phagamego	-5283
▁porofensi	-5284
▁thekontle	-5285
▁thibelago	-5286
▁bolokegile	-5287
▁boitekanelo	-5288
15	-5289
RP	-5290
MME	-5291
▁BO	-5292
▁vi	-5293
agwe	-5294
bula	-5295
diše	-5296
logo	-5297
tene	-5298
tere	-5299
▁Mmu	-5300
Maize	-5301
wetša	-5302
▁Pušo	-5303
▁etša	-5304
▁gono	-5305
▁lala	-5306
▁lebi	-5307
▁mebo	-5308
▁rere	-5309
▁tuma	-5310
dišago	-5311
tfolio	-5312
▁Ariel	-5313
▁belae	-5314
▁meeno	-5315
▁phoko	-5316
kitlana	-5317
▁Leleme	-5318
▁Baemedi	-5319
▁arotšwe	-5320
▁diranta	-5321
▁kakhulu	-5322
▁thomiša	-5323
▁Batswadi	-5324
▁Dikarabo	-5325
▁Dikreiti	-5326
▁barekiši	-5327
▁monyetla	-5328
▁setulong	-5329
khunkhwane	-5330
▁ahlaahlwa	-5331
▁hlatholla	-5332
▁mothaladi	-5333
▁Bahlankedi	-5334
▁dipolaseng	-5335
▁phetišetšo	-5336
▁sehlopheng	-5337
▁batheeletši	-5338
▁swarelelago	-5339
▁tsebagatšwa	-5340
WE	-5341
xi	-5342
ana	-5343
bio	-5344
hlwe	-5345
lthi	-5346
mini	-5347
tlae	-5348
yara	-5349
▁ANC	-5350
▁SMS	-5351
▁Thi	-5352
llago	-5353
phefo	-5354
stiki	-5355
tlane	-5356
▁Noko	-5357
▁Pula	-5358
▁moga	-5359
▁Appli	-5360
▁Cheri	-5361
▁Tseba	-5362
▁beago	-5363
▁itshe	-5364
▁kgang	-5365
▁phefo	-5366
fontein	-5367
selegae	-5368
▁Lesolo	-5369
▁Tirišo	-5370
▁atrese	-5371
▁dinoka	-5372
▁dipola	-5373
▁diwate	-5374
▁felege	-5375
▁mebala	-5376
▁moyeng	-5377
▁temong	-5378
nferense	-5379
▁Limpopo	-5380
▁bonwago	-5381
▁dibouto	-5382
▁hlokofa	-5383
▁laetšwa	-5384
▁letlalo	-5385
▁thibele	-5386
▁Lebakeng	-5387
▁Seafrika	-5388
▁Tatelano	-5389
▁kgwebong	-5390
▁maAfrika	-5391
▁semeetse	-5392
▁boitšhupo	-5393
▁dipapatšo	-5394
▁fihlelele	-5395
▁gapeletšega	-5396
▁thaletšwego	-5397
▁dingangišano	-5398
")	-5399
5)	-5400
NT	-5401
am	-5402
ger	-5403
pri	-5404
▁AU	-5405
LELO	-5406
bidu	-5407
dika	-5408
loki	-5409
riri	-5410
sole	-5411
▁Bri	-5412
▁Mmo	-5413
kgang	-5414
leime	-5415
tsebe	-5416
tsepe	-5417
▁0860	-5418
▁Goba	-5419
▁Jana	-5420
▁Madi	-5421
▁Mago	-5422
▁Regi	-5423
▁buna	-5424
▁lato	-5425
▁memo	-5426
▁moro	-5427
▁mphe	-5428
▁nkgo	-5429
▁tala	-5430
▁tpwe	-5431
magadi	-5432
▁apere	-5433
▁beile	-5434
▁botee	-5435
▁ipile	-5436
▁mafsa	-5437
thetong	-5438
tofatšo	-5439
▁Ditšhu	-5440
▁Lekola	-5441
▁Lemoga	-5442
▁Lufuno	-5443
▁Ngwako	-5444
▁fasana	-5445
▁kolobe	-5446
▁kotara	-5447
▁nepiša	-5448
▁tlaišo	-5449
liniking	-5450
▁Pholisi	-5451
▁entšene	-5452
▁hlakane	-5453
▁hlolega	-5454
▁makatša	-5455
▁tšerego	-5456
▁bofokodi	-5457
▁dikoloto	-5458
▁ikhwetša	-5459
▁makaleng	-5460
▁mannyane	-5461
▁palogare	-5462
▁tlišwago	-5463
▁hlabollwa	-5464
▁šaletšego	-5465
▁kgethilego	-5466
▁lekalekane	-5467
▁semeetseng	-5468
▁kwalakwatšo	-5469
▁tsenyeletša	-5470
▁dithulaganyo	-5471
▁oketšegilego	-5472
▁hlakahlakanya	-5473
▁sephethephethe	-5474
1)	-5475
NE	-5476
bhi	-5477
der	-5478
kae	-5479
kto	-5480
hube	-5481
piwa	-5482
zane	-5483
hlola	-5484
thego	-5485
▁June	-5486
▁SADC	-5487
▁ikhu	-5488
▁reke	-5489
▁Poelo	-5490
▁Taelo	-5491
▁Willi	-5492
▁ithek	-5493
▁letša	-5494
▁tlhwe	-5495
▁tšela	-5496
malanga	-5497
potlana	-5498
▁Mantšu	-5499
▁Mošomi	-5500
▁Yuropa	-5501
▁fetela	-5502
▁nyakwa	-5503
▁dikholo	-5504
▁moswana	-5505
▁ngakeng	-5506
▁Janaware	-5507
▁dikabelo	-5508
▁dinakong	-5509
▁molekani	-5510
▁phethile	-5511
▁šitišago	-5512
▁Tiragatšo	-5513
▁amogelago	-5514
▁diphapoši	-5515
▁swarelela	-5516
▁tsenelelo	-5517
▁bulegilego	-5518
▁maithomelo	-5519
▁mebasepala	-5520
▁Motšweletši	-5521
▁maatlakgogedi	-5522
12	-5523
SE	-5524
eke	-5525
nja	-5526
ssi	-5527
▁Ki	-5528
gape	-5529
ithi	-5530
ning	-5531
rade	-5532
tego	-5533
▁Ela	-5534
▁Mpu	-5535
▁for	-5536
▁tli	-5537
nyami	-5538
▁dili	-5539
▁tshi	-5540
holana	-5541
koloko	-5542
pologo	-5543
▁direi	-5544
▁itlho	-5545
▁mpšha	-5546
indikhe	-5547
▁bafani	-5548
▁botebo	-5549
▁legoro	-5550
▁lerole	-5551
▁magora	-5552
▁Dithoto	-5553
▁Kgorong	-5554
▁Kuranta	-5555
▁Mathata	-5556
▁bahloki	-5557
▁bokgole	-5558
▁lokolla	-5559
▁tshepha	-5560
▁Dinyakwa	-5561
▁Magareng	-5562
▁Molaetša	-5563
▁balekane	-5564
▁bodikela	-5565
▁letswele	-5566
▁ngwanaka	-5567
▁tsentšwe	-5568
▁eThekwini	-5569
▁golegilwe	-5570
▁hlotšwego	-5571
▁ikarabela	-5572
▁Diphoofolo	-5573
▁dikopanong	-5574
▁ikemišetša	-5575
▁mpshafatša	-5576
▁banyakišiši	-5577
▁diphadišano	-5578
▁mahlakoreng	-5579
▁Johannesburg	-5580
▁diputseletšo	-5581
▁tirišanommogo	-5582
▁netefaditšwego	-5583
▁mekgwatshepetšo	-5584
SI	-5585
gh	-5586
000	-5587
sto	-5588
lusi	-5589
seka	-5590
▁Izi	-5591
ningi	-5592
▁1994	-5593
▁2004	-5594
▁Bolo	-5595
▁NCOP	-5596
▁teba	-5597
etlele	-5598
ngwaga	-5599
▁2000.	-5600
▁Boeti	-5601
▁diela	-5602
▁futhi	-5603
▁phišo	-5604
▁tlaba	-5605
hwibidu	-5606
kgobadi	-5607
▁bonego	-5608
▁putswa	-5609
▁sefoka	-5610
▁sekepe	-5611
▁šetšwe	-5612
▁Aporele	-5613
▁godišwa	-5614
▁itirela	-5615
▁kgobalo	-5616
▁lahlege	-5617
▁mahlong	-5618
▁ngwalwe	-5619
▁romelwe	-5620
▁senyega	-5621
▁setsopo	-5622
▁Direkoto	-5623
▁lebogiša	-5624
▁lebopong	-5625
▁lefelela	-5626
▁ngwakong	-5627
▁rarollwa	-5628
▁sedumedi	-5629
▁bohlabela	-5630
▁dikgonaga	-5631
▁lebelelwe	-5632
▁lebišitše	-5633
▁Kgorokgolo	-5634
▁dilaesense	-5635
▁kgabaganya	-5636
▁Dikhamphani	-5637
▁Mohlomongwe	-5638
▁kgopetšwego	-5639
▁mmušeletšwa	-5640
▁tlhabollong	-5641
▁motšhotšhisi	-5642
▁tlhohleletšo	-5643
▁metsesetoropo	-5644
CE	-5645
SB	-5646
ii	-5647
zu	-5648
kšo	-5649
▁Um	-5650
▁wi	-5651
hadi	-5652
kola	-5653
sane	-5654
prele	-5655
ville	-5656
▁Nofe	-5657
▁bara	-5658
▁baro	-5659
dilego	-5660
kerasi	-5661
thetho	-5662
▁Botho	-5663
▁Efela	-5664
▁Tšona	-5665
▁betha	-5666
▁bulwa	-5667
▁hlapa	-5668
▁ipona	-5669
▁phege	-5670
▁phuru	-5671
▁tliše	-5672
isemane	-5673
petlele	-5674
ranteng	-5675
▁Aprele	-5676
▁bogela	-5677
▁fekese	-5678
▁sešole	-5679
ntšhitše	-5680
▁Lahlang	-5681
▁Matsepe	-5682
▁borutho	-5683
▁dipanka	-5684
▁kgopele	-5685
▁menwana	-5686
▁Dipapadi	-5687
▁boitlamo	-5688
▁ditumelo	-5689
▁ikopanye	-5690
▁latelana	-5691
▁sebolaya	-5692
▁dihlangwa	-5693
▁kelohloko	-5694
▁letsogong	-5695
▁šireletše	-5696
▁beakantšwe	-5697
▁ditoropong	-5698
▁thwetšwego	-5699
▁ditlhahlobo	-5700
▁dumelelwago	-5701
kgobadingwalo	-5702
▁infrastraktšha	-5703
SC	-5704
up	-5705
▁CC	-5706
▁al	-5707
dume	-5708
rešo	-5709
▁Por	-5710
gwebi	-5711
hlale	-5712
phela	-5713
tlile	-5714
▁Lepa	-5715
▁SETA	-5716
▁diho	-5717
▁lefi	-5718
▁nkga	-5719
▁tswe	-5720
fofane	-5721
lumeni	-5722
mologa	-5723
negišo	-5724
tlwana	-5725
▁Kwena	-5726
▁Mampu	-5727
▁Ntlha	-5728
▁Panka	-5729
▁išago	-5730
▁phiri	-5731
▁sefsa	-5732
tlapelo	-5733
tšofadi	-5734
▁Hwetša	-5735
▁difoka	-5736
▁dikhom	-5737
▁dinawa	-5738
▁humane	-5739
▁kgotla	-5740
▁kitima	-5741
▁kumele	-5742
▁tlatše	-5743
hlilwego	-5744
kgethelo	-5745
▁Bophelo	-5746
▁bontšhe	-5747
▁fahlela	-5748
▁hlomile	-5749
▁ikemela	-5750
▁lahlela	-5751
▁makgolo	-5752
▁sehlogo	-5753
▁tlišago	-5754
▁Badišiša	-5755
▁dikadimo	-5756
▁dikenywa	-5757
▁diregile	-5758
▁hlapetša	-5759
▁nyakwago	-5760
▁sengwalo	-5761
▁thušitše	-5762
▁tshepelo	-5763
▁tshwenya	-5764
khemikhale	-5765
pharephare	-5766
▁mananeong	-5767
▁sekasekwa	-5768
▁Boipiletšo	-5769
▁Mongwaledi	-5770
▁Mpumalanga	-5771
▁oketšegile	-5772
▁porokerama	-5773
▁botšeakarolo	-5774
▁kharikhulamo	-5775
▁setsopolweng	-5776
BO	-5777
ul	-5778
ids	-5779
tio	-5780
▁Ad	-5781
berg	-5782
bila	-5783
cial	-5784
didi	-5785
foka	-5786
gele	-5787
ripa	-5788
tagi	-5789
ufau	-5790
▁man	-5791
▁oka	-5792
peisi	-5793
▁Thwa	-5794
▁diki	-5795
▁diru	-5796
▁soku	-5797
ilwego	-5798
kologi	-5799
psaete	-5800
▁Kgane	-5801
▁Nkele	-5802
▁phele	-5803
▁phumo	-5804
▁rutha	-5805
▁POLELO	-5806
▁babadi	-5807
▁dithek	-5808
▁lefiša	-5809
▁ntweng	-5810
▁nyenye	-5811
▁sebete	-5812
▁thaere	-5813
pshikela	-5814
šetšwago	-5815
▁gatišwa	-5816
▁mahlale	-5817
▁makgoni	-5818
▁mmileng	-5819
▁moswari	-5820
nthinente	-5821
▁kopanego	-5822
▁lefaufau	-5823
▁mokgahlo	-5824
▁molatong	-5825
▁ngongore	-5826
▁polokelo	-5827
▁Kgatelelo	-5828
▁moletlong	-5829
▁batšwantle	-5830
▁thomelontle	-5831
▁tladitšwego	-5832
▁tlišitšwego	-5833
▁phethagetšego	-5834
▁Bolaodiphethiši	-5835
NO	-5836
.2.	-5837
kom	-5838
▁lu	-5839
faka	-5840
nisi	-5841
rafi	-5842
tlhe	-5843
wile	-5844
▁Bra	-5845
▁Bre	-5846
▁Nel	-5847
▁ngi	-5848
Batho	-5849
rwalo	-5850
theto	-5851
tions	-5852
trolo	-5853
tšoba	-5854
▁Bank	-5855
▁hlae	-5856
▁ipha	-5857
▁mafu	-5858
▁mata	-5859
▁reko	-5860
▁seto	-5861
belano	-5862
dišišo	-5863
foleng	-5864
nyuale	-5865
tsoalo	-5866
▁mmepe	-5867
betšego	-5868
kgopelo	-5869
sporoto	-5870
▁Mohola	-5871
▁atlege	-5872
▁kamego	-5873
▁mahala	-5874
▁mohlwa	-5875
▁nokeng	-5876
▁ponelo	-5877
▁seboka	-5878
▁yuniti	-5879
▁Balaodi	-5880
▁Basotho	-5881
▁Tholana	-5882
▁Trasete	-5883
▁dumetše	-5884
▁kwalago	-5885
▁lepheko	-5886
▁maswika	-5887
▁robetše	-5888
▁sepetše	-5889
▁Dikarolo	-5890
▁Tlhamego	-5891
▁amogelwe	-5892
▁hlotšego	-5893
▁komelelo	-5894
▁kopanywa	-5895
▁modirong	-5896
▁Bohlabela	-5897
▁abetšwego	-5898
▁bakgopedi	-5899
▁diprojeke	-5900
▁ditlapele	-5901
▁kgakanego	-5902
▁koketšego	-5903
▁lekgarebe	-5904
▁mothwalwa	-5905
▁rekišetša	-5906
▁bengmešomo	-5907
▁kgokaganya	-5908
▁khemikhale	-5909
▁tshedimopo	-5910
▁ditshwanelo	-5911
▁kaonafaditšwego	-5912
ast	-5913
nsa	-5914
sem	-5915
▁Tl	-5916
bare	-5917
fita	-5918
holo	-5919
inpu	-5920
mang	-5921
ntpi	-5922
poki	-5923
tegi	-5924
stina	-5925
tollo	-5926
▁000.	-5927
▁GCIS	-5928
▁pšha	-5929
dintši	-5930
fularo	-5931
letšhe	-5932
tapolo	-5933
▁India	-5934
▁lehlo	-5935
▁Dipego	-5936
hulumeni	-5937
katekano	-5938
kholotši	-5939
kontraka	-5940
▁belaela	-5941
▁botseta	-5942
▁dikhopi	-5943
▁gašetša	-5944
▁phedišo	-5945
▁Nofemere	-5946
▁boeletša	-5947
▁ditabeng	-5948
▁emetšego	-5949
▁phoofolo	-5950
▁sekhwama	-5951
▁tšhomong	-5952
▁Seisemane	-5953
▁barutwana	-5954
▁dišupommu	-5955
▁bokagodimo	-5956
▁sethekniki	-5957
▁Repabliking	-5958
▁Theknolotši	-5959
▁lebenkeleng	-5960
▁lebeletšwego	-5961
▁lebišitšwego	-5962
▁rulagantšwego	-5963
wu	-5964
bra	-5965
ins	-5966
kse	-5967
nts	-5968
▁NA	-5969
▁Ve	-5970
▁kw	-5971
ling	-5972
lisa	-5973
mete	-5974
ndle	-5975
radi	-5976
tiwa	-5977
šago	-5978
▁omi	-5979
tseng	-5980
▁Isra	-5981
▁Okto	-5982
▁kete	-5983
▁sela	-5984
kibelo	-5985
koloni	-5986
tušene	-5987
▁Ditha	-5988
▁Mmipe	-5989
▁Swele	-5990
▁kwezi	-5991
▁thupa	-5992
▁tšhwa	-5993
rephare	-5994
▁begela	-5995
▁bopago	-5996
▁lahlwa	-5997
▁lefele	-5998
▁montši	-5999
▁ngapha	-6000
▁ratana	-6001
▁Dingaka	-6002
▁Ekonomi	-6003
▁Makgowa	-6004
▁Mampuru	-6005
▁Bohlokwa	-6006
▁Sefularo	-6007
▁akhaonte	-6008
▁ditigelo	-6009
▁menagano	-6010
▁porojeke	-6011
▁tlhorišo	-6012
▁tšeetšwe	-6013
hrobentshe	-6014
▁Porofense	-6015
▁kagoleswa	-6016
▁mabenkele	-6017
▁mmarakeng	-6018
▁tswalelwa	-6019
▁boithomelo	-6020
▁ditikologo	-6021
▁ditumelelo	-6022
▁boipelaetšo	-6023
▁dikantorong	-6024
▁sengwalweng	-6025
▁tšweletšego	-6026
▁ditshenyagelo	-6027
20	-6028
Ge	-6029
RA	-6030
RO	-6031
as	-6032
ys	-6033
SAL	-6034
rch	-6035
▁Hu	-6036
▁do	-6037
Mpha	-6038
nisa	-6039
pora	-6040
tšea	-6041
welo	-6042
▁201	-6043
▁Kua	-6044
▁Ste	-6045
▁lle	-6046
▁meo	-6047
▁see	-6048
Monna	-6049
dulla	-6050
nnego	-6051
theng	-6052
▁1993	-6053
▁Mošu	-6054
▁Tšhu	-6055
▁Yona	-6056
▁gole	-6057
▁hira	-6058
▁koba	-6059
▁seba	-6060
kgweng	-6061
▁2010.	-6062
▁Ditla	-6063
▁ganwa	-6064
▁gweba	-6065
▁kgane	-6066
▁kheše	-6067
▁kwelo	-6068
▁moepo	-6069
fokwana	-6070
phedišo	-6071
▁Lebowa	-6072
▁Legora	-6073
▁boleta	-6074
▁dipula	-6075
▁gopole	-6076
▁kgaoga	-6077
▁madira	-6078
▁ngwako	-6079
▁semelo	-6080
▁hlasela	-6081
▁mohlare	-6082
▁nošetša	-6083
▁trasete	-6084
▁boletšwe	-6085
▁difilimi	-6086
▁diretšwe	-6087
▁moanegwa	-6088
▁tumilego	-6089
▁Mathomong	-6090
▁phethilwe	-6091
▁setswalle	-6092
▁therišano	-6093
▁boditšhaba	-6094
▁diphesente	-6095
▁mokgalabje	-6096
▁šireletšwa	-6097
▁Application	-6098
▁dikgonegišo	-6099
▁ikgethilego	-6100
▁hlalositšwego	-6101
▁tselatshepetšo	-6102
1,	-6103
mai	-6104
opo	-6105
kthe	-6106
ndla	-6107
šupa	-6108
▁Mei	-6109
▁nta	-6110
neelo	-6111
nyaka	-6112
▁Empa	-6113
▁Radi	-6114
▁bina	-6115
▁bupi	-6116
▁diro	-6117
▁ikwe	-6118
▁koku	-6119
▁laka	-6120
▁lese	-6121
▁raka	-6122
▁tona	-6123
thwago	-6124
▁letše	-6125
▁natšo	-6126
▁tlolo	-6127
išenare	-6128
thotema	-6129
tilwego	-6130
▁Kgwedi	-6131
▁bogobe	-6132
▁boroko	-6133
▁dipese	-6134
▁kilego	-6135
▁manaba	-6136
▁moloko	-6137
▁ngwang	-6138
▁nyatša	-6139
▁rereša	-6140
letšwago	-6141
▁Bontšha	-6142
▁Thulano	-6143
▁bahlano	-6144
▁dumella	-6145
▁manyami	-6146
▁omilego	-6147
▁therešo	-6148
Mphahlele	-6149
leditšego	-6150
▁Bjatladi	-6151
▁Diforomo	-6152
▁National	-6153
▁batamela	-6154
▁fetotšwe	-6155
▁mošomiši	-6156
phihlelelo	-6157
▁amogelega	-6158
▁dipukwana	-6159
▁Disenthara	-6160
▁Maitshwaro	-6161
▁dikgethong	-6162
▁lekanyetša	-6163
▁Mogononelwa	-6164
▁bokgobapuku	-6165
▁fihleletšwe	-6166
▁intastering	-6167
-5	-6168
.'	-6169
30	-6170
:00	-6171
dge	-6172
▁45	-6173
▁Bt	-6174
▁OP	-6175
▁PM	-6176
▁mu	-6177
etši	-6178
mabe	-6179
nder	-6180
▁Ama	-6181
▁Hle	-6182
.2008	-6183
bjang	-6184
clero	-6185
funda	-6186
potšo	-6187
tleko	-6188
twago	-6189
▁Pale	-6190
▁bodu	-6191
▁kara	-6192
▁leši	-6193
▁mage	-6194
▁topa	-6195
gišani	-6196
▁gahla	-6197
▁khiro	-6198
▁makgo	-6199
▁phumu	-6200
nseleng	-6201
tlhahlo	-6202
▁Diporo	-6203
▁Molato	-6204
▁fetoge	-6205
▁tetelo	-6206
ledišiša	-6207
▁ikemego	-6208
▁phumola	-6209
▁tshenko	-6210
koloniale	-6211
poreišene	-6212
▁Seboledi	-6213
▁bafaladi	-6214
▁boahlodi	-6215
▁boiketlo	-6216
▁dikolobe	-6217
▁fetogago	-6218
▁letetšwe	-6219
▁persente	-6220
▁tlhabolo	-6221
▁Kgokagano	-6222
▁Moletlane	-6223
▁diphetošo	-6224
▁kgaetšedi	-6225
▁laolegago	-6226
▁lenyalong	-6227
▁netefatšo	-6228
▁Tumelelano	-6229
▁diretšwego	-6230
▁dirišetšwa	-6231
▁marematlou	-6232
▁websaeteng	-6233
▁Yunibesithi	-6234
▁boikgethelo	-6235
▁moswananoši	-6236
▁Tshekatsheko	-6237
▁khonthinente	-6238
▁taolotshepetšo	-6239
▁Batšwasehlabelo	-6240
-9	-6241
19	-6242
8,	-6243
ok	-6244
dja	-6245
mmo	-6246
pla	-6247
▁34	-6248
▁39	-6249
badi	-6250
misa	-6251
▁Aba	-6252
▁Blo	-6253
▁nko	-6254
▁nti	-6255
▁šwa	-6256
netše	-6257
raema	-6258
siamo	-6259
▁Molo	-6260
▁bewe	-6261
▁diwe	-6262
▁kaba	-6263
▁tele	-6264
istata	-6265
lthiba	-6266
ngweng	-6267
tshela	-6268
▁ngesi	-6269
▁rekwa	-6270
nenyana	-6271
▁Dintlo	-6272
▁Mokhom	-6273
▁balega	-6274
▁diboko	-6275
▁dikgao	-6276
▁ganana	-6277
▁golela	-6278
▁khutša	-6279
▁pegelo	-6280
▁tlhomo	-6281
▁tsitsi	-6282
kopanelo	-6283
pokisana	-6284
tapološo	-6285
▁Phapoši	-6286
▁hlompho	-6287
▁lebišwa	-6288
▁leswika	-6289
▁petrolo	-6290
▁thupišo	-6291
▁tšeelwa	-6292
▁Barutiši	-6293
▁Makgotla	-6294
▁swanetpe	-6295
▁tlhamego	-6296
▁tlišitše	-6297
▁Inšorense	-6298
▁Sehlomola	-6299
▁dithekete	-6300
▁ditsebišo	-6301
▁gatelelwa	-6302
▁lebenkele	-6303
▁makatšago	-6304
▁maphelong	-6305
▁dimenerale	-6306
▁temokerasi	-6307
▁tshelelago	-6308
▁lebeletšego	-6309
▁okeditšwego	-6310
▁swanetšwego	-6311
▁molaosetlwaedi	-6312
ls	-6313
ara	-6314
loo	-6315
▁Wo	-6316
gaba	-6317
gola	-6318
line	-6319
lule	-6320
pipa	-6321
ruri	-6322
▁11.	-6323
▁Gae	-6324
▁Nor	-6325
▁eka	-6326
▁ipu	-6327
▁nep	-6328
▁šia	-6329
nkela	-6330
teine	-6331
▁Dibo	-6332
▁Iran	-6333
▁Ntwa	-6334
▁Rena	-6335
▁bope	-6336
▁dile	-6337
▁kano	-6338
▁pala	-6339
▁Sehla	-6340
▁Theko	-6341
▁dithi	-6342
▁hlale	-6343
▁magae	-6344
raemari	-6345
▁Babaso	-6346
▁Ditiro	-6347
▁Kasete	-6348
▁Kreiti	-6349
▁Lesedi	-6350
▁dumedi	-6351
▁gogela	-6352
▁lebale	-6353
▁tpwele	-6354
kišitšwe	-6355
▁Dibjalo	-6356
▁bapetša	-6357
▁dikotlo	-6358
▁dinthla	-6359
▁huetšwa	-6360
▁loketše	-6361
▁oketšwa	-6362
▁rakgadi	-6363
▁thabeng	-6364
▁thulana	-6365
▁Komišene	-6366
▁Mošomong	-6367
▁atlegile	-6368
▁bathwadi	-6369
▁bosepedi	-6370
▁kganyoga	-6371
▁malokong	-6372
▁phuruphu	-6373
▁sedimoša	-6374
▁šomelago	-6375
▁Theeletša	-6376
▁kgathwago	-6377
▁kgetholla	-6378
▁kgogolego	-6379
▁konteraka	-6380
▁dikontraka	-6381
▁diregilego	-6382
▁kganyogago	-6383
▁lekodišiša	-6384
▁mešongwana	-6385
▁sepolitiki	-6386
▁mabenkeleng	-6387
▁tšweletšong	-6388
▁utswitšwego	-6389
▁dipolelodintši	-6390
11	-6391
IN	-6392
my	-6393
mes	-6394
net	-6395
▁27	-6396
▁35	-6397
▁75	-6398
▁SO	-6399
▁Sc	-6400
hweu	-6401
kepe	-6402
pone	-6403
tiši	-6404
▁Mar	-6405
▁nee	-6406
betša	-6407
lente	-6408
lwazi	-6409
ngena	-6410
nkelo	-6411
nzeka	-6412
senyi	-6413
shilo	-6414
trata	-6415
▁dibi	-6416
▁gase	-6417
▁meši	-6418
▁naye	-6419
▁rete	-6420
hlilwe	-6421
pelela	-6422
pshino	-6423
▁Insti	-6424
▁anega	-6425
▁apare	-6426
▁boema	-6427
▁bofsa	-6428
▁dutla	-6429
▁hlagi	-6430
▁phaka	-6431
▁sekgo	-6432
laganyi	-6433
tlalele	-6434
▁Bolela	-6435
▁Nadine	-6436
▁Portal	-6437
▁dijong	-6438
▁dimpho	-6439
▁ditšho	-6440
▁felago	-6441
▁holofe	-6442
▁kgolwe	-6443
▁sewelo	-6444
▁tisele	-6445
▁tšhabe	-6446
peakanyo	-6447
yalemoya	-6448
▁Kgodišo	-6449
▁amegile	-6450
▁boitlha	-6451
▁felelwa	-6452
▁fetošwa	-6453
▁manyalo	-6454
▁ramolao	-6455
▁sehlare	-6456
▁thabela	-6457
▁tlemaga	-6458
▁Batlokwa	-6459
▁Protšeke	-6460
▁ditefišo	-6461
▁huetšago	-6462
▁lefokong	-6463
▁tafoleng	-6464
▁Dithekisi	-6465
▁Khamphani	-6466
▁Rejistara	-6467
▁bophodisa	-6468
▁ikgethela	-6469
▁itekanela	-6470
▁laetšwego	-6471
▁nyakegego	-6472
▁phadišana	-6473
▁phatišišo	-6474
▁masomepedi	-6475
▁mongwaledi	-6476
▁rulaganywa	-6477
▁sepetšwago	-6478
▁masetlapelo	-6479
▁mpshafatšwa	-6480
▁Tlhohleletšo	-6481
▁diprofenseng	-6482
▁kwelobohloko	-6483
▁molaotlhakwa	-6484
▁sehlophathuto	-6485
BC	-6486
GA	-6487
PO	-6488
ut	-6489
xe	-6490
xo	-6491
dji	-6492
▁29	-6493
fomo	-6494
mone	-6495
▁Fra	-6496
▁NSB	-6497
▁emi	-6498
kgaga	-6499
kšopo	-6500
ntpha	-6501
▁Beng	-6502
▁goro	-6503
▁mohl	-6504
▁mpša	-6505
▁naba	-6506
▁padi	-6507
▁saen	-6508
▁toga	-6509
djadji	-6510
giniki	-6511
setshe	-6512
▁2002.	-6513
▁Motla	-6514
▁Thomo	-6515
▁moagi	-6516
▁pholo	-6517
▁segae	-6518
▁tsoge	-6519
letšana	-6520
▁Mehuta	-6521
▁dikepe	-6522
▁lebake	-6523
▁letela	-6524
▁mpotša	-6525
▁nagane	-6526
▁ntshwa	-6527
▁nyalwa	-6528
▁seroto	-6529
▁tshipi	-6530
▁CheriSe	-6531
▁Dithuto	-6532
▁Sebjana	-6533
▁botšona	-6534
▁lekgolo	-6535
▁swarago	-6536
▁tlhaolo	-6537
▁tsenele	-6538
rakgopelo	-6539
▁balatedi	-6540
▁bathekgi	-6541
▁boineelo	-6542
▁foromong	-6543
▁hudugela	-6544
▁kopanago	-6545
▁leotwana	-6546
▁matswele	-6547
▁mengwako	-6548
▁tšwelele	-6549
▁Dikholego	-6550
▁akaretšwe	-6551
▁dikatlego	-6552
▁itemogela	-6553
▁mpshikela	-6554
▁Mohlahlobi	-6555
▁borakgwebo	-6556
▁gapeletšwa	-6557
▁bokoloniale	-6558
▁ditiragatšo	-6559
▁memorantamo	-6560
▁senyegilego	-6561
▁tekatekanyo	-6562
▁gatišitšwego	-6563
▁dinagamagaeng	-6564
.?	-6565
2,	-6566
).2	-6567
The	-6568
ber	-6569
rds	-6570
ree	-6571
▁4,	-6572
kale	-6573
mina	-6574
posi	-6575
▁Act	-6576
▁Bea	-6577
▁nku	-6578
bilwe	-6579
hlaba	-6580
▁1987	-6581
▁Balo	-6582
▁Dino	-6583
▁Febe	-6584
▁PAIA	-6585
▁apea	-6586
▁diga	-6587
▁fomo	-6588
▁name	-6589
▁thee	-6590
kgwari	-6591
llwago	-6592
logano	-6593
mabele	-6594
molomo	-6595
rologa	-6596
tšhara	-6597
▁Akare	-6598
▁China	-6599
▁Thuta	-6600
▁botla	-6601
▁difsa	-6602
▁hlome	-6603
▁iteba	-6604
▁monya	-6605
▁sello	-6606
▁tlola	-6607
kaganyi	-6608
lelwana	-6609
mbisana	-6610
▁Bakopa	-6611
▁Tokišo	-6612
▁abantu	-6613
▁dikilo	-6614
▁itlama	-6615
▁lebati	-6616
▁magomo	-6617
▁metlae	-6618
▁moreki	-6619
▁mošweu	-6620
▁šetšwa	-6621
thagatšo	-6622
thobollo	-6623
▁Letseno	-6624
▁Meputso	-6625
▁SETAELE	-6626
▁nošetšo	-6627
▁nyakege	-6628
▁pankeng	-6629
▁raMonna	-6630
▁tlamega	-6631
setshenzi	-6632
▁Dikopano	-6633
▁dintlong	-6634
▁ditlhoko	-6635
▁kabelano	-6636
▁kobamelo	-6637
▁madulong	-6638
▁Labohlano	-6639
▁Polokwane	-6640
▁boipshino	-6641
▁dinonyana	-6642
▁fetolelwa	-6643
▁mosetsana	-6644
▁oketšegago	-6645
▁ponelopele	-6646
▁nyalelanago	-6647
▁ditumelelano	-6648
▁Letšatšikgwedi	-6649
▁dibolayangwang	-6650
!"	-6651
by	-6652
ek	-6653
yu	-6654
>10	-6655
nca	-6656
tic	-6657
▁3,	-6658
▁ca	-6659
beki	-6660
fiti	-6661
gems	-6662
gomo	-6663
nege	-6664
pšwa	-6665
thwi	-6666
weng	-6667
▁GEP	-6668
▁MaS	-6669
▁Ngi	-6670
▁Pri	-6671
▁Sto	-6672
▁eja	-6673
▁lli	-6674
▁mon	-6675
faele	-6676
khona	-6677
ntaga	-6678
rware	-6679
▁2007	-6680
▁Cent	-6681
▁Mona	-6682
▁Ramo	-6683
▁Tšeo	-6684
▁baga	-6685
▁koto	-6686
▁mofe	-6687
▁nayo	-6688
▁tura	-6689
khaebe	-6690
▁2003.	-6691
▁akhwi	-6692
▁etšwe	-6693
▁faele	-6694
▁nanya	-6695
spikara	-6696
▁Kgotla	-6697
▁MABEDI	-6698
▁Puledi	-6699
▁botšwa	-6700
▁ipheto	-6701
▁malome	-6702
▁mebila	-6703
▁rekile	-6704
▁wokhwi	-6705
▁Koketšo	-6706
▁Molaong	-6707
▁humanwa	-6708
▁kgalemo	-6709
▁phumula	-6710
mphakathi	-6711
pshafatšo	-6712
▁Maikutlo	-6713
▁dikagare	-6714
▁moeletši	-6715
▁nyenyane	-6716
▁tshekong	-6717
▁Baetapele	-6718
▁dipampiri	-6719
▁ditlabela	-6720
▁indasteri	-6721
▁lokišetša	-6722
▁tlhwekišo	-6723
indikheithi	-6724
▁Dipalopalo	-6725
▁dithekniki	-6726
▁fetotšwego	-6727
▁hwetšagale	-6728
▁kgathotema	-6729
▁mokontraka	-6730
▁dinagamagae	-6731
▁Diporokerama	-6732
▁lokologilego	-6733
▁diyunibesithi	-6734
ef	-6735
bli	-6736
row	-6737
yeo	-6738
▁26	-6739
▁47	-6740
▁Or	-6741
▁mm	-6742
SMME	-6743
ctor	-6744
mera	-6745
sine	-6746
sing	-6747
▁ima	-6748
maize	-6749
pheto	-6750
tlošo	-6751
▁Basi	-6752
▁Kato	-6753
▁Memo	-6754
▁Tsha	-6755
▁boto	-6756
▁reta	-6757
leledi	-6758
saense	-6759
▁2008.	-6760
▁Bafsa	-6761
▁Nnono	-6762
▁diabe	-6763
▁fetše	-6764
▁kgoma	-6765
▁matša	-6766
▁mefsa	-6767
▁mmila	-6768
▁opela	-6769
kgekolo	-6770
▁Kalafi	-6771
▁Magato	-6772
▁baruti	-6773
▁botala	-6774
▁direto	-6775
▁gogago	-6776
▁khutlo	-6777
▁mmitša	-6778
▁seetša	-6779
▁sekeng	-6780
▁semela	-6781
▁setsha	-6782
▁swarwe	-6783
nyenyane	-6784
▁Dihlogo	-6785
▁Phanele	-6786
▁befelwa	-6787
▁kokwane	-6788
▁lehloyo	-6789
▁lekanye	-6790
▁mothuša	-6791
▁akantšwe	-6792
▁akhaonto	-6793
▁beeletša	-6794
▁hlaotšwe	-6795
▁manyuale	-6796
▁tlogelwa	-6797
▁Freistata	-6798
▁batšofadi	-6799
▁dikgorong	-6800
▁netefatše	-6801
▁phapošeng	-6802
▁phedišano	-6803
▁tlwaelega	-6804
▁Mohumagadi	-6805
▁boiphedišo	-6806
▁khomphutha	-6807
▁sekapolelo	-6808
▁seteginiki	-6809
▁kaonafatšwa	-6810
▁gabotsebotse	-6811
▁tlhobaboroko	-6812
▁diinstithušene	-6813
LC	-6814
PA	-6815
01.	-6816
DAC	-6817
ket	-6818
pek	-6819
ron	-6820
▁ID	-6821
humi	-6822
mate	-6823
pole	-6824
ries	-6825
rust	-6826
tine	-6827
yste	-6828
▁120	-6829
▁Isi	-6830
▁ban	-6831
▁eye	-6832
▁nyu	-6833
nfere	-6834
thoko	-6835
▁1997	-6836
▁Dime	-6837
▁Ikge	-6838
▁hula	-6839
▁lele	-6840
▁phae	-6841
▁tpeo	-6842
belela	-6843
elanyo	-6844
thuthu	-6845
▁Badir	-6846
▁thito	-6847
hlaahlo	-6848
kgopolo	-6849
tharong	-6850
▁Magoši	-6851
▁Sereti	-6852
▁bakago	-6853
▁dikere	-6854
▁dikoša	-6855
▁dipudi	-6856
▁goroga	-6857
▁kgathe	-6858
▁maburu	-6859
▁pelong	-6860
▁tsenwa	-6861
negeloko	-6862
▁dumelwa	-6863
▁makaone	-6864
▁mebotse	-6865
▁merwalo	-6866
rulaganyi	-6867
▁akgofiša	-6868
▁basepela	-6869
▁ganetšwa	-6870
▁kerekeng	-6871
▁kgolwane	-6872
▁maotwana	-6873
▁phukubje	-6874
▁thuntšha	-6875
▁tirelong	-6876
▁tlholego	-6877
nferentshe	-6878
presitente	-6879
▁Intasteri	-6880
▁Nyakišišo	-6881
▁boithaopo	-6882
▁dikuranta	-6883
▁dirišitše	-6884
▁kwešišago	-6885
▁tlamegile	-6886
▁Mengwageng	-6887
▁Porokerama	-6888
▁Retšistara	-6889
▁Tekatekano	-6890
▁lebišitšwe	-6891
▁monaganong	-6892
▁putlaganya	-6893
▁ditatofatšo	-6894
▁hlagišitšwe	-6895
▁hlokomelago	-6896
▁šireletšago	-6897
▁Boeleditšwego	-6898
▁Mokhomišenare	-6899
FV	-6900
SO	-6901
at	-6902
▁x	-6903
pei	-6904
▁55	-6905
▁Ar	-6906
fida	-6907
port	-6908
tter	-6909
▁193	-6910
▁30.	-6911
▁Pla	-6912
▁Sha	-6913
▁nte	-6914
AROLO	-6915
betse	-6916
hlare	-6917
phaba	-6918
pitša	-6919
thuše	-6920
▁1995	-6921
▁Mapu	-6922
▁More	-6923
▁Ntla	-6924
▁jago	-6925
▁klae	-6926
▁mafe	-6927
▁pese	-6928
▁pudi	-6929
▁seši	-6930
▁sola	-6931
▁toro	-6932
diagwe	-6933
dinadi	-6934
fisiri	-6935
hlahli	-6936
mogela	-6937
tšwana	-6938
▁Lehea	-6939
▁barwa	-6940
▁itira	-6941
▁letso	-6942
▁masea	-6943
▁phenk	-6944
▁ukuze	-6945
nagatšo	-6946
phemedi	-6947
rotšene	-6948
▁KAROLO	-6949
▁Lebelo	-6950
▁Seripa	-6951
▁badiri	-6952
▁felego	-6953
▁folaga	-6954
▁lekodi	-6955
▁maahlo	-6956
▁moreti	-6957
▁sekgao	-6958
▁sesole	-6959
▁setheo	-6960
▁thakgo	-6961
▁tsenyo	-6962
setšhaba	-6963
▁Ditseno	-6964
▁bongaka	-6965
▁hlokege	-6966
▁kgomaga	-6967
▁khirišo	-6968
▁mokaone	-6969
▁nyalana	-6970
▁thušana	-6971
▁Bašomedi	-6972
▁Dikamano	-6973
▁Kamogelo	-6974
▁Motšhelo	-6975
▁Oktoboro	-6976
▁dingwalo	-6977
▁malebiša	-6978
▁mosepelo	-6979
▁phetetšo	-6980
▁šomilego	-6981
▁dibjalong	-6982
▁dipersente	-6983
▁ditšhitišo	-6984
▁kgopelwago	-6985
▁diporotšeke	-6986
▁diragetšego	-6987
▁sekasekilwe	-6988
▁tlwaelegile	-6989
▁tsitsinkelo	-6990
▁Motšhotšhisi	-6991
PM	-6992
rn	-6993
100	-6994
cal	-6995
lea	-6996
mit	-6997
tli	-6998
▁(6	-6999
▁28	-7000
▁DP	-7001
▁Es	-7002
▁om	-7003
▁or	-7004
SALB	-7005
kene	-7006
rula	-7007
▁(5)	-7008
▁10.	-7009
▁Jan	-7010
▁New	-7011
▁Oli	-7012
▁ago	-7013
▁kli	-7014
▁mee	-7015
▁sen	-7016
011-0	-7017
bantu	-7018
khomo	-7019
mello	-7020
thori	-7021
▁Malo	-7022
▁Moya	-7023
▁Mošo	-7024
▁bota	-7025
▁itse	-7026
▁mabi	-7027
▁riva	-7028
▁seme	-7029
paneng	-7030
porogo	-7031
rebare	-7032
refere	-7033
▁Tšhwa	-7034
▁beela	-7035
▁bokga	-7036
▁llifi	-7037
▁meswa	-7038
▁neelo	-7039
▁phiwo	-7040
▁tanka	-7041
▁thula	-7042
karetpo	-7043
▁Lentšu	-7044
▁Mebušo	-7045
▁Tšhata	-7046
▁bašweu	-7047
▁bonako	-7048
▁emeile	-7049
▁ineela	-7050
▁katana	-7051
▁lenane	-7052
▁mošito	-7053
▁Aterese	-7054
▁Mehlala	-7055
▁ditaere	-7056
▁ikgethe	-7057
▁leabela	-7058
▁lekanya	-7059
▁meagong	-7060
▁tlogelo	-7061
▁Balobedu	-7062
▁Tlhokego	-7063
▁bolokega	-7064
▁ithutile	-7065
▁minerale	-7066
▁tsenetše	-7067
▁tšhutišo	-7068
▁Didirišwa	-7069
▁Dingwalwa	-7070
▁Gonabjale	-7071
▁Ntlatlana	-7072
▁dumeletše	-7073
▁sephiring	-7074
▁diponagalo	-7075
▁dumelelago	-7076
▁mabarebare	-7077
▁bathobašweu	-7078
▁bontšhitšwe	-7079
▁hlohleletšo	-7080
▁phetošopšalo	-7081
▁Melaokakanywa	-7082
▁bohlokwahlokwa	-7083
▁tšhomišanommogo	-7084
ER	-7085
Re	-7086
ui	-7087
fša	-7088
▁US	-7089
jako	-7090
miki	-7091
nere	-7092
tute	-7093
zela	-7094
zimu	-7095
▁Ago	-7096
▁Hei	-7097
▁VAT	-7098
▁ubu	-7099
ballo	-7100
kgoro	-7101
teria	-7102
thero	-7103
▁Land	-7104
▁Maso	-7105
▁Noka	-7106
▁Selo	-7107
▁Tšho	-7108
▁fapo	-7109
▁gaLe	-7110
▁mopo	-7111
▁šila	-7112
etšago	-7113
lereke	-7114
ntšhwe	-7115
poliki	-7116
retšha	-7117
▁apewa	-7118
▁balwe	-7119
▁boagi	-7120
▁gotše	-7121
▁khona	-7122
▁kodwa	-7123
▁phulo	-7124
▁thabe	-7125
faditše	-7126
fikeiti	-7127
▁Kamano	-7128
▁beelwa	-7129
▁bošoro	-7130
▁fetšwa	-7131
▁gontši	-7132
▁hlopha	-7133
▁ithute	-7134
▁lebile	-7135
▁lesedi	-7136
▁mabopo	-7137
▁morena	-7138
▁šalago	-7139
tšentshi	-7140
▁MaShadi	-7141
▁Pebetse	-7142
▁emelela	-7143
▁ganyane	-7144
▁hlotšwe	-7145
▁hwetšwe	-7146
ntšeneere	-7147
residente	-7148
▁Moahlodi	-7149
▁Mokibelo	-7150
▁babogedi	-7151
▁bakgethi	-7152
▁dileteng	-7153
▁dinotagi	-7154
▁ipiletša	-7155
▁katološo	-7156
▁khuduego	-7157
▁leswiswi	-7158
▁rometšwe	-7159
▁senthara	-7160
▁tšhabela	-7161
▁Kantorong	-7162
▁Palestina	-7163
▁dithokgwa	-7164
▁hlokomedi	-7165
▁kgonagale	-7166
▁lebotlelo	-7167
ntšhitšwego	-7168
▁Lekalatiro	-7169
▁Mošupologo	-7170
▁itšhidulla	-7171
▁nyakišišwa	-7172
▁sekakarolo	-7173
▁tšweletšwe	-7174
▁Maitemogelo	-7175
▁akareditšwe	-7176
▁Khoporeišene	-7177
▁sellathekeng	-7178
▁modirelaleago	-7179
NL	-7180
SS	-7181
WP	-7182
ac	-7183
ew	-7184
CED	-7185
NDF	-7186
den	-7187
kri	-7188
les	-7189
mar	-7190
tri	-7191
und	-7192
▁48	-7193
▁en	-7194
▁ng	-7195
▁su	-7196
dula	-7197
kase	-7198
kisa	-7199
kone	-7200
mune	-7201
šele	-7202
▁Con	-7203
▁MEC	-7204
fahlo	-7205
swana	-7206
zweni	-7207
▁Jane	-7208
▁Tšhe	-7209
▁bowa	-7210
▁kama	-7211
▁labo	-7212
▁tsin	-7213
dikela	-7214
gišane	-7215
gwanto	-7216
iletšo	-7217
ratani	-7218
setara	-7219
▁Botse	-7220
▁Phaga	-7221
▁Sekwa	-7222
▁Taudi	-7223
▁angwa	-7224
▁baoki	-7225
▁dinao	-7226
▁elego	-7227
▁hwile	-7228
▁media	-7229
▁molli	-7230
▁radio	-7231
▁saene	-7232
.2009-0	-7233
▁Khutšo	-7234
▁bušago	-7235
▁elelwa	-7236
▁etetše	-7237
▁hlweka	-7238
▁kanego	-7239
▁latele	-7240
▁mmutla	-7241
▁phethe	-7242
▁potego	-7243
▁senywa	-7244
▁Dikotsi	-7245
▁boradia	-7246
▁botsebi	-7247
▁diakhao	-7248
▁direlwa	-7249
▁fetelwa	-7250
▁marotho	-7251
▁meepong	-7252
▁milione	-7253
▁senyago	-7254
▁Peeletšo	-7255
▁Phethišo	-7256
▁Tiragalo	-7257
▁bokgwari	-7258
▁hlwekile	-7259
▁kganyogo	-7260
▁moratiwa	-7261
▁nawasoya	-7262
▁nepagala	-7263
▁swarelwa	-7264
▁tlišetša	-7265
▁tshelela	-7266
▁ditekanyo	-7267
▁dithulusi	-7268
▁theeletpa	-7269
▁bobolokelo	-7270
▁dinawasoya	-7271
▁theeletšwa	-7272
▁tlhabologo	-7273
▁tshekamelo	-7274
▁šišinywago	-7275
▁matšatšikgwedi	-7276
▁kgobokeditšwego	-7277
0,	-7278
Af	-7279
ks	-7280
>92	-7281
WAF	-7282
rsa	-7283
▁33	-7284
bani	-7285
fiwa	-7286
pane	-7287
stro	-7288
tana	-7289
▁Joh	-7290
▁SAC	-7291
dingo	-7292
kethe	-7293
kgobo	-7294
llela	-7295
mpani	-7296
ncane	-7297
nwane	-7298
patši	-7299
stele	-7300
thwii	-7301
▁(1)(	-7302
▁(1).	-7303
▁4367	-7304
▁Elli	-7305
▁Poso	-7306
▁Rama	-7307
▁itha	-7308
▁itše	-7309
▁woku	-7310
galego	-7311
thwana	-7312
▁Hlama	-7313
▁Kotsi	-7314
▁bapha	-7315
▁dikhe	-7316
▁lotwa	-7317
▁manyo	-7318
sentshe	-7319
tleleng	-7320
▁Brenda	-7321
▁Diteko	-7322
▁Letaba	-7323
▁Makala	-7324
▁Maleme	-7325
▁Maswao	-7326
▁Mediro	-7327
▁emišwa	-7328
▁hlaela	-7329
▁lebele	-7330
▁mafula	-7331
▁pukung	-7332
▁setopo	-7333
▁Israele	-7334
▁bopilwe	-7335
▁ditsebe	-7336
▁hlagipa	-7337
▁kuranta	-7338
▁makgowa	-7339
▁phanele	-7340
▁swanele	-7341
▁thabiša	-7342
▁tlogile	-7343
▁Akaretša	-7344
▁Gannyane	-7345
▁Mengwaga	-7346
▁bofelong	-7347
▁bošegong	-7348
▁dibekeng	-7349
▁itshwara	-7350
▁lokologa	-7351
▁matelele	-7352
▁mennyane	-7353
▁motheong	-7354
▁sefofane	-7355
▁sethalwa	-7356
▁swarwago	-7357
▁tsinkelo	-7358
tekanyetšo	-7359
▁akanywago	-7360
▁ekonoming	-7361
▁gobetšego	-7362
▁modirelwa	-7363
▁thutafase	-7364
▁utswitšwe	-7365
nkedimogolo	-7366
▁Dimenerale	-7367
▁Khanseleng	-7368
▁Pharephare	-7369
▁bahlahlobi	-7370
▁dikgontšhi	-7371
▁molokoloko	-7372
▁petroleamo	-7373
▁putseletšo	-7374
▁Mohlomphegi	-7375
▁bonkgetheng	-7376
▁lepatlelong	-7377
▁maatlafatšo	-7378
▁molaotheong	-7379
▁Ditšweletšwa	-7380
▁dikaonafatšo	-7381
▁dikgokaganyo	-7382
Ni	-7383
dan	-7384
nsu	-7385
▁''	-7386
▁(2	-7387
▁3:	-7388
▁51	-7389
fuel	-7390
nnwe	-7391
ntpu	-7392
ping	-7393
sima	-7394
▁250	-7395
▁amo	-7396
▁iii	-7397
▁itu	-7398
diaka	-7399
hledi	-7400
hwana	-7401
njalo	-7402
nkulu	-7403
ntari	-7404
olelo	-7405
rwadi	-7406
tšoko	-7407
▁Kgwa	-7408
▁Koma	-7409
▁Mabe	-7410
▁Sowe	-7411
▁Tema	-7412
▁diba	-7413
▁homo	-7414
▁iphi	-7415
▁kube	-7416
▁leše	-7417
▁masa	-7418
▁nywa	-7419
▁payo	-7420
▁wepe	-7421
▁šupe	-7422
akanya	-7423
kteria	-7424
▁1992.	-7425
▁Akere	-7426
▁MmaSe	-7427
▁Thabo	-7428
▁beine	-7429
▁datha	-7430
▁ditši	-7431
▁išega	-7432
▁kgase	-7433
▁makae	-7434
▁malao	-7435
▁ngezi	-7436
fahloši	-7437
hlanong	-7438
ksimamo	-7439
tshwayo	-7440
šetšago	-7441
▁akanye	-7442
▁boithu	-7443
▁dišere	-7444
▁homola	-7445
▁kelela	-7446
▁khoutu	-7447
▁lapile	-7448
▁lehumo	-7449
▁lekago	-7450
▁lengwa	-7451
▁sebele	-7452
).2011-0	-7453
llwaneng	-7454
odišwana	-7455
phuthara	-7456
thilwego	-7457
▁Kholego	-7458
▁William	-7459
▁arabela	-7460
▁baswari	-7461
▁bonwego	-7462
▁borotho	-7463
▁ithekga	-7464
▁laletša	-7465
▁nyakela	-7466
▁paballo	-7467
▁tshware	-7468
▁Mothwadi	-7469
▁Ngwalela	-7470
▁botebong	-7471
▁dumelago	-7472
▁karogano	-7473
▁kgethago	-7474
▁kgethong	-7475
▁phošollo	-7476
▁sekopana	-7477
▁Kakaretpo	-7478
▁amogelege	-7479
▁lakaletša	-7480
▁okeditšwe	-7481
▁tlogetšwe	-7482
▁tšhošetša	-7483
▁bušetšwego	-7484
▁ithutilego	-7485
▁lekalekana	-7486
▁tswaletšwe	-7487
negelokopana	-7488
▁Komititaolo	-7489
▁nyenyefatšo	-7490
▁Tšatšikgwedi	-7491
▁diphihlelelo	-7492
▁tsebagaditše	-7493
▁diphatlalatši	-7494
▁hlagišitšwego	-7495
▁modirakgopelo	-7496
▁maanotshepedišo	-7497
DA	-7498
IC	-7499
Me	-7500
NGO	-7501
chi	-7502
cia	-7503
die	-7504
hro	-7505
lly	-7506
mer	-7507
reo	-7508
res	-7509
seo	-7510
▁7.	-7511
▁70	-7512
▁CO	-7513
▁cm	-7514
NGWE	-7515
bega	-7516
mise	-7517
pušo	-7518
rapo	-7519
sara	-7520
▁Com	-7521
▁DHA	-7522
▁Les	-7523
▁Peu	-7524
▁ebe	-7525
▁tši	-7526
chaba	-7527
fundi	-7528
kelwa	-7529
kotša	-7530
mbili	-7531
molla	-7532
ntona	-7533
pelle	-7534
thago	-7535
thušo	-7536
tšege	-7537
venda	-7538
▁Bole	-7539
▁Bora	-7540
▁DITE	-7541
▁Puku	-7542
▁Seba	-7543
▁WCED	-7544
▁gaša	-7545
▁loto	-7546
▁mese	-7547
▁mini	-7548
▁mote	-7549
▁nemi	-7550
▁taga	-7551
▁wele	-7552
▁yaka	-7553
bididi	-7554
getšwe	-7555
koholo	-7556
kolong	-7557
reware	-7558
▁Monga	-7559
▁bouto	-7560
▁lokho	-7561
▁mekae	-7562
▁mmela	-7563
▁ntlho	-7564
▁phara	-7565
▁phema	-7566
▁saeni	-7567
▁seolo	-7568
▁tseno	-7569
laganya	-7570
lebišwa	-7571
▁Seburu	-7572
▁bogadi	-7573
▁digala	-7574
▁dipelo	-7575
▁gagabo	-7576
▁gosasa	-7577
▁lediri	-7578
fitafiti	-7579
khwameng	-7580
▁Keletšo	-7581
▁Sechaba	-7582
▁Yunione	-7583
▁dihlong	-7584
▁fetetša	-7585
▁gobatša	-7586
▁kaakang	-7587
▁maphodi	-7588
▁maswafo	-7589
▁phetelo	-7590
▁thopile	-7591
etrotšene	-7592
▁Ditetelo	-7593
▁Nkoshilo	-7594
▁Tlhalošo	-7595
▁bogodimo	-7596
▁ithutago	-7597
▁mabopong	-7598
▁Boetapele	-7599
▁Dipotšišo	-7600
▁hlahlobja	-7601
▁nkgetheng	-7602
▁pasporoto	-7603
▁tiišetšwa	-7604
▁tpweletpa	-7605
▁Dikhansele	-7606
▁Mongmošomo	-7607
▁Petroleamo	-7608
▁fetetšwego	-7609
▁golaganego	-7610
▁hlalošitše	-7611
▁lokologile	-7612
▁moiphemedi	-7613
▁rometšwego	-7614
▁setlankana	-7615
▁tiragalong	-7616
▁boitapološo	-7617
▁ditshwaetšo	-7618
▁fihlelelago	-7619
▁kgotsofetše	-7620
▁masometharo	-7621
▁matšhošetši	-7622
▁netefatšago	-7623
▁Legoratšhomo	-7624
▁phethagatšong	-7625
▁ingwadišitšego	-7626
OC	-7627
ir	-7628
ker	-7629
rra	-7630
ruo	-7631
ryl	-7632
sed	-7633
ser	-7634
▁0,	-7635
▁kg	-7636
madi	-7637
ndlu	-7638
zoku	-7639
▁400	-7640
▁Eya	-7641
▁Sea	-7642
▁ila	-7643
▁lee	-7644
▁ope	-7645
▁pri	-7646
▁rua	-7647
fraco	-7648
khete	-7649
notho	-7650
wense	-7651
▁Kope	-7652
▁Mana	-7653
▁Papa	-7654
▁bjbj	-7655
▁enwa	-7656
▁fega	-7657
▁fula	-7658
▁hema	-7659
▁roto	-7660
▁tena	-7661
dimabe	-7662
fetoga	-7663
ganego	-7664
hubeka	-7665
inspek	-7666
rafiki	-7667
temego	-7668
tlheng	-7669
tpwego	-7670
▁Beryl	-7671
▁Mbeki	-7672
▁abago	-7673
▁diema	-7674
▁diphu	-7675
išegelo	-7676
nelwago	-7677
thekisi	-7678
▁Bapedi	-7679
▁Dumela	-7680
▁Kabelo	-7681
▁Leswao	-7682
▁Mehola	-7683
▁Samiti	-7684
▁Taetšo	-7685
▁bonale	-7686
▁digole	-7687
▁dinoko	-7688
▁diposo	-7689
▁ditema	-7690
▁gakane	-7691
▁gatela	-7692
▁iketla	-7693
▁lekhwi	-7694
▁mebele	-7695
▁melago	-7696
▁njengo	-7697
▁phapha	-7698
fidabiti	-7699
medišišo	-7700
▁Lekgowa	-7701
▁bapišwa	-7702
▁dikgogo	-7703
▁ditonki	-7704
▁goketša	-7705
▁hlamile	-7706
▁letsopa	-7707
▁megokgo	-7708
▁setseka	-7709
▁swarela	-7710
▁tšhwene	-7711
rotšekeng	-7712
▁Tirišano	-7713
▁baratani	-7714
▁botšišwa	-7715
▁dirutegi	-7716
▁kgahliše	-7717
▁kgonthiš	-7718
▁kgontšho	-7719
▁namelela	-7720
▁nyanyeng	-7721
▁rekišago	-7722
▁tlhaloso	-7723
▁tlwaetše	-7724
▁šišinywa	-7725
▁Phagamego	-7726
▁belegwego	-7727
▁ithekgile	-7728
▁kliniking	-7729
▁mohlwaela	-7730
▁romelwago	-7731
▁thekgwago	-7732
▁akareditše	-7733
▁boraditaba	-7734
▁diketekete	-7735
▁lekanelago	-7736
▁tshwenyega	-7737
setshenziswa	-7738
▁Bokgobapuku	-7739
▁hlomphegago	-7740
▁ditiragalong	-7741
▁šireleditšwe	-7742
▁hlakahlakanego	-7743
▁tsebagaditšwego	-7744
26	-7745
IT	-7746
dor	-7747
tau	-7748
▁8.	-7749
▁Ex	-7750
▁Hi	-7751
▁ee	-7752
gore	-7753
king	-7754
nsta	-7755
pang	-7756
velo	-7757
▁Gro	-7758
▁KWA	-7759
▁Nga	-7760
▁Sap	-7761
Ningi	-7762
hlaka	-7763
hlile	-7764
khoto	-7765
kišwe	-7766
kwere	-7767
nkase	-7768
nyogo	-7769
petše	-7770
polla	-7771
theko	-7772
tšulo	-7773
▁Kudu	-7774
▁Mahu	-7775
▁Maro	-7776
▁Maši	-7777
▁baho	-7778
▁diso	-7779
▁make	-7780
▁otla	-7781
▁rola	-7782
▁seru	-7783
▁tulo	-7784
▁tutu	-7785
etšego	-7786
thaopi	-7787
▁2007.	-7788
▁Ahlaa	-7789
▁Botha	-7790
▁Ellis	-7791
▁Lehla	-7792
▁Trust	-7793
▁boile	-7794
▁bunwa	-7795
▁ithao	-7796
▁kgoke	-7797
▁moisa	-7798
▁sekhu	-7799
▁tlilo	-7800
tsobane	-7801
yolotši	-7802
šeletša	-7803
▁DITENG	-7804
▁United	-7805
▁ditshi	-7806
▁ditswa	-7807
▁ditšha	-7808
▁laolwe	-7809
▁lebopo	-7810
▁pasari	-7811
▁phahlo	-7812
▁rekago	-7813
diathola	-7814
▁Histori	-7815
▁Infraco	-7816
▁Kadiaka	-7817
▁Kganthe	-7818
▁Sontaga	-7819
▁Thekišo	-7820
▁Tlhohlo	-7821
▁begilwe	-7822
▁gohlola	-7823
▁matšoba	-7824
▁mosenyi	-7825
▁thekisi	-7826
Ningizimu	-7827
bohlabela	-7828
mmasepala	-7829
▁Batlatša	-7830
▁Nadinadi	-7831
▁badilego	-7832
▁bahlahli	-7833
▁bangwadi	-7834
▁dumediša	-7835
▁fedilego	-7836
▁goeletša	-7837
▁ikgafile	-7838
▁kreiting	-7839
▁latelela	-7840
▁mmelaedi	-7841
▁ngwadile	-7842
▁rangwane	-7843
▁sennyane	-7844
▁Mphahlele	-7845
▁Phadišano	-7846
▁bagolegwa	-7847
▁bopilwego	-7848
▁feleletše	-7849
▁fokotšago	-7850
▁kgonegišo	-7851
▁makgarebe	-7852
▁sepedišwa	-7853
▁timamello	-7854
▁tlhapetšo	-7855
▁Boitsebišo	-7856
▁Tšhwahledi	-7857
▁bahlapetši	-7858
▁disenthara	-7859
▁kgotsofala	-7860
▁kgotsofale	-7861
▁phokotšego	-7862
▁seripagare	-7863
▁dingwalweng	-7864
▁ikgokaganye	-7865
▁inthaneteng	-7866
▁legoratšhomo	-7867
▁phethagatšwe	-7868
▁tswaletšwego	-7869
▁hlabologilego	-7870
tšweletšamabele	-7871
9,	-7872
HE	-7873
IP	-7874
cy	-7875
tz	-7876
..?	-7877
LAN	-7878
cro	-7879
jwa	-7880
nie	-7881
rus	-7882
tch	-7883
▁At	-7884
▁Ie	-7885
>109	-7886
LOKO	-7887
maka	-7888
mine	-7889
modi	-7890
mpho	-7891
muel	-7892
ndia	-7893
ntwa	-7894
tadi	-7895
tšeo	-7896
yisa	-7897
▁Eng	-7898
▁Kle	-7899
▁Twa	-7900
▁aku	-7901
▁iko	-7902
geria	-7903
kwazi	-7904
motse	-7905
ngeni	-7906
phire	-7907
thepa	-7908
thole	-7909
tselo	-7910
tsena	-7911
▁2003	-7912
▁Boka	-7913
▁East	-7914
▁Feto	-7915
▁Mope	-7916
▁Thek	-7917
▁budu	-7918
▁dila	-7919
▁elwe	-7920
▁ruse	-7921
▁time	-7922
▁	-7923
a	-7924
e	-7925
o	-7926
l	-7927
g	-7928
t	-7929
i	-7930
k	-7931
n	-7932
š	-7933
m	-7934
b	-7935
h	-7936
w	-7937
s	-7938
d	-7939
y	-7940
r	-7941
p	-7942
.	-7943
u	-7944
f	-7945
,	-7946
M	-7947
j	-7948
K	-7949
B	-7950
G	-7951
S	-7952
T	-7953
A	-7954
D	-7955
L	-7956
0	-7957
P	-7958
(	-7959
)	-7960
N	-7961
1	-7962
E	-7963
O	-7964
-	-7965
2	-7966
:	-7967
I	-7968
R	-7969
c	-7970
?	-7971
z	-7972
9	-7973
"	-7974
C	-7975
/	-7976
3	-7977
H	-7978
5	-7979
v	-7980
F	-7981
;	-7982
4	-7983
6	-7984
8	-7985
'	-7986
<	-7987
>	-7988
7	-7989
W	-7990
x	-7991
V	-7992
!	-7993
Y	-7994
U	-7995
J	-7996
