<unk>	0
<s>	0
</s>	0
▁t	-0
an	-1
▁n	-2
le	-3
▁k	-4
in	-5
he	-6
la	-7
is	-8
▁s	-9
on	-10
wa	-11
en	-12
▁m	-13
▁h	-14
▁a	-15
ti	-16
ka	-17
▁ku	-18
▁y	-19
▁v	-20
wi	-21
▁the	-22
ri	-23
re	-24
lo	-25
▁o	-26
ha	-27
▁le	-28
▁x	-29
▁e	-30
mb	-31
er	-32
▁p	-33
▁b	-34
▁f	-35
▁na	-36
un	-37
▁c	-38
▁w	-39
▁ya	-40
or	-41
te	-42
▁of	-43
▁hi	-44
and	-45
es	-46
ga	-47
▁to	-48
ko	-49
ke	-50
al	-51
▁ti	-52
ho	-53
▁swi	-54
ana	-55
▁wa	-56
▁ma	-57
▁xi	-58
ing	-59
▁va	-60
hi	-61
tion	-62
ts	-63
▁in	-64
dz	-65
yi	-66
ro	-67
▁d	-68
ve	-69
▁ka	-70
ku	-71
▁T	-72
▁ta	-73
▁eka	-74
▁and	-75
me	-76
ra	-77
▁nga	-78
li	-79
▁vu	-80
isa	-81
▁ha	-82
ou	-83
ta	-84
▁i	-85
▁re	-86
mbe	-87
wu	-88
ma	-89
▁is	-90
▁les	-91
isi	-92
▁M	-93
▁A	-94
se	-95
▁I	-96
hu	-97
▁N	-98
ge	-99
▁be	-100
ent	-101
ona	-102
▁la	-103
si	-104
lu	-105
▁en	-106
om	-107
ar	-108
▁S	-109
▁lo	-110
▁ri	-111
gu	-112
va	-113
hat	-114
ce	-115
ya	-116
▁H	-117
ane	-118
ki	-119
▁xa	-120
st	-121
th	-122
ed	-123
lan	-124
rhi	-125
▁u	-126
ll	-127
▁sw	-128
▁wi	-129
▁swa	-130
go	-131
it	-132
ec	-133
fu	-134
▁K	-135
we	-136
▁yi	-137
▁no	-138
wana	-139
mu	-140
▁mu	-141
his	-142
vi	-143
▁pro	-144
ment	-145
mo	-146
▁for	-147
▁The	-148
lela	-149
▁that	-150
ci	-151
▁fane	-152
xi	-153
dzi	-154
▁C	-155
waku	-156
▁he	-157
mp	-158
▁mi	-159
▁leswi	-160
▁L	-161
▁P	-162
tir	-163
ly	-164
▁leswaku	-165
▁end	-166
▁V	-167
han	-168
▁an	-169
eni	-170
ation	-171
▁su	-172
▁fanele	-173
▁leyi	-174
▁are	-175
▁X	-176
hla	-177
ur	-178
▁ts	-179
▁W	-180
riwa	-181
▁on	-182
to	-183
iso	-184
ter	-185
▁r	-186
▁con	-187
ld	-188
▁or	-189
▁we	-190
ungu	-191
▁ra	-192
▁yo	-193
vu	-194
mi	-195
▁you	-196
ye	-197
▁bya	-198
pp	-199
▁1	-200
ise	-201
▁hin	-202
ano	-203
ted	-204
ani	-205
xa	-206
fi	-207
ct	-208
ch	-209
▁tir	-210
ers	-211
▁de	-212
de	-213
▁Ku	-214
▁D	-215
kwa	-216
▁as	-217
▁ko	-218
▁kumbe	-219
▁R	-220
ver	-221
▁com	-222
▁this	-223
▁not	-224
isiwa	-225
ini	-226
wo	-227
▁wu	-228
haka	-229
hle	-230
▁have	-231
▁l	-232
▁2	-233
di	-234
▁E	-235
undz	-236
▁by	-237
ena	-238
▁will	-239
karhi	-240
ir	-241
▁Hi	-242
ut	-243
qu	-244
ort	-245
▁(	-246
men	-247
hen	-248
▁lava	-249
▁g	-250
▁with	-251
oko	-252
mba	-253
su	-254
gh	-255
andz	-256
▁lowu	-257
▁tin	-258
ca	-259
▁Ma	-260
ble	-261
fri	-262
▁se	-263
▁van	-264
▁ndzi	-265
▁un	-266
ces	-267
weni	-268
ene	-269
▁min	-270
▁Xi	-271
▁po	-272
▁co	-273
▁nd	-274
tirho	-275
the	-276
▁hu	-277
▁swin	-278
pa	-279
res	-280
▁te	-281
lelo	-282
▁si	-283
▁hla	-284
▁fa	-285
ty	-286
▁ni	-287
lang	-288
mbi	-289
as	-290
▁Afri	-291
ongo	-292
▁ac	-293
tu	-294
lic	-295
▁ne	-296
▁me	-297
▁do	-298
weke	-299
▁it	-300
▁loko	-301
▁B	-302
▁lexi	-303
▁wo	-304
▁hinkwa	-305
▁so	-306
vo	-307
▁nyi	-308
▁endla	-309
▁has	-310
yo	-311
▁fi	-312
▁F	-313
cu	-314
ali	-315
end	-316
ity	-317
▁must	-318
kulu	-319
ther	-320
op	-321
▁mo	-322
▁sa	-323
ong	-324
▁go	-325
du	-326
▁ex	-327
wile	-328
kela	-329
▁Vu	-330
▁vona	-331
▁app	-332
fa	-333
fumo	-334
▁wor	-335
len	-336
▁nkarhi	-337
yon	-338
dza	-339
▁imp	-340
tions	-341
▁tirh	-342
ls	-343
▁tim	-344
▁di	-345
ist	-346
▁Swi	-347
▁mun	-348
00	-349
pi	-350
▁-	-351
yen	-352
sw	-353
our	-354
langu	-355
▁nko	-356
▁vanhu	-357
▁vula	-358
▁mati	-359
for	-360
ant	-361
eswi	-362
▁at	-363
▁nts	-364
▁swo	-365
ting	-366
omi	-367
gi	-368
sa	-369
hawu	-370
▁par	-371
▁In	-372
▁We	-373
▁th	-374
velo	-375
der	-376
ate	-377
▁nkoka	-378
fun	-379
▁comm	-380
lana	-381
▁landz	-382
▁been	-383
tive	-384
▁pa	-385
▁can	-386
▁li	-387
ms	-388
▁kona	-389
▁ho	-390
rom	-391
▁leri	-392
▁ndlela	-393
▁"	-394
ry	-395
ad	-396
sp	-397
▁langu	-398
▁This	-399
yimo	-400
tl	-401
▁nh	-402
▁leti	-403
▁ro	-404
sed	-405
▁laha	-406
▁fo	-407
melo	-408
man	-409
▁from	-410
xaka	-411
cal	-412
hon	-413
ect	-414
tela	-415
▁Ti	-416
pe	-417
hou	-418
▁G	-419
▁ema	-420
bu	-421
▁It	-422
▁ve	-423
mbu	-424
lula	-425
▁hina	-426
▁swinene	-427
ties	-428
▁pfu	-429
▁all	-430
cial	-431
red	-432
▁tl	-433
ys	-434
▁tsa	-435
no	-436
onga	-437
mbelo	-438
cip	-439
ru	-440
ela	-441
swona	-442
▁mhaka	-443
▁Ndzi	-444
▁work	-445
pfu	-446
yenge	-447
▁naswona	-448
▁O	-449
▁xo	-450
den	-451
hela	-452
▁U	-453
undzu	-454
po	-455
od	-456
ina	-457
▁pe	-458
isisa	-459
ff	-460
▁ye	-461
▁vaa	-462
rd	-463
sti	-464
tsa	-465
mbana	-466
ind	-467
les	-468
lweni	-469
▁sungu	-470
▁ad	-471
ub	-472
▁Y	-473
one	-474
▁wena	-475
kiwa	-476
▁there	-477
llo	-478
▁ca	-479
any	-480
▁xiko	-481
outh	-482
▁19	-483
ven	-484
▁3	-485
▁Na	-486
▁ntirho	-487
▁ng	-488
▁Loko	-489
▁our	-490
leri	-491
ine	-492
▁whi	-493
▁need	-494
▁was	-495
ess	-496
velop	-497
▁sta	-498
▁kho	-499
▁kahle	-500
▁your	-501
andla	-502
▁Va	-503
▁mfumo	-504
cess	-505
hould	-506
tsh	-507
ments	-508
▁South	-509
▁qu	-510
keri	-511
co	-512
▁ab	-513
sion	-514
▁tala	-515
▁comp	-516
▁endli	-517
▁bo	-518
▁should	-519
tano	-520
xo	-521
▁byi	-522
ves	-523
▁coun	-524
▁tani	-525
anga	-526
byi	-527
gra	-528
▁vi	-529
▁cont	-530
anelo	-531
▁xiyimo	-532
▁De	-533
ght	-534
zonga	-535
▁st	-536
▁yin	-537
hlweni	-538
▁rep	-539
▁nyika	-540
▁bu	-541
ction	-542
▁hume	-543
ervi	-544
▁xin	-545
bi	-546
erson	-547
lawu	-548
▁loyi	-549
laho	-550
▁which	-551
▁swona	-552
tirhi	-553
▁if	-554
hleke	-555
▁tiko	-556
und	-557
gn	-558
▁nghen	-559
▁j	-560
▁inc	-561
vern	-562
▁Leswi	-563
ence	-564
leni	-565
ance	-566
luvu	-567
xe	-568
phe	-569
hlamu	-570
kan	-571
kaka	-572
▁ring	-573
▁200	-574
▁emahlweni	-575
▁Mu	-576
▁Ha	-577
▁Afrika	-578
▁yena	-579
▁Le	-580
▁munhu	-581
▁tiy	-582
▁Ho	-583
ople	-584
lso	-585
mbirhi	-586
dzo	-587
ublic	-588
▁amu	-589
▁may	-590
id	-591
▁vo	-592
llow	-593
▁other	-594
rea	-595
▁also	-596
▁kambe	-597
▁sungula	-598
helo	-599
mber	-600
mit	-601
▁faneleke	-602
pala	-603
▁who	-604
▁any	-605
▁tirha	-606
kwalaho	-607
▁requ	-608
▁karhi	-609
▁per	-610
▁hambana	-611
ree	-612
▁person	-613
▁Re	-614
▁lama	-615
hlang	-616
ould	-617
▁vuti	-618
▁Com	-619
▁Mi	-620
▁Ri	-621
ran	-622
▁people	-623
fanelo	-624
bo	-625
vernment	-626
▁/	-627
wulo	-628
..	-629
ck	-630
ational	-631
kho	-632
▁their	-633
pport	-634
mplo	-635
uni	-636
tirh	-637
stitu	-638
▁sec	-639
xoko	-640
hungu	-641
▁kuma	-642
▁plan	-643
▁they	-644
▁Nawu	-645
▁fike	-646
mbisa	-647
▁year	-648
hlo	-649
luvuk	-650
▁develop	-651
van	-652
▁pfun	-653
fic	-654
▁her	-655
▁ba	-656
famb	-657
▁timhaka	-658
▁tirhisa	-659
tsongo	-660
ous	-661
sipala	-662
▁ter	-663
angu	-664
▁infor	-665
▁sub	-666
leka	-667
mes	-668
▁vuk	-669
mbulu	-670
kongo	-671
rho	-672
lete	-673
▁xikombelo	-674
gis	-675
▁tanihi	-676
tter	-677
▁cha	-678
min	-679
mation	-680
tshwa	-681
eswo	-682
▁resp	-683
fundz	-684
fo	-685
ning	-686
▁Act	-687
▁Xana	-688
zi	-689
mela	-690
ele	-691
▁tind	-692
andle	-693
mbis	-694
▁dis	-695
▁more	-696
▁issu	-697
out	-698
za	-699
▁import	-700
tional	-701
▁what	-702
ges	-703
kongomelo	-704
▁Ndza	-705
fe	-706
▁hlamu	-707
01	-708
kelo	-709
rile	-710
▁under	-711
wan	-712
ingi	-713
▁exp	-714
ved	-715
tment	-716
▁ndz	-717
▁lebyi	-718
▁time	-719
▁count	-720
▁199	-721
rou	-722
can	-723
▁Pro	-724
▁nt	-725
indz	-726
kweni	-727
▁katsa	-728
wn	-729
▁nawu	-730
▁servi	-731
DP	-732
▁about	-733
▁4	-734
▁tra	-735
par	-736
▁cin	-737
lt	-738
▁khu	-739
ard	-740
so	-741
ary	-742
▁pre	-743
▁kun	-744
▁Africa	-745
ision	-746
▁ag	-747
oni	-748
hange	-749
▁xiyenge	-750
eke	-751
phi	-752
ality	-753
ew	-754
orho	-755
vut	-756
ach	-757
▁If	-758
king	-759
xt	-760
▁That	-761
haku	-762
ba	-763
▁yona	-764
▁hen	-765
▁one	-766
tic	-767
unity	-768
rimi	-769
▁emplo	-770
anisa	-771
tifi	-772
lave	-773
▁these	-774
cy	-775
▁da	-776
▁make	-777
yelana	-778
▁tsha	-779
▁us	-780
▁dyon	-781
▁gi	-782
▁African	-783
▁humelela	-784
gopfu	-785
laveko	-786
▁endliwa	-787
▁mali	-788
▁inclu	-789
▁Con	-790
ure	-791
▁follow	-792
tho	-793
▁byo	-794
gele	-795
▁would	-796
▁ants	-797
▁teka	-798
▁fana	-799
da	-800
har	-801
tation	-802
fore	-803
leke	-804
▁Min	-805
pha	-806
▁yini	-807
fer	-808
▁process	-809
▁An	-810
luvukiso	-811
yelo	-812
▁ntsena	-813
ord	-814
lication	-815
▁Eka	-816
▁mayelana	-817
tain	-818
▁wun	-819
▁parti	-820
▁J	-821
▁terms	-822
▁man	-823
▁sp	-824
▁Dzonga	-825
ten	-826
▁tlhela	-827
▁hundz	-828
yiso	-829
isava	-830
orhokeri	-831
▁information	-832
▁Pre	-833
▁government	-834
▁exi	-835
▁endz	-836
▁some	-837
▁tu	-838
▁henhla	-839
phemu	-840
ery	-841
here	-842
▁prov	-843
bili	-844
▁nhla	-845
▁ques	-846
▁public	-847
con	-848
tani	-849
tes	-850
▁requi	-851
▁5	-852
swi	-853
▁mina	-854
▁nk	-855
ss	-856
▁tshe	-857
▁landzela	-858
tor	-859
▁IDP	-860
▁lula	-861
▁muni	-862
▁dec	-863
▁out	-864
ally	-865
istra	-866
tsha	-867
ler	-868
kile	-869
▁vaaki	-870
ress	-871
wini	-872
lawa	-873
huro	-874
tirhis	-875
▁tirhisiwa	-876
mende	-877
duc	-878
leriwa	-879
▁provi	-880
vutiso	-881
▁vut	-882
sela	-883
▁kota	-884
lembe	-885
rity	-886
▁Ka	-887
sure	-888
▁mahungu	-889
▁han	-890
▁seke	-891
▁pfume	-892
loko	-893
▁chi	-894
▁Co	-895
▁En	-896
pu	-897
▁vatirhi	-898
▁support	-899
mun	-900
iselo	-901
dyon	-902
keriwa	-903
▁nti	-904
gram	-905
indzu	-906
▁matimba	-907
ish	-908
▁pla	-909
▁tumbulu	-910
hlen	-911
▁mav	-912
▁suka	-913
▁hlang	-914
▁landzelaka	-915
tara	-916
▁very	-917
).	-918
kambe	-919
▁mitirho	-920
mbiwa	-921
▁ke	-922
▁There	-923
▁municip	-924
▁No	-925
▁loku	-926
lob	-927
▁important	-928
per	-929
▁respon	-930
alth	-931
▁commit	-932
cil	-933
▁Pa	-934
eci	-935
▁than	-936
▁hlay	-937
▁lembe	-938
led	-939
▁am	-940
khon	-941
tiwa	-942
lation	-943
ue	-944
▁hlawu	-945
boho	-946
▁milawu	-947
▁ob	-948
jec	-949
▁rin	-950
ingiri	-951
▁What	-952
▁such	-953
▁use	-954
viko	-955
▁ge	-956
▁xits	-957
now	-958
▁but	-959
▁nu	-960
swo	-961
▁child	-962
pfun	-963
mbiso	-964
▁Sw	-965
lwa	-966
▁tho	-967
isela	-968
wiri	-969
▁appro	-970
misa	-971
ding	-972
telo	-973
▁tiyisisa	-974
kokwalaho	-975
est	-976
▁country	-977
▁pri	-978
▁its	-979
age	-980
ongon	-981
hansi	-982
alwa	-983
▁Hu	-984
ries	-985
▁inter	-986
▁201	-987
▁lave	-988
mbo	-989
▁ass	-990
mbers	-991
hlengele	-992
▁sweswi	-993
riweke	-994
ink	-995
▁new	-996
▁like	-997
▁kombe	-998
▁malembe	-999
ren	-1000
▁langut	-1001
il	-1002
▁vukorhokeri	-1003
ffi	-1004
▁development	-1005
▁tsakela	-1006
▁cinca	-1007
mbiswiri	-1008
▁6	-1009
mbiswiritano	-1010
ingiriko	-1011
▁rhu	-1012
▁mar	-1013
lar	-1014
ph	-1015
int	-1016
▁them	-1017
ongonoko	-1018
ganga	-1019
▁report	-1020
▁kha	-1021
▁ndhawu	-1022
▁tiva	-1023
ject	-1024
che	-1025
▁vun	-1026
▁enge	-1027
indhawu	-1028
partment	-1029
▁fe	-1030
▁timali	-1031
▁matiko	-1032
khonomi	-1033
▁tano	-1034
▁nge	-1035
▁ehansi	-1036
▁kombisa	-1037
ave	-1038
▁part	-1039
▁nka	-1040
hlengeletano	-1041
swiko	-1042
▁fikelela	-1043
ps	-1044
ving	-1045
▁As	-1046
iti	-1047
▁pfuna	-1048
▁misava	-1049
▁cour	-1050
▁eku	-1051
jeke	-1052
gelo	-1053
yste	-1054
endlelo	-1055
elela	-1056
▁community	-1057
▁two	-1058
oro	-1059
▁seketela	-1060
▁poli	-1061
laka	-1062
▁tlula	-1063
▁sweswo	-1064
▁tran	-1065
▁offi	-1066
tee	-1067
▁ehleke	-1068
▁Kho	-1069
▁swilaveko	-1070
▁hinkwaswo	-1071
stitution	-1072
▁up	-1073
▁tshama	-1074
laku	-1075
phiq	-1076
▁right	-1077
et	-1078
mal	-1079
▁application	-1080
yana	-1081
ust	-1082
rate	-1083
▁ward	-1084
▁mb	-1085
▁Presi	-1086
yu	-1087
▁mpfu	-1088
tirhisiwa	-1089
▁National	-1090
gain	-1091
▁fin	-1092
phiqo	-1093
▁tw	-1094
irst	-1095
ded	-1096
mis	-1097
▁ngopfu	-1098
▁know	-1099
hlangano	-1100
very	-1101
iseka	-1102
sungu	-1103
▁So	-1104
swikoti	-1105
ctor	-1106
▁siku	-1107
eve	-1108
harhu	-1109
come	-1110
chu	-1111
▁wona	-1112
▁ele	-1113
▁La	-1114
sta	-1115
wer	-1116
▁handle	-1117
▁following	-1118
▁To	-1119
kindhawu	-1120
▁conc	-1121
meri	-1122
▁made	-1123
ffer	-1124
▁mana	-1125
xini	-1126
kisi	-1127
▁rihan	-1128
hlamuleri	-1129
▁hak	-1130
omo	-1131
▁rec	-1132
▁endzhaku	-1133
▁Par	-1134
sel	-1135
▁hinkwayo	-1136
▁hava	-1137
▁kume	-1138
▁matter	-1139
lani	-1140
▁lawa	-1141
▁she	-1142
▁fika	-1143
▁For	-1144
sible	-1145
ehleke	-1146
▁say	-1147
vis	-1148
vula	-1149
ural	-1150
▁take	-1151
ok	-1152
▁swilo	-1153
▁program	-1154
huriwa	-1155
▁antsw	-1156
▁landza	-1157
▁ndza	-1158
hele	-1159
ji	-1160
▁rixaka	-1161
▁CB	-1162
▁inte	-1163
▁exikarhi	-1164
dent	-1165
ener	-1166
▁mfanelo	-1167
langi	-1168
mhaka	-1169
tiko	-1170
rin	-1171
hani	-1172
▁mon	-1173
▁ensure	-1174
▁number	-1175
▁Hambiswiritano	-1176
isiwile	-1177
vangelo	-1178
fisi	-1179
▁huma	-1180
▁Van	-1181
▁ikhonomi	-1182
▁econ	-1183
cate	-1184
▁mpi	-1185
cho	-1186
xokoxoko	-1187
▁my	-1188
gistra	-1189
▁cer	-1190
▁health	-1191
weti	-1192
▁vutihlamuleri	-1193
stru	-1194
valeni	-1195
riwile	-1196
Dzonga	-1197
▁masipala	-1198
hol	-1199
visa	-1200
wever	-1201
hlawu	-1202
gy	-1203
▁way	-1204
ang	-1205
ations	-1206
sin	-1207
ture	-1208
▁'	-1209
ector	-1210
resen	-1211
▁differ	-1212
tical	-1213
▁vaakindhawu	-1214
▁proble	-1215
▁olo	-1216
▁syste	-1217
hurojeke	-1218
▁ar	-1219
thing	-1220
omiti	-1221
dya	-1222
ghts	-1223
rito	-1224
▁provin	-1225
▁Coun	-1226
▁lear	-1227
▁het	-1228
als	-1229
▁nhluvukiso	-1230
▁were	-1231
▁service	-1232
▁xiphemu	-1233
▁endlelo	-1234
▁into	-1235
▁contin	-1236
bility	-1237
edi	-1238
▁years	-1239
▁members	-1240
▁where	-1241
▁swiko	-1242
hlay	-1243
cep	-1244
vela	-1245
▁He	-1246
▁question	-1247
▁tlaku	-1248
tlha	-1249
ond	-1250
ign	-1251
▁Ndzawulo	-1252
▁hinkwavo	-1253
ni	-1254
▁Ca	-1255
ito	-1256
▁form	-1257
llen	-1258
▁7	-1259
elo	-1260
isano	-1261
▁exa	-1262
miti	-1263
ongom	-1264
▁section	-1265
▁You	-1266
▁CBP	-1267
tiv	-1268
▁again	-1269
▁each	-1270
▁maendlelo	-1271
alu	-1272
miwa	-1273
▁speci	-1274
▁kutani	-1275
▁imple	-1276
tsi	-1277
▁only	-1278
laha	-1279
ung	-1280
.1	-1281
ses	-1282
▁nyikiwa	-1283
▁over	-1284
dge	-1285
▁Go	-1286
holisi	-1287
fy	-1288
▁swirho	-1289
▁used	-1290
melelo	-1291
mend	-1292
▁well	-1293
▁hansi	-1294
ense	-1295
▁want	-1296
kiweke	-1297
ised	-1298
▁see	-1299
ings	-1300
fambiselo	-1301
▁ehleketa	-1302
▁eff	-1303
▁al	-1304
▁SA	-1305
▁docu	-1306
▁sha	-1307
▁national	-1308
▁matir	-1309
▁xifundz	-1310
▁Council	-1311
▁hinkwawo	-1312
um	-1313
honi	-1314
▁ntiyiso	-1315
▁Department	-1316
▁af	-1317
▁cri	-1318
▁legis	-1319
mfumo	-1320
▁xona	-1321
▁mani	-1322
▁switirhisiwa	-1323
andzu	-1324
▁vana	-1325
sungulo	-1326
her	-1327
ehleketo	-1328
at	-1329
▁kungu	-1330
lamende	-1331
itu	-1332
▁fambe	-1333
isiweke	-1334
▁local	-1335
▁tip	-1336
▁first	-1337
▁humes	-1338
▁pas	-1339
▁op	-1340
▁cle	-1341
gement	-1342
rest	-1343
▁impro	-1344
ans	-1345
bine	-1346
▁think	-1347
lobye	-1348
▁xiviko	-1349
eting	-1350
▁sime	-1351
▁employ	-1352
denti	-1353
▁vuswikoti	-1354
▁xikongomelo	-1355
wona	-1356
SA	-1357
lia	-1358
eta	-1359
▁Kambe	-1360
tives	-1361
▁reas	-1362
▁indi	-1363
teri	-1364
ks	-1365
hip	-1366
ced	-1367
ister	-1368
siku	-1369
▁res	-1370
▁Hikokwalaho	-1371
▁ringana	-1372
ron	-1373
▁achi	-1374
▁grou	-1375
swer	-1376
▁Huvo	-1377
▁pi	-1378
onelo	-1379
▁fu	-1380
mple	-1381
▁his	-1382
tlho	-1383
▁social	-1384
IV	-1385
▁Rixaka	-1386
▁many	-1387
▁Mfumo	-1388
ens	-1389
▁how	-1390
▁vuxokoxoko	-1391
▁yisa	-1392
▁meeting	-1393
▁inf	-1394
uring	-1395
cus	-1396
▁bi	-1397
▁when	-1398
mbhoni	-1399
all	-1400
▁amukela	-1401
▁pha	-1402
▁set	-1403
▁dyondzo	-1404
omic	-1405
▁mak	-1406
▁within	-1407
yeto	-1408
▁xitshuriwa	-1409
ining	-1410
▁They	-1411
▁long	-1412
▁tindhawu	-1413
mission	-1414
cri	-1415
▁now	-1416
not	-1417
tivi	-1418
vha	-1419
Afri	-1420
hy	-1421
▁issue	-1422
▁tak	-1423
▁area	-1424
000	-1425
▁sector	-1426
tiki	-1427
▁needs	-1428
stand	-1429
henhla	-1430
ol	-1431
▁hungu	-1432
▁good	-1433
▁nhlang	-1434
twe	-1435
▁xiboho	-1436
▁Vumbiwa	-1437
▁wri	-1438
▁8	-1439
▁different	-1440
▁mit	-1441
▁case	-1442
el	-1443
▁gro	-1444
▁water	-1445
▁tindlela	-1446
wanano	-1447
ons	-1448
chumu	-1449
▁rela	-1450
cha	-1451
▁state	-1452
▁services	-1453
rasi	-1454
cei	-1455
xiwa	-1456
licy	-1457
riwaka	-1458
▁cannot	-1459
siness	-1460
▁jo	-1461
▁issues	-1462
rac	-1463
▁employe	-1464
),	-1465
▁Hla	-1466
▁ririmi	-1467
▁nhloko	-1468
vumbe	-1469
tshala	-1470
▁kongom	-1471
iseki	-1472
▁does	-1473
ners	-1474
▁mbu	-1475
▁hete	-1476
unt	-1477
yis	-1478
▁agree	-1479
vabyi	-1480
risa	-1481
▁masungulo	-1482
ducation	-1483
▁des	-1484
▁tshemba	-1485
▁marito	-1486
rhe	-1487
▁10	-1488
vumbeko	-1489
▁miehleketo	-1490
▁mpfumelelo	-1491
cture	-1492
▁regis	-1493
▁Develop	-1494
dente	-1495
▁dire	-1496
▁system	-1497
▁planning	-1498
ful	-1499
▁did	-1500
com	-1501
▁kwa	-1502
▁sti	-1503
kha	-1504
▁answer	-1505
▁Kha	-1506
.2	-1507
▁require	-1508
▁gu	-1509
wadi	-1510
▁Minister	-1511
▁much	-1512
▁clear	-1513
▁org	-1514
hin	-1515
▁law	-1516
▁9	-1517
▁hundzu	-1518
▁recei	-1519
...	-1520
▁nj	-1521
▁nhlamu	-1522
fhu	-1523
teme	-1524
▁add	-1525
ankulu	-1526
▁Commit	-1527
,"	-1528
▁kane	-1529
▁communi	-1530
▁refer	-1531
▁vho	-1532
▁kombela	-1533
▁Nh	-1534
able	-1535
▁Servi	-1536
seke	-1537
▁Xiko	-1538
▁engetela	-1539
gar	-1540
omen	-1541
▁hundza	-1542
▁antswisa	-1543
▁inves	-1544
▁ehenhla	-1545
eneral	-1546
▁pfuma	-1547
▁Constitution	-1548
▁decision	-1549
yimeri	-1550
▁done	-1551
▁nakambe	-1552
▁cor	-1553
yela	-1554
eka	-1555
▁timfanelo	-1556
▁Palamende	-1557
▁matirhelo	-1558
jisi	-1559
ishe	-1560
Afrika	-1561
▁before	-1562
lele	-1563
self	-1564
hun	-1565
▁enhlo	-1566
lls	-1567
use	-1568
▁These	-1569
▁resu	-1570
mentation	-1571
▁tshi	-1572
ged	-1573
▁hel	-1574
▁famba	-1575
▁enhlokweni	-1576
bindzu	-1577
do	-1578
▁rights	-1579
kwe	-1580
▁main	-1581
▁place	-1582
ety	-1583
▁perfor	-1584
▁throu	-1585
fambisi	-1586
."	-1587
ds	-1588
▁consi	-1589
▁swiyenge	-1590
▁text	-1591
▁tlhelo	-1592
▁Di	-1593
table	-1594
unene	-1595
▁On	-1596
fuwo	-1597
▁xiave	-1598
▁pu	-1599
veni	-1600
▁nec	-1601
langa	-1602
cra	-1603
▁Parlia	-1604
▁three	-1605
▁swivutiso	-1606
AN	-1607
▁000	-1608
▁awa	-1609
▁medi	-1610
▁twa	-1611
▁point	-1612
ern	-1613
▁rele	-1614
▁challen	-1615
orisa	-1616
by	-1617
▁vutivi	-1618
▁laveka	-1619
▁Mo	-1620
▁masiku	-1621
▁prote	-1622
▁business	-1623
▁programme	-1624
▁mafambiselo	-1625
▁pres	-1626
ctions	-1627
cili	-1628
sati	-1629
gard	-1630
leyo	-1631
▁vutomi	-1632
▁amuke	-1633
▁HIV	-1634
▁scho	-1635
bl	-1636
▁vulavula	-1637
▁therefore	-1638
ak	-1639
des	-1640
isile	-1641
▁swiyimo	-1642
▁give	-1643
gingiriko	-1644
▁Development	-1645
▁wihi	-1646
▁Sweswo	-1647
tween	-1648
kuva	-1649
▁here	-1650
ild	-1651
▁between	-1652
▁leve	-1653
▁said	-1654
▁mpimo	-1655
tikweni	-1656
▁beli	-1657
▁lawu	-1658
▁regard	-1659
ner	-1660
gen	-1661
▁sign	-1662
▁policy	-1663
lano	-1664
▁sir	-1665
essary	-1666
▁tsala	-1667
dyondzi	-1668
▁against	-1669
▁after	-1670
▁Sec	-1671
▁far	-1672
▁nchumu	-1673
▁change	-1674
venga	-1675
▁eri	-1676
kisa	-1677
▁hlamusela	-1678
ricu	-1679
▁municipality	-1680
▁month	-1681
▁care	-1682
▁hilaha	-1683
itiz	-1684
ring	-1685
▁xiv	-1686
▁wadi	-1687
gevenga	-1688
▁ju	-1689
view	-1690
dy	-1691
▁happ	-1692
▁pos	-1693
▁equ	-1694
▁hetelela	-1695
jisitara	-1696
▁mintirho	-1697
▁understand	-1698
isana	-1699
▁regu	-1700
teriwa	-1701
▁andla	-1702
▁pay	-1703
▁own	-1704
▁project	-1705
▁fund	-1706
▁nhlangano	-1707
ory	-1708
▁necessary	-1709
handz	-1710
wina	-1711
▁hlayisa	-1712
▁order	-1713
tolo	-1714
hangeri	-1715
TI	-1716
cted	-1717
▁Parliament	-1718
rha	-1719
▁objec	-1720
hensa	-1721
▁being	-1722
▁tumbuluxa	-1723
tana	-1724
mocra	-1725
hatla	-1726
isiteme	-1727
cular	-1728
▁apply	-1729
▁language	-1730
ech	-1731
▁muganga	-1732
kudya	-1733
▁spe	-1734
▁lavaka	-1735
▁same	-1736
▁But	-1737
rge	-1738
ked	-1739
▁supp	-1740
▁able	-1741
▁Sta	-1742
▁tirhis	-1743
mise	-1744
▁situ	-1745
ancial	-1746
▁hlamula	-1747
▁children	-1748
▁However	-1749
viron	-1750
▁fambelana	-1751
kaya	-1752
▁lulamisa	-1753
▁represen	-1754
lle	-1755
tees	-1756
▁Wa	-1757
angi	-1758
▁twisisa	-1759
una	-1760
▁Ex	-1761
▁still	-1762
ope	-1763
▁esta	-1764
▁propo	-1765
ase	-1766
▁going	-1767
ft	-1768
▁deta	-1769
hambana	-1770
ouse	-1771
ective	-1772
leteri	-1773
▁xihatla	-1774
▁erivaleni	-1775
ources	-1776
▁economic	-1777
▁yihi	-1778
khe	-1779
▁improve	-1780
tswa	-1781
▁ava	-1782
▁pur	-1783
▁concern	-1784
vironment	-1785
▁swakudya	-1786
▁leha	-1787
▁hikwalaho	-1788
iwa	-1789
▁certifi	-1790
reed	-1791
▁nhlayo	-1792
lain	-1793
▁through	-1794
▁key	-1795
▁help	-1796
▁areas	-1797
▁citiz	-1798
▁President	-1799
hweti	-1800
ual	-1801
hontlho	-1802
▁tiyi	-1803
day	-1804
▁bindzu	-1805
engo	-1806
▁including	-1807
tis	-1808
rious	-1809
hankulu	-1810
▁Tiko	-1811
▁nghenelela	-1812
▁12	-1813
▁kote	-1814
▁tika	-1815
▁comple	-1816
med	-1817
fn	-1818
▁Tin	-1819
ected	-1820
ward	-1821
▁fanela	-1822
▁problem	-1823
hiki	-1824
▁office	-1825
olo	-1826
▁role	-1827
hwa	-1828
ila	-1829
▁deli	-1830
▁Vanhu	-1831
▁khale	-1832
▁trans	-1833
▁kumeka	-1834
▁Lexi	-1835
▁migingiriko	-1836
na	-1837
khu	-1838
▁kongo	-1839
▁committee	-1840
▁vile	-1841
▁those	-1842
leriso	-1843
tirhiselo	-1844
▁sho	-1845
▁prin	-1846
ris	-1847
itor	-1848
helela	-1849
▁particular	-1850
wor	-1851
▁acco	-1852
tsalwa	-1853
▁taken	-1854
enti	-1855
tend	-1856
munhu	-1857
▁too	-1858
hoxo	-1859
▁Lo	-1860
▁hakona	-1861
▁required	-1862
▁continue	-1863
▁legislation	-1864
▁App	-1865
mboro	-1866
cle	-1867
ribu	-1868
gin	-1869
▁rona	-1870
▁safe	-1871
▁women	-1872
arch	-1873
pimelo	-1874
vany	-1875
▁rema	-1876
▁believe	-1877
▁rihanyo	-1878
selo	-1879
▁ski	-1880
▁hikuva	-1881
▁court	-1882
▁ntlawa	-1883
▁endlaka	-1884
hato	-1885
▁xivutiso	-1886
▁Holobye	-1887
▁mutirhi	-1888
dence	-1889
▁posi	-1890
sirhe	-1891
▁Xiyenge	-1892
▁nyike	-1893
▁get	-1894
▁most	-1895
poli	-1896
▁responsi	-1897
city	-1898
ated	-1899
▁bas	-1900
▁submit	-1901
▁vumbhoni	-1902
▁ask	-1903
ration	-1904
anisiwa	-1905
▁registra	-1906
▁promo	-1907
▁ximfumo	-1908
....	-1909
▁Ward	-1910
phorisa	-1911
▁democra	-1912
hakelo	-1913
▁nhlengeletano	-1914
▁availa	-1915
▁nongonoko	-1916
read	-1917
▁Po	-1918
muntlha	-1919
utho	-1920
▁clo	-1921
be	-1922
holo	-1923
pri	-1924
▁access	-1925
hold	-1926
lowo	-1927
ents	-1928
▁huvo	-1929
▁every	-1930
mile	-1931
▁Tim	-1932
▁member	-1933
▁opport	-1934
▁invo	-1935
ccess	-1936
▁1998	-1937
▁vuhlay	-1938
▁questions	-1939
ID	-1940
jects	-1941
▁intern	-1942
▁fun	-1943
▁could	-1944
hang	-1945
ill	-1946
▁swikongomelo	-1947
▁Un	-1948
▁provide	-1949
▁mis	-1950
▁angar	-1951
▁Bo	-1952
vilelo	-1953
▁financial	-1954
fair	-1955
▁khensa	-1956
▁Nhluvukiso	-1957
▁et	-1958
ef	-1959
▁kusu	-1960
▁requirements	-1961
▁assist	-1962
▁establ	-1963
▁xiphiqo	-1964
urther	-1965
demo	-1966
mance	-1967
▁hlaya	-1968
ast	-1969
▁nhlokomhaka	-1970
▁grow	-1971
▁mp	-1972
pend	-1973
▁record	-1974
vant	-1975
▁ga	-1976
▁fomo	-1977
▁available	-1978
▁15	-1979
▁men	-1980
ud	-1981
win	-1982
▁phe	-1983
▁stu	-1984
▁situation	-1985
▁tindzi	-1986
▁hambi	-1987
▁action	-1988
▁date	-1989
leswi	-1990
▁build	-1991
▁tlakusa	-1992
seketelo	-1993
▁provincial	-1994
▁Rep	-1995
cation	-1996
NG	-1997
▁20	-1998
▁invol	-1999
dust	-2000
ines	-2001
▁tiv	-2002
▁vulawu	-2003
▁management	-2004
havu	-2005
bed	-2006
▁vugevenga	-2007
pila	-2008
▁non	-2009
▁hela	-2010
▁tiwadi	-2011
mer	-2012
mbisi	-2013
▁Komiti	-2014
tivities	-2015
▁cre	-2016
▁consu	-2017
▁include	-2018
▁30	-2019
▁rhe	-2020
▁rihanyu	-2021
▁tsundzu	-2022
ished	-2023
unguhato	-2024
▁environment	-2025
▁nghena	-2026
▁mavonelo	-2027
▁institu	-2028
▁possible	-2029
▁vulawuri	-2030
▁Commission	-2031
▁days	-2032
▁princip	-2033
gal	-2034
undzeni	-2035
low	-2036
▁mil	-2037
▁olova	-2038
▁achieve	-2039
▁eAfrika	-2040
▁proce	-2041
▁Ta	-2042
▁bene	-2043
havuko	-2044
▁mea	-2045
▁ener	-2046
ants	-2047
mana	-2048
▁implementation	-2049
ltural	-2050
▁given	-2051
▁hakela	-2052
▁hinkwato	-2053
tima	-2054
tirhisano	-2055
duct	-2056
▁angarhela	-2057
▁pholisi	-2058
yisense	-2059
rhangeri	-2060
▁address	-2061
▁political	-2062
▁1.	-2063
tered	-2064
▁stru	-2065
▁soci	-2066
▁sukela	-2067
▁veka	-2068
lution	-2069
▁words	-2070
aniso	-2071
wangi	-2072
▁tivi	-2073
▁xirho	-2074
▁disa	-2075
▁landzelela	-2076
anisi	-2077
▁high	-2078
▁allow	-2079
▁particip	-2080
▁activities	-2081
gress	-2082
▁ntwanano	-2083
▁Se	-2084
onkulu	-2085
ide	-2086
▁lic	-2087
▁tekiwa	-2088
▁xandla	-2089
▁consider	-2090
▁antswa	-2091
manana	-2092
EL	-2093
▁Me	-2094
▁mabindzu	-2095
vent	-2096
▁job	-2097
▁stand	-2098
▁kongoma	-2099
▁vumbirhi	-2100
gether	-2101
unicip	-2102
ases	-2103
▁ntl	-2104
isaka	-2105
sive	-2106
▁human	-2107
▁hlangana	-2108
tle	-2109
▁means	-2110
▁aka	-2111
▁riki	-2112
▁world	-2113
fhumba	-2114
▁Hlamu	-2115
▁purpo	-2116
politiki	-2117
sen	-2118
mpi	-2119
cipa	-2120
▁countries	-2121
▁Government	-2122
kelelo	-2123
▁budge	-2124
▁full	-2125
▁phurojeke	-2126
▁Do	-2127
ism	-2128
▁Ts	-2129
keni	-2130
▁training	-2131
ctive	-2132
manyeto	-2133
▁Ba	-2134
▁permit	-2135
▁education	-2136
▁xidemo	-2137
▁relevant	-2138
tumbulu	-2139
▁hetiseka	-2140
▁certificate	-2141
tirhweni	-2142
▁xivangelo	-2143
▁matirhiselo	-2144
tile	-2145
letelo	-2146
▁identi	-2147
▁few	-2148
▁then	-2149
▁complete	-2150
▁dra	-2151
urn	-2152
▁tona	-2153
reme	-2154
▁course	-2155
▁just	-2156
▁assess	-2157
▁Service	-2158
▁strate	-2159
tolovelo	-2160
▁swiphiqo	-2161
rol	-2162
▁Municip	-2163
oura	-2164
▁lead	-2165
▁Xo	-2166
▁Committee	-2167
goza	-2168
▁katsi	-2169
▁day	-2170
▁facili	-2171
ghingiriko	-2172
▁komba	-2173
▁projects	-2174
▁nseketelo	-2175
handle	-2176
▁mbuyelo	-2177
▁Cha	-2178
▁deal	-2179
▁xik	-2180
▁prio	-2181
▁citizens	-2182
▁resources	-2183
▁muxaka	-2184
▁unwana	-2185
▁official	-2186
▁why	-2187
▁skills	-2188
tice	-2189
of	-2190
hala	-2191
▁komiti	-2192
▁yinwana	-2193
ently	-2194
uro	-2195
▁gezi	-2196
▁happen	-2197
▁swivangelo	-2198
▁ent	-2199
4.	-2200
▁acc	-2201
▁him	-2202
▁interest	-2203
fied	-2204
▁xana	-2205
▁lulam	-2206
mary	-2207
werhu	-2208
▁xikombiso	-2209
▁xita	-2210
bour	-2211
gion	-2212
▁pfumele	-2213
▁participa	-2214
▁progress	-2215
thout	-2216
▁cur	-2217
▁name	-2218
▁road	-2219
▁lemu	-2220
xiweke	-2221
▁working	-2222
tors	-2223
▁ste	-2224
▁Sa	-2225
ministra	-2226
▁performance	-2227
ffici	-2228
▁Tani	-2229
▁without	-2230
▁kunguha	-2231
▁swifundz	-2232
kana	-2233
▁vuts	-2234
▁hundzulu	-2235
▁shall	-2236
work	-2237
▁matsalwa	-2238
fes	-2239
▁pfa	-2240
▁sent	-2241
▁tihlang	-2242
▁nghenisa	-2243
▁specific	-2244
▁uni	-2245
tary	-2246
▁vekiwa	-2247
▁had	-2248
andlamu	-2249
▁All	-2250
pfune	-2251
lawuri	-2252
thori	-2253
▁Khomi	-2254
▁accep	-2255
▁transp	-2256
landlamu	-2257
▁appli	-2258
▁initi	-2259
yoni	-2260
▁xis	-2261
▁registration	-2262
▁End	-2263
▁example	-2264
▁hambanahambana	-2265
▁twis	-2266
ough	-2267
▁respect	-2268
▁amukeriwa	-2269
yili	-2270
▁employee	-2271
▁goza	-2272
▁marke	-2273
▁And	-2274
▁cho	-2275
ES	-2276
▁group	-2277
▁landzele	-2278
keke	-2279
▁adop	-2280
▁confi	-2281
▁mbangu	-2282
urity	-2283
▁peri	-2284
▁things	-2285
▁life	-2286
▁swipimelo	-2287
▁amend	-2288
tern	-2289
▁Plan	-2290
▁come	-2291
far	-2292
ils	-2293
siwa	-2294
yaka	-2295
▁nandzu	-2296
▁further	-2297
IS	-2298
rame	-2299
▁Dyon	-2300
▁together	-2301
vin	-2302
▁2.	-2303
cated	-2304
▁tsandz	-2305
▁society	-2306
▁cla	-2307
▁wolowo	-2308
▁hand	-2309
▁Let	-2310
▁Kutani	-2311
▁even	-2312
alities	-2313
▁list	-2314
lture	-2315
▁council	-2316
▁hlamuse	-2317
▁success	-2318
▁register	-2319
0.	-2320
1.	-2321
ecu	-2322
sures	-2323
▁Presidente	-2324
binet	-2325
▁provision	-2326
▁beca	-2327
▁vote	-2328
binete	-2329
▁etikweni	-2330
ital	-2331
▁deb	-2332
▁star	-2333
▁fambisa	-2334
▁tihakelo	-2335
▁kambela	-2336
▁Af	-2337
▁hofisi	-2338
▁namuntlha	-2339
ints	-2340
▁Nhlangano	-2341
▁food	-2342
▁period	-2343
▁taka	-2344
ako	-2345
maki	-2346
▁ringan	-2347
▁Cabinet	-2348
▁yimela	-2349
▁vuhlayiseki	-2350
1)	-2351
ness	-2352
▁def	-2353
▁vuye	-2354
▁tse	-2355
▁lavekaka	-2356
peri	-2357
hundzu	-2358
tswari	-2359
oper	-2360
tiga	-2361
▁endlela	-2362
sal	-2363
▁cu	-2364
▁khoto	-2365
▁level	-2366
▁deter	-2367
▁Public	-2368
▁review	-2369
▁tivisa	-2370
intshwa	-2371
▁remain	-2372
▁ntsengo	-2373
▁vuleteri	-2374
ER	-2375
▁maj	-2376
tirhisi	-2377
sic	-2378
▁Nas	-2379
rastru	-2380
isation	-2381
▁hikokwalaho	-2382
▁tru	-2383
leswo	-2384
▁Khabinete	-2385
vate	-2386
▁Vaa	-2387
▁mpha	-2388
▁Hambi	-2389
ditional	-2390
▁sisiteme	-2391
dies	-2392
▁xivumbeko	-2393
▁wish	-2394
kiwile	-2395
▁khumb	-2396
▁tirhi	-2397
▁fut	-2398
▁tech	-2399
▁elect	-2400
▁result	-2401
▁today	-2402
▁fanelangi	-2403
HA	-2404
hlayo	-2405
▁tekela	-2406
enda	-2407
▁vava	-2408
▁aff	-2409
▁back	-2410
oney	-2411
visiso	-2412
hanu	-2413
lomu	-2414
▁thou	-2415
▁nhlamulo	-2416
▁hope	-2417
▁tsalwa	-2418
▁grea	-2419
▁Su	-2420
▁school	-2421
▁miganga	-2422
rastructure	-2423
ulu	-2424
▁cons	-2425
▁effective	-2426
▁gir	-2427
kirasi	-2428
▁hluvuk	-2429
▁Naswona	-2430
▁swiboho	-2431
xeko	-2432
▁hl	-2433
ficer	-2434
▁prac	-2435
anyana	-2436
▁hunguta	-2437
▁vumba	-2438
▁organisa	-2439
wihi	-2440
orts	-2441
▁municipal	-2442
▁swihoxo	-2443
farhu	-2444
▁languta	-2445
ek	-2446
tshun	-2447
bas	-2448
▁dist	-2449
▁Bu	-2450
▁Si	-2451
▁tea	-2452
▁Ad	-2453
angala	-2454
▁Ndz	-2455
▁voni	-2456
pfuneto	-2457
▁future	-2458
3.	-2459
ON	-2460
▁next	-2461
▁ru	-2462
▁reso	-2463
miso	-2464
▁act	-2465
▁makungu	-2466
▁vumbiwa	-2467
▁herself	-2468
tlhelo	-2469
▁indust	-2470
▁rivaleni	-2471
sing	-2472
ready	-2473
vulwa	-2474
▁Comp	-2475
▁find	-2476
▁vito	-2477
▁discus	-2478
duce	-2479
tact	-2480
▁val	-2481
▁kwihi	-2482
▁groups	-2483
▁tirhaka	-2484
ep	-2485
▁How	-2486
▁because	-2487
▁document	-2488
▁16	-2489
teko	-2490
▁amo	-2491
▁tsar	-2492
▁second	-2493
rs	-2494
▁che	-2495
▁kula	-2496
▁cent	-2497
▁kuva	-2498
▁Milawu	-2499
▁Ntirho	-2500
▁xina	-2501
▁xiswona	-2502
▁tipolitiki	-2503
ger	-2504
▁months	-2505
▁trea	-2506
mination	-2507
▁however	-2508
exo	-2509
▁Ju	-2510
waka	-2511
▁certain	-2512
▁problems	-2513
▁une	-2514
pfuno	-2515
▁last	-2516
▁tirhana	-2517
tlawa	-2518
▁Mhaka	-2519
▁compe	-2520
▁something	-2521
▁Ko	-2522
▁subse	-2523
▁Tanihi	-2524
▁hlawula	-2525
▁ndlandlamu	-2526
▁referred	-2527
▁xileriso	-2528
▁condi	-2529
▁hink	-2530
ze	-2531
▁read	-2532
▁njhani	-2533
EN	-2534
ased	-2535
▁When	-2536
▁enough	-2537
▁tax	-2538
▁vehi	-2539
▁rhumela	-2540
IDS	-2541
▁sur	-2542
▁magoza	-2543
▁already	-2544
uty	-2545
cies	-2546
▁ten	-2547
▁wel	-2548
▁experi	-2549
▁view	-2550
▁ting	-2551
▁increa	-2552
▁police	-2553
▁Hlamusela	-2554
▁tihlanganisa	-2555
▁komb	-2556
▁money	-2557
▁ext	-2558
▁ngo	-2559
▁capa	-2560
▁tal	-2561
omy	-2562
▁Li	-2563
less	-2564
▁evi	-2565
▁oper	-2566
▁show	-2567
isiwaka	-2568
▁sirhelela	-2569
mili	-2570
▁Tra	-2571
▁vuy	-2572
undzuku	-2573
▁dyondza	-2574
▁langute	-2575
▁ntolovelo	-2576
mbewu	-2577
hlanganisi	-2578
gho	-2579
tori	-2580
▁ser	-2581
▁xikan	-2582
cing	-2583
semb	-2584
▁Langu	-2585
ging	-2586
hile	-2587
tivity	-2588
▁vuxaka	-2589
▁crime	-2590
▁proper	-2591
▁tshemb	-2592
cc	-2593
▁nxa	-2594
▁house	-2595
▁procedu	-2596
▁Nd	-2597
wane	-2598
ination	-2599
▁appo	-2600
▁tisa	-2601
▁Fa	-2602
▁ai	-2603
kumu	-2604
yike	-2605
▁St	-2606
ecutive	-2607
▁matters	-2608
▁vundzeni	-2609
tro	-2610
kanyo	-2611
▁ny	-2612
▁nkhu	-2613
▁open	-2614
til	-2615
▁Dyondzo	-2616
▁nkunguhato	-2617
▁communities	-2618
▁fikela	-2619
▁ehandle	-2620
mploy	-2621
▁State	-2622
▁programmes	-2623
road	-2624
▁Mana	-2625
priate	-2626
▁challenges	-2627
General	-2628
▁18	-2629
sembly	-2630
▁hatl	-2631
▁hlanganisa	-2632
uthority	-2633
▁Wor	-2634
▁objectives	-2635
hisa	-2636
▁vulavu	-2637
tshalatshala	-2638
▁rhandz	-2639
▁ringeta	-2640
▁Mati	-2641
▁hlawuleka	-2642
ango	-2643
tshungu	-2644
▁during	-2645
▁reques	-2646
▁vurimi	-2647
▁contribu	-2648
rect	-2649
ster	-2650
stice	-2651
bilities	-2652
▁Ga	-2653
▁Mun	-2654
▁tikho	-2655
▁pfumelela	-2656
▁participation	-2657
▁tlu	-2658
▁ntirhisano	-2659
por	-2660
ency	-2661
ender	-2662
▁humesa	-2663
▁vonaka	-2664
▁vutisa	-2665
5.	-2666
▁cal	-2667
▁Khomixini	-2668
hila	-2669
▁growth	-2670
▁pfuneta	-2671
▁tindzimi	-2672
▁Assembly	-2673
▁mikarhi	-2674
tch	-2675
▁Tir	-2676
▁mitlawa	-2677
▁ringane	-2678
▁fore	-2679
▁better	-2680
▁3.	-2681
▁agricu	-2682
▁investiga	-2683
yone	-2684
kheti	-2685
▁vuvabyi	-2686
▁international	-2687
▁xikarhi	-2688
▁tikomiti	-2689
▁tirhisana	-2690
▁appe	-2691
▁land	-2692
▁infrastructure	-2693
lerile	-2694
hozi	-2695
tiweke	-2696
▁amukeri	-2697
mabu	-2698
▁economy	-2699
coura	-2700
vision	-2701
▁play	-2702
▁design	-2703
▁safety	-2704
heka	-2705
▁Uni	-2706
other	-2707
▁sivela	-2708
▁xitifi	-2709
▁curr	-2710
▁accord	-2711
▁kusuhi	-2712
▁ndzing	-2713
▁representa	-2714
ards	-2715
▁Xits	-2716
▁real	-2717
▁kongomisa	-2718
tiviso	-2719
▁colle	-2720
fession	-2721
▁Republic	-2722
LA	-2723
▁tas	-2724
graph	-2725
▁dyondz	-2726
▁Timhaka	-2727
▁vamanana	-2728
ody	-2729
▁hlo	-2730
▁amount	-2731
WA	-2732
leki	-2733
fairs	-2734
▁debate	-2735
▁tiphurojeke	-2736
▁sh	-2737
Xi	-2738
dyondzo	-2739
▁documents	-2740
MS	-2741
▁Ne	-2742
vention	-2743
▁quality	-2744
ath	-2745
▁contra	-2746
▁another	-2747
▁kala	-2748
vandla	-2749
▁Provin	-2750
▁legal	-2751
▁administra	-2752
tained	-2753
▁appropriate	-2754
xop	-2755
▁198	-2756
KA	-2757
▁off	-2758
▁rha	-2759
▁laya	-2760
▁hear	-2761
▁Nts	-2762
▁both	-2763
▁budget	-2764
▁swimbirhi	-2765
▁points	-2766
▁timbirhi	-2767
IN	-2768
▁Bill	-2769
masipala	-2770
▁conditions	-2771
▁du	-2772
▁Mabas	-2773
▁Dire	-2774
▁look	-2775
▁ndzawulo	-2776
lion	-2777
▁assessment	-2778
▁0	-2779
▁swiha	-2780
▁hakeriwa	-2781
▁layisense	-2782
▁nhundzu	-2783
▁evidence	-2784
▁approach	-2785
▁minongonoko	-2786
▁Fo	-2787
balo	-2788
▁least	-2789
▁Nawumbisi	-2790
▁girls	-2791
7.	-2792
rit	-2793
▁engete	-2794
fication	-2795
▁Cape	-2796
▁focus	-2797
▁hakunene	-2798
▁nhlayiso	-2799
▁partners	-2800
▁responsibility	-2801
mon	-2802
kelela	-2803
tirhela	-2804
▁committees	-2805
▁dri	-2806
▁home	-2807
▁Misava	-2808
▁control	-2809
vious	-2810
reng	-2811
▁smal	-2812
▁ximunhu	-2813
▁responsible	-2814
ences	-2815
▁ying	-2816
▁measures	-2817
▁vekiweke	-2818
▁xidemokirasi	-2819
yengen	-2820
▁agreement	-2821
hanga	-2822
▁yima	-2823
▁prepa	-2824
▁private	-2825
▁Swo	-2826
▁AIDS	-2827
dzawulo	-2828
▁reasons	-2829
▁mphakelo	-2830
▁hinkwerhu	-2831
late	-2832
tics	-2833
yangu	-2834
duction	-2835
▁Hikwalaho	-2836
▁contact	-2837
▁Masipala	-2838
▁mpimanyeto	-2839
▁Application	-2840
lulami	-2841
▁achie	-2842
▁11	-2843
▁tirhisiwaka	-2844
wun	-2845
lated	-2846
ption	-2847
▁vari	-2848
rh	-2849
amu	-2850
ming	-2851
▁Director	-2852
▁Xa	-2853
▁put	-2854
▁provided	-2855
▁hangala	-2856
▁humeler	-2857
▁request	-2858
▁security	-2859
▁employees	-2860
▁conte	-2861
▁khumbe	-2862
▁lavi	-2863
▁below	-2864
▁Our	-2865
▁ene	-2866
fficu	-2867
▁speak	-2868
▁wunwana	-2869
▁Xikombelo	-2870
▁institutions	-2871
ects	-2872
tten	-2873
▁ley	-2874
ledge	-2875
▁mambirhi	-2876
rong	-2877
lways	-2878
▁subject	-2879
▁xihlawu	-2880
kin	-2881
▁cust	-2882
ramework	-2883
indlu	-2884
▁produc	-2885
ne	-2886
▁hon	-2887
▁Sweswi	-2888
▁maphorisa	-2889
ages	-2890
tshunguri	-2891
dyondz	-2892
▁counci	-2893
▁dise	-2894
mbuyelo	-2895
▁khumba	-2896
▁Municipal	-2897
verty	-2898
▁reco	-2899
▁Fi	-2900
mpfi	-2901
▁car	-2902
pfungopfu	-2903
tshunxo	-2904
▁lawula	-2905
▁lw	-2906
▁vaaka	-2907
resi	-2908
▁Res	-2909
▁whe	-2910
▁officer	-2911
▁swiphemu	-2912
▁Xikombiso	-2913
ined	-2914
▁account	-2915
▁xilaveko	-2916
rant	-2917
▁mbi	-2918
▁forward	-2919
▁ave	-2920
▁parties	-2921
▁municipalities	-2922
meriwa	-2923
▁movha	-2924
▁swits	-2925
▁vanga	-2926
▁Nyi	-2927
▁ide	-2928
▁call	-2929
▁benefi	-2930
▁details	-2931
rhu	-2932
tli	-2933
▁sto	-2934
▁allo	-2935
▁xihi	-2936
▁14	-2937
▁difficu	-2938
▁approved	-2939
▁employment	-2940
▁energy	-2941
▁vadyondzi	-2942
▁registered	-2943
hiwa	-2944
▁Munhu	-2945
▁Fin	-2946
▁resi	-2947
▁cinci	-2948
▁common	-2949
▁employer	-2950
▁promote	-2951
▁subsection	-2952
▁KU	-2953
stan	-2954
▁licence	-2955
▁emp	-2956
hansela	-2957
▁fact	-2958
▁nhlamuselo	-2959
ists	-2960
yengentsongo	-2961
mined	-2962
yingi	-2963
sirhelelo	-2964
iniki	-2965
tention	-2966
▁legisla	-2967
▁koti	-2968
rities	-2969
▁famb	-2970
▁live	-2971
▁past	-2972
▁Mbu	-2973
▁xexo	-2974
▁basis	-2975
▁learning	-2976
▁matshalatshala	-2977
▁sum	-2978
▁trade	-2979
▁ntlhanu	-2980
▁special	-2981
▁nya	-2982
▁four	-2983
vekisi	-2984
▁humele	-2985
▁completed	-2986
comes	-2987
▁market	-2988
▁delivery	-2989
hlu	-2990
then	-2991
▁Exp	-2992
ising	-2993
site	-2994
▁Swa	-2995
▁streng	-2996
▁Registra	-2997
▁workers	-2998
HE	-2999
▁great	-3000
▁letter	-3001
▁mention	-3002
▁serious	-3003
act	-3004
▁xikolo	-3005
gional	-3006
▁electri	-3007
▁encoura	-3008
ber	-3009
▁Pe	-3010
orted	-3011
▁Tran	-3012
▁para	-3013
▁vuka	-3014
▁kwalomu	-3015
dents	-3016
▁biha	-3017
▁Comm	-3018
tified	-3019
▁Section	-3020
▁rej	-3021
▁muholo	-3022
▁monitor	-3023
vation	-3024
teka	-3025
▁aware	-3026
▁final	-3027
▁Mabasa	-3028
▁Jo	-3029
isaveni	-3030
▁presen	-3031
▁doing	-3032
▁hundzeke	-3033
▁mpfuneto	-3034
valu	-3035
▁vus	-3036
▁gra	-3037
▁pfuxe	-3038
▁tiphe	-3039
▁ty	-3040
▁bur	-3041
imal	-3042
▁endle	-3043
mente	-3044
paxop	-3045
▁rito	-3046
anyeto	-3047
▁thank	-3048
▁vele	-3049
tments	-3050
▁laman	-3051
▁tsandzeka	-3052
▁establish	-3053
▁department	-3054
ince	-3055
anile	-3056
▁Tikomiti	-3057
vur	-3058
▁forms	-3059
▁thoriwa	-3060
▁let	-3061
▁purpose	-3062
▁vehicle	-3063
▁province	-3064
▁tekeriwa	-3065
hird	-3066
▁wan	-3067
kwama	-3068
▁tata	-3069
ove	-3070
line	-3071
▁Vuk	-3072
reedom	-3073
▁marri	-3074
unities	-3075
▁tinxaka	-3076
liki	-3077
versi	-3078
mha	-3079
▁Yi	-3080
▁Laha	-3081
▁ngopfungopfu	-3082
ice	-3083
▁NA	-3084
redi	-3085
▁receive	-3086
▁learners	-3087
▁democracy	-3088
tition	-3089
▁poverty	-3090
▁minkarhi	-3091
▁agricultural	-3092
hund	-3093
▁1996	-3094
▁sure	-3095
▁interes	-3096
▁nomboro	-3097
▁rhandza	-3098
▁rimbewu	-3099
▁begin	-3100
▁matsa	-3101
▁always	-3102
tumbuluko	-3103
txt	-3104
▁21	-3105
logy	-3106
▁chan	-3107
▁exist	-3108
▁khoma	-3109
▁ndzavisiso	-3110
▁vantshwa	-3111
▁minhlangano	-3112
py	-3113
▁Gi	-3114
▁poor	-3115
▁indica	-3116
ctu	-3117
jhe	-3118
▁ref	-3119
▁data	-3120
▁rest	-3121
▁correct	-3122
-2	-3123
endli	-3124
▁opini	-3125
▁ple	-3126
▁five	-3127
▁twan	-3128
▁vavasati	-3129
rhijisitara	-3130
mily	-3131
▁less	-3132
▁tiyis	-3133
▁herisa	-3134
▁written	-3135
keti	-3136
▁hoxa	-3137
rg	-3138
tial	-3139
▁Sub	-3140
▁nghingiriko	-3141
▁xip	-3142
▁Swirho	-3143
▁pfumala	-3144
hanselara	-3145
▁emi	-3146
▁plans	-3147
▁xifundzhankulu	-3148
▁Ag	-3149
fit	-3150
mele	-3151
vers	-3152
▁above	-3153
▁table	-3154
▁reason	-3155
▁welcome	-3156
▁anal	-3157
▁challenge	-3158
sts	-3159
▁party	-3160
▁continu	-3161
▁ndzhawu	-3162
▁opportunity	-3163
▁ana	-3164
▁Health	-3165
val	-3166
▁inde	-3167
hawini	-3168
▁importance	-3169
form	-3170
▁swinwana	-3171
dela	-3172
▁industry	-3173
▁involved	-3174
▁protection	-3175
▁free	-3176
▁mune	-3177
▁visi	-3178
faniso	-3179
▁satis	-3180
▁lemuka	-3181
gela	-3182
▁hamb	-3183
round	-3184
▁small	-3185
reas	-3186
▁Nkarhi	-3187
▁ndhavuko	-3188
ppo	-3189
anana	-3190
▁swikombiso	-3191
▁Ja	-3192
olen	-3193
lations	-3194
▁depend	-3195
cally	-3196
▁held	-3197
▁appoin	-3198
▁foreign	-3199
▁simekiwa	-3200
▁found	-3201
▁motor	-3202
▁leaders	-3203
ative	-3204
ofisi	-3205
▁needed	-3206
▁2009	-3207
kumbe	-3208
▁xivandla	-3209
cuss	-3210
▁hinkwaro	-3211
▁developed	-3212
▁Mr	-3213
▁hanya	-3214
▁create	-3215
▁khomiwa	-3216
▁Education	-3217
vhe	-3218
▁ear	-3219
▁ntsha	-3220
▁andlariwile	-3221
lay	-3222
▁qui	-3223
undzuxo	-3224
▁baby	-3225
▁line	-3226
▁Africans	-3227
▁instru	-3228
▁vumaki	-3229
pt	-3230
▁At	-3231
▁tik	-3232
▁nyikiweke	-3233
▁Nhlengeletano	-3234
ghen	-3235
▁issued	-3236
selves	-3237
▁conclu	-3238
▁tiyisa	-3239
▁ntumbuluko	-3240
▁moya	-3241
formation	-3242
▁tumbuluxiwa	-3243
tage	-3244
▁Endz	-3245
▁Wadi	-3246
▁says	-3247
▁income	-3248
qing	-3249
soci	-3250
▁mean	-3251
▁short	-3252
iseriwa	-3253
ched	-3254
mar	-3255
lavu	-3256
OP	-3257
ols	-3258
hinga	-3259
▁copy	-3260
▁resul	-3261
▁yelana	-3262
▁profession	-3263
raka	-3264
▁targe	-3265
ately	-3266
movha	-3267
▁glob	-3268
▁activity	-3269
ET	-3270
▁Ro	-3271
▁paid	-3272
▁meetings	-3273
▁bri	-3274
aneke	-3275
bly	-3276
irth	-3277
▁vav	-3278
▁power	-3279
pfhumba	-3280
leriweke	-3281
mani	-3282
yiwa	-3283
▁kaya	-3284
▁fambis	-3285
▁Program	-3286
▁xinwana	-3287
vour	-3288
sions	-3289
▁enti	-3290
▁muthori	-3291
▁tinyike	-3292
▁concerned	-3293
▁tirhisiwile	-3294
▁achieved	-3295
▁positive	-3296
▁xihlawuhlawu	-3297
▁4.	-3298
▁endliweke	-3299
▁hluvukisa	-3300
▁cost	-3301
▁papila	-3302
▁langutisa	-3303
▁paragraph	-3304
ono	-3305
▁sc	-3306
tory	-3307
ource	-3308
▁humesiwa	-3309
▁fambelanaka	-3310
▁head	-3311
andzi	-3312
▁mafu	-3313
residente	-3314
▁lowukulu	-3315
▁dya	-3316
▁tive	-3317
▁death	-3318
▁Some	-3319
▁tidyondzo	-3320
▁vutshunguri	-3321
fomo	-3322
rial	-3323
▁others	-3324
▁Ac	-3325
▁Of	-3326
▁im	-3327
vement	-3328
▁mindy	-3329
▁simeka	-3330
▁Affairs	-3331
▁Mitirho	-3332
▁contain	-3333
aka	-3334
thi	-3335
longa	-3336
▁tlan	-3337
staina	-3338
▁evalu	-3339
▁quali	-3340
▁institution	-3341
mine	-3342
vidu	-3343
ctors	-3344
cribed	-3345
ential	-3346
▁vusweti	-3347
▁electricity	-3348
▁tihu	-3349
▁implement	-3350
▁hlu	-3351
▁hlen	-3352
▁whether	-3353
▁best	-3354
▁rese	-3355
▁nkhulu	-3356
▁facilita	-3357
vhi	-3358
▁tes	-3359
ofisiri	-3360
▁vulaka	-3361
▁opportunities	-3362
▁ess	-3363
▁conf	-3364
▁using	-3365
▁vhota	-3366
hlamulo	-3367
ringanyeto	-3368
▁Is	-3369
▁labour	-3370
fficient	-3371
▁ndzimana	-3372
▁hig	-3373
ariso	-3374
tiwile	-3375
▁depar	-3376
▁opinion	-3377
▁principles	-3378
▁swikombelo	-3379
▁ekho	-3380
▁rules	-3381
▁thing	-3382
▁Timali	-3383
▁vatswari	-3384
▁fanelanga	-3385
oloji	-3386
hlampfi	-3387
▁effect	-3388
▁authority	-3389
▁tinhlengeletano	-3390
ser	-3391
inkulu	-3392
veryone	-3393
▁strategi	-3394
▁household	-3395
▁pfumaleka	-3396
leko	-3397
▁Chi	-3398
khodo	-3399
lwana	-3400
▁recom	-3401
▁persons	-3402
mployment	-3403
eng	-3404
▁yet	-3405
-1	-3406
byo	-3407
ters	-3408
▁tindzawulo	-3409
▁ndyangu	-3410
▁pfumelelana	-3411
EC	-3412
▁accoun	-3413
RS	-3414
cise	-3415
▁dia	-3416
▁Xita	-3417
▁ways	-3418
visisi	-3419
▁swihi	-3420
▁impact	-3421
▁recogn	-3422
▁general	-3423
▁participate	-3424
ral	-3425
heli	-3426
leti	-3427
hlovo	-3428
winyi	-3429
▁tlher	-3430
▁Cour	-3431
qingho	-3432
mundzuku	-3433
▁thought	-3434
speci	-3435
▁Where	-3436
▁present	-3437
dyondzisi	-3438
tal	-3439
▁decla	-3440
▁2002	-3441
▁Swiko	-3442
▁Vaaki	-3443
▁vufambisi	-3444
MA	-3445
row	-3446
inga	-3447
▁navela	-3448
▁building	-3449
uma	-3450
▁AN	-3451
▁don	-3452
▁byin	-3453
bumabu	-3454
▁longer	-3455
▁vonelo	-3456
▁xiyengentsongo	-3457
▁kana	-3458
▁disease	-3459
▁tinharhu	-3460
▁amukeleka	-3461
▁relations	-3462
▁Xikongomelo	-3463
▁tia	-3464
▁Nyika	-3465
▁Nongonoko	-3466
IT	-3467
ank	-3468
▁dla	-3469
▁based	-3470
▁nhlawulo	-3471
▁proposal	-3472
xik	-3473
▁mpfa	-3474
▁costs	-3475
▁materi	-3476
▁research	-3477
sume	-3478
duced	-3479
▁2000	-3480
▁equi	-3481
▁Matiko	-3482
heni	-3483
▁Phu	-3484
misaveni	-3485
▁experience	-3486
PS	-3487
▁cate	-3488
▁govern	-3489
▁current	-3490
▁xitiviso	-3491
▁submitted	-3492
dition	-3493
▁oc	-3494
okodela	-3495
▁Identi	-3496
▁attend	-3497
▁position	-3498
▁kamberiwa	-3499
cts	-3500
hara	-3501
mila	-3502
▁remo	-3503
▁xixi	-3504
lavulo	-3505
▁function	-3506
▁Timfanelo	-3507
▁basic	-3508
▁Endzhaku	-3509
▁Services	-3510
▁transport	-3511
▁task	-3512
operation	-3513
▁difficult	-3514
vhele	-3515
▁kuri	-3516
▁various	-3517
▁xifundza	-3518
▁democratic	-3519
▁vuvekisi	-3520
▁ou	-3521
ongolo	-3522
▁endlile	-3523
".	-3524
irp	-3525
ors	-3526
tso	-3527
▁Fund	-3528
▁consul	-3529
▁vandla	-3530
▁received	-3531
▁17	-3532
▁Tsa	-3533
▁Xiyimo	-3534
fikelelo	-3535
ttle	-3536
▁notice	-3537
bumabumelo	-3538
▁langutana	-3539
▁vuriwa	-3540
▁conduct	-3541
▁pfumeleriwa	-3542
ace	-3543
▁By	-3544
▁Language	-3545
--	-3546
▁bye	-3547
▁brea	-3548
alwana	-3549
timende	-3550
▁become	-3551
▁Tirhisa	-3552
▁mavabyi	-3553
yisa	-3554
▁THE	-3555
lines	-3556
▁First	-3557
▁ntshun	-3558
fungho	-3559
misela	-3560
▁emisaveni	-3561
▁functions	-3562
▁entirhweni	-3563
RH	-3564
phiki	-3565
sente	-3566
▁fikele	-3567
▁kumekaka	-3568
lega	-3569
ysis	-3570
▁nave	-3571
▁vutshila	-3572
▁nsirhelelo	-3573
▁company	-3574
▁Committees	-3575
lling	-3576
▁esti	-3577
▁million	-3578
▁increase	-3579
▁endliwile	-3580
▁Vukorhokeri	-3581
cable	-3582
kanya	-3583
▁Rihan	-3584
▁yisiwa	-3585
▁councillo	-3586
▁13	-3587
▁cases	-3588
▁direct	-3589
▁SW	-3590
▁pen	-3591
▁tis	-3592
▁Nt	-3593
mula	-3594
▁exc	-3595
mpani	-3596
rhang	-3597
▁Lear	-3598
▁crea	-3599
phikiz	-3600
▁(1)	-3601
hloko	-3602
kambelo	-3603
▁follows	-3604
▁humelelaka	-3605
▁MA	-3606
fula	-3607
ific	-3608
▁grant	-3609
▁young	-3610
▁yaleyo	-3611
▁rinwana	-3612
▁tirhela	-3613
▁fikeleriwa	-3614
mand	-3615
omes	-3616
▁accu	-3617
viwa	-3618
▁sche	-3619
▁framework	-3620
stitutional	-3621
mpa	-3622
▁tava	-3623
hurogi	-3624
▁close	-3625
▁Vatirhi	-3626
▁pfumela	-3627
rhin	-3628
▁rhula	-3629
▁global	-3630
▁endzeni	-3631
▁01	-3632
▁khomi	-3633
▁levels	-3634
▁schools	-3635
sirheleri	-3636
specially	-3637
▁xivilelo	-3638
has	-3639
▁cau	-3640
▁ololo	-3641
▁Xiviko	-3642
........	-3643
▁writing	-3644
▁Registrar	-3645
▁mimbuyelo	-3646
qhinga	-3647
▁hlengele	-3648
▁Programme	-3649
▁1994	-3650
▁identify	-3651
▁vululami	-3652
xav	-3653
yeta	-3654
▁kon	-3655
kaner	-3656
ection	-3657
IC	-3658
ross	-3659
▁Use	-3660
▁ris	-3661
gency	-3662
▁tikha	-3663
leswaku	-3664
▁expected	-3665
MB	-3666
gg	-3667
ula	-3668
▁Leyi	-3669
▁watch	-3670
▁rhange	-3671
dzolonga	-3672
kinoloji	-3673
▁variety	-3674
▁fambisana	-3675
▁languages	-3676
▁swivilelo	-3677
GO	-3678
▁nyiketa	-3679
hurogireme	-3680
venue	-3681
▁animal	-3682
▁especially	-3683
qa	-3684
toko	-3685
▁post	-3686
▁guide	-3687
▁thoni	-3688
▁whole	-3689
▁mihlangano	-3690
▁TB	-3691
▁Hak	-3692
▁Hin	-3693
▁Mar	-3694
▁fai	-3695
▁feel	-3696
▁iden	-3697
vulavu	-3698
tirheli	-3699
turn	-3700
ctures	-3701
▁Court	-3702
▁favour	-3703
▁learner	-3704
▁capacity	-3705
▁individu	-3706
▁environmental	-3707
eld	-3708
▁kambis	-3709
▁concerns	-3710
▁mavandla	-3711
▁decisions	-3712
▁vumundzuku	-3713
▁,	-3714
▁Nko	-3715
▁Misaveni	-3716
▁departments	-3717
▁hour	-3718
▁wait	-3719
▁start	-3720
▁among	-3721
▁enter	-3722
▁techni	-3723
▁mindyangu	-3724
FA	-3725
▁prose	-3726
kanerisano	-3727
▁established	-3728
▁previous	-3729
▁recommend	-3730
▁swivandla	-3731
gges	-3732
▁making	-3733
leriwile	-3734
▁23	-3735
hoti	-3736
pulani	-3737
▁intro	-3738
▁mfuwo	-3739
▁rejis	-3740
▁matimu	-3741
▁yeleyo	-3742
▁Per	-3743
avany	-3744
▁term	-3745
jhek	-3746
▁value	-3747
▁mining	-3748
▁vukati	-3749
▁katsiwa	-3750
▁reasona	-3751
viri	-3752
▁cir	-3753
▁tele	-3754
▁share	-3755
▁results	-3756
▁directive	-3757
▁assistance	-3758
▁My	-3759
pter	-3760
▁Dis	-3761
▁exce	-3762
▁langutisisa	-3763
ose	-3764
▁VA	-3765
▁au	-3766
▁Swifundz	-3767
▁determined	-3768
hendz	-3769
▁tima	-3770
mhakeni	-3771
▁mimovha	-3772
▁mudyondzi	-3773
▁Phuresidente	-3774
▁Fe	-3775
puty	-3776
▁fee	-3777
▁old	-3778
kangi	-3779
▁third	-3780
▁comply	-3781
▁antswisiwa	-3782
▁exer	-3783
▁tiya	-3784
▁Khoto	-3785
▁nghozi	-3786
rhinyana	-3787
▁processes	-3788
ay	-3789
mers	-3790
▁low	-3791
yense	-3792
▁vika	-3793
▁xava	-3794
▁swina	-3795
▁khombo	-3796
▁xibalo	-3797
hundzulu	-3798
▁matsalelo	-3799
ju	-3800
▁nea	-3801
▁Endla	-3802
▁Hinkwa	-3803
▁confir	-3804
▁estima	-3805
lly	-3806
▁hous	-3807
▁organ	-3808
farhuto	-3809
kanjhek	-3810
▁hatlisa	-3811
▁strategy	-3812
ned	-3813
tek	-3814
▁youth	-3815
▁Explain	-3816
▁mapa	-3817
kelano	-3818
▁tirhe	-3819
▁living	-3820
ivi	-3821
ling	-3822
ating	-3823
▁boxa	-3824
▁nearest	-3825
▁organisations	-3826
rib	-3827
▁2010	-3828
▁Identify	-3829
▁investment	-3830
▁jobs	-3831
▁swiharhi	-3832
▁humelerisa	-3833
▁procedures	-3834
Ma	-3835
pro	-3836
hundla	-3837
▁makete	-3838
▁freedom	-3839
▁medical	-3840
▁protect	-3841
▁Maendlelo	-3842
▁Vuswikoti	-3843
▁Mafambiselo	-3844
tus	-3845
▁nom	-3846
▁tikweni	-3847
▁boha	-3848
▁disc	-3849
▁major	-3850
▁presented	-3851
▁resolution	-3852
IP	-3853
pes	-3854
▁asp	-3855
▁web	-3856
▁brief	-3857
▁koteka	-3858
miliyoni	-3859
▁tikomba	-3860
wen	-3861
▁body	-3862
▁mbilu	-3863
▁takes	-3864
▁supply	-3865
▁tsariwa	-3866
▁essential	-3867
50	-3868
qui	-3869
inene	-3870
stances	-3871
▁nature	-3872
▁systems	-3873
▁signific	-3874
▁197	-3875
▁abs	-3876
▁book	-3877
▁muthe	-3878
▁vayimeri	-3879
▁xifundzankulu	-3880
▁ann	-3881
▁broad	-3882
▁delega	-3883
▁payment	-3884
▁provides	-3885
▁langutela	-3886
▁24	-3887
▁Ar	-3888
wela	-3889
▁Siku	-3890
▁vuyer	-3891
▁prevent	-3892
▁attention	-3893
tin	-3894
tisa	-3895
xiya	-3896
▁war	-3897
▁mintlawa	-3898
▁endliwaka	-3899
▁strengthen	-3900
▁sy	-3901
fana	-3902
foli	-3903
▁njhe	-3904
olence	-3905
▁swiki	-3906
▁landze	-3907
▁Nk	-3908
pimo	-3909
siti	-3910
unge	-3911
▁vunharhu	-3912
lk	-3913
▁tshun	-3914
▁fanaka	-3915
▁sentence	-3916
KO	-3917
kete	-3918
▁lin	-3919
xamelo	-3920
▁nyama	-3921
▁family	-3922
lhontlho	-3923
stainable	-3924
▁WA	-3925
▁beha	-3926
▁meet	-3927
▁media	-3928
▁gender	-3929
▁underta	-3930
hur	-3931
▁age	-3932
▁tit	-3933
▁byela	-3934
▁muthelo	-3935
▁fanerile	-3936
term	-3937
▁bal	-3938
▁Local	-3939
▁tshika	-3940
luvuko	-3941
tenance	-3942
▁Deputy	-3943
irperson	-3944
▁ematikweni	-3945
▁xilo	-3946
▁dispo	-3947
▁vangi	-3948
▁hlohlo	-3949
▁really	-3950
▁included	-3951
▁understanding	-3952
pfa	-3953
ates	-3954
▁heta	-3955
nology	-3956
kamberi	-3957
▁kurisa	-3958
▁pulani	-3959
▁swikolo	-3960
▁velekiwa	-3961
Vu	-3962
▁swit	-3963
▁vuyimeri	-3964
mphani	-3965
▁treatment	-3966
▁nku	-3967
▁content	-3968
▁50	-3969
▁Gu	-3970
lack	-3971
▁vuntshwa	-3972
▁lulamisiwa	-3973
▁prescribed	-3974
▁administration	-3975
mum	-3976
▁YA	-3977
▁mul	-3978
▁ntsariso	-3979
▁amendments	-3980
ders	-3981
wara	-3982
▁ori	-3983
▁nkha	-3984
tsakanyo	-3985
▁kotekaka	-3986
▁vak	-3987
ference	-3988
▁compli	-3989
▁hleriwa	-3990
▁lamanene	-3991
▁mat	-3992
▁smo	-3993
ghana	-3994
▁2008	-3995
▁step	-3996
tshamo	-3997
▁large	-3998
▁until	-3999
tse	-4000
ority	-4001
▁Offi	-4002
▁rural	-4003
ruption	-4004
phikizano	-4005
▁nkhulukelano	-4006
▁lot	-4007
oniwa	-4008
ually	-4009
▁Euro	-4010
▁mambe	-4011
vanyisa	-4012
▁return	-4013
▁nkateko	-4014
▁provisions	-4015
▁nkarhinyana	-4016
lict	-4017
▁kan	-4018
kwana	-4019
xiave	-4020
▁mahan	-4021
▁mirhi	-4022
▁discuss	-4023
▁parents	-4024
▁nghenisiwa	-4025
▁communication	-4026
us	-4027
▁Tsala	-4028
AL	-4029
ffor	-4030
tural	-4031
▁analysis	-4032
▁identity	-4033
▁hlayisiwa	-4034
odo	-4035
medi	-4036
orob	-4037
▁vux	-4038
isiwi	-4039
▁insp	-4040
▁refu	-4041
▁seen	-4042
▁phase	-4043
▁interests	-4044
▁Mb	-4045
xina	-4046
yini	-4047
▁abu	-4048
mented	-4049
▁swoleswo	-4050
ensi	-4051
▁Imp	-4052
▁won	-4053
endlo	-4054
▁down	-4055
▁kond	-4056
fforts	-4057
▁accept	-4058
▁xiviri	-4059
▁mas	-4060
▁hold	-4061
▁keep	-4062
▁stake	-4063
▁papala	-4064
▁rate	-4065
▁tiho	-4066
▁endleka	-4067
wards	-4068
▁mini	-4069
ungula	-4070
▁varhangeri	-4071
ticle	-4072
khombo	-4073
▁pulana	-4074
▁taking	-4075
▁Xifundz	-4076
▁knowledge	-4077
▁mad	-4078
▁hoxe	-4079
▁lerin	-4080
▁changes	-4081
▁identified	-4082
9.	-4083
▁nx	-4084
▁Management	-4085
vel	-4086
▁refle	-4087
inawana	-4088
versity	-4089
▁Mahungu	-4090
6.	-4091
▁lwa	-4092
▁leswin	-4093
▁Endlelo	-4094
▁benefits	-4095
▁Aud	-4096
▁accordance	-4097
riso	-4098
▁vit	-4099
▁fish	-4100
▁policies	-4101
▁swinawana	-4102
▁Sp	-4103
talo	-4104
nkulu	-4105
▁enela	-4106
▁nkulu	-4107
▁staff	-4108
▁Hakunene	-4109
kanjhekisano	-4110
▁Vi	-4111
▁2011	-4112
▁associ	-4113
▁matikho	-4114
andid	-4115
▁Pholisi	-4116
▁kom	-4117
▁six	-4118
andza	-4119
kombe	-4120
▁mbango	-4121
lla	-4122
▁ins	-4123
▁tolo	-4124
▁peace	-4125
▁since	-4126
▁xopaxop	-4127
mic	-4128
hangu	-4129
▁gran	-4130
▁asked	-4131
▁explain	-4132
▁pfuniwa	-4133
▁mfikelelo	-4134
▁tiyimisela	-4135
up	-4136
▁sala	-4137
▁rimba	-4138
▁Europe	-4139
▁xitalo	-4140
▁purposes	-4141
▁tiphesente	-4142
▁significant	-4143
ED	-4144
▁el	-4145
▁try	-4146
lwini	-4147
▁oppo	-4148
▁lwisana	-4149
▁remains	-4150
▁Swoleswo	-4151
yeni	-4152
▁listen	-4153
anyi	-4154
▁Rec	-4155
▁Many	-4156
xiwile	-4157
▁detail	-4158
▁priority	-4159
fambo	-4160
ortun	-4161
▁kind	-4162
▁koma	-4163
kumende	-4164
kweleti	-4165
▁requires	-4166
lum	-4167
ret	-4168
cent	-4169
kele	-4170
yenkulu	-4171
▁intend	-4172
▁pfunaka	-4173
tlhontlho	-4174
▁vurhangeri	-4175
ile	-4176
▁true	-4177
▁valu	-4178
▁allocated	-4179
▁tipholisi	-4180
▁developing	-4181
▁hambiswiritano	-4182
▁dinga	-4183
▁metho	-4184
▁monitoring	-4185
gration	-4186
▁Mutirhi	-4187
▁structure	-4188
dule	-4189
nown	-4190
▁Inte	-4191
▁simp	-4192
▁rhang	-4193
▁Tiwadi	-4194
▁reduce	-4195
▁tindlu	-4196
essa	-4197
▁Who	-4198
▁ena	-4199
inary	-4200
▁Indi	-4201
▁fair	-4202
▁lives	-4203
▁emakumu	-4204
▁reports	-4205
▁emhakeni	-4206
▁products	-4207
▁tshamaka	-4208
lobyenkulu	-4209
▁Vuxokoxoko	-4210
ot	-4211
lve	-4212
mples	-4213
▁Poli	-4214
▁kasi	-4215
tshama	-4216
▁vhiki	-4217
▁Agricu	-4218
hikelelo	-4219
▁efforts	-4220
▁someone	-4221
▁traditional	-4222
▁Any	-4223
▁limi	-4224
▁website	-4225
hlamuselo	-4226
lf	-4227
chi	-4228
▁kh	-4229
lamu	-4230
▁tex	-4231
anies	-4232
▁personal	-4233
▁committed	-4234
cti	-4235
▁atta	-4236
▁reme	-4237
▁accom	-4238
▁context	-4239
▁switirho	-4240
▁BI	-4241
▁Kwa	-4242
▁motion	-4243
▁ndzeni	-4244
▁Justice	-4245
▁Mali	-4246
tokoto	-4247
▁swimila	-4248
▁tivisiwa	-4249
▁particularly	-4250
ffic	-4251
goti	-4252
▁miri	-4253
mpaign	-4254
▁vatirhisi	-4255
▁commitment	-4256
▁lu	-4257
kume	-4258
teur	-4259
thek	-4260
▁Xivumbeko	-4261
▁tshikelela	-4262
▁xitifiketi	-4263
law	-4264
▁regional	-4265
▁vuyeriwa	-4266
stra	-4267
▁2004	-4268
▁kayi	-4269
▁rifu	-4270
mor	-4271
▁sex	-4272
sport	-4273
▁kuya	-4274
▁Hofisi	-4275
▁People	-4276
▁ndzhaka	-4277
▁herisiwa	-4278
land	-4279
ither	-4280
▁Home	-4281
▁rihi	-4282
▁draft	-4283
▁lahleke	-4284
▁tsakisa	-4285
▁Vulawuri	-4286
▁komberiwa	-4287
ELO	-4288
▁25	-4289
▁nc	-4290
▁adv	-4291
iseni	-4292
▁Mand	-4293
kiso	-4294
lace	-4295
based	-4296
▁Ripha	-4297
leketli	-4298
▁inform	-4299
hasipala	-4300
▁marriage	-4301
▁solution	-4302
▁Community	-4303
▁60	-4304
▁Be	-4305
ette	-4306
▁phu	-4307
fhuka	-4308
▁dest	-4309
dyambu	-4310
▁tiyimise	-4311
▁tsundzuxa	-4312
Na	-4313
▁etc	-4314
iseko	-4315
▁SARS	-4316
resent	-4317
tatana	-4318
▁conflict	-4319
▁relating	-4320
▁tlangela	-4321
▁principle	-4322
010	-4323
▁40	-4324
▁One	-4325
jenda	-4326
▁vusi	-4327
▁hours	-4328
▁Rights	-4329
▁property	-4330
▁executive	-4331
▁mahanyelo	-4332
▁swiletelo	-4333
je	-4334
rict	-4335
▁xav	-4336
▁Mpfu	-4337
▁page	-4338
hatelo	-4339
sition	-4340
vukisi	-4341
▁Board	-4342
komberi	-4343
▁worker	-4344
▁kanetana	-4345
▁vuriwaka	-4346
vele	-4347
▁Ririmi	-4348
▁adopted	-4349
▁constru	-4350
▁ndzingano	-4351
▁vaakatiko	-4352
ends	-4353
grated	-4354
▁write	-4355
▁benefit	-4356
▁rhejisitara	-4357
gue	-4358
▁custom	-4359
▁teache	-4360
▁standards	-4361
itulu	-4362
mpimo	-4363
▁2013	-4364
▁birth	-4365
▁Chapter	-4366
▁5.	-4367
meke	-4368
ondzo	-4369
▁tiawara	-4370
▁statement	-4371
▁applicable	-4372
▁maintenance	-4373
20	-4374
RA	-4375
asy	-4376
▁Ra	-4377
▁rapp	-4378
▁Other	-4379
▁bring	-4380
▁sirhe	-4381
▁vhoti	-4382
▁works	-4383
2)	-4384
bor	-4385
▁turn	-4386
▁letela	-4387
▁tshembe	-4388
▁lokukulu	-4389
ordination	-4390
▁discussion	-4391
▁khumbekaka	-4392
lemen	-4393
orteur	-4394
▁circu	-4395
▁unless	-4396
▁nyiketiwa	-4397
heta	-4398
▁Exa	-4399
▁mach	-4400
▁week	-4401
▁often	-4402
lanyana	-4403
▁Xandla	-4404
▁rapporteur	-4405
tla	-4406
karh	-4407
▁aim	-4408
▁influ	-4409
▁quite	-4410
▁thola	-4411
▁mentioned	-4412
▁mamiliyoni	-4413
TION	-4414
tsong	-4415
▁nono	-4416
▁funds	-4417
vevukisi	-4418
▁balance	-4419
▁etlhelo	-4420
▁OF	-4421
▁har	-4422
▁requester	-4423
DC	-4424
▁36	-4425
xelo	-4426
bliki	-4427
chini	-4428
edulu	-4429
▁easy	-4430
suring	-4431
▁matirhele	-4432
loye	-4433
celwa	-4434
▁guar	-4435
▁nkhaqa	-4436
▁sungurile	-4437
kove	-4438
dered	-4439
▁rene	-4440
angeni	-4441
mental	-4442
diction	-4443
▁mahala	-4444
▁Mandela	-4445
tifikheti	-4446
▁addition	-4447
ivil	-4448
▁nsi	-4449
▁reli	-4450
▁susa	-4451
▁proof	-4452
▁applic	-4453
▁twisiseka	-4454
▁Des	-4455
▁mint	-4456
▁gener	-4457
vurisano	-4458
▁endleke	-4459
▁swikili	-4460
▁swiviko	-4461
▁nkhaqato	-4462
▁rhumeriwa	-4463
geri	-4464
gical	-4465
▁tits	-4466
lekaka	-4467
▁mavito	-4468
▁related	-4469
▁Vut	-4470
▁fight	-4471
▁leyikulu	-4472
▁nghenela	-4473
Act	-4474
▁IC	-4475
Ndzi	-4476
▁riva	-4477
▁susp	-4478
xikaya	-4479
▁Trans	-4480
▁times	-4481
▁ntlangu	-4482
▁tshembha	-4483
▁switsongo	-4484
▁Hambileswi	-4485
bil	-4486
cience	-4487
▁Kungu	-4488
avanyisi	-4489
eleb	-4490
mate	-4491
utes	-4492
oroba	-4493
ressed	-4494
▁khume	-4495
▁plant	-4496
▁compla	-4497
▁allowed	-4498
▁tsundzuka	-4499
▁yingisela	-4500
▁Ya	-4501
rite	-4502
▁enga	-4503
▁took	-4504
atives	-4505
ission	-4506
▁outcomes	-4507
hari	-4508
▁cap	-4509
▁laun	-4510
▁once	-4511
▁xiti	-4512
fortun	-4513
▁steps	-4514
▁demand	-4515
▁Members	-4516
opo	-4517
▁196	-4518
endlele	-4519
▁comment	-4520
▁ringanela	-4521
bur	-4522
▁Mak	-4523
▁judi	-4524
▁kumi	-4525
▁called	-4526
▁vukheta	-4527
▁ndlandlamuxa	-4528
▁swibumabumelo	-4529
▁tumbuluxiweke	-4530
HO	-4531
anu	-4532
viki	-4533
▁Nhla	-4534
phepha	-4535
▁twala	-4536
▁nothing	-4537
▁includes	-4538
▁mahlweni	-4539
sus	-4540
▁es	-4541
alid	-4542
▁lav	-4543
▁2005	-4544
▁Nyen	-4545
▁dang	-4546
▁agreed	-4547
▁unable	-4548
void	-4549
isted	-4550
wanga	-4551
▁feed	-4552
▁mand	-4553
vuyelo	-4554
▁tihuvo	-4555
▁culture	-4556
▁Vumbhoni	-4557
▁manharhu	-4558
▁objective	-4559
▁regulation	-4560
▁Information	-4561
▁vuhlanganisi	-4562
▁ine	-4563
▁run	-4564
▁eneji	-4565
▁hluvu	-4566
▁mahlo	-4567
▁Social	-4568
▁xitifikheti	-4569
sh	-4570
wet	-4571
▁Nti	-4572
light	-4573
▁Hlaya	-4574
▁Macho	-4575
▁goods	-4576
▁leave	-4577
▁nation	-4578
▁matlhelo	-4579
▁hinkwabyo	-4580
▁hun	-4581
▁else	-4582
▁Intern	-4583
▁negoti	-4584
▁kunguhata	-4585
Ku	-4586
hips	-4587
▁1.1	-4588
▁Pele	-4589
▁appeal	-4590
▁unfair	-4591
▁justice	-4592
▁kwalaho	-4593
▁sectors	-4594
▁nkambelo	-4595
▁professional	-4596
2.	-4597
ja	-4598
▁1:	-4599
kahle	-4600
▁appear	-4601
▁boxiweke	-4602
▁everyone	-4603
▁mitlhontlho	-4604
GA	-4605
▁Bi	-4606
godi	-4607
tulu	-4608
▁Why	-4609
▁soon	-4610
▁Batho	-4611
▁celeb	-4612
▁Nomboro	-4613
▁Te	-4614
inca	-4615
▁Ina	-4616
▁Lowu	-4617
▁mind	-4618
▁occu	-4619
marito	-4620
▁messa	-4621
▁swifuwo	-4622
▁exercise	-4623
▁hlawuriwa	-4624
▁hlanganisiwa	-4625
gers	-4626
▁status	-4627
▁madzolonga	-4628
plo	-4629
wal	-4630
hana	-4631
anele	-4632
▁hlama	-4633
▁avelana	-4634
▁lahlekeriwa	-4635
eral	-4636
hlawule	-4637
▁Nakambe	-4638
▁Learning	-4639
▁xopaxopi	-4640
▁amendment	-4641
▁appointed	-4642
COP	-4643
hasi	-4644
▁ala	-4645
▁humaka	-4646
▁kaneta	-4647
▁rejistara	-4648
▁represent	-4649
crimination	-4650
▁mphikizano	-4651
▁priorities	-4652
▁xitsalwana	-4653
ubl	-4654
riwe	-4655
hough	-4656
▁tino	-4657
▁tsema	-4658
gangeni	-4659
▁agenda	-4660
▁sugges	-4661
jo	-4662
hli	-4663
▁ki	-4664
wers	-4665
▁reser	-4666
holders	-4667
▁higher	-4668
▁xavisa	-4669
▁Auditor	-4670
▁affected	-4671
veness	-4672
▁World	-4673
wangiki	-4674
▁Handle	-4675
▁active	-4676
▁beginning	-4677
▁vulavisisi	-4678
RO	-4679
mpfu	-4680
ying	-4681
▁fru	-4682
▁una	-4683
▁emer	-4684
▁Write	-4685
▁mongo	-4686
▁swinharhu	-4687
IR	-4688
▁Nu	-4689
yeri	-4690
kateko	-4691
xitulu	-4692
▁origin	-4693
▁strong	-4694
▁vilela	-4695
▁nhluvuko	-4696
▁ntshunxeko	-4697
▁Read	-4698
▁invi	-4699
▁ekhoto	-4700
▁providing	-4701
▁Xitshuriwa	-4702
▁consultation	-4703
NP	-4704
UN	-4705
mpt	-4706
▁onha	-4707
▁After	-4708
▁Syste	-4709
▁fully	-4710
▁Nkwama	-4711
▁informed	-4712
7,	-4713
▁eP	-4714
ader	-4715
long	-4716
tari	-4717
▁Ass	-4718
▁nor	-4719
vanta	-4720
▁affi	-4721
▁Office	-4722
▁procedure	-4723
▁structures	-4724
▁organisation	-4725
▁Parti	-4726
lthough	-4727
▁Complete	-4728
▁campaign	-4729
▁transfer	-4730
▁2:	-4731
▁Wi	-4732
▁Tat	-4733
▁Sche	-4734
▁khuta	-4735
▁Provinces	-4736
sto	-4737
▁aid	-4738
▁team	-4739
▁Xitayili	-4740
ower	-4741
ongwa	-4742
▁face	-4743
▁tshu	-4744
letela	-4745
▁cause	-4746
▁tsarisa	-4747
▁transpar	-4748
▁technical	-4749
▁ID	-4750
ight	-4751
lour	-4752
▁Your	-4753
▁hard	-4754
▁popu	-4755
▁tibo	-4756
▁piman	-4757
▁swipfuno	-4758
▁Executive	-4759
▁amukeleki	-4760
▁sustainable	-4761
aki	-4762
▁100	-4763
▁cli	-4764
▁pho	-4765
leleni	-4766
tlhari	-4767
▁threa	-4768
rhangana	-4769
▁existing	-4770
▁vatatana	-4771
▁vamasipala	-4772
▁Holobyenkulu	-4773
▁31	-4774
deni	-4775
mban	-4776
tise	-4777
▁vuyi	-4778
▁Mathe	-4779
▁ekaya	-4780
▁simple	-4781
▁clearly	-4782
▁xihundla	-4783
▁swifundzhankulu	-4784
▁loo	-4785
omary	-4786
▁Cent	-4787
▁ntsa	-4788
mbisisa	-4789
tirhisani	-4790
▁lexikulu	-4791
▁representatives	-4792
jek	-4793
uris	-4794
xavo	-4795
▁due	-4796
▁cris	-4797
▁enhan	-4798
▁pfhumba	-4799
▁prepared	-4800
xana	-4801
▁char	-4802
makiwa	-4803
xinara	-4804
▁event	-4805
▁kumile	-4806
▁little	-4807
▁yintshwa	-4808
▁ntshikelelo	-4809
▁switsundzuxo	-4810
sini	-4811
▁Xir	-4812
▁lack	-4813
▁tell	-4814
handzu	-4815
▁pheji	-4816
▁Second	-4817
▁expand	-4818
▁perman	-4819
▁minutes	-4820
▁implemented	-4821
kara	-4822
▁away	-4823
▁miako	-4824
anti	-4825
hlahla	-4826
▁adver	-4827
▁complain	-4828
▁majority	-4829
say	-4830
poto	-4831
roni	-4832
▁move	-4833
▁Human	-4834
▁wrong	-4835
rhumiwa	-4836
▁centre	-4837
▁kunene	-4838
pfarhuto	-4839
▁commission	-4840
lala	-4841
▁susiwa	-4842
▁housing	-4843
▁ntokoto	-4844
▁towards	-4845
▁happened	-4846
▁improved	-4847
▁applicant	-4848
sals	-4849
fully	-4850
indza	-4851
uteng	-4852
▁funding	-4853
▁traffic	-4854
▁successful	-4855
AC	-4856
▁012	-4857
khawun	-4858
▁voted	-4859
▁applies	-4860
▁katsaka	-4861
▁xivulwa	-4862
▁milandzu	-4863
UL	-4864
▁XI	-4865
vile	-4866
iture	-4867
sinya	-4868
vered	-4869
▁clai	-4870
ngopfu	-4871
▁funda	-4872
▁khopi	-4873
▁valid	-4874
kulobye	-4875
▁tsariweke	-4876
▁hlamuseriwa	-4877
▁Are	-4878
▁Tata	-4879
▁Vurimi	-4880
▁Kombisa	-4881
▁Revenue	-4882
▁Xiphemu	-4883
tsongwana	-4884
cept	-4885
head	-4886
loni	-4887
▁Spe	-4888
▁mpa	-4889
manga	-4890
▁mimb	-4891
▁field	-4892
▁later	-4893
▁while	-4894
▁mavoko	-4895
▁response	-4896
lavurisano	-4897
▁provinces	-4898
oms	-4899
iseke	-4900
uniti	-4901
▁left	-4902
▁candid	-4903
▁crisis	-4904
'.	-4905
ENT	-4906
hovelo	-4907
ungeto	-4908
▁descri	-4909
▁Now	-4910
▁mal	-4911
▁compa	-4912
▁nsati	-4913
andzele	-4914
▁makaya	-4915
▁90	-4916
▁wee	-4917
tsari	-4918
▁send	-4919
▁tile	-4920
leriwi	-4921
ntsongo	-4922
▁danger	-4923
▁ndzima	-4924
▁vurile	-4925
▁natural	-4926
▁sunguleni	-4927
▁hlohlotela	-4928
▁legislature	-4929
band	-4930
zela	-4931
▁actions	-4932
▁summary	-4933
▁corruption	-4934
▁tinyiketela	-4935
polo	-4936
▁word	-4937
▁yaka	-4938
▁never	-4939
▁ngati	-4940
▁United	-4941
▁extreme	-4942
▁indicate	-4943
▁internal	-4944
os	-4945
ban	-4946
▁XA	-4947
▁Rhu	-4948
kumba	-4949
▁palu	-4950
▁pasi	-4951
dzidzi	-4952
▁weeks	-4953
▁longolo	-4954
▁mintlhontlho	-4955
In	-4956
xin	-4957
▁FI	-4958
gula	-4959
yiki	-4960
isini	-4961
▁manu	-4962
▁tiph	-4963
▁vule	-4964
mended	-4965
▁juris	-4966
▁known	-4967
▁total	-4968
▁enable	-4969
▁manner	-4970
▁nyimpi	-4971
andzhaku	-4972
▁nyikaka	-4973
▁talking	-4974
-0	-4975
tsu	-4976
▁Ch	-4977
weta	-4978
▁publ	-4979
▁risk	-4980
▁temp	-4981
▁dispu	-4982
isekeke	-4983
▁charac	-4984
tiveness	-4985
▁twanana	-4986
▁vanwana	-4987
▁mivuyelo	-4988
▁dyondzisa	-4989
▁increased	-4990
▁tsakelaka	-4991
pr	-4992
lled	-4993
yisi	-4994
▁Vad	-4995
▁cru	-4996
pment	-4997
▁mother	-4998
▁critical	-4999
▁35	-5000
▁khome	-5001
▁stage	-5002
▁vukha	-5003
▁encourage	-5004
ken	-5005
mina	-5006
yani	-5007
▁Whi	-5008
▁ite	-5009
isele	-5010
khomi	-5011
mpopo	-5012
▁port	-5013
▁byona	-5014
▁gives	-5015
▁ntshu	-5016
▁xinawu	-5017
▁swivulwa	-5018
lenge	-5019
▁divi	-5020
▁hosp	-5021
▁kwala	-5022
▁wards	-5023
pendent	-5024
▁Manana	-5025
▁immedi	-5026
▁complex	-5027
▁creation	-5028
▁riqingho	-5029
▁proposals	-5030
rayi	-5031
▁Econ	-5032
▁ntalo	-5033
▁Ntlawa	-5034
khawunti	-5035
▁testing	-5036
▁Mintirho	-5037
▁khumbaka	-5038
▁violence	-5039
asi	-5040
pon	-5041
Nawu	-5042
cles	-5043
dzile	-5044
▁wants	-5045
▁sekete	-5046
entlemen	-5047
hurisano	-5048
▁ololoxa	-5049
▁ourselves	-5050
pre	-5051
▁blo	-5052
▁bor	-5053
▁2003	-5054
▁Once	-5055
▁kotaka	-5056
▁according	-5057
▁hlawuriweke	-5058
wama	-5059
▁...	-5060
veral	-5061
▁Name	-5062
▁decid	-5063
omestic	-5064
phakeri	-5065
▁around	-5066
▁tivaka	-5067
▁vision	-5068
▁simekiweke	-5069
▁consideration	-5070
gno	-5071
burg	-5072
▁Mav	-5073
▁Pri	-5074
cement	-5075
▁kanela	-5076
▁Training	-5077
▁xinawana	-5078
▁effectively	-5079
riwi	-5080
▁Pha	-5081
▁While	-5082
▁ajenda	-5083
▁makumu	-5084
▁product	-5085
▁tirhisi	-5086
▁nyikiwaka	-5087
cs	-5088
▁Xin	-5089
▁2001	-5090
▁sepa	-5091
▁choice	-5092
▁tlanga	-5093
▁character	-5094
▁equipment	-5095
IA	-5096
fang	-5097
▁moti	-5098
hlayisi	-5099
▁proposed	-5100
▁nyikiwile	-5101
▁acceptable	-5102
▁fundamental	-5103
▁languteriwa	-5104
▁partnership	-5105
30	-5106
ING	-5107
▁abuse	-5108
▁lavan	-5109
▁veter	-5110
chayeri	-5111
▁kandzi	-5112
▁thyaka	-5113
▁regular	-5114
elf	-5115
lun	-5116
▁khumbhe	-5117
▁leyintshwa	-5118
)?	-5119
gwa	-5120
▁Vun	-5121
▁chu	-5122
▁Guide	-5123
▁Speci	-5124
▁Water	-5125
chudeni	-5126
▁Ndlela	-5127
▁circum	-5128
▁effici	-5129
▁elected	-5130
▁khampani	-5131
▁evaluation	-5132
lini	-5133
ried	-5134
▁xir	-5135
▁demon	-5136
▁nxaxamelo	-5137
xile	-5138
hanse	-5139
▁Yuro	-5140
▁idea	-5141
urance	-5142
tlhokove	-5143
▁capital	-5144
▁targets	-5145
▁ntsakelo	-5146
▁cooperation	-5147
▁initiatives	-5148
▁landzelerisa	-5149
.1.	-5150
reen	-5151
utor	-5152
ciary	-5153
gories	-5154
▁types	-5155
▁kumiwa	-5156
▁rhanga	-5157
▁ensuring	-5158
▁permanent	-5159
▁thekinoloji	-5160
kimi	-5161
wani	-5162
▁nwi	-5163
dress	-5164
▁draw	-5165
▁test	-5166
▁pfula	-5167
lutions	-5168
▁mpfuma	-5169
▁powers	-5170
▁accused	-5171
▁changed	-5172
▁message	-5173
▁complaint	-5174
▁maendlele	-5175
ANA	-5176
une	-5177
▁PA	-5178
▁spa	-5179
▁With	-5180
▁ntli	-5181
▁obli	-5182
▁tour	-5183
miseko	-5184
▁Provi	-5185
▁Tatana	-5186
▁simply	-5187
▁Mbuyelo	-5188
▁chayela	-5189
andlalelo	-5190
tekaxiave	-5191
▁Planning	-5192
▁kambisisa	-5193
▁Nghingiriko	-5194
▁vadyondzisi	-5195
▁representative	-5196
OR	-5197
mali	-5198
zette	-5199
▁vuya	-5200
▁study	-5201
▁victi	-5202
▁events	-5203
▁xivono	-5204
▁mavhiki	-5205
▁ntikelo	-5206
▁tlakuka	-5207
▁practice	-5208
▁contribution	-5209
tely	-5210
▁Vana	-5211
▁sele	-5212
handzi	-5213
▁determine	-5214
▁muofisiri	-5215
▁stakeholders	-5216
orpor	-5217
▁mili	-5218
pikara	-5219
▁Hlawu	-5220
▁pfala	-5221
vonkulu	-5222
▁extent	-5223
▁Rihanyo	-5224
▁levhele	-5225
▁perform	-5226
▁discussed	-5227
▁vusirheleri	-5228
▁.	-5229
ffs	-5230
mind	-5231
quor	-5232
xavi	-5233
▁bohi	-5234
▁masi	-5235
▁pima	-5236
▁black	-5237
▁ncini	-5238
▁tsevu	-5239
tirhelo	-5240
▁emphas	-5241
▁lavisisa	-5242
▁GE	-5243
▁ur	-5244
riki	-5245
▁spi	-5246
.2010	-5247
anela	-5248
▁Medi	-5249
▁yime	-5250
▁tlhele	-5251
derstand	-5252
▁additional	-5253
▁leadership	-5254
▁reasonable	-5255
lida	-5256
time	-5257
▁dou	-5258
▁sphe	-5259
tshami	-5260
▁white	-5261
▁komisa	-5262
▁phepha	-5263
▁search	-5264
jekisano	-5265
thekiniki	-5266
▁tinhlayo	-5267
▁Ab	-5268
▁koteki	-5269
▁likely	-5270
▁tifomo	-5271
▁travel	-5272
▁hlangan	-5273
▁xiletelo	-5274
▁categories	-5275
▁hundzuluxa	-5276
▁recommendations	-5277
▁(1	-5278
▁ce	-5279
▁urg	-5280
▁vaka	-5281
tivisi	-5282
▁hlela	-5283
angwini	-5284
▁gentlemen	-5285
▁08	-5286
▁22	-5287
rini	-5288
▁eti	-5289
▁ina	-5290
gratu	-5291
▁Lembe	-5292
▁mfungho	-5293
▁percent	-5294
▁congratu	-5295
▁ntlhontlho	-5296
▁cy	-5297
hand	-5298
hika	-5299
▁NCOP	-5300
▁note	-5301
univhe	-5302
▁Prote	-5303
▁visit	-5304
tations	-5305
▁annual	-5306
▁mpfamp	-5307
▁endleni	-5308
▁michini	-5309
▁proceed	-5310
▁student	-5311
▁dokodela	-5312
▁materials	-5313
▁strategic	-5314
▁households	-5315
wis	-5316
yed	-5317
▁rea	-5318
onele	-5319
▁karha	-5320
▁expect	-5321
▁mpfuno	-5322
▁susume	-5323
▁values	-5324
▁aspects	-5325
▁Ntwanano	-5326
▁election	-5327
▁hangalasa	-5328
▁pfumalaka	-5329
▁satisfied	-5330
▁Chairperson	-5331
lam	-5332
▁Ge	-5333
inya	-5334
▁Eku	-5335
▁May	-5336
▁mag	-5337
istic	-5338
▁sive	-5339
▁swik	-5340
▁equal	-5341
▁tsaka	-5342
▁miholo	-5343
▁kanakana	-5344
▁lawuriwa	-5345
▁papalata	-5346
▁councillor	-5347
ury	-5348
▁met	-5349
▁ran	-5350
mbela	-5351
▁repe	-5352
▁tila	-5353
hangala	-5354
▁voniwa	-5355
▁xixima	-5356
▁Vamanana	-5357
▁vaakitiko	-5358
▁VU	-5359
Xits	-5360
aching	-5361
tiraka	-5362
▁avoid	-5363
▁heard	-5364
▁obtain	-5365
▁vuenti	-5366
▁burisana	-5367
▁muyimeri	-5368
▁hileswaku	-5369
▁kondletela	-5370
▁technology	-5371
ongwatsongwana	-5372
▁CO	-5373
tand	-5374
▁Org	-5375
▁Phe	-5376
▁Ple	-5377
▁SAPS	-5378
▁Than	-5379
▁serve	-5380
▁theme	-5381
vulavuri	-5382
▁tsakile	-5383
▁kayivela	-5384
▁discrimination	-5385
acy	-5386
▁27	-5387
gory	-5388
hete	-5389
oman	-5390
tshe	-5391
▁Sum	-5392
stood	-5393
▁wahi	-5394
harisi	-5395
▁mista	-5396
karhini	-5397
▁accomp	-5398
▁across	-5399
▁famili	-5400
▁citizen	-5401
▁deliver	-5402
▁Therefore	-5403
▁regulations	-5404
▁International	-5405
▁von	-5406
▁Will	-5407
▁waste	-5408
▁crimin	-5409
▁export	-5410
▁hakelo	-5411
▁helela	-5412
YE	-5413
tshu	-5414
▁Ste	-5415
▁yan	-5416
▁late	-5417
▁stop	-5418
▁Kumbe	-5419
▁chava	-5420
▁formal	-5421
▁myself	-5422
▁muendli	-5423
▁vumunhu	-5424
▁Maphorisa	-5425
▁byintshwa	-5426
▁Agriculture	-5427
.2.	-5428
▁Cri	-5429
▁civil	-5430
quality	-5431
▁either	-5432
▁manufa	-5433
▁vuriweke	-5434
dzidziharisi	-5435
▁swifundzankulu	-5436
rug	-5437
▁Da	-5438
mbuli	-5439
sting	-5440
▁FIFA	-5441
mukeri	-5442
▁Matimba	-5443
▁pfuxeta	-5444
▁prosecu	-5445
▁excellen	-5446
▁extremely	-5447
▁circumstances	-5448
enge	-5449
ondz	-5450
▁pati	-5451
▁Union	-5452
▁nyany	-5453
▁Example	-5454
▁limited	-5455
▁respond	-5456
▁Economic	-5457
▁tlhelela	-5458
▁vambirhi	-5459
▁estimated	-5460
▁considered	-5461
▁participants	-5462
lity	-5463
▁Def	-5464
ghting	-5465
istory	-5466
▁Police	-5467
National	-5468
▁explana	-5469
▁planned	-5470
▁xidemok	-5471
▁influence	-5472
▁tirhisaka	-5473
lon	-5474
▁ren	-5475
▁onge	-5476
▁rhur	-5477
▁veke	-5478
▁Speak	-5479
▁Vantima	-5480
▁rhekhodo	-5481
▁yelanaka	-5482
▁officials	-5483
▁vutirheli	-5484
▁jurisdiction	-5485
gov	-5486
▁Tsh	-5487
mption	-5488
▁tindz	-5489
▁Gazette	-5490
lembetano	-5491
▁hundzuka	-5492
▁elections	-5493
▁ph	-5494
inyi	-5495
sign	-5496
▁AND	-5497
▁Mit	-5498
▁koxa	-5499
▁patu	-5500
▁talk	-5501
▁force	-5502
▁sense	-5503
gembuli	-5504
ungundz	-5505
keleriwa	-5506
ongoloko	-5507
▁cinciwa	-5508
fications	-5509
▁employed	-5510
▁endhawini	-5511
▁mukomberi	-5512
thu	-5513
▁dur	-5514
▁khon	-5515
istent	-5516
▁lodge	-5517
▁nxavo	-5518
▁raised	-5519
▁satisfa	-5520
▁Riphabliki	-5521
▁tinhlamulo	-5522
▁improvement	-5523
▁TI	-5524
▁Th	-5525
lier	-5526
yiti	-5527
▁exe	-5528
▁Note	-5529
▁dlaya	-5530
▁Vadyon	-5531
▁outcome	-5532
▁swicelwa	-5533
▁ntshamiseko	-5534
▁unemployment	-5535
▁eK	-5536
matic	-5537
▁tama	-5538
▁itself	-5539
▁muchini	-5540
▁reality	-5541
▁anything	-5542
▁indicates	-5543
▁vaamukeri	-5544
▁vatirhela	-5545
▁hundzisela	-5546
▁lulamisela	-5547
▁rhijisitara	-5548
▁landzeleriwa	-5549
Hi	-5550
edu	-5551
sequ	-5552
▁hal	-5553
echan	-5554
▁Amend	-5555
▁acces	-5556
▁ideas	-5557
▁ntshe	-5558
cations	-5559
▁sayini	-5560
vumbirhi	-5561
▁contrib	-5562
▁documentation	-5563
",	-5564
▁Nka	-5565
tside	-5566
▁sing	-5567
▁hlula	-5568
▁learn	-5569
▁Please	-5570
▁boheka	-5571
▁Xivutiso	-5572
▁examples	-5573
▁hlayanyana	-5574
▁population	-5575
tshamaxitulu	-5576
ccur	-5577
kepe	-5578
▁bro	-5579
▁tib	-5580
▁yim	-5581
▁Cust	-5582
▁tiny	-5583
▁type	-5584
▁occur	-5585
▁voting	-5586
▁records	-5587
▁lulamile	-5588
buku	-5589
tiso	-5590
▁rhi	-5591
tselo	-5592
▁didn	-5593
▁town	-5594
vanuna	-5595
▁Impro	-5596
▁justi	-5597
▁subsi	-5598
kolweni	-5599
▁kholwa	-5600
▁tiveka	-5601
▁tlakusiwa	-5602
▁hlamuseriweke	-5603
cer	-5604
tini	-5605
famba	-5606
▁dece	-5607
▁tido	-5608
▁Machov	-5609
▁animals	-5610
▁Mabindzu	-5611
▁directly	-5612
▁mutirhisi	-5613
▁vutitivisi	-5614
▁Switirhisiwa	-5615
kage	-5616
mbano	-5617
▁link	-5618
viwile	-5619
xavisi	-5620
▁heart	-5621
▁titwa	-5622
▁ndzhaku	-5623
▁maphepha	-5624
▁resource	-5625
▁vaviseka	-5626
▁Provincial	-5627
▁legislative	-5628
▁tiyimiserile	-5629
▁investigation	-5630
tsal	-5631
ungh	-5632
▁She	-5633
▁xiya	-5634
making	-5635
▁manana	-5636
▁mpahla	-5637
▁competi	-5638
▁tirheni	-5639
▁comments	-5640
▁ntshovelo	-5641
▁swiringanyeto	-5642
yer	-5643
xeni	-5644
yamu	-5645
▁mor	-5646
▁vul	-5647
▁Lava	-5648
▁sase	-5649
▁penal	-5650
▁swong	-5651
reasing	-5652
▁Submit	-5653
▁yoleyo	-5654
▁tiyimela	-5655
▁understood	-5656
▁KNP	-5657
▁hele	-5658
▁stri	-5659
▁yindlu	-5660
▁mimpimo	-5661
▁outside	-5662
▁Particip	-5663
▁approval	-5664
▁swonghasi	-5665
dequ	-5666
▁Goza	-5667
ecting	-5668
▁disad	-5669
▁Vuhlay	-5670
tekanelo	-5671
hlawulekisi	-5672
▁supporting	-5673
▁themselves	-5674
▁amukelekaka	-5675
3)	-5676
LE	-5677
orm	-5678
vit	-5679
ilty	-5680
mune	-5681
mbile	-5682
▁Every	-5683
▁House	-5684
▁liter	-5685
▁makes	-5686
▁ringe	-5687
▁Xedulu	-5688
▁crucial	-5689
▁khutaza	-5690
pimanyeto	-5691
▁khumbhaka	-5692
▁matikhomelo	-5693
hood	-5694
xeto	-5695
▁June	-5696
▁More	-5697
▁nyiki	-5698
▁raise	-5699
▁sindz	-5700
▁workp	-5701
▁Policy	-5702
▁reform	-5703
ventions	-5704
▁tikeriwa	-5705
▁published	-5706
▁regarding	-5707
▁seketeriwa	-5708
▁ja	-5709
▁GEMS	-5710
▁SADC	-5711
▁xihoxo	-5712
▁endzela	-5713
▁Xinawana	-5714
▁deceased	-5715
▁mbulavulo	-5716
▁reference	-5717
▁xitshunxo	-5718
▁Ve	-5719
▁inno	-5720
▁rero	-5721
▁repla	-5722
▁super	-5723
▁tihlo	-5724
isekile	-5725
▁guilty	-5726
seketeri	-5727
▁Finally	-5728
▁Limpopo	-5729
▁adoption	-5730
▁mutirhela	-5731
vey	-5732
kani	-5733
▁bar	-5734
▁Vula	-5735
▁duty	-5736
purasi	-5737
▁secre	-5738
▁muviki	-5739
▁Namuntlha	-5740
▁ali	-5741
▁conn	-5742
▁bangi	-5743
▁convi	-5744
xikarhi	-5745
▁parent	-5746
▁minimum	-5747
▁vathori	-5748
▁Vundzeni	-5749
▁standard	-5750
▁xanisiwa	-5751
▁Amendment	-5752
▁Matirhelo	-5753
▁xitatimende	-5754
vice	-5755
▁Swin	-5756
▁malu	-5757
liniki	-5758
▁lahle	-5759
lonkulu	-5760
▁enawini	-5761
▁maqhinga	-5762
▁kunguhatiwile	-5763
KU	-5764
TS	-5765
kes	-5766
▁TO	-5767
rese	-5768
▁Byi	-5769
▁net	-5770
▁tli	-5771
▁xig	-5772
hleri	-5773
▁topi	-5774
ongomi	-5775
▁Chief	-5776
▁essay	-5777
▁offence	-5778
▁phemiti	-5779
univhesiti	-5780
tha	-5781
xed	-5782
MENT	-5783
▁Tip	-5784
inete	-5785
▁Thank	-5786
▁placed	-5787
▁phakela	-5788
▁vunyingi	-5789
▁certainly	-5790
▁langutiwa	-5791
▁tihlampfi	-5792
▁production	-5793
▁constitutional	-5794
▁Oc	-5795
tshan	-5796
rhalang	-5797
▁Nhlayo	-5798
▁mandate	-5799
▁vutshamo	-5800
▁tindzhawu	-5801
8.	-5802
bya	-5803
▁KA	-5804
▁Ele	-5805
▁eli	-5806
▁Nkoka	-5807
▁multi	-5808
▁poten	-5809
▁started	-5810
▁tinwana	-5811
▁rhangela	-5812
▁sunguriwa	-5813
▁swileriso	-5814
▁administrative	-5815
HU	-5816
YI	-5817
back	-5818
pela	-5819
▁fees	-5820
▁tlha	-5821
▁Child	-5822
▁clini	-5823
▁phasa	-5824
isisiwa	-5825
▁Indust	-5826
▁hakeri	-5827
▁manage	-5828
▁single	-5829
▁pleased	-5830
▁tindzimana	-5831
----	-5832
teki	-5833
▁len	-5834
▁buku	-5835
▁mode	-5836
▁compu	-5837
▁exclu	-5838
▁names	-5839
▁extend	-5840
▁Tsundzu	-5841
kamberiwa	-5842
▁leteriwa	-5843
▁Hinkwaswo	-5844
▁hlengeleta	-5845
tt	-5846
pli	-5847
▁6.	-5848
fund	-5849
hisi	-5850
▁dza	-5851
▁emu	-5852
anete	-5853
teria	-5854
▁Kuma	-5855
▁fall	-5856
▁lega	-5857
▁byala	-5858
▁clean	-5859
▁vukhon	-5860
hlanyana	-5861
▁xitirho	-5862
▁mundzuku	-5863
▁xifaniso	-5864
▁khumbhekaka	-5865
▁sirheleriwa	-5866
▁participating	-5867
MP	-5868
kom	-5869
nes	-5870
▁Ke	-5871
cale	-5872
zana	-5873
▁Mon	-5874
▁Tod	-5875
▁teke	-5876
▁weak	-5877
▁exper	-5878
▁nyiko	-5879
▁decide	-5880
▁kumaka	-5881
ondzweni	-5882
▁khumbeka	-5883
▁ndzhavuko	-5884
▁Swifundzhankulu	-5885
WU	-5886
-03	-5887
cen	-5888
tra	-5889
orary	-5890
rhele	-5891
rises	-5892
▁hoyo	-5893
unguby	-5894
▁rates	-5895
▁Strate	-5896
▁Speaker	-5897
▁hanyaka	-5898
▁ntlimbo	-5899
▁hinkwaxo	-5900
▁maandlalelo	-5901
EK	-5902
▁pers	-5903
▁woman	-5904
▁signed	-5905
▁created	-5906
▁several	-5907
▁mufambisi	-5908
▁humelerile	-5909
▁strategies	-5910
kano	-5911
▁kule	-5912
▁swisi	-5913
▁applied	-5914
▁Regional	-5915
ero	-5916
put	-5917
qua	-5918
aniwa	-5919
isati	-5920
graphi	-5921
▁Today	-5922
▁hetisa	-5923
▁nghene	-5924
▁manager	-5925
▁Swiyenge	-5926
▁Masungulo	-5927
▁amukerile	-5928
▁fambelani	-5929
▁kombisaka	-5930
▁supported	-5931
▁xifundzha	-5932
▁exikolweni	-5933
▁murhangeri	-5934
hata	-5935
xika	-5936
▁SWI	-5937
▁nur	-5938
▁Tech	-5939
▁legi	-5940
fisini	-5941
misisa	-5942
rexini	-5943
▁Cinca	-5944
▁Women	-5945
▁prosp	-5946
▁Tshwane	-5947
▁tshungu	-5948
▁Security	-5949
▁disposal	-5950
▁tlherisela	-5951
▁xiringanyeto	-5952
▁CC	-5953
▁Wu	-5954
kota	-5955
dyana	-5956
▁Land	-5957
▁walk	-5958
lekile	-5959
enthara	-5960
▁fikile	-5961
▁andlala	-5962
▁nkatsakanyo	-5963
▁swidzidziharisi	-5964
PA	-5965
bb	-5966
zo	-5967
▁80	-5968
ccep	-5969
rete	-5970
yina	-5971
▁tihi	-5972
ordina	-5973
▁anama	-5974
▁tools	-5975
▁indeed	-5976
▁consent	-5977
▁domestic	-5978
▁tinhweti	-5979
▁continent	-5980
▁inspector	-5981
▁henhlanyana	-5982
RE	-5983
igh	-5984
▁Ms	-5985
ingu	-5986
tent	-5987
▁figu	-5988
▁lomu	-5989
▁Trade	-5990
▁price	-5991
isekaka	-5992
▁mechan	-5993
ensation	-5994
polotiki	-5995
▁Gauteng	-5996
▁granted	-5997
▁tiphina	-5998
ungulwana	-5999
▁declared	-6000
hundzuluxi	-6001
fortunately	-6002
▁contribute	-6003
▁kombisiweke	-6004
▁represented	-6005
▁edu	-6006
▁fri	-6007
▁lar	-6008
▁yile	-6009
▁expend	-6010
▁nkwama	-6011
▁yoloye	-6012
▁history	-6013
▁unaccep	-6014
▁material	-6015
▁hatlisisa	-6016
▁guidelines	-6017
▁unacceptable	-6018
▁xopaxopiwile	-6019
ason	-6020
noun	-6021
▁sea	-6022
▁Boxa	-6023
▁Hink	-6024
▁Vito	-6025
▁lova	-6026
▁noti	-6027
▁rivi	-6028
▁vuli	-6029
lerisa	-6030
▁grown	-6031
▁wonge	-6032
rayivhe	-6033
▁Labour	-6034
▁please	-6035
.2010-03	-6036
tability	-6037
▁Ikhonomi	-6038
▁reviewed	-6039
▁candidate	-6040
▁tikombisa	-6041
▁workplace	-6042
kers	-6043
know	-6044
▁Cer	-6045
▁haz	-6046
chisi	-6047
anelwa	-6048
▁cover	-6049
▁owner	-6050
▁settle	-6051
▁Authority	-6052
▁solutions	-6053
▁disadvanta	-6054
▁swivumbeko	-6055
▁tiyisisiwa	-6056
▁construction	-6057
▁institutional	-6058
▁mbulavurisano	-6059
ELA	-6060
GOV	-6061
-25.	-6062
gree	-6063
▁eho	-6064
▁ima	-6065
▁Inde	-6066
▁love	-6067
▁Rimba	-6068
▁check	-6069
▁nhlay	-6070
holobye	-6071
▁duties	-6072
owerment	-6073
▁primary	-6074
▁separate	-6075
▁akhawunti	-6076
▁customary	-6077
▁happening	-6078
▁practical	-6079
▁swifaniso	-6080
▁vukhongeri	-6081
.2010-03-25.	-6082
OT	-6083
▁Au	-6084
▁nuna	-6085
hurofe	-6086
yisiso	-6087
▁obser	-6088
▁acknow	-6089
▁ground	-6090
▁nsinya	-6091
ribution	-6092
▁Manager	-6093
▁nkomiso	-6094
▁district	-6095
▁humeleleke	-6096
▁vukungundz	-6097
▁hangalasiwa	-6098
▁investigate	-6099
);	-6100
yn	-6101
200	-6102
cke	-6103
▁ir	-6104
amba	-6105
solu	-6106
▁Bri	-6107
uting	-6108
▁koka	-6109
▁voice	-6110
▁conduc	-6111
▁measure	-6112
▁station	-6113
▁legitima	-6114
▁direction	-6115
rhalanganyi	-6116
▁Nkunguhato	-6117
The	-6118
clu	-6119
ear	-6120
▁lex	-6121
▁mom	-6122
▁bank	-6123
▁voko	-6124
▁reach	-6125
▁advance	-6126
▁chavisa	-6127
ciliation	-6128
▁maintain	-6129
▁pfuxetiwa	-6130
▁indicators	-6131
▁Swikongomelo	-6132
ises	-6133
▁New	-6134
▁mid	-6135
ishes	-6136
stance	-6137
▁Yuropa	-6138
▁moment	-6139
▁useful	-6140
rayivhete	-6141
▁mutswari	-6142
▁vutleketli	-6143
▁explanation	-6144
▁tilayisense	-6145
▁Commissioner	-6146
hone	-6147
pril	-6148
▁Acc	-6149
▁flo	-6150
▁East	-6151
▁Paper	-6152
▁class	-6153
▁tipro	-6154
▁colour	-6155
▁spirit	-6156
▁yimisa	-6157
▁teachers	-6158
▁individual	-6159
▁initiative	-6160
▁sufficient	-6161
▁expenditure	-6162
▁Municipality	-6163
llu	-6164
hume	-6165
tala	-6166
▁DHA	-6167
▁nyu	-6168
rison	-6169
▁basa	-6170
▁board	-6171
eration	-6172
thanete	-6173
▁mimbangu	-6174
▁fambisiwa	-6175
▁nhlayiseko	-6176
▁seketelaka	-6177
10	-6178
▁IN	-6179
TIRH	-6180
folio	-6181
ition	-6182
▁farm	-6183
▁stor	-6184
risiwa	-6185
hansele	-6186
kankulu	-6187
isinkulu	-6188
▁Miganga	-6189
farhutiwa	-6190
▁Tihakelo	-6191
▁Mudyondzi	-6192
▁companies	-6193
▁potential	-6194
▁II	-6195
gine	-6196
lung	-6197
▁Yes	-6198
▁fal	-6199
▁fra	-6200
times	-6201
▁Town	-6202
▁tswa	-6203
gister	-6204
▁ahead	-6205
ections	-6206
▁choose	-6207
▁climate	-6208
▁Xipikara	-6209
▁criteria	-6210
▁tinhloko	-6211
▁providers	-6212
▁governance	-6213
▁declaration	-6214
It	-6215
PI	-6216
ctory	-6217
isiwe	-6218
itting	-6219
▁Nghen	-6220
▁commen	-6221
▁comprom	-6222
▁looking	-6223
▁judicial	-6224
▁obtained	-6225
▁currently	-6226
▁swifundza	-6227
kon	-6228
que	-6229
ror	-6230
▁ww	-6231
lexi	-6232
thwa	-6233
▁www	-6234
▁2011.	-6235
▁alter	-6236
▁mobil	-6237
▁ntila	-6238
▁texts	-6239
cturing	-6240
xopaxop	-6241
▁Centre	-6242
▁assign	-6243
▁Makungu	-6244
▁Mbulavulo	-6245
▁Mufambisi	-6246
▁immediately	-6247
▁nhlanganelo	-6248
▁establishment	-6249
lid	-6250
tan	-6251
▁75	-6252
▁ePa	-6253
▁wit	-6254
dingo	-6255
▁Give	-6256
▁poso	-6257
kisiwa	-6258
▁Premi	-6259
▁arran	-6260
▁sound	-6261
▁announ	-6262
▁compon	-6263
▁tingana	-6264
▁ringanye	-6265
▁hlamarisa	-6266
▁hungutiwa	-6267
▁facilities	-6268
tlhokovetselo	-6269
ziva	-6270
▁Aid	-6271
▁Ema	-6272
▁Pfu	-6273
▁tsh	-6274
eding	-6275
▁Bodo	-6276
▁vats	-6277
ternal	-6278
▁effort	-6279
▁passed	-6280
chuchisi	-6281
▁Firstly	-6282
▁fishing	-6283
▁Schedule	-6284
▁registrar	-6285
▁vafambisi	-6286
▁engeteleka	-6287
▁tumbuluxiwile	-6288
lip	-6289
lved	-6290
aries	-6291
ended	-6292
▁1999	-6293
cident	-6294
tiviwa	-6295
▁hloni	-6296
▁joint	-6297
bukwana	-6298
dequate	-6299
▁Number	-6300
▁defini	-6301
▁amended	-6302
▁milenge	-6303
▁vanghana	-6304
▁xikambelo	-6305
▁Machovhani	-6306
▁individuals	-6307
▁kongomisiwa	-6308
▁tidokumende	-6309
▁tr	-6310
face	-6311
xame	-6312
▁500	-6313
jensi	-6314
tures	-6315
▁dama	-6316
▁fire	-6317
▁Dziva	-6318
▁vahla	-6319
▁Agency	-6320
▁Ndhawu	-6321
▁wanuna	-6322
▁meaning	-6323
▁Tindhawu	-6324
▁navelela	-6325
▁Hinkwerhu	-6326
▁fambiselo	-6327
ney	-6328
ches	-6329
mbiko	-6330
wangu	-6331
▁asse	-6332
▁teki	-6333
▁Tikho	-6334
▁kavan	-6335
▁muako	-6336
▁range	-6337
▁vuleke	-6338
▁Although	-6339
▁cultural	-6340
▁nxungeto	-6341
▁conducted	-6342
▁tinyunguby	-6343
▁competition	-6344
''	-6345
sit	-6346
tavu	-6347
tled	-6348
▁xika	-6349
▁tsana	-6350
▁Assess	-6351
▁Papila	-6352
pational	-6353
▁greater	-6354
▁masangu	-6355
▁timakete	-6356
▁efficient	-6357
▁councillors	-6358
ERI	-6359
rely	-6360
cember	-6361
▁roads	-6362
▁having	-6363
tavuxika	-6364
xanisiwa	-6365
▁swiendlo	-6366
▁vuyerisa	-6367
▁addressed	-6368
▁facilitate	-6369
▁examination	-6370
rand	-6371
qweta	-6372
▁List	-6373
▁upon	-6374
strate	-6375
▁durha	-6376
▁nwana	-6377
▁offer	-6378
▁coming	-6379
▁region	-6380
▁tekile	-6381
▁December	-6382
▁Secondly	-6383
▁contract	-6384
▁tiyisiwa	-6385
▁kombisiwa	-6386
▁increasing	-6387
▁relationship	-6388
HAT	-6389
ire	-6390
let	-6391
upu	-6392
▁26	-6393
name	-6394
quisi	-6395
▁siva	-6396
▁spouse	-6397
▁xitulu	-6398
▁article	-6399
▁vulavur	-6400
▁Organisa	-6401
▁mitlangu	-6402
▁Kavanyisa	-6403
bula	-6404
mesa	-6405
▁khe	-6406
tweni	-6407
▁Vona	-6408
▁auth	-6409
gation	-6410
▁breed	-6411
▁yakwe	-6412
▁rivilo	-6413
▁Finance	-6414
▁farmers	-6415
▁Division	-6416
▁Mulawuri	-6417
▁mihandzu	-6418
▁vavanuna	-6419
▁residents	-6420
▁mpfumaleko	-6421
▁Khotavuxika	-6422
▁Vuhlayiseki	-6423
Swi	-6424
▁''	-6425
bedl	-6426
gues	-6427
side	-6428
wisa	-6429
mhala	-6430
▁rhwa	-6431
▁stay	-6432
alango	-6433
▁April	-6434
▁tinyi	-6435
▁vinyi	-6436
dential	-6437
▁hluleka	-6438
▁remember	-6439
▁hlayiseka	-6440
▁constitution	-6441
lure	-6442
milar	-6443
▁aims	-6444
ficers	-6445
▁Youth	-6446
▁mindz	-6447
simende	-6448
▁Answer	-6449
▁liquor	-6450
▁tatana	-6451
▁priorit	-6452
▁receipt	-6453
▁vukhale	-6454
kulukumba	-6455
▁mbhurisano	-6456
▁timasipala	-6457
▁tisisiteme	-6458
▁amukeriwile	-6459
▁interventions	-6460
................	-6461
We	-6462
ea	-6463
ues	-6464
body	-6465
lson	-6466
▁Feb	-6467
▁ndze	-6468
▁path	-6469
▁yoxe	-6470
▁Xikaya	-6471
▁absolu	-6472
▁behalf	-6473
▁bumabu	-6474
▁humesi	-6475
▁driving	-6476
▁vusiwana	-6477
jisitarata	-6478
▁vugembuli	-6479
isms	-6480
koka	-6481
most	-6482
▁VAT	-6483
essed	-6484
hlele	-6485
logue	-6486
▁Regu	-6487
▁enjo	-6488
▁fung	-6489
▁goal	-6490
▁Nyeny	-6491
▁press	-6492
tirhiso	-6493
tistics	-6494
▁remind	-6495
▁Address	-6496
▁healthy	-6497
▁sayense	-6498
▁contains	-6499
▁swifambo	-6500
▁Swilaveko	-6501
▁appointment	-6502
sia	-6503
etro	-6504
hind	-6505
▁ICD	-6506
▁vama	-6507
▁2014.	-6508
▁noted	-6509
orobeni	-6510
▁Accord	-6511
▁doctor	-6512
▁saving	-6513
▁tiboha	-6514
▁tibuku	-6515
▁Rihanyu	-6516
▁decided	-6517
▁numbers	-6518
▁vantima	-6519
▁hinkwako	-6520
▁tinghozi	-6521
▁swimakiwa	-6522
▁dz	-6523
gani	-6524
gira	-6525
ices	-6526
▁3.1	-6527
toria	-6528
▁anti	-6529
▁inten	-6530
▁ntivo	-6531
mentary	-6532
▁guaran	-6533
anakanyo	-6534
gistrate	-6535
tumbuluxi	-6536
▁division	-6537
▁difference	-6538
▁matekanelo	-6539
kun	-6540
▁Tl	-6541
guva	-6542
▁Inf	-6543
▁Out	-6544
▁ban	-6545
▁phy	-6546
mbeni	-6547
▁expo	-6548
▁kuce	-6549
▁etind	-6550
▁union	-6551
▁xintu	-6552
▁driver	-6553
▁scheme	-6554
▁season	-6555
▁Hlawula	-6556
▁literacy	-6557
▁recorded	-6558
▁excellent	-6559
▁Mpimanyeto	-6560
▁involvement	-6561
▁switandzhaku	-6562
iled	-6563
mbab	-6564
▁anga	-6565
▁drug	-6566
▁miti	-6567
▁pimi	-6568
▁tari	-6569
▁shows	-6570
▁Hlamula	-6571
▁properly	-6572
▁Miehleketo	-6573
▁xithekiniki	-6574
▁Lu	-6575
▁Pu	-6576
▁Vo	-6577
haxi	-6578
▁abi	-6579
ghout	-6580
▁1995	-6581
▁easi	-6582
▁cycle	-6583
▁murhi	-6584
▁paper	-6585
▁volun	-6586
▁mahika	-6587
▁pasisa	-6588
▁qhinga	-6589
▁tihofisi	-6590
▁hambiloko	-6591
▁temporary	-6592
▁tinhlampfi	-6593
layi	-6594
lish	-6595
mari	-6596
play	-6597
tiho	-6598
▁Tiy	-6599
cking	-6600
▁swip	-6601
▁vacc	-6602
▁might	-6603
ferense	-6604
▁affect	-6605
▁owners	-6606
lamiselo	-6607
hakankulu	-6608
▁hakelela	-6609
▁passport	-6610
▁Administra	-6611
▁ringanyeta	-6612
11	-6613
MO	-6614
ker	-6615
▁MEC	-6616
▁Part	-6617
▁kuna	-6618
▁ntse	-6619
cetelo	-6620
yivelo	-6621
▁leswo	-6622
▁Tsalwa	-6623
▁sayina	-6624
▁xikaya	-6625
▁witness	-6626
▁category	-6627
▁hoyozela	-6628
▁disadvantaged	-6629
TE	-6630
NGE	-6631
▁28	-6632
▁Ob	-6633
▁eG	-6634
hing	-6635
rain	-6636
▁hus	-6637
lined	-6638
rikhu	-6639
▁hafu	-6640
▁whom	-6641
isteme	-6642
▁caused	-6643
▁tirhise	-6644
▁teaching	-6645
▁Understand	-6646
▁confidence	-6647
▁everything	-6648
▁xitirhisiwa	-6649
Nat	-6650
▁UN	-6651
tyle	-6652
▁tap	-6653
▁Prac	-6654
▁vevu	-6655
▁Promo	-6656
▁older	-6657
▁partner	-6658
▁waiting	-6659
▁Xiletelo	-6660
▁constitu	-6661
▁criminal	-6662
▁hospital	-6663
▁nghenele	-6664
▁senthara	-6665
▁strength	-6666
▁motivation	-6667
▁association	-6668
▁transparency	-6669
ap	-6670
book	-6671
▁Mina	-6672
▁cinc	-6673
▁emin	-6674
▁lowun	-6675
▁Nelson	-6676
▁lerisa	-6677
▁regula	-6678
▁Special	-6679
▁consequ	-6680
▁factors	-6681
▁surname	-6682
rikhulamu	-6683
▁Vantshwa	-6684
▁Vululami	-6685
▁elements	-6686
▁leyinene	-6687
▁vuyerisaka	-6688
▁accountable	-6689
▁independent	-6690
▁applications	-6691
▁languteriweke	-6692
huti	-6693
yeke	-6694
yile	-6695
davit	-6696
▁Safe	-6697
ambalo	-6698
▁calcu	-6699
▁claim	-6700
▁xinka	-6701
mbisiso	-6702
▁advice	-6703
▁tatiwa	-6704
▁kanakan	-6705
▁mimfumo	-6706
▁offices	-6707
▁produced	-6708
▁1,	-6709
hest	-6710
▁Nku	-6711
▁big	-6712
socha	-6713
▁Fomo	-6714
▁Free	-6715
▁Build	-6716
▁comes	-6717
▁hands	-6718
▁topic	-6719
asesele	-6720
▁koloko	-6721
▁kondza	-6722
▁tekaka	-6723
▁tshiki	-6724
dzamhala	-6725
▁husband	-6726
▁spheres	-6727
▁intended	-6728
peladyambu	-6729
▁conclusion	-6730
▁xidemokrasi	-6731
▁vukungundzwana	-6732
▁Cu	-6733
ancy	-6734
fect	-6735
▁(2)	-6736
YENGE	-6737
▁guid	-6738
▁half	-6739
mbabwe	-6740
▁tasks	-6741
anyingi	-6742
dyondza	-6743
eketela	-6744
wanyana	-6745
▁During	-6746
▁courts	-6747
▁saseka	-6748
▁ability	-6749
▁Vutirheli	-6750
▁Integrated	-6751
▁ePalamende	-6752
▁throughout	-6753
▁appropriately	-6754
(1)	-6755
ISI	-6756
nel	-6757
▁LE	-6758
lehi	-6759
wevo	-6760
▁Mas	-6761
▁mim	-6762
khuva	-6763
▁rise	-6764
gative	-6765
▁story	-6766
▁views	-6767
mpfhuka	-6768
wankulu	-6769
▁prosec	-6770
▁rhamba	-6771
▁Nations	-6772
▁Sungula	-6773
▁emirini	-6774
tirhisele	-6775
▁original	-6776
▁ntshuxeko	-6777
▁swisiwana	-6778
▁Ntirhisano	-6779
▁khanselara	-6780
cks	-6781
phu	-6782
ums	-6783
▁ii	-6784
teni	-6785
▁vir	-6786
iting	-6787
▁2014	-6788
▁hlan	-6789
▁wide	-6790
ritage	-6791
▁akiwa	-6792
▁clari	-6793
ception	-6794
imbabwe	-6795
ourable	-6796
tsakelo	-6797
▁corpor	-6798
▁launch	-6799
▁propor	-6800
▁wanted	-6801
▁highest	-6802
▁replaced	-6803
▁operation	-6804
▁tanihilaha	-6805
▁Not	-6806
mises	-6807
▁Over	-6808
▁goes	-6809
▁loss	-6810
▁tiso	-6811
ground	-6812
istics	-6813
▁Johan	-6814
▁Nation	-6815
▁ntsako	-6816
▁rather	-6817
▁Further	-6818
▁accredi	-6819
▁entitled	-6820
▁equality	-6821
▁customers	-6822
▁Nhlamuselo	-6823
▁Nyenyankulu	-6824
▁vatekaxiave	-6825
▁vulavurisana	-6826
▁tinyungubyisa	-6827
cked	-6828
▁Shi	-6829
▁tou	-6830
▁code	-6831
▁voya	-6832
▁Xirho	-6833
▁exact	-6834
▁nkwet	-6835
endleko	-6836
▁laveki	-6837
bedlhele	-6838
vomarito	-6839
▁married	-6840
▁tshamise	-6841
▁diversity	-6842
▁improving	-6843
▁mukamberi	-6844
▁requested	-6845
▁interested	-6846
▁kambisisiwile	-6847
▁xitlhokovetselo	-6848
cade	-6849
mati	-6850
ental	-6851
hinsi	-6852
rehen	-6853
▁Kapa	-6854
▁Mawu	-6855
▁focu	-6856
▁Apply	-6857
▁dealt	-6858
▁histori	-6859
▁Framework	-6860
▁certified	-6861
▁hundziseriwa	-6862
▁nkwetlembetano	-6863
lli	-6864
pte	-6865
lawo	-6866
ensus	-6867
harhi	-6868
hliwa	-6869
hwalo	-6870
▁tiku	-6871
▁muaka	-6872
▁maxelo	-6873
▁target	-6874
▁Ntsengo	-6875
▁appoint	-6876
▁assessed	-6877
▁mapapila	-6878
▁provider	-6879
▁regarded	-6880
▁Vadyondzi	-6881
wendzamhala	-6882
▁xinkadyana	-6883
▁Gra	-6884
▁usu	-6885
▁maxi	-6886
tswalo	-6887
▁shown	-6888
▁trust	-6889
▁xihla	-6890
▁Report	-6891
▁nhweti	-6892
▁tshuka	-6893
▁vitana	-6894
▁Nhlamulo	-6895
▁accepted	-6896
▁external	-6897
▁enkarhini	-6898
▁tinomboro	-6899
▁compromise	-6900
▁Vaakindhawu	-6901
▁negotiations	-6902
Mi	-6903
ANG	-6904
cob	-6905
pho	-6906
way	-6907
▁Has	-6908
▁ivi	-6909
▁doub	-6910
▁lost	-6911
▁mala	-6912
▁rini	-6913
encies	-6914
estern	-6915
▁Kahle	-6916
▁autho	-6917
▁behind	-6918
▁chosen	-6919
▁medium	-6920
xopaxopo	-6921
▁Premier	-6922
▁sungule	-6923
▁Seketela	-6924
▁promoting	-6925
▁congratulate	-6926
hus	-6927
pen	-6928
zed	-6929
▁Ni	-6930
▁Tho	-6931
▁led	-6932
▁nwa	-6933
▁xan	-6934
fying	-6935
▁High	-6936
▁amba	-6937
▁risi	-6938
▁tsho	-6939
▁xite	-6940
leriwe	-6941
rement	-6942
▁2010.	-6943
▁Legis	-6944
▁Vumaki	-6945
▁vonile	-6946
▁Communi	-6947
▁produce	-6948
▁mavonele	-6949
▁rhurhela	-6950
▁yourself	-6951
▁inthanete	-6952
▁madyondza	-6953
▁businesses	-6954
hn	-6955
▁HI	-6956
▁Cup	-6957
▁emo	-6958
▁kil	-6959
▁mfu	-6960
▁mur	-6961
▁Char	-6962
▁nomo	-6963
▁rule	-6964
kitara	-6965
▁Jacob	-6966
▁aimed	-6967
▁blood	-6968
bedhlele	-6969
▁Everyone	-6970
▁vehicles	-6971
▁governments	-6972
▁hundzuluxiwa	-6973
▁xirungulwana	-6974
ilt	-6975
met	-6976
ric	-6977
▁32	-6978
ances	-6979
vants	-6980
▁July	-6981
▁kept	-6982
▁wela	-6983
▁recon	-6984
▁speed	-6985
▁vumbi	-6986
▁tabled	-6987
▁tekeri	-6988
▁wishes	-6989
▁defined	-6990
operative	-6991
▁Business	-6992
▁contents	-6993
▁tsarisiwa	-6994
▁vupfhumba	-6995
▁lavatsongo	-6996
▁characteristics	-6997
2,	-6998
los	-6999
died	-7000
meni	-7001
muka	-7002
▁ill	-7003
▁sci	-7004
▁suc	-7005
endzi	-7006
▁City	-7007
▁Then	-7008
▁1996.	-7009
▁happy	-7010
▁quick	-7011
▁whose	-7012
▁faster	-7013
▁pimiwa	-7014
▁quanti	-7015
▁titsar	-7016
▁Ndzhaka	-7017
fambisele	-7018
▁Mimbuyelo	-7019
▁vutsoniwa	-7020
▁conference	-7021
dio	-7022
dle	-7023
tual	-7024
aking	-7025
hunga	-7026
▁Vuti	-7027
▁mufi	-7028
▁pass	-7029
▁wisa	-7030
▁carry	-7031
▁lungh	-7032
▁Tifomo	-7033
▁destro	-7034
▁doroba	-7035
▁tafula	-7036
ological	-7037
▁Systems	-7038
▁central	-7039
▁mineral	-7040
▁studies	-7041
▁followed	-7042
▁According	-7043
▁designated	-7044
▁mudyondzisi	-7045
▁swihlawulekisi	-7046
iry	-7047
reci	-7048
year	-7049
▁khi	-7050
▁twi	-7051
Natal	-7052
▁khodi	-7053
▁ready	-7054
▁tiviwa	-7055
▁tshunxe	-7056
▁hetisisa	-7057
▁mafumelo	-7058
▁servants	-7059
▁agreements	-7060
▁mianakanyo	-7061
▁Constitutional	-7062
▁representation	-7063
Byi	-7064
mod	-7065
▁TA	-7066
zini	-7067
▁win	-7068
▁arri	-7069
▁bohe	-7070
▁fear	-7071
▁inju	-7072
▁muti	-7073
▁news	-7074
kumiwa	-7075
▁breast	-7076
▁intera	-7077
▁rhekho	-7078
▁divided	-7079
▁indicated	-7080
▁khamphani	-7081
▁switiviwa	-7082
▁vakhanselara	-7083
▁Unfortunately	-7084
▁murhijisitara	-7085
suhi	-7086
taka	-7087
tele	-7088
▁bil	-7089
▁apar	-7090
prises	-7091
▁2007.	-7092
▁Mfuwo	-7093
▁extra	-7094
▁lines	-7095
▁swita	-7096
ographi	-7097
▁honest	-7098
▁Officer	-7099
▁Project	-7100
▁appreci	-7101
▁dispute	-7102
▁thereof	-7103
▁Register	-7104
▁Phurojeke	-7105
▁consumers	-7106
▁Convention	-7107
▁practition	-7108
▁Environment	-7109
NGO	-7110
eca	-7111
▁Es	-7112
▁Hig	-7113
▁NGO	-7114
▁Only	-7115
restry	-7116
yikelo	-7117
▁advis	-7118
▁delay	-7119
▁rifuwo	-7120
▁source	-7121
▁fanelaka	-7122
▁makanelwa	-7123
▁Directorate	-7124
▁accountability	-7125
▁AC	-7126
hati	-7127
▁ves	-7128
dzana	-7129
endly	-7130
xirho	-7131
▁Scho	-7132
▁lang	-7133
▁site	-7134
▁White	-7135
▁ekule	-7136
▁foods	-7137
vokweni	-7138
▁Safety	-7139
▁affairs	-7140
▁managed	-7141
▁designed	-7142
▁kusuhani	-7143
▁confirmed	-7144
▁tanihileswi	-7145
DF	-7146
arly	-7147
mbho	-7148
wise	-7149
yala	-7150
▁11.	-7151
▁Non	-7152
▁Here	-7153
▁Tind	-7154
▁dign	-7155
lanisa	-7156
reness	-7157
▁China	-7158
▁wakwe	-7159
kongome	-7160
undzuxi	-7161
▁vonakaka	-7162
▁tinhundzu	-7163
▁reasonably	-7164
▁vulavulaka	-7165
ash	-7166
ria	-7167
▁Al	-7168
hosi	-7169
▁Eng	-7170
▁gain	-7171
▁mink	-7172
jected	-7173
yeriwa	-7174
▁Febru	-7175
▁medic	-7176
▁tihan	-7177
malanga	-7178
▁Facili	-7179
▁General	-7180
▁growing	-7181
▁missing	-7182
▁storage	-7183
▁substan	-7184
▁Pretoria	-7185
▁maAfrika	-7186
▁negative	-7187
▁affecting	-7188
▁dangerous	-7189
▁consistent	-7190
▁phurogireme	-7191
care	-7192
huvo	-7193
utri	-7194
▁Ins	-7195
▁beg	-7196
▁fan	-7197
▁ven	-7198
frika	-7199
theid	-7200
▁Vuts	-7201
▁Forum	-7202
▁alone	-7203
▁enfor	-7204
▁entry	-7205
getable	-7206
theless	-7207
▁Foramu	-7208
▁byalwa	-7209
▁collea	-7210
▁dealing	-7211
▁smoking	-7212
▁tourism	-7213
▁treated	-7214
▁Minhlangano	-7215
▁mpfapfarhuto	-7216
▁vutihlanganisi	-7217
cro	-7218
ball	-7219
hezi	-7220
▁Cho	-7221
▁ver	-7222
sical	-7223
thern	-7224
where	-7225
▁eswi	-7226
▁side	-7227
▁Ameri	-7228
nesburg	-7229
pective	-7230
▁anyone	-7231
▁concept	-7232
▁hileswi	-7233
▁methods	-7234
rehensive	-7235
▁Vuleteri	-7236
orobankulu	-7237
▁affidavit	-7238
▁efficiency	-7239
CIS	-7240
▁00	-7241
lexo	-7242
▁Hon	-7243
▁aud	-7244
inate	-7245
lsory	-7246
viour	-7247
▁flow	-7248
▁illu	-7249
▁laws	-7250
▁tack	-7251
andlan	-7252
▁Swilo	-7253
▁affor	-7254
▁avany	-7255
hlawulo	-7256
▁xipano	-7257
▁manwana	-7258
▁wansati	-7259
pumalanga	-7260
▁timinete	-7261
▁employers	-7262
▁xikweleti	-7263
▁andlariweke	-7264
▁etindhawini	-7265
▁vatirhisani	-7266
ME	-7267
alt	-7268
bit	-7269
▁DE	-7270
gest	-7271
▁Var	-7272
▁vad	-7273
gence	-7274
swers	-7275
wered	-7276
▁foot	-7277
nivers	-7278
▁pregn	-7279
▁presi	-7280
wakudya	-7281
▁Bindzu	-7282
▁Ladies	-7283
▁father	-7284
▁billion	-7285
▁vuhleri	-7286
istrexini	-7287
▁hetisekeke	-7288
viso	-7289
▁fla	-7290
redit	-7291
▁Xexo	-7292
yimela	-7293
▁March	-7294
▁Stand	-7295
▁flexi	-7296
▁proud	-7297
▁succe	-7298
entific	-7299
▁Summit	-7300
▁prefer	-7301
▁suppli	-7302
▁overall	-7303
▁vhotela	-7304
niversary	-7305
▁lamakulu	-7306
▁military	-7307
▁siviwile	-7308
▁tipulani	-7309
▁tshembeka	-7310
▁permission	-7311
▁authorities	-7312
▁discussions	-7313
▁instructions	-7314
▁mpfampfarhutiwa	-7315
nd	-7316
andi	-7317
yele	-7318
▁hop	-7319
▁tsu	-7320
▁1997	-7321
▁Form	-7322
ingani	-7323
ingano	-7324
tlangi	-7325
▁Since	-7326
▁early	-7327
▁goals	-7328
▁moder	-7329
▁bohaka	-7330
▁rhendz	-7331
▁vuxope	-7332
▁alterna	-7333
▁kumisisa	-7334
▁Vaholobye	-7335
▁ringanana	-7336
▁swintshwa	-7337
▁Mpfumelelo	-7338
▁prevention	-7339
▁submission	-7340
▁ey	-7341
▁reg	-7342
▁sui	-7343
eleke	-7344
▁fuma	-7345
▁teng	-7346
hakeri	-7347
misoko	-7348
rasini	-7349
▁Inves	-7350
▁mathe	-7351
▁seems	-7352
anetano	-7353
▁ndzilo	-7354
▁dignity	-7355
▁happens	-7356
▁enelangi	-7357
▁promotion	-7358
indzakhombo	-7359
▁integrated	-7360
▁recognition	-7361
▁matikoxikaya	-7362
gth	-7363
yere	-7364
▁Tis	-7365
phone	-7366
▁bolo	-7367
▁told	-7368
licing	-7369
▁Septe	-7370
sungula	-7371
▁Yaleyo	-7372
▁former	-7373
▁listed	-7374
▁tilula	-7375
▁Western	-7376
▁answers	-7377
▁tsandze	-7378
▁dialogue	-7379
▁lemukisa	-7380
▁officers	-7381
▁vutlhari	-7382
▁behaviour	-7383
▁heteleleni	-7384
▁achievement	-7385
▁implementing	-7386
▁transformation	-7387
vun	-7388
gies	-7389
tisi	-7390
▁2.1	-7391
▁PRO	-7392
ridge	-7393
ronic	-7394
orther	-7395
▁1998.	-7396
▁Inter	-7397
▁Swile	-7398
▁remar	-7399
▁hlongo	-7400
▁migodi	-7401
▁paluxa	-7402
▁recent	-7403
▁remove	-7404
lawulelo	-7405
▁hlamban	-7406
▁kandziy	-7407
▁Nhlayiso	-7408
▁September	-7409
▁continued	-7410
▁ehofisini	-7411
▁twisiseki	-7412
▁Assessment	-7413
▁Ndzavisiso	-7414
▁Swikombelo	-7415
▁tipolotiki	-7416
IDP	-7417
▁IS	-7418
▁Rhi	-7419
▁fir	-7420
▁break	-7421
riculum	-7422
tionary	-7423
▁envisa	-7424
▁states	-7425
▁Provide	-7426
▁himself	-7427
▁perfect	-7428
▁heleleke	-7429
▁swihlovo	-7430
▁mhasipala	-7431
ehleketweni	-7432
▁simekiwile	-7433
▁Dzivamisoko	-7434
▁vutumbuluxi	-7435
HL	-7436
If	-7437
cin	-7438
▁Each	-7439
▁sani	-7440
komiso	-7441
tlhanu	-7442
yuhari	-7443
▁built	-7444
▁educa	-7445
▁parts	-7446
▁engage	-7447
▁herile	-7448
▁length	-7449
isheries	-7450
▁succeed	-7451
▁imported	-7452
▁reported	-7453
▁tekiweke	-7454
▁kombisile	-7455
▁background	-7456
▁integration	-7457
▁mahikahatelo	-7458
rt	-7459
hop	-7460
unu	-7461
pies	-7462
cribe	-7463
rowth	-7464
twini	-7465
▁outs	-7466
▁unit	-7467
inking	-7468
sayiti	-7469
tative	-7470
▁2008.	-7471
▁Nhloko	-7472
▁failed	-7473
▁legacy	-7474
▁rivala	-7475
▁saying	-7476
▁urgent	-7477
▁vangaka	-7478
▁expertise	-7479
▁hluvukaka	-7480
▁malulamiselo	-7481
▁strengthening	-7482
omu	-7483
rio	-7484
▁Its	-7485
ranch	-7486
▁About	-7487
ression	-7488
▁Magoza	-7489
▁reached	-7490
▁reduced	-7491
▁Exikarhi	-7492
▁actually	-7493
▁lawulaka	-7494
▁Mhasipala	-7495
▁compliance	-7496
PP	-7497
isan	-7498
pers	-7499
▁ago	-7500
hluri	-7501
mbany	-7502
rated	-7503
▁cohe	-7504
▁room	-7505
ducing	-7506
morrow	-7507
▁Basic	-7508
▁dzaha	-7509
▁worth	-7510
▁Xiboho	-7511
▁assets	-7512
▁giving	-7513
▁kumeke	-7514
biliyoni	-7515
▁Mfanelo	-7516
▁largest	-7517
▁sitting	-7518
▁pasisiwa	-7519
▁tomorrow	-7520
▁vuyelela	-7521
▁Matirhiselo	-7522
▁langutisiwa	-7523
khi	-7524
▁2,	-7525
enen	-7526
leum	-7527
risi	-7528
▁Bra	-7529
▁quo	-7530
▁Such	-7531
▁khor	-7532
▁reti	-7533
▁tisi	-7534
▁titi	-7535
▁2009.	-7536
▁spend	-7537
outhern	-7538
▁tisola	-7539
ongomiso	-7540
▁English	-7541
▁mpfhuka	-7542
▁prepare	-7543
▁February	-7544
▁disposed	-7545
▁lavakulu	-7546
▁released	-7547
▁leswinene	-7548
▁reduction	-7549
▁Johannesburg	-7550
TC	-7551
cohol	-7552
going	-7553
tious	-7554
▁2007	-7555
▁phen	-7556
▁sale	-7557
▁xele	-7558
mbyeni	-7559
▁khomp	-7560
▁mbirhi	-7561
▁vulner	-7562
▁Certifi	-7563
▁exchange	-7564
▁students	-7565
▁Companies	-7566
▁listening	-7567
▁inequality	-7568
▁swirhangana	-7569
▁fikeleriwile	-7570
▁phurayivhete	-7571
▁swirhalanganyi	-7572
-3	-7573
RM	-7574
▁7.	-7575
▁br	-7576
▁eM	-7577
cele	-7578
mpfa	-7579
▁Day	-7580
▁Tha	-7581
▁spo	-7582
enior	-7583
▁khom	-7584
▁Consu	-7585
▁Eskom	-7586
▁Prepa	-7587
▁judge	-7588
▁tipha	-7589
▁Hikuva	-7590
▁Yindlu	-7591
▁charge	-7592
▁equity	-7593
▁rendzo	-7594
▁sexual	-7595
▁vukona	-7596
hetelelo	-7597
▁mutsari	-7598
▁resolve	-7599
▁tikhoto	-7600
ducational	-7601
▁infection	-7602
▁humeleleni	-7603
▁fikelelangi	-7604
SSA	-7605
▁29	-7606
lest	-7607
titu	-7608
wula	-7609
zani	-7610
▁gone	-7611
▁2013.	-7612
▁align	-7613
▁conso	-7614
▁Growth	-7615
▁grants	-7616
▁honour	-7617
tlhavelo	-7618
▁applying	-7619
▁mikateko	-7620
▁yimisiwa	-7621
▁anniversary	-7622
▁hluvukisiwa	-7623
▁nkanerisano	-7624
ESS	-7625
▁3:	-7626
luka	-7627
▁tur	-7628
gious	-7629
wable	-7630
▁Xing	-7631
▁fail	-7632
▁hefe	-7633
▁khwa	-7634
▁occa	-7635
▁voxe	-7636
▁Broad	-7637
▁Crime	-7638
▁leyin	-7639
enerali	-7640
mployed	-7641
▁lulama	-7642
▁nawini	-7643
▁spread	-7644
▁ekusuhi	-7645
▁misinya	-7646
quisition	-7647
▁ematshan	-7648
▁families	-7649
▁accessible	-7650
▁Xifundzankulu	-7651
YA	-7652
jete	-7653
rian	-7654
▁Ski	-7655
atory	-7656
▁Good	-7657
▁Judi	-7658
▁Nove	-7659
▁cela	-7660
▁depo	-7661
▁enta	-7662
coming	-7663
▁2001.	-7664
▁2003.	-7665
▁Mpimo	-7666
▁facts	-7667
▁ntswa	-7668
▁figures	-7669
▁nyikile	-7670
▁victims	-7671
sunguleni	-7672
▁assigned	-7673
▁managers	-7674
▁vuxoperi	-7675
▁muhlayisi	-7676
▁operations	-7677
ISA	-7678
ins	-7679
▁Tu	-7680
Loko	-7681
mete	-7682
ront	-7683
dende	-7684
▁Leri	-7685
ecause	-7686
ession	-7687
ingual	-7688
▁Areas	-7689
▁doubt	-7690
▁expen	-7691
▁Ndzima	-7692
▁Vulehi	-7693
▁angula	-7694
▁XIYENGE	-7695
▁reflect	-7696
▁removed	-7697
▁xikanwe	-7698
▁November	-7699
▁Swakudya	-7700
▁lerinene	-7701
▁Hileswaku	-7702
▁ringanisa	-7703
▁Profession	-7704
▁engeteriwa	-7705
▁hlanganaka	-7706
▁48	-7707
▁LO	-7708
haps	-7709
lose	-7710
meko	-7711
▁nsu	-7712
tober	-7713
▁item	-7714
rising	-7715
▁awara	-7716
▁bound	-7717
▁speech	-7718
▁xikepe	-7719
▁clothing	-7720
▁landzaku	-7721
▁ndzhendz	-7722
▁celebrate	-7723
▁tikonkulu	-7724
▁absolutely	-7725
▁encouraged	-7726
▁prosecutor	-7727
▁statements	-7728
▁description	-7729
',	-7730
load	-7731
nolo	-7732
▁evu	-7733
▁vur	-7734
ought	-7735
undza	-7736
▁Hous	-7737
▁seed	-7738
▁warm	-7739
ancing	-7740
herefu	-7741
lekeke	-7742
llegal	-7743
▁along	-7744
▁compo	-7745
▁neigh	-7746
kangiki	-7747
▁author	-7748
▁commer	-7749
▁copies	-7750
▁unequi	-7751
▁Because	-7752
▁Norther	-7753
▁xivongo	-7754
▁speaking	-7755
▁nkayivelo	-7756
▁lowuntshwa	-7757
▁Phurogireme	-7758
BC	-7759
xts	-7760
▁ON	-7761
▁er	-7762
▁Ask	-7763
▁era	-7764
verse	-7765
▁Ring	-7766
▁base	-7767
▁hisa	-7768
▁humi	-7769
▁tlhe	-7770
▁corre	-7771
▁model	-7772
▁pages	-7773
▁phiki	-7774
▁phuro	-7775
▁sport	-7776
tsalana	-7777
▁aspect	-7778
▁guardi	-7779
▁kotile	-7780
▁though	-7781
▁Support	-7782
▁vangiwa	-7783
▁apartheid	-7784
▁awareness	-7785
▁swiambalo	-7786
▁vegetable	-7787
▁identifying	-7788
▁coordination	-7789
▁distribution	-7790
RC	-7791
▁z	-7792
▁ed	-7793
erve	-7794
mbha	-7795
▁Sha	-7796
▁Val	-7797
ering	-7798
mangi	-7799
▁Cont	-7800
▁leby	-7801
mbeleri	-7802
tanding	-7803
tsariwa	-7804
▁Choose	-7805
▁bodies	-7806
▁closed	-7807
▁Freedom	-7808
▁October	-7809
▁olovisa	-7810
▁vavhoti	-7811
largement	-7812
▁sometimes	-7813
▁fikeleleka	-7814
▁Migingiriko	-7815
▁tikhamphani	-7816
DA	-7817
tili	-7818
yizi	-7819
▁358	-7820
▁Man	-7821
▁SWA	-7822
▁air	-7823
▁fea	-7824
▁lon	-7825
anied	-7826
kitsi	-7827
▁Code	-7828
▁Does	-7829
▁Rela	-7830
sensus	-7831
▁users	-7832
▁facing	-7833
▁mhangu	-7834
▁ntsevu	-7835
▁xelexo	-7836
teleriwa	-7837
▁nkhensa	-7838
andziyiso	-7839
▁letikulu	-7840
▁speakers	-7841
▁Ministers	-7842
▁Swinawana	-7843
▁Swivutiso	-7844
▁carefully	-7845
▁nkucetelo	-7846
hekajekisano	-7847
▁instruments	-7848
▁langutaneke	-7849
▁Environmental	-7850
PF	-7851
SE	-7852
hed	-7853
diyo	-7854
xihi	-7855
▁Acco	-7856
▁Kaya	-7857
▁Make	-7858
▁Prin	-7859
▁cash	-7860
lelaka	-7861
▁forum	-7862
▁fruit	-7863
▁rhume	-7864
▁rihla	-7865
▁scale	-7866
▁discre	-7867
▁earlier	-7868
▁Children	-7869
▁councils	-7870
▁interpre	-7871
▁mistakes	-7872
▁envisaged	-7873
▁penalties	-7874
▁provhinsi	-7875
▁industrial	-7876
▁mechanisms	-7877
▁Registration	-7878
▁developments	-7879
▁facilitators	-7880
▁tlheriseriwa	-7881
dis	-7882
gic	-7883
▁Tw	-7884
meka	-7885
ship	-7886
▁fre	-7887
▁pac	-7888
quare	-7889
xable	-7890
▁hala	-7891
▁lung	-7892
▁Khapu	-7893
▁expec	-7894
▁ngari	-7895
▁notes	-7896
▁xirha	-7897
certain	-7898
timente	-7899
yisweni	-7900
▁Family	-7901
▁advise	-7902
formance	-7903
lidarity	-7904
▁similar	-7905
wamapurasi	-7906
▁Swiletelo	-7907
▁Vugevenga	-7908
▁evaluated	-7909
▁katsiwile	-7910
▁hambileswi	-7911
▁mafambisele	-7912
▁tinhlamuselo	-7913
bye	-7914
dra	-7915
▁tri	-7916
eleki	-7917
tices	-7918
▁Mpfa	-7919
▁game	-7920
▁lowo	-7921
▁rich	-7922
rested	-7923
▁estate	-7924
▁	-7925
a	-7926
e	-7927
i	-7928
n	-7929
o	-7930
t	-7931
l	-7932
s	-7933
h	-7934
u	-7935
r	-7936
k	-7937
w	-7938
m	-7939
d	-7940
y	-7941
v	-7942
g	-7943
c	-7944
f	-7945
p	-7946
b	-7947
.	-7948
x	-7949
,	-7950
z	-7951
T	-7952
A	-7953
I	-7954
N	-7955
M	-7956
S	-7957
'	-7958
H	-7959
-	-7960
0	-7961
P	-7962
K	-7963
1	-7964
C	-7965
L	-7966
D	-7967
V	-7968
E	-7969
?	-7970
W	-7971
2	-7972
j	-7973
X	-7974
R	-7975
q	-7976
:	-7977
)	-7978
B	-7979
(	-7980
9	-7981
O	-7982
"	-7983
F	-7984
3	-7985
U	-7986
G	-7987
5	-7988
4	-7989
;	-7990
/	-7991
Y	-7992
6	-7993
8	-7994
7	-7995
J	-7996
