<unk>	0
<s>	0
</s>	0
--	-0
----	-1
▁t	-2
--------	-3
he	-4
▁a	-5
in	-6
▁o	-7
▁the	-8
on	-9
re	-10
ti	-11
----------------	-12
er	-13
▁of	-14
en	-15
▁s	-16
is	-17
▁w	-18
▁to	-19
▁in	-20
tion	-21
▁an	-22
▁p	-23
or	-24
at	-25
▁c	-26
es	-27
▁and	-28
ou	-29
an	-30
it	-31
▁b	-32
▁m	-33
ed	-34
ic	-35
▁f	-36
ar	-37
al	-38
ing	-39
▁d	-40
le	-41
ent	-42
▁th	-43
ation	-44
▁re	-45
ec	-46
il	-47
ro	-48
▁be	-49
▁is	-50
▁h	-51
as	-52
ve	-53
ment	-54
▁n	-55
▁e	-56
om	-57
ers	-58
▁A	-59
▁or	-60
▁y	-61
▁that	-62
▁T	-63
▁l	-64
us	-65
ce	-66
▁S	-67
▁you	-68
ay	-69
id	-70
▁g	-71
▁for	-72
▁I	-73
▁he	-74
erm	-75
ct	-76
▁pro	-77
pl	-78
ot	-79
im	-80
▁C	-81
▁as	-82
ate	-83
▁con	-84
se	-85
▁P	-86
▁wh	-87
▁The	-88
ith	-89
▁with	-90
if	-91
▁term	-92
ill	-93
▁su	-94
ll	-95
et	-96
▁are	-97
ri	-98
ra	-99
un	-100
▁2	-101
▁on	-102
ur	-103
th	-104
ow	-105
ist	-106
ly	-107
ag	-108
▁terms	-109
▁com	-110
ul	-111
ch	-112
▁not	-113
▁1	-114
ess	-115
erson	-116
ak	-117
▁W	-118
ection	-119
qu	-120
▁it	-121
▁will	-122
▁person	-123
ble	-124
▁this	-125
ir	-126
ad	-127
op	-128
ol	-129
oun	-130
em	-131
res	-132
ci	-133
▁ap	-134
▁ha	-135
▁wor	-136
ver	-137
▁M	-138
ity	-139
ust	-140
▁by	-141
ut	-142
▁20	-143
▁ac	-144
▁have	-145
ant	-146
art	-147
▁sp	-148
gh	-149
▁ex	-150
ion	-151
cil	-152
ort	-153
▁le	-154
▁st	-155
st	-156
am	-157
ld	-158
fic	-159
▁must	-160
ric	-161
▁en	-162
red	-163
ake	-164
ect	-165
▁D	-166
ter	-167
▁her	-168
▁has	-169
ure	-170
▁de	-171
for	-172
▁section	-173
▁(	-174
rom	-175
ear	-176
▁go	-177
age	-178
▁we	-179
iti	-180
▁us	-181
ary	-182
▁N	-183
form	-184
▁res	-185
port	-186
▁F	-187
her	-188
▁do	-189
te	-190
ain	-191
▁all	-192
our	-193
ren	-194
▁from	-195
▁if	-196
▁appl	-197
▁work	-198
ich	-199
ang	-200
▁which	-201
▁Act	-202
ple	-203
tions	-204
ght	-205
▁Af	-206
▁reg	-207
ore	-208
▁un	-209
ence	-210
os	-211
tit	-212
od	-213
▁ch	-214
emb	-215
ations	-216
▁200	-217
▁spe	-218
▁who	-219
▁may	-220
sel	-221
▁v	-222
▁was	-223
▁sh	-224
▁E	-225
▁ad	-226
ould	-227
▁your	-228
▁cont	-229
▁there	-230
▁R	-231
▁make	-232
▁B	-233
vel	-234
▁SA	-235
self	-236
ip	-237
ab	-238
ult	-239
and	-240
ational	-241
▁acc	-242
▁Afric	-243
stit	-244
DC	-245
end	-246
▁19	-247
▁whe	-248
▁im	-249
▁been	-250
▁"	-251
▁fa	-252
ouncil	-253
ome	-254
ance	-255
ech	-256
▁pl	-257
▁any	-258
du	-259
stitu	-260
ig	-261
ments	-262
▁dis	-263
able	-264
ud	-265
tive	-266
▁In	-267
ves	-268
ication	-269
▁sub	-270
------	-271
ies	-272
▁inform	-273
outh	-274
▁SADC	-275
ount	-276
▁she	-277
tic	-278
▁can	-279
ard	-280
▁me	-281
▁so	-282
ime	-283
▁South	-284
▁O	-285
▁em	-286
ep	-287
▁prov	-288
▁requ	-289
▁memb	-290
um	-291
▁speech	-292
ild	-293
oy	-294
ew	-295
▁H	-296
vern	-297
▁at	-298
▁qu	-299
▁year	-300
ac	-301
ire	-302
▁such	-303
▁par	-304
▁Wh	-305
ploy	-306
▁2009	-307
▁Council	-308
ans	-309
vernment	-310
▁-	-311
stitution	-312
▁offic	-313
right	-314
rit	-315
pro	-316
cial	-317
ive	-318
eop	-319
eople	-320
ays	-321
ase	-322
ther	-323
iv	-324
▁time	-325
▁right	-326
▁man	-327
ee	-328
ds	-329
▁ens	-330
ub	-331
velop	-332
eri	-333
li	-334
▁employ	-335
oc	-336
▁L	-337
▁their	-338
▁comm	-339
▁should	-340
▁use	-341
▁application	-342
ff	-343
est	-344
▁herself	-345
ated	-346
▁inc	-347
▁k	-348
gan	-349
inist	-350
ue	-351
▁information	-352
▁regist	-353
▁did	-354
▁3	-355
ry	-356
ide	-357
ubl	-358
angu	-359
ace	-360
▁people	-361
▁form	-362
ord	-363
▁ag	-364
ame	-365
▁exp	-366
▁ass	-367
▁G	-368
ice	-369
▁/	-370
▁If	-371
si	-372
▁mat	-373
▁pre	-374
▁al	-375
ted	-376
cilit	-377
▁199	-378
▁ind	-379
▁Y	-380
hip	-381
ities	-382
▁dec	-383
▁they	-384
▁ne	-385
ator	-386
ganis	-387
▁Con	-388
▁writ	-389
ail	-390
▁proc	-391
▁part	-392
▁ensure	-393
▁fo	-394
out	-395
▁Com	-396
▁government	-397
ning	-398
▁langu	-399
fe	-400
ram	-401
▁san	-402
ru	-403
now	-404
▁sup	-405
one	-406
▁ab	-407
▁tra	-408
erv	-409
enti	-410
▁his	-411
▁op	-412
▁no	-413
rent	-414
▁comple	-415
▁Par	-416
▁develop	-417
ap	-418
▁und	-419
▁more	-420
▁our	-421
ision	-422
▁resp	-423
ous	-424
ree	-425
▁leg	-426
lud	-427
▁words	-428
▁What	-429
▁201	-430
▁pos	-431
ublic	-432
▁Africa	-433
are	-434
cu	-435
▁iss	-436
▁members	-437
sw	-438
1)	-439
duc	-440
▁sa	-441
▁cons	-442
▁answ	-443
▁ques	-444
ition	-445
cy	-446
▁It	-447
▁other	-448
▁but	-449
ety	-450
▁am	-451
vant	-452
▁count	-453
rib	-454
▁child	-455
ied	-456
ven	-457
very	-458
▁6	-459
▁lif	-460
▁Comm	-461
ok	-462
ners	-463
▁docu	-464
ased	-465
▁comp	-466
▁process	-467
▁when	-468
▁Minist	-469
▁answer	-470
ign	-471
alth	-472
▁what	-473
artment	-474
ces	-475
▁office	-476
sion	-477
▁know	-478
▁det	-479
----------	-480
--------------	-481
▁language	-482
xt	-483
resent	-484
▁indic	-485
rou	-486
▁conc	-487
ose	-488
llow	-489
▁ref	-490
▁parti	-491
▁Pro	-492
ial	-493
▁dif	-494
▁Dep	-495
▁includ	-496
sible	-497
▁years	-498
▁U	-499
gram	-500
▁life	-501
▁respon	-502
gramm	-503
adies	-504
▁where	-505
ge	-506
▁inter	-507
▁require	-508
▁Minister	-509
▁subs	-510
ine	-511
▁support	-512
▁Constitution	-513
▁follow	-514
ater	-515
ural	-516
▁Th	-517
▁Whe	-518
▁ladies	-519
▁National	-520
ament	-521
ish	-522
ong	-523
ered	-524
up	-525
ular	-526
fore	-527
▁able	-528
▁import	-529
▁African	-530
ten	-531
▁Ap	-532
▁ob	-533
▁appro	-534
ber	-535
▁persons	-536
ach	-537
▁within	-538
▁rep	-539
▁pol	-540
▁co	-541
▁rec	-542
ination	-543
ating	-544
▁facilit	-545
cip	-546
▁out	-547
▁cour	-548
▁take	-549
ings	-550
▁date	-551
▁complete	-552
▁ev	-553
▁some	-554
▁country	-555
itary	-556
▁requirements	-557
▁You	-558
**	-559
*\	-560
*\1	-561
▁rem	-562
***\1	-563
▁Department	-564
▁them	-565
eriod	-566
▁period	-567
▁health	-568
ast	-569
▁1998	-570
ality	-571
▁2010	-572
lect	-573
▁diffe	-574
ie	-575
▁af	-576
▁place	-577
▁int	-578
ticular	-579
▁organis	-580
▁than	-581
tice	-582
liament	-583
rans	-584
get	-585
▁represent	-586
▁sanitary	-587
ned	-588
▁j	-589
so	-590
day	-591
ues	-592
▁ar	-593
▁one	-594
uring	-595
agement	-596
▁id	-597
led	-598
ress	-599
vi	-600
▁Parliament	-601
ific	-602
▁up	-603
ason	-604
▁This	-605
▁spec	-606
▁J	-607
erst	-608
ject	-609
▁used	-610
eral	-611
▁name	-612
ef	-613
▁rel	-614
▁disc	-615
▁member	-616
▁add	-617
▁fun	-618
▁li	-619
▁te	-620
▁before	-621
▁result	-622
ms	-623
▁Ch	-624
▁particip	-625
▁need	-626
▁concer	-627
▁la	-628
▁social	-629
▁after	-630
▁reason	-631
ory	-632
isl	-633
ident	-634
▁development	-635
econ	-636
ical	-637
og	-638
erstand	-639
▁national	-640
▁way	-641
air	-642
▁say	-643
▁Or	-644
unity	-645
ration	-646
▁today	-647
▁nec	-648
▁necess	-649
ens	-650
tig	-651
edu	-652
▁eff	-653
▁accord	-654
use	-655
▁programm	-656
▁We	-657
▁serv	-658
▁want	-659
eneral	-660
▁Pre	-661
▁its	-662
▁necessary	-663
ters	-664
idence	-665
ari	-666
▁36	-667
kill	-668
▁TH	-669
▁pa	-670
▁only	-671
▁inves	-672
▁these	-673
▁different	-674
itte	-675
▁mo	-676
▁subsection	-677
▁Re	-678
▁possible	-679
▁registered	-680
(1)	-681
ade	-682
▁se	-683
▁r	-684
iol	-685
ph	-686
pos	-687
ission	-688
ual	-689
▁understand	-690
rim	-691
▁lear	-692
▁legisl	-693
▁As	-694
,"	-695
▁60	-696
nership	-697
▁provin	-698
all	-699
▁how	-700
▁rece	-701
▁detail	-702
▁also	-703
rest	-704
▁expect	-705
ook	-706
ril	-707
umber	-708
der	-709
▁rights	-710
▁about	-711
▁refer	-712
ved	-713
▁ask	-714
▁rele	-715
▁April	-716
ner	-717
▁my	-718
▁ro	-719
▁bet	-720
▁made	-721
▁document	-722
▁facilitation	-723
ricult	-724
▁here	-725
▁indicate	-726
▁5	-727
ined	-728
uth	-729
▁skill	-730
▁evidence	-731
▁management	-732
▁dep	-733
ise	-734
▁contin	-735
lem	-736
▁institution	-737
ruct	-738
▁going	-739
irst	-740
▁meet	-741
ack	-742
tiv	-743
▁subm	-744
▁long	-745
lemen	-746
entlemen	-747
▁give	-748
▁identi	-749
▁decision	-750
▁app	-751
▁days	-752
▁matters	-753
uthor	-754
▁public	-755
▁Ex	-756
ates	-757
▁lead	-758
uild	-759
erti	-760
▁prot	-761
▁inte	-762
▁were	-763
▁per	-764
▁4	-765
ative	-766
▁compl	-767
▁gentlemen	-768
▁sit	-769
▁fin	-770
▁concerned	-771
▁employee	-772
▁questions	-773
▁law	-774
..	-775
unic	-776
▁plan	-777
00	-778
ffic	-779
▁giv	-780
▁following	-781
act	-782
plement	-783
▁accordance	-784
▁sy	-785
ages	-786
▁When	-787
ocal	-788
ees	-789
ators	-790
▁water	-791
ke	-792
ool	-793
▁env	-794
▁important	-795
▁trans	-796
▁first	-797
wo	-798
▁(1	-799
we	-800
▁gu	-801
▁Part	-802
ange	-803
fied	-804
ector	-805
▁apply	-806
abor	-807
▁tak	-808
ause	-809
▁vari	-810
reed	-811
bil	-812
▁order	-813
▁decl	-814
General	-815
▁number	-816
aged	-817
▁av	-818
chool	-819
▁skills	-820
iron	-821
tives	-822
▁does	-823
▁impro	-824
▁including	-825
ork	-826
irect	-827
▁prom	-828
ironment	-829
▁Fa	-830
▁pay	-831
▁To	-832
▁two	-833
ional	-834
▁question	-835
▁contrib	-836
stem	-837
ining	-838
▁case	-839
▁him	-840
▁exam	-841
▁issues	-842
▁writing	-843
atory	-844
ines	-845
▁conf	-846
▁court	-847
▁level	-848
▁Section	-849
DP	-850
▁Go	-851
minist	-852
fy	-853
▁Organis	-854
▁relevant	-855
▁Educ	-856
▁register	-857
chie	-858
omes	-859
urity	-860
▁like	-861
ecurity	-862
▁each	-863
▁sure	-864
tim	-865
▁report	-866
▁would	-867
▁new	-868
▁Education	-869
▁without	-870
low	-871
▁Ac	-872
tain	-873
redit	-874
▁There	-875
▁given	-876
▁role	-877
▁environment	-878
ember	-879
rac	-880
duct	-881
ight	-882
▁equ	-883
▁aw	-884
ared	-885
▁achie	-886
▁requi	-887
als	-888
▁Facilit	-889
▁see	-890
▁submit	-891
▁particular	-892
▁cl	-893
▁care	-894
▁viol	-895
pt	-896
▁po	-897
▁elect	-898
▁assist	-899
▁set	-900
▁every	-901
▁Ag	-902
▁trad	-903
▁implement	-904
ishe	-905
roup	-906
▁cho	-907
▁assess	-908
▁For	-909
unicip	-910
▁means	-911
ite	-912
▁children	-913
▁fee	-914
▁med	-915
▁speak	-916
▁Pres	-917
▁Prov	-918
▁referred	-919
▁programme	-920
80	-921
▁many	-922
▁group	-923
▁address	-924
ween	-925
▁accredit	-926
▁jus	-927
▁perm	-928
ily	-929
▁mar	-930
gether	-931
▁applic	-932
▁matter	-933
▁over	-934
▁avail	-935
▁President	-936
▁Partnership	-937
econom	-938
▁below	-939
▁together	-940
▁legislation	-941
▁under	-942
itiz	-943
▁provide	-944
pri	-945
▁situ	-946
▁between	-947
▁7	-948
ancy	-949
▁fact	-950
▁IDP	-951
▁bec	-952
▁again	-953
▁available	-954
el	-955
▁activ	-956
▁citiz	-957
rimination	-958
▁three	-959
▁improve	-960
raph	-961
▁pri	-962
▁pur	-963
▁areas	-964
▁author	-965
▁promot	-966
▁forms	-967
▁those	-968
crib	-969
ricultural	-970
▁act	-971
---	-972
▁day	-973
rough	-974
▁well	-975
▁wish	-976
▁dise	-977
▁content	-978
▁pres	-979
),	-980
urg	-981
ency	-982
▁amount	-983
ty	-984
▁appropri	-985
▁De	-986
▁provincial	-987
▁into	-988
▁sani	-989
▁edu	-990
di	-991
pp	-992
ittee	-993
of	-994
ures	-995
iness	-996
▁fund	-997
itional	-998
not	-999
▁St	-1000
▁rest	-1001
▁said	-1002
usiness	-1003
▁econom	-1004
ertific	-1005
▁access	-1006
ices	-1007
ledge	-1008
▁happ	-1009
▁specific	-1010
▁appropriate	-1011
ove	-1012
▁ve	-1013
▁through	-1014
).	-1015
▁adop	-1016
ink	-1017
▁cor	-1018
▁sector	-1019
old	-1020
▁resour	-1021
ful	-1022
▁request	-1023
aboratory	-1024
ries	-1025
▁stud	-1026
ertificate	-1027
▁contribut	-1028
▁(1)	-1029
▁violence	-1030
▁working	-1031
▁polic	-1032
▁provid	-1033
▁documents	-1034
▁system	-1035
▁partner	-1036
row	-1037
▁achieve	-1038
▁Develop	-1039
▁lic	-1040
▁home	-1041
▁issue	-1042
▁municip	-1043
▁get	-1044
▁ple	-1045
ey	-1046
ction	-1047
▁says	-1048
▁show	-1049
▁perform	-1050
lp	-1051
▁help	-1052
▁Government	-1053
▁real	-1054
▁soci	-1055
ditions	-1056
▁discrimination	-1057
▁interest	-1058
▁account	-1059
▁conditions	-1060
▁11	-1061
ull	-1062
▁list	-1063
▁Development	-1064
raw	-1065
▁done	-1066
▁variety	-1067
▁educ	-1068
ued	-1069
eration	-1070
uch	-1071
▁aff	-1072
▁official	-1073
▁business	-1074
▁area	-1075
▁2010.	-1076
▁protect	-1077
▁An	-1078
hic	-1079
abil	-1080
▁prac	-1081
▁administ	-1082
come	-1083
▁very	-1084
▁vehic	-1085
▁continue	-1086
▁employer	-1087
▁society	-1088
▁Un	-1089
▁good	-1090
ts	-1091
amily	-1092
▁same	-1093
▁council	-1094
sibil	-1095
▁intern	-1096
rin	-1097
fair	-1098
ises	-1099
ough	-1100
▁mon	-1101
▁required	-1102
▁Commission	-1103
oci	-1104
ective	-1105
aration	-1106
▁V	-1107
eace	-1108
▁cre	-1109
▁regard	-1110
▁citizens	-1111
▁write	-1112
▁school	-1113
stitutions	-1114
ouse	-1115
▁aware	-1116
▁Provin	-1117
▁resources	-1118
▁min	-1119
▁obj	-1120
▁local	-1121
ness	-1122
▁beg	-1123
▁regul	-1124
▁Community	-1125
▁Rep	-1126
reedom	-1127
▁responsibil	-1128
▁institutions	-1129
ix	-1130
cal	-1131
vour	-1132
ution	-1133
▁adv	-1134
▁cle	-1135
▁prop	-1136
▁investig	-1137
▁certificate	-1138
any	-1139
based	-1140
▁Security	-1141
ised	-1142
▁1980	-1143
tis	-1144
▁Serv	-1145
▁took	-1146
▁authority	-1147
▁disease	-1148
▁organisations	-1149
▁col	-1150
▁next	-1151
▁cannot	-1152
▁provision	-1153
ally	-1154
ks	-1155
til	-1156
▁build	-1157
▁finan	-1158
▁Facilitators	-1159
▁Use	-1160
▁sti	-1161
rence	-1162
▁didn	-1163
view	-1164
▁happen	-1165
▁ph	-1166
▁subject	-1167
▁quality	-1168
▁receive	-1169
▁corre	-1170
▁learning	-1171
▁struct	-1172
▁agree	-1173
▁associ	-1174
▁favour	-1175
▁att	-1176
ctions	-1177
IV	-1178
read	-1179
▁details	-1180
mb	-1181
fess	-1182
vious	-1183
▁still	-1184
▁assessment	-1185
ass	-1186
▁Year	-1187
▁beli	-1188
▁disad	-1189
rate	-1190
ways	-1191
riend	-1192
isation	-1193
▁service	-1194
▁written	-1195
▁freedom	-1196
▁disadvant	-1197
▁employees	-1198
000	-1199
▁Republic	-1200
che	-1201
eti	-1202
▁Bo	-1203
rant	-1204
▁Reg	-1205
▁begin	-1206
▁course	-1207
▁leaders	-1208
▁Gu	-1209
fety	-1210
▁key	-1211
otion	-1212
▁much	-1213
▁needs	-1214
▁Particular	-1215
▁Provinces	-1216
▁Prem	-1217
agraph	-1218
▁based	-1219
▁He	-1220
duce	-1221
ainten	-1222
▁representations	-1223
ower	-1224
▁invest	-1225
aintenance	-1226
▁dem	-1227
▁consult	-1228
▁paragraph	-1229
▁How	-1230
acy	-1231
▁grow	-1232
cribed	-1233
▁food	-1234
▁during	-1235
▁correct	-1236
▁languages	-1237
ply	-1238
book	-1239
uman	-1240
▁held	-1241
▁competi	-1242
▁vehicle	-1243
▁registration	-1244
▁000	-1245
plain	-1246
thing	-1247
▁last	-1248
itical	-1249
▁prin	-1250
▁read	-1251
▁planning	-1252
▁agricultural	-1253
cept	-1254
▁using	-1255
▁cult	-1256
▁state	-1257
▁sta	-1258
friend	-1259
▁conduct	-1260
ob	-1261
ath	-1262
▁qual	-1263
less	-1264
▁hig	-1265
-------	-1266
▁training	-1267
ished	-1268
▁Organisms	-1269
▁activities	-1270
▁please	-1271
ature	-1272
▁sign	-1273
▁Inves	-1274
▁Where	-1275
▁Particulars	-1276
▁THE	-1277
ready	-1278
line	-1279
▁participate	-1280
▁previous	-1281
▁es	-1282
omen	-1283
ples	-1284
▁full	-1285
▁intro	-1286
▁justi	-1287
▁parent	-1288
▁proble	-1289
friendly	-1290
ia	-1291
▁8	-1292
ism	-1293
▁Ad	-1294
ents	-1295
▁aim	-1296
▁ben	-1297
▁stand	-1298
▁determ	-1299
▁options	-1300
▁accreditation	-1301
emp	-1302
▁HIV	-1303
▁hist	-1304
▁clear	-1305
▁meeting	-1306
ases	-1307
▁inf	-1308
▁Offic	-1309
SA	-1310
ended	-1311
cienti	-1312
▁Board	-1313
▁prescribed	-1314
▁disadvantaged	-1315
erg	-1316
▁already	-1317
DS	-1318
▁against	-1319
▁profess	-1320
▁Investig	-1321
ecu	-1322
pre	-1323
▁21	-1324
▁Writ	-1325
▁initi	-1326
irector	-1327
▁permit	-1328
▁policy	-1329
▁unless	-1330
▁promote	-1331
▁cap	-1332
▁staff	-1333
▁motion	-1334
▁Em	-1335
▁inv	-1336
▁story	-1337
fication	-1338
formation	-1339
▁consultation	-1340
▁declared	-1341
▁political	-1342
arch	-1343
▁Write	-1344
IDS	-1345
▁wee	-1346
▁experi	-1347
▁el	-1348
▁def	-1349
.1	-1350
vate	-1351
▁participating	-1352
GA	-1353
ns	-1354
▁AIDS	-1355
▁fix	-1356
▁knowledge	-1357
▁sim	-1358
▁contact	-1359
abl	-1360
text	-1361
▁Tra	-1362
▁lab	-1363
▁come	-1364
ecutive	-1365
▁consid	-1366
▁context	-1367
pe	-1368
iving	-1369
▁Prom	-1370
▁grant	-1371
gn	-1372
▁prev	-1373
▁completed	-1374
▁They	-1375
▁soon	-1376
▁commit	-1377
ectives	-1378
▁choice	-1379
fer	-1380
oin	-1381
▁New	-1382
▁ent	-1383
▁women	-1384
▁reasons	-1385
stru	-1386
▁pregn	-1387
▁No	-1388
▁On	-1389
▁ra	-1390
adem	-1391
▁paid	-1392
▁because	-1393
▁association	-1394
▁international	-1395
▁des	-1396
econd	-1397
reng	-1398
ving	-1399
itive	-1400
▁effect	-1401
▁Premises	-1402
▁laboratory	-1403
▁traditional	-1404
ths	-1405
▁let	-1406
▁economic	-1407
▁understanding	-1408
ules	-1409
▁complain	-1410
▁situation	-1411
ably	-1412
▁legal	-1413
▁contain	-1414
▁Promotion	-1415
▁objectives	-1416
reat	-1417
▁Right	-1418
▁15	-1419
ient	-1420
▁always	-1421
▁expectancy	-1422
▁9	-1423
▁cr	-1424
▁test	-1425
▁fixed	-1426
▁commun	-1427
▁discus	-1428
▁obtain	-1429
▁proper	-1430
vention	-1431
▁anything	-1432
▁cop	-1433
▁exist	-1434
▁Rights	-1435
▁notice	-1436
atives	-1437
▁mot	-1438
comes	-1439
▁ways	-1440
ittees	-1441
uty	-1442
▁record	-1443
▁example	-1444
▁services	-1445
▁Parliamentary	-1446
go	-1447
han	-1448
ile	-1449
term	-1450
▁trained	-1451
ifications	-1452
▁responsible	-1453
the	-1454
lines	-1455
▁could	-1456
▁short	-1457
▁special	-1458
▁addressing	-1459
▁30	-1460
▁professional	-1461
asic	-1462
▁copy	-1463
▁private	-1464
▁expected	-1465
▁Information	-1466
---------------	-1467
ict	-1468
mbly	-1469
▁Asse	-1470
▁Assembly	-1471
igh	-1472
ting	-1473
▁1996	-1474
▁taken	-1475
▁think	-1476
-----------	-1477
▁identification	-1478
▁allow	-1479
▁motor	-1480
▁advant	-1481
▁investment	-1482
▁declaration	-1483
ought	-1484
▁marri	-1485
▁wants	-1486
▁informed	-1487
▁environmental	-1488
efit	-1489
plan	-1490
ories	-1491
▁crime	-1492
▁others	-1493
▁yourself	-1494
▁community	-1495
▁10	-1496
draw	-1497
▁live	-1498
urther	-1499
▁streng	-1500
▁provisions	-1501
val	-1502
ference	-1503
▁committee	-1504
ocra	-1505
▁Programm	-1506
cc	-1507
▁Med	-1508
▁ensuring	-1509
▁financial	-1510
▁safety	-1511
▁everyone	-1512
▁'	-1513
inion	-1514
▁fore	-1515
▁opinion	-1516
sp	-1517
road	-1518
ivers	-1519
▁text	-1520
▁above	-1521
▁thereof	-1522
▁identify	-1523
pa	-1524
▁Acc	-1525
▁tim	-1526
▁Trans	-1527
▁chang	-1528
▁create	-1529
▁benefit	-1530
▁positive	-1531
▁manag	-1532
▁produc	-1533
▁programmes	-1534
les	-1535
▁rules	-1536
▁democra	-1537
▁experience	-1538
▁Al	-1539
oura	-1540
▁four	-1541
vement	-1542
▁Service	-1543
▁municipal	-1544
irm	-1545
▁ty	-1546
ever	-1547
ited	-1548
▁eas	-1549
▁old	-1550
▁living	-1551
▁culture	-1552
▁licence	-1553
▁prevent	-1554
ected	-1555
▁Will	-1556
▁Work	-1557
▁alloc	-1558
▁thought	-1559
▁Director	-1560
▁Maintenance	-1561
▁ow	-1562
ible	-1563
▁put	-1564
edures	-1565
▁Public	-1566
▁action	-1567
▁income	-1568
▁second	-1569
cientific	-1570
▁electric	-1571
OT	-1572
▁14	-1573
mend	-1574
▁est	-1575
▁parties	-1576
poses	-1577
▁Exam	-1578
▁purposes	-1579
▁procedures	-1580
▁ce	-1581
▁val	-1582
ges	-1583
▁Jo	-1584
ours	-1585
▁ext	-1586
▁pass	-1587
▁then	-1588
▁foreign	-1589
ood	-1590
hing	-1591
▁Who	-1592
▁Peace	-1593
ax	-1594
ors	-1595
▁Man	-1596
▁hand	-1597
▁accept	-1598
▁direct	-1599
▁family	-1600
▁effective	-1601
ank	-1602
ium	-1603
ound	-1604
▁beh	-1605
▁ren	-1606
▁yet	-1607
▁prep	-1608
▁Guide	-1609
▁cause	-1610
▁heard	-1611
oney	-1612
▁urg	-1613
▁things	-1614
ense	-1615
▁Build	-1616
▁appoin	-1617
▁depart	-1618
▁depend	-1619
▁adoption	-1620
▁remember	-1621
IF	-1622
ender	-1623
▁State	-1624
▁incre	-1625
▁review	-1626
aper	-1627
▁2011	-1628
▁fail	-1629
cience	-1630
▁unable	-1631
------------	-1632
ane	-1633
erate	-1634
▁outcomes	-1635
▁countries	-1636
▁Ind	-1637
▁money	-1638
▁workers	-1639
▁times	-1640
▁materi	-1641
▁remain	-1642
▁interven	-1643
▁learners	-1644
alk	-1645
aking	-1646
▁issued	-1647
▁Example	-1648
burg	-1649
▁tar	-1650
▁officer	-1651
▁applicable	-1652
▁Lear	-1653
▁anim	-1654
▁deli	-1655
▁mean	-1656
▁plant	-1657
▁someone	-1658
ames	-1659
ework	-1660
search	-1661
▁appear	-1662
▁belief	-1663
ramework	-1664
gr	-1665
▁ann	-1666
▁Free	-1667
▁deal	-1668
▁groups	-1669
▁research	-1670
rol	-1671
utes	-1672
ified	-1673
verty	-1674
▁lod	-1675
Act	-1676
ind	-1677
ince	-1678
▁Pol	-1679
ctive	-1680
▁gender	-1681
▁include	-1682
▁poverty	-1683
▁complaint	-1684
▁education	-1685
▁cur	-1686
▁world	-1687
▁Office	-1688
tics	-1689
leg	-1690
pec	-1691
allen	-1692
▁Ward	-1693
▁establ	-1694
▁consider	-1695
▁contributing	-1696
...	-1697
ced	-1698
leb	-1699
▁page	-1700
ciples	-1701
▁Partnerships	-1702
▁administration	-1703
▁People	-1704
▁parents	-1705
▁project	-1706
▁reasonably	-1707
EC	-1708
ties	-1709
ustry	-1710
▁gets	-1711
▁celeb	-1712
▁letter	-1713
▁Pl	-1714
fairs	-1715
▁takes	-1716
▁longer	-1717
▁SW	-1718
▁bl	-1719
cing	-1720
pose	-1721
esburg	-1722
▁Affairs	-1723
▁payment	-1724
ogn	-1725
hold	-1726
▁197	-1727
▁open	-1728
▁Local	-1729
▁SWOT	-1730
▁names	-1731
▁start	-1732
nesburg	-1733
▁change	-1734
▁respect	-1735
arm	-1736
▁few	-1737
▁men	-1738
▁listen	-1739
▁hours	-1740
▁invol	-1741
▁instru	-1742
▁current	-1743
▁further	-1744
▁problems	-1745
hannesburg	-1746
ody	-1747
year	-1748
▁conn	-1749
▁human	-1750
▁until	-1751
anguage	-1752
▁target	-1753
▁relations	-1754
▁structure	-1755
▁electricity	-1756
ocus	-1757
wane	-1758
▁Language	-1759
▁Johannesburg	-1760
▁cost	-1761
▁five	-1762
▁2009,	-1763
▁exemp	-1764
riculture	-1765
".	-1766
▁76	-1767
▁Dec	-1768
gories	-1769
ustice	-1770
ordination	-1771
▁committed	-1772
▁departments	-1773
tc	-1774
ives	-1775
lict	-1776
▁etc	-1777
uture	-1778
▁fees	-1779
▁submitted	-1780
tity	-1781
▁company	-1782
ification	-1783
▁Programme	-1784
▁materials	-1785
▁leadership	-1786
▁23	-1787
▁Is	-1788
▁effort	-1789
▁whether	-1790
▁determined	-1791
▁reasonable	-1792
8.	-1793
asis	-1794
▁now	-1795
ublish	-1796
▁focus	-1797
▁white	-1798
▁conflict	-1799
▁withdraw	-1800
▁Committee	-1801
face	-1802
▁mul	-1803
posal	-1804
▁feel	-1805
▁older	-1806
▁animals	-1807
▁challen	-1808
▁purpose	-1809
▁decisions	-1810
ept	-1811
person	-1812
▁being	-1813
▁guide	-1814
▁least	-1815
▁opport	-1816
▁position	-1817
▁assistance	-1818
els	-1819
▁12	-1820
▁All	-1821
▁iden	-1822
veness	-1823
▁estim	-1824
▁prior	-1825
▁renew	-1826
omestic	-1827
▁Justice	-1828
▁identity	-1829
▁Executive	-1830
▁Ro	-1831
▁(1).	-1832
▁step	-1833
▁Basic	-1834
▁later	-1835
▁likely	-1836
tiveness	-1837
▁responsibility	-1838
▁2:	-1839
▁Im	-1840
▁play	-1841
▁School	-1842
▁myself	-1843
▁meetings	-1844
▁Agriculture	-1845
▁0	-1846
hol	-1847
▁end	-1848
▁dang	-1849
▁else	-1850
▁ward	-1851
▁better	-1852
▁months	-1853
▁reports	-1854
Th	-1855
und	-1856
ately	-1857
▁(1),	-1858
▁dire	-1859
▁relating	-1860
▁justified	-1861
▁Mr	-1862
osed	-1863
▁Are	-1864
ently	-1865
▁meas	-1866
ommend	-1867
▁colle	-1868
▁satis	-1869
head	-1870
rative	-1871
▁2009-	-1872
▁police	-1873
airperson	-1874
▁standard	-1875
▁indicates	-1876
▁recommend	-1877
ems	-1878
▁TA	-1879
ious	-1880
ourt	-1881
▁(19	-1882
▁vot	-1883
erious	-1884
▁Court	-1885
▁active	-1886
▁protection	-1887
TI	-1888
erc	-1889
oth	-1890
▁Do	-1891
(1)(	-1892
▁best	-1893
▁himself	-1894
▁serious	-1895
▁communities	-1896
▁performance	-1897
▁sex	-1898
ability	-1899
▁common	-1900
▁introduc	-1901
▁regional	-1902
▁applicant	-1903
ademic	-1904
though	-1905
▁comply	-1906
▁approval	-1907
▁provides	-1908
▁accredited	-1909
▁Bill	-1910
▁send	-1911
▁stay	-1912
▁trade	-1913
▁municipality	-1914
▁implementation	-1915
gg	-1916
itor	-1917
ring	-1918
▁lot	-1919
▁Regist	-1920
▁worker	-1921
▁justice	-1922
▁building	-1923
▁department	-1924
eal	-1925
ivid	-1926
▁remo	-1927
▁confirm	-1928
▁explain	-1929
▁organise	-1930
alf	-1931
▁AN	-1932
igious	-1933
▁Child	-1934
▁present	-1935
IFA	-1936
▁FIFA	-1937
▁tell	-1938
▁house	-1939
▁resol	-1940
▁needed	-1941
//	-1942
▁wa	-1943
▁recogn	-1944
▁follows	-1945
▁appropriately	-1946
▁ele	-1947
▁vis	-1948
tition	-1949
▁higher	-1950
▁personal	-1951
▁Chairperson	-1952
mm	-1953
▁Co	-1954
▁Aut	-1955
▁top	-1956
▁try	-1957
coura	-1958
▁acting	-1959
▁existing	-1960
▁Management	-1961
ket	-1962
▁18	-1963
▁MEC	-1964
ising	-1965
ipment	-1966
▁exerc	-1967
▁danger	-1968
fficient	-1969
▁Science	-1970
▁Children	-1971
▁satisfied	-1972
▁even	-1973
▁look	-1974
▁phase	-1975
▁since	-1976
▁scientific	-1977
."	-1978
▁most	-1979
▁1998.	-1980
▁thing	-1981
▁respond	-1982
▁studies	-1983
▁pregnant	-1984
▁principles	-1985
▁qualifications	-1986
▁2.	-1987
....	-1988
imum	-1989
▁medium	-1990
Afriendly	-1991
▁security	-1992
▁developed	-1993
▁constitution	-1994
▁municipalities	-1995
ipt	-1996
▁Le	-1997
▁talk	-1998
nesses	-1999
▁These	-2000
▁Author	-2001
▁receipt	-2002
▁marriage	-2003
▁allocated	-2004
▁27	-2005
▁age	-2006
ption	-2007
venue	-2008
▁easy	-2009
rested	-2010
▁deleg	-2011
▁histor	-2012
▁managed	-2013
plication	-2014
▁December	-2015
▁agreement	-2016
echn	-2017
ield	-2018
▁head	-2019
▁hear	-2020
▁power	-2021
▁consist	-2022
▁Although	-2023
▁Investigative	-2024
▁Ma	-2025
cies	-2026
rief	-2027
tial	-2028
▁ide	-2029
▁wait	-2030
▁Years	-2031
▁discussion	-2032
lu	-2033
▁typ	-2034
▁less	-2035
▁medical	-2036
▁framework	-2037
▁interventions	-2038
▁Id	-2039
▁Why	-2040
▁met	-2041
owers	-2042
▁summ	-2043
▁attend	-2044
▁choose	-2045
▁sexual	-2046
▁beginning	-2047
▁equipment	-2048
here	-2049
▁inj	-2050
▁gives	-2051
▁reduc	-2052
▁topic	-2053
ividual	-2054
▁Health	-2055
▁reduce	-2056
hem	-2057
▁But	-2058
▁dri	-2059
▁weeks	-2060
▁Accord	-2061
abilities	-2062
▁province	-2063
▁investigate	-2064
▁wel	-2065
ential	-2066
▁2008.	-2067
▁treat	-2068
▁growth	-2069
ublished	-2070
▁Learning	-2071
▁Training	-2072
----------.	-2073
edi	-2074
equ	-2075
rar	-2076
rast	-2077
sing	-2078
tern	-2079
▁dist	-2080
▁high	-2081
▁doing	-2082
▁plans	-2083
▁operation	-2084
0.	-2085
RO	-2086
ify	-2087
ses	-2088
hest	-2089
▁tax	-2090
posed	-2091
▁Agency	-2092
rastruct	-2093
▁conclud	-2094
▁efforts	-2095
▁competitiveness	-2096
ave	-2097
ital	-2098
gress	-2099
power	-2100
pecial	-2101
▁Paper	-2102
▁encoura	-2103
▁activity	-2104
▁benefits	-2105
▁documentation	-2106
4.	-2107
▁16	-2108
▁En	-2109
▁field	-2110
▁types	-2111
▁Family	-2112
▁namely	-2113
▁supply	-2114
▁approved	-2115
rastructure	-2116
inal	-2117
itim	-2118
▁arr	-2119
▁nea	-2120
▁lack	-2121
▁economy	-2122
▁vi	-2123
▁Per	-2124
▁don	-2125
▁occ	-2126
▁Change	-2127
▁simple	-2128
▁highest	-2129
▁nearest	-2130
▁Administ	-2131
▁practice	-2132
▁word	-2133
anding	-2134
▁related	-2135
▁testing	-2136
▁industry	-2137
▁Buildings	-2138
▁employment	-2139
▁50	-2140
▁hon	-2141
▁land	-2142
▁thir	-2143
▁steps	-2144
ategories	-2145
▁realisation	-2146
▁investigation	-2147
▁Non	-2148
▁main	-2149
▁entit	-2150
ivision	-2151
▁Identi	-2152
▁practic	-2153
▁directive	-2154
own	-2155
ched	-2156
itle	-2157
inate	-2158
▁After	-2159
▁Identify	-2160
▁importance	-2161
con	-2162
▁Fin	-2163
force	-2164
▁Plan	-2165
▁line	-2166
▁mach	-2167
illion	-2168
▁peace	-2169
▁title	-2170
▁enough	-2171
▁future	-2172
nowledge	-2173
▁general	-2174
▁granted	-2175
▁minutes	-2176
▁entitled	-2177
▁historical	-2178
▁regulation	-2179
arg	-2180
irth	-2181
▁body	-2182
ogical	-2183
▁brief	-2184
istence	-2185
▁changes	-2186
▁Registrar	-2187
▁according	-2188
----------,	-2189
▁1.	-2190
ived	-2191
▁week	-2192
atural	-2193
------,	-2194
▁Africans	-2195
▁directly	-2196
▁committees	-2197
olid	-2198
▁tas	-2199
times	-2200
▁breed	-2201
▁whose	-2202
▁diffic	-2203
▁explan	-2204
▁exercise	-2205
▁estimated	-2206
▁Application	-2207
▁By	-2208
▁Fund	-2209
▁According	-2210
▁Laboratory	-2211
ape	-2212
ute	-2213
▁So	-2214
▁di	-2215
▁eat	-2216
istic	-2217
▁2009.	-2218
▁basis	-2219
▁death	-2220
▁schools	-2221
▁reference	-2222
▁Guidelines	-2223
▁organisation	-2224
erve	-2225
▁Hig	-2226
▁Lab	-2227
▁had	-2228
atics	-2229
inary	-2230
plete	-2231
▁back	-2232
▁book	-2233
▁disp	-2234
▁laun	-2235
▁techn	-2236
▁unfair	-2237
▁control	-2238
▁elected	-2239
▁effectively	-2240
2)	-2241
sh	-2242
▁hous	-2243
▁link	-2244
▁seen	-2245
encies	-2246
▁influ	-2247
▁powers	-2248
▁meaning	-2249
▁listening	-2250
▁strengthe	-2251
▁recommendations	-2252
az	-2253
iz	-2254
side	-2255
icines	-2256
▁multi	-2257
------.	-2258
▁requires	-2259
▁explanation	-2260
▁regulations	-2261
▁Agricultural	-2262
bs	-2263
▁Any	-2264
▁May	-2265
▁off	-2266
▁thank	-2267
▁Explain	-2268
▁collect	-2269
▁minimum	-2270
▁bu	-2271
abin	-2272
▁Res	-2273
▁ill	-2274
▁arri	-2275
abinet	-2276
▁actions	-2277
▁legitim	-2278
▁includes	-2279
▁mis	-2280
▁fall	-2281
andate	-2282
▁lives	-2283
▁perman	-2284
▁properly	-2285
▁advantage	-2286
▁introduce	-2287
▁sometimes	-2288
▁instructions	-2289
▁infrastructure	-2290
▁Dis	-2291
▁ear	-2292
▁non	-2293
▁White	-2294
▁organ	-2295
▁Cabinet	-2296
▁healthy	-2297
▁history	-2298
▁transfer	-2299
▁dangerous	-2300
▁subsistence	-2301
▁representatives	-2302
?"	-2303
▁tr	-2304
ants	-2305
▁Leg	-2306
▁wat	-2307
udget	-2308
▁draw	-2309
▁fight	-2310
▁lodge	-2311
operation	-2312
▁democracy	-2313
▁facilitate	-2314
tor	-2315
▁ey	-2316
stan	-2317
aster	-2318
llabor	-2319
▁Human	-2320
▁costs	-2321
▁concerns	-2322
▁speaking	-2323
▁continued	-2324
▁Committees	-2325
▁Prevention	-2326
▁submission	-2327
▁Administrative	-2328
de	-2329
▁ma	-2330
▁Aid	-2331
ishes	-2332
hematics	-2333
▁adopted	-2334
▁Complete	-2335
▁advantages	-2336
▁particulars	-2337
▁institutional	-2338
ost	-2339
▁TO	-2340
▁vir	-2341
rateg	-2342
▁once	-2343
selves	-2344
▁formal	-2345
▁summary	-2346
▁projects	-2347
▁legislature	-2348
--,	-2349
cell	-2350
▁belie	-2351
▁funds	-2352
▁rural	-2353
▁study	-2354
▁legacy	-2355
▁wishes	-2356
▁addition	-2357
▁domestic	-2358
▁therefore	-2359
RS	-2360
--.	-2361
lus	-2362
airs	-2363
oice	-2364
▁nom	-2365
other	-2366
ystem	-2367
▁House	-2368
▁facts	-2369
▁watch	-2370
▁United	-2371
▁market	-2372
▁colleag	-2373
▁natural	-2374
powerment	-2375
▁contains	-2376
▁religious	-2377
▁practicable	-2378
▁particularly	-2379
ier	-2380
omet	-2381
ruit	-2382
epend	-2383
orary	-2384
▁safe	-2385
▁Higher	-2386
▁however	-2387
▁outside	-2388
▁Services	-2389
▁employed	-2390
▁establish	-2391
▁promoting	-2392
▁providing	-2393
▁developments	-2394
ft	-2395
▁phy	-2396
toria	-2397
▁pati	-2398
▁76(1)	-2399
▁accom	-2400
▁another	-2401
▁Pretoria	-2402
▁equality	-2403
▁measures	-2404
▁situated	-2405
▁representative	-2406
ng	-2407
jor	-2408
lex	-2409
▁BI	-2410
ging	-2411
ogue	-2412
▁Pri	-2413
apers	-2414
arter	-2415
▁free	-2416
▁poor	-2417
inated	-2418
▁final	-2419
▁appeal	-2420
▁passed	-2421
▁states	-2422
▁appoint	-2423
▁OF	-2424
utions	-2425
▁party	-2426
▁seems	-2427
▁value	-2428
▁expand	-2429
▁overcome	-2430
▁categories	-2431
aps	-2432
dra	-2433
▁13	-2434
▁gl	-2435
azet	-2436
ided	-2437
sory	-2438
▁Prot	-2439
▁away	-2440
action	-2441
▁Forum	-2442
pecially	-2443
▁Revenue	-2444
▁regarded	-2445
▁pregnancy	-2446
▁published	-2447
▁especially	-2448
▁identified	-2449
▁capabilities	-2450
--------------.	-2451
irit	-2452
pret	-2453
▁Bank	-2454
▁cases	-2455
▁close	-2456
▁somet	-2457
▁third	-2458
▁something	-2459
ged	-2460
ergy	-2461
▁guil	-2462
▁task	-2463
▁young	-2464
▁energy	-2465
▁spirit	-2466
▁depends	-2467
▁received	-2468
▁additional	-2469
▁challenges	-2470
▁democratic	-2471
▁individual	-2472
orld	-2473
time	-2474
▁ack	-2475
▁Memb	-2476
▁Name	-2477
▁team	-2478
▁1998,	-2479
▁birth	-2480
▁occur	-2481
▁Deputy	-2482
▁labels	-2483
▁Members	-2484
▁delivery	-2485
▁exempted	-2486
▁interested	-2487
▁Commissioner	-2488
--------------,	-2489
ES	-2490
PS	-2491
orn	-2492
▁17	-2493
dule	-2494
▁mess	-2495
ograph	-2496
▁World	-2497
▁visit	-2498
chedule	-2499
▁throughout	-2500
▁198	-2501
▁aid	-2502
▁Home	-2503
▁Prac	-2504
ertain	-2505
▁union	-2506
▁guilty	-2507
▁leader	-2508
▁taking	-2509
▁policies	-2510
▁statement	-2511
aw	-2512
omic	-2513
▁own	-2514
icate	-2515
lling	-2516
▁view	-2517
▁emerg	-2518
▁proof	-2519
▁confid	-2520
▁design	-2521
▁manager	-2522
▁mandate	-2523
▁offices	-2524
▁proposal	-2525
▁concluded	-2526
▁contribution	-2527
aly	-2528
▁adver	-2529
▁goods	-2530
▁affairs	-2531
▁problem	-2532
▁machines	-2533
▁efficient	-2534
AL	-2535
za	-2536
arge	-2537
ward	-2538
Based	-2539
▁kept	-2540
▁path	-2541
▁Employ	-2542
▁events	-2543
▁levels	-2544
▁online	-2545
▁license	-2546
▁million	-2547
▁permanent	-2548
▁developing	-2549
to	-2550
▁Fo	-2551
ampa	-2552
atul	-2553
▁imp	-2554
heres	-2555
ticle	-2556
▁both	-2557
▁voice	-2558
ampaign	-2559
▁recent	-2560
planning	-2561
▁advance	-2562
▁breeder	-2563
▁funding	-2564
▁spheres	-2565
▁patients	-2566
▁celebrate	-2567
▁determine	-2568
▁structures	-2569
▁participation	-2570
ctor	-2571
▁lit	-2572
light	-2573
▁weak	-2574
▁major	-2575
▁function	-2576
▁treatment	-2577
▁partnership	-2578
ata	-2579
cup	-2580
ret	-2581
sed	-2582
used	-2583
▁cust	-2584
▁goes	-2585
▁tool	-2586
itable	-2587
ulsory	-2588
ustain	-2589
ertiary	-2590
▁Number	-2591
▁become	-2592
▁prefer	-2593
iological	-2594
pretation	-2595
▁disposed	-2596
▁initiate	-2597
▁functions	-2598
▁Facilitator	-2599
▁TB	-2600
ccup	-2601
haps	-2602
▁abs	-2603
▁deb	-2604
▁far	-2605
▁Comp	-2606
▁find	-2607
▁game	-2608
▁Perhaps	-2609
▁reflect	-2610
▁Division	-2611
▁resident	-2612
▁appointed	-2613
ope	-2614
orm	-2615
acity	-2616
asing	-2617
▁true	-2618
gratul	-2619
▁enter	-2620
▁sense	-2621
▁making	-2622
emporary	-2623
▁Nations	-2624
▁commence	-2625
▁obtained	-2626
▁transport	-2627
▁supporting	-2628
ury	-2629
hers	-2630
▁job	-2631
▁inju	-2632
rimary	-2633
▁While	-2634
▁found	-2635
▁remove	-2636
▁Charter	-2637
▁message	-2638
▁results	-2639
▁tertiary	-2640
llaboration	-2641
▁Sa	-2642
olog	-2643
ccess	-2644
▁Many	-2645
▁doctor	-2646
▁manage	-2647
▁systems	-2648
▁various	-2649
▁included	-2650
▁prepared	-2651
▁workforce	-2652
▁biological	-2653
▁mathematics	-2654
▁opportunity	-2655
ilt	-2656
tle	-2657
▁ww	-2658
▁www	-2659
▁crim	-2660
▁flex	-2661
making	-2662
▁compet	-2663
▁talking	-2664
▁progress	-2665
▁difficult	-2666
▁consistent	-2667
▁subsections	-2668
aced	-2669
▁eng	-2670
holds	-2671
iation	-2672
▁Polic	-2673
▁custom	-2674
▁councils	-2675
▁urgently	-2676
▁financing	-2677
▁interview	-2678
",	-2679
▁ge	-2680
SADC	-2681
amil	-2682
▁(190	-2683
▁glob	-2684
▁insp	-2685
▁noti	-2686
▁stat	-2687
▁Trade	-2688
▁Union	-2689
▁black	-2690
▁reject	-2691
▁happened	-2692
▁involved	-2693
▁maintain	-2694
▁restruct	-2695
▁processes	-2696
▁responses	-2697
▁relationship	-2698
ex	-2699
sa	-2700
▁40	-2701
▁fish	-2702
▁past	-2703
▁2011.	-2704
▁Works	-2705
▁equal	-2706
▁grown	-2707
▁serve	-2708
▁while	-2709
▁nature	-2710
iversity	-2711
▁regular	-2712
▁requests	-2713
▁encourage	-2714
7.	-2715
MS	-2716
urn	-2717
▁er	-2718
long	-2719
work	-2720
▁Mat	-2721
▁sym	-2722
▁orig	-2723
▁webs	-2724
▁whom	-2725
▁Broad	-2726
▁Water	-2727
tention	-2728
▁Police	-2729
▁accomp	-2730
▁priority	-2731
▁sections	-2732
▁practition	-2733
▁1:	-2734
▁31	-2735
prep	-2736
sess	-2737
going	-2738
▁1994	-2739
▁foods	-2740
▁Social	-2741
▁status	-2742
▁campaign	-2743
▁conducted	-2744
▁temporary	-2745
▁withdrawal	-2746
▁Directorate	-2747
▁recognition	-2748
oms	-2749
▁Ph	-2750
rict	-2751
▁Sub	-2752
dress	-2753
eracy	-2754
iance	-2755
ument	-2756
▁Cape	-2757
▁came	-2758
▁among	-2759
▁youth	-2760
▁System	-2761
▁advise	-2762
▁behalf	-2763
▁consum	-2764
▁contra	-2765
▁product	-2766
▁communic	-2767
▁diseases	-2768
▁weaknesses	-2769
▁maintenance	-2770
▁communication	-2771
eed	-2772
esty	-2773
▁teac	-2774
ortion	-2775
▁Guard	-2776
unities	-2777
▁houses	-2778
▁writes	-2779
National	-2780
iversary	-2781
▁student	-2782
▁teachers	-2783
IS	-2784
alu	-2785
umb	-2786
▁sm	-2787
▁Ext	-2788
▁Mar	-2789
▁sec	-2790
iture	-2791
ortun	-2792
▁Give	-2793
tivity	-2794
▁Regul	-2795
▁bring	-2796
▁removed	-2797
▁success	-2798
▁capacity	-2799
▁acknowledge	-2800
▁restructuring	-2801
fit	-2802
une	-2803
▁Out	-2804
▁dece	-2805
▁guid	-2806
▁vote	-2807
▁Gazet	-2808
▁ideas	-2809
amental	-2810
▁affect	-2811
▁arrang	-2812
▁prepar	-2813
▁Working	-2814
▁beliefs	-2815
▁citizen	-2816
▁ongoing	-2817
▁sustain	-2818
▁traffic	-2819
▁affected	-2820
▁internal	-2821
▁property	-2822
▁commitment	-2823
▁examination	-2824
ian	-2825
▁Me	-2826
empt	-2827
▁big	-2828
▁left	-2829
▁fruit	-2830
▁newsp	-2831
▁often	-2832
▁Safety	-2833
▁useful	-2834
ependent	-2835
▁Publish	-2836
▁deliver	-2837
▁produced	-2838
▁connected	-2839
▁provinces	-2840
▁connection	-2841
▁citizenship	-2842
▁established	-2843
▁fundamental	-2844
▁opportunities	-2845
ON	-2846
▁24	-2847
full	-2848
part	-2849
▁Sen	-2850
fully	-2851
▁asse	-2852
▁poin	-2853
nowled	-2854
▁apart	-2855
▁evalu	-2856
▁define	-2857
▁certain	-2858
▁married	-2859
▁offence	-2860
▁Academic	-2861
▁geograph	-2862
▁launched	-2863
▁provided	-2864
▁Organised	-2865
▁attention	-2866
▁consumers	-2867
▁acceptable	-2868
▁difference	-2869
▁legitimacy	-2870
▁anniversary	-2871
lo	-2872
ela	-2873
mit	-2874
heid	-2875
▁avo	-2876
▁June	-2877
▁Your	-2878
▁chos	-2879
▁down	-2880
▁post	-2881
▁famil	-2882
▁Policy	-2883
▁closed	-2884
▁orient	-2885
▁However	-2886
▁arrived	-2887
▁renewal	-2888
▁website	-2889
▁injuries	-2890
▁Authority	-2891
ho	-2892
TION	-2893
▁los	-2894
ester	-2895
ually	-2896
▁Cons	-2897
▁Econ	-2898
▁hold	-2899
bility	-2900
▁budget	-2901
▁chosen	-2902
▁impact	-2903
▁object	-2904
▁Finance	-2905
▁believe	-2906
▁continu	-2907
▁mention	-2908
▁substan	-2909
▁movement	-2910
▁strengths	-2911
▁accounting	-2912
▁competition	-2913
▁competitive	-2914
jud	-2915
lig	-2916
sec	-2917
▁25	-2918
onst	-2919
ritis	-2920
▁SARS	-2921
▁THRO	-2922
ialogue	-2923
▁advice	-2924
▁export	-2925
▁defined	-2926
▁exposed	-2927
▁monitor	-2928
▁Schedule	-2929
▁academic	-2930
▁achieved	-2931
▁imported	-2932
▁registering	-2933
-1	-2934
We	-2935
rial	-2936
▁1.1	-2937
▁Def	-2938
entre	-2939
igned	-2940
odies	-2941
ptoms	-2942
▁diag	-2943
▁hope	-2944
▁numb	-2945
▁tour	-2946
ciation	-2947
ocument	-2948
▁allowed	-2949
▁symptoms	-2950
▁timeline	-2951
▁initiatives	-2952
▁involvement	-2953
ffs	-2954
▁vac	-2955
aries	-2956
ences	-2957
ility	-2958
▁eyes	-2959
▁type	-2960
▁broad	-2961
▁excell	-2962
▁ability	-2963
▁highlight	-2964
ock	-2965
////	-2966
medi	-2967
play	-2968
▁Air	-2969
▁Col	-2970
▁why	-2971
▁Sept	-2972
▁Viol	-2973
▁virt	-2974
▁great	-2975
▁owner	-2976
▁suppl	-2977
enditure	-2978
▁Municip	-2979
▁appears	-2980
▁numbers	-2981
▁strateg	-2982
▁deceased	-2983
▁September	-2984
▁applications	-2985
ron	-2986
ticip	-2987
▁1970	-2988
▁hard	-2989
▁60(1)	-2990
▁coming	-2991
▁racial	-2992
▁article	-2993
▁leading	-2994
▁lifesty	-2995
▁planned	-2996
▁tourism	-2997
▁increase	-2998
▁confirmed	-2999
▁guidelines	-3000
▁themselves	-3001
▁educational	-3002
▁expenditure	-3003
1.	-3004
hood	-3005
▁Spe	-3006
▁dam	-3007
▁That	-3008
▁emph	-3009
▁half	-3010
profit	-3011
▁oblig	-3012
▁shown	-3013
▁reserv	-3014
▁nothing	-3015
▁district	-3016
▁newspapers	-3017
▁personally	-3018
▁Facilitatorship	-3019
uro	-3020
▁led	-3021
▁sol	-3022
apter	-3023
▁dest	-3024
▁learn	-3025
ificant	-3026
operate	-3027
▁extent	-3028
▁faster	-3029
▁prejud	-3030
▁prosec	-3031
▁stated	-3032
▁outcome	-3033
▁skilled	-3034
▁welcome	-3035
▁cultural	-3036
▁previously	-3037
▁proportion	-3038
▁individuals	-3039
cri	-3040
ick	-3041
zard	-3042
▁2002	-3043
▁Aids	-3044
▁Nort	-3045
▁acce	-3046
▁clos	-3047
▁fear	-3048
▁save	-3049
aching	-3050
▁Prior	-3051
▁month	-3052
▁occup	-3053
▁share	-3054
oration	-3055
ustrial	-3056
▁hazard	-3057
▁reduced	-3058
▁applying	-3059
▁managers	-3060
▁servants	-3061
▁colleague	-3062
▁medicines	-3063
▁qualified	-3064
▁withdrawn	-3065
▁Authorities	-3066
▁Empowerment	-3067
▁representation	-3068
EE	-3069
usp	-3070
▁ca	-3071
arri	-3072
clud	-3073
uses	-3074
▁ten	-3075
urope	-3076
▁Mand	-3077
▁susp	-3078
ritish	-3079
▁Emerg	-3080
▁Impro	-3081
▁March	-3082
▁Rober	-3083
▁amend	-3084
▁entry	-3085
▁leave	-3086
▁whole	-3087
ibility	-3088
▁Europe	-3089
▁assets	-3090
ensation	-3091
▁Address	-3092
▁entered	-3093
▁Violence	-3094
▁occurred	-3095
▁challenge	-3096
▁accessible	-3097
▁Collaboration	-3098
▁strengthening	-3099
HA	-3100
me	-3101
LGA	-3102
vers	-3103
▁Rec	-3104
▁Rel	-3105
▁too	-3106
▁bank	-3107
▁label	-3108
▁shows	-3109
▁nation	-3110
▁reform	-3111
▁refuse	-3112
▁Particip	-3113
▁accident	-3114
▁Emergency	-3115
▁mentioned	-3116
This	-3117
ords	-3118
▁196	-3119
earch	-3120
▁2000	-3121
▁Coun	-3122
▁cohe	-3123
▁avoid	-3124
▁former	-3125
▁giving	-3126
▁comment	-3127
▁forward	-3128
▁missing	-3129
▁election	-3130
▁literacy	-3131
▁exemption	-3132
OP	-3133
pr	-3134
hand	-3135
ering	-3136
itage	-3137
▁Land	-3138
▁beha	-3139
▁just	-3140
▁sell	-3141
idered	-3142
lusion	-3143
▁analy	-3144
▁guard	-3145
▁small	-3146
ruption	-3147
onstrate	-3148
▁Mandela	-3149
▁Medical	-3150
▁Norther	-3151
▁changed	-3152
▁consent	-3153
▁equally	-3154
▁majority	-3155
▁suitable	-3156
nowledging	-3157
▁2010***\1	-3158
▁employers	-3159
▁regarding	-3160
▁Scientific	-3161
▁considered	-3162
▁situations	-3163
▁Constitutional	-3164
aim	-3165
par	-3166
gest	-3167
udic	-3168
▁Ens	-3169
▁eth	-3170
▁pen	-3171
ology	-3172
▁basic	-3173
▁facil	-3174
▁fails	-3175
▁fully	-3176
▁inequ	-3177
▁mobil	-3178
▁tools	-3179
▁immedi	-3180
▁urgency	-3181
▁Economic	-3182
▁assisted	-3183
▁compared	-3184
▁indicated	-3185
▁prejudice	-3186
▁households	-3187
▁preparations	-3188
50	-3189
ons	-3190
oper	-3191
▁Let	-3192
▁She	-3193
owned	-3194
▁Role	-3195
▁arts	-3196
▁duty	-3197
▁larg	-3198
▁laws	-3199
restry	-3200
itation	-3201
▁Legisl	-3202
▁Chapter	-3203
▁records	-3204
struction	-3205
▁overhead	-3206
▁delegation	-3207
▁introduction	-3208
av	-3209
hod	-3210
▁22	-3211
ingu	-3212
rain	-3213
▁(10	-3214
viour	-3215
▁1990	-3216
▁Asso	-3217
▁Nation	-3218
▁Sector	-3219
▁lodged	-3220
▁sitting	-3221
▁targets	-3222
▁Forestry	-3223
▁Regional	-3224
▁cohesion	-3225
▁extended	-3226
▁behaviour	-3227
▁carefully	-3228
▁remaining	-3229
preparation	-3230
▁Practition	-3231
▁increasing	-3232
▁organising	-3233
▁resolution	-3234
It	-3235
be	-3236
sis	-3237
▁90	-3238
▁Li	-3239
▁br	-3240
cent	-3241
tens	-3242
▁Our	-3243
▁buy	-3244
place	-3245
where	-3246
▁norm	-3247
▁Colle	-3248
▁Phase	-3249
▁const	-3250
▁envis	-3251
▁decide	-3252
▁licens	-3253
▁travel	-3254
▁applied	-3255
▁complies	-3256
▁examined	-3257
▁referring	-3258
▁requester	-3259
▁compulsory	-3260
▁accountable	-3261
▁immediately	-3262
bb	-3263
rug	-3264
▁35	-3265
▁Am	-3266
▁Ar	-3267
ache	-3268
aker	-3269
▁Aud	-3270
▁cal	-3271
▁ret	-3272
▁rise	-3273
atures	-3274
▁Apply	-3275
▁valid	-3276
ourable	-3277
▁Academ	-3278
▁abroad	-3279
▁descri	-3280
▁expens	-3281
cientist	-3282
▁percent	-3283
▁primary	-3284
▁Planning	-3285
▁envisaged	-3286
▁continuing	-3287
▁Improvement	-3288
▁orientation	-3289
▁coordination	-3290
ior	-3291
▁ed	-3292
oral	-3293
▁art	-3294
▁sur	-3295
cribe	-3296
phans	-3297
▁Disc	-3298
▁asked	-3299
▁early	-3300
▁Orange	-3301
▁British	-3302
▁applies	-3303
▁biggest	-3304
▁justify	-3305
▁arranged	-3306
▁disposal	-3307
▁examples	-3308
▁released	-3309
▁congratul	-3310
▁household	-3311
EA	-3312
ov	-3313
fric	-3314
ivil	-3315
said	-3316
▁100	-3317
▁Ple	-3318
▁six	-3319
▁2003	-3320
▁SAPS	-3321
▁sent	-3322
▁teams	-3323
uestion	-3324
▁Labour	-3325
▁raised	-3326
▁Domestic	-3327
▁approach	-3328
▁emerging	-3329
▁apartheid	-3330
▁objection	-3331
▁variation	-3332
▁achievement	-3333
▁efficiently	-3334
▁constitutional	-3335
na	-3336
sk	-3337
(2)	-3338
eng	-3339
▁5.	-3340
▁Ne	-3341
▁du	-3342
eria	-3343
ides	-3344
roud	-3345
▁Day	-3346
▁Mad	-3347
▁arm	-3348
aging	-3349
arant	-3350
echan	-3351
ocate	-3352
▁born	-3353
▁goal	-3354
▁mind	-3355
▁knows	-3356
▁proud	-3357
▁global	-3358
▁objects	-3359
▁violent	-3360
▁Learners	-3361
▁criminal	-3362
▁executive	-3363
▁transition	-3364
▁advancement	-3365
▁implementing	-3366
▁practitioner	-3367
▁Participation	-3368
LE	-3369
cul	-3370
▁Ms	-3371
▁loc	-3372
arian	-3373
rency	-3374
▁Date	-3375
▁idea	-3376
▁built	-3377
▁known	-3378
▁Please	-3379
▁attack	-3380
▁eating	-3381
▁labour	-3382
▁method	-3383
▁notify	-3384
vernance	-3385
▁Speaker	-3386
▁fishing	-3387
▁removal	-3388
ternative	-3389
▁Extended	-3390
▁dialogue	-3391
▁director	-3392
▁vehicles	-3393
▁Municipal	-3394
▁customary	-3395
▁confidenti	-3396
▁Association	-3397
▁interesting	-3398
▁transferred	-3399
▁Organisations	-3400
NT	-3401
ros	-3402
iary	-3403
▁Fre	-3404
▁Hon	-3405
▁Ste	-3406
▁due	-3407
▁tre	-3408
▁vol	-3409
anied	-3410
ronic	-3411
▁2007	-3412
▁High	-3413
▁erad	-3414
▁fair	-3415
▁wide	-3416
▁items	-3417
▁paper	-3418
ighting	-3419
▁Define	-3420
▁behind	-3421
▁Gazette	-3422
▁Whether	-3423
▁answers	-3424
▁orphans	-3425
▁reading	-3426
angements	-3427
▁differen	-3428
▁families	-3429
▁heritage	-3430
▁products	-3431
▁intervene	-3432
▁protected	-3433
▁supported	-3434
▁Industrial	-3435
▁Certificate	-3436
▁improvement	-3437
▁significant	-3438
▁consideration	-3439
▁u	-3440
bit	-3441
dis	-3442
▁80	-3443
aily	-3444
efic	-3445
hens	-3446
▁Sup	-3447
ather	-3448
kills	-3449
▁farm	-3450
etwork	-3451
▁Count	-3452
▁parts	-3453
▁reply	-3454
hensive	-3455
mission	-3456
▁signed	-3457
olutions	-3458
▁Officer	-3459
▁flexible	-3460
▁teaching	-3461
▁workbook	-3462
▁Transition	-3463
▁membership	-3464
▁accompanied	-3465
▁contributor	-3466
▁interaction	-3467
au	-3468
wa	-3469
▁Adv	-3470
▁One	-3471
▁PRO	-3472
▁Tre	-3473
▁fost	-3474
▁unem	-3475
▁clean	-3476
▁daily	-3477
▁notes	-3478
▁simpl	-3479
▁During	-3480
▁caused	-3481
▁compre	-3482
▁funded	-3483
▁lesson	-3484
▁trying	-3485
▁urgent	-3486
▁Provide	-3487
▁printed	-3488
▁creation	-3489
▁guidance	-3490
▁improved	-3491
▁partners	-3492
▁unemploy	-3493
▁happening	-3494
▁specified	-3495
▁corruption	-3496
▁electronic	-3497
▁administered	-3498
▁commencement	-3499
▁comprehensive	-3500
IA	-3501
gov	-3502
hen	-3503
▁1,	-3504
ceed	-3505
▁Can	-3506
▁asp	-3507
▁ord	-3508
Afric	-3509
▁Requ	-3510
iction	-3511
lerate	-3512
▁comes	-3513
lection	-3514
▁tested	-3515
▁speaker	-3516
▁reduction	-3517
▁associated	-3518
▁arrangements	-3519
10	-3520
3.	-3521
▁Bu	-3522
ross	-3523
▁Spec	-3524
▁drug	-3525
fortun	-3526
▁stage	-3527
▁mechan	-3528
▁Country	-3529
▁benefic	-3530
▁restore	-3531
inguistic	-3532
▁assigned	-3533
▁resource	-3534
▁Framework	-3535
▁excellent	-3536
▁requested	-3537
▁technical	-3538
▁Honourable	-3539
▁Programmes	-3540
▁description	-3541
IT	-3542
co	-3543
ode	-3544
ired	-3545
quis	-3546
rame	-3547
▁Tod	-3548
▁ins	-3549
▁Labe	-3550
▁With	-3551
▁char	-3552
▁road	-3553
holder	-3554
istics	-3555
▁Every	-3556
▁Legal	-3557
▁Treas	-3558
▁raise	-3559
▁speed	-3560
▁adhere	-3561
▁compon	-3562
▁driver	-3563
▁Outcome	-3564
▁diagram	-3565
▁discuss	-3566
▁ensures	-3567
▁methods	-3568
▁pleased	-3569
olidation	-3570
▁Industry	-3571
▁managing	-3572
▁payments	-3573
▁prioriti	-3574
▁Medicines	-3575
▁elections	-3576
▁renewable	-3577
▁requesting	-3578
▁confidentiality	-3579
''	-3580
-2	-3581
ESS	-3582
com	-3583
lip	-3584
draa	-3585
enda	-3586
goti	-3587
▁Bec	-3588
▁var	-3589
elson	-3590
ental	-3591
▁Once	-3592
▁clar	-3593
▁walk	-3594
▁warm	-3595
▁armed	-3596
▁blood	-3597
▁integ	-3598
▁volun	-3599
▁Nelson	-3600
▁asking	-3601
▁Because	-3602
▁Premier	-3603
▁amended	-3604
▁briefly	-3605
▁complex	-3606
▁dispute	-3607
▁guarant	-3608
▁princip	-3609
▁consists	-3610
▁eradicate	-3611
▁realistic	-3612
▁compliance	-3613
▁administrative	-3614
COP	-3615
▁Be	-3616
rong	-3617
▁Det	-3618
▁del	-3619
▁Some	-3620
▁comb	-3621
▁crit	-3622
▁exch	-3623
▁pain	-3624
▁tren	-3625
▁util	-3626
▁Amend	-3627
▁First	-3628
▁Fishe	-3629
▁Today	-3630
▁appre	-3631
▁point	-3632
parency	-3633
▁anyone	-3634
▁begins	-3635
▁option	-3636
▁secret	-3637
▁select	-3638
▁vision	-3639
▁Auditor	-3640
▁criteria	-3641
▁strategy	-3642
▁Amendment	-3643
▁Fisheries	-3644
▁Labelling	-3645
▁Protector	-3646
▁depending	-3647
▁regularly	-3648
▁beforehand	-3649
▁conclusion	-3650
▁linguistic	-3651
▁presentation	-3652
fi	-3653
ief	-3654
imp	-3655
law	-3656
▁Ab	-3657
▁Op	-3658
fare	-3659
load	-3660
reme	-3661
ured	-3662
ained	-3663
▁Have	-3664
▁item	-3665
▁news	-3666
▁plat	-3667
▁stop	-3668
▁symb	-3669
forced	-3670
▁Using	-3671
▁Youth	-3672
▁drugs	-3673
udicial	-3674
▁Authen	-3675
▁arrest	-3676
▁exempt	-3677
▁foster	-3678
▁having	-3679
▁mental	-3680
▁multil	-3681
▁though	-3682
▁Further	-3683
▁Subject	-3684
▁happens	-3685
▁operate	-3686
▁release	-3687
▁Treasury	-3688
▁actively	-3689
▁original	-3690
▁affecting	-3691
▁contained	-3692
▁illnesses	-3693
▁influence	-3694
▁organisms	-3695
▁residents	-3696
▁standards	-3697
▁acceptance	-3698
▁differenti	-3699
▁celebration	-3700
▁identifying	-3701
ka	-3702
ati	-3703
ics	-3704
uma	-3705
▁ess	-3706
▁war	-3707
▁Fail	-3708
▁Only	-3709
▁Stud	-3710
▁obst	-3711
ateral	-3712
drawal	-3713
▁Other	-3714
▁barri	-3715
▁coord	-3716
▁works	-3717
inarian	-3718
▁Future	-3719
▁resign	-3720
ribution	-3721
tication	-3722
▁Dublish	-3723
▁clearly	-3724
▁network	-3725
▁organiz	-3726
▁guardian	-3727
▁platform	-3728
▁educators	-3729
▁residence	-3730
crimination	-3731
▁accelerate	-3732
▁permission	-3733
▁authorities	-3734
▁integration	-3735
ualifications	-3736
▁congratulate	-3737
▁Practitioners	-3738
);	-3739
ck	-3740
amb	-3741
ont	-3742
roy	-3743
ulu	-3744
▁Cl	-3745
▁My	-3746
cill	-3747
eway	-3748
lled	-3749
▁ric	-3750
atial	-3751
edure	-3752
frame	-3753
▁meat	-3754
▁pric	-3755
▁repe	-3756
▁helps	-3757
rolment	-3758
stitute	-3759
▁agenda	-3760
▁closer	-3761
▁honest	-3762
▁placed	-3763
▁stands	-3764
▁symbol	-3765
fighting	-3766
▁failure	-3767
▁realise	-3768
▁started	-3769
▁followed	-3770
▁relation	-3771
▁speechGA	-3772
▁procedure	-3773
▁components	-3774
▁interviews	-3775
▁nomination	-3776
▁considering	-3777
▁restoration	-3778
▁construction	-3779
▁specifications	-3780
ins	-3781
sem	-3782
stu	-3783
raid	-3784
▁sal	-3785
acter	-3786
amber	-3787
iting	-3788
naire	-3789
▁Meas	-3790
gative	-3791
▁enhan	-3792
▁rates	-3793
actions	-3794
▁afraid	-3795
▁region	-3796
▁Failure	-3797
▁Freeway	-3798
▁station	-3799
▁European	-3800
▁Northern	-3801
▁Research	-3802
▁enforced	-3803
▁Implement	-3804
▁character	-3805
▁reflected	-3806
▁scientist	-3807
▁Convention	-3808
▁Employment	-3809
▁Organising	-3810
▁indicators	-3811
▁Investigate	-3812
▁alternative	-3813
20	-3814
CI	-3815
▁x	-3816
.1.	-3817
ENT	-3818
exp	-3819
nic	-3820
▁sw	-3821
▁Und	-3822
▁deg	-3823
▁mak	-3824
▁sav	-3825
▁elig	-3826
▁loss	-3827
aining	-3828
grated	-3829
▁2000.	-3830
▁chief	-3831
▁sport	-3832
▁unexp	-3833
▁Assess	-3834
▁Centre	-3835
▁debate	-3836
▁easily	-3837
▁launch	-3838
▁normal	-3839
▁obstac	-3840
▁Conduct	-3841
▁refuses	-3842
▁science	-3843
▁welfare	-3844
▁Congress	-3845
▁Ensuring	-3846
▁arrested	-3847
▁emphasis	-3848
▁regulate	-3849
▁initiated	-3850
▁officials	-3851
▁Understand	-3852
▁facilities	-3853
▁strengthen	-3854
▁Independent	-3855
▁confidential	-3856
▁sustainability	-3857
Wh	-3858
▁i	-3859
imb	-3860
rad	-3861
▁Bl	-3862
icti	-3863
ilar	-3864
olds	-3865
▁500	-3866
▁ris	-3867
books	-3868
ickly	-3869
▁call	-3870
▁face	-3871
ictims	-3872
stuffs	-3873
▁Since	-3874
▁earli	-3875
▁makes	-3876
▁unequ	-3877
▁across	-3878
▁annual	-3879
▁bodies	-3880
▁celebr	-3881
▁dissem	-3882
▁format	-3883
▁inclus	-3884
▁virtue	-3885
▁voting	-3886
........	-3887
▁destroy	-3888
▁driving	-3889
▁largest	-3890
▁quickly	-3891
▁savings	-3892
▁treated	-3893
▁supports	-3894
▁essential	-3895
▁promotion	-3896
▁assessments	-3897
▁introducing	-3898
▁characteristics	-3899
ea	-3900
gu	-3901
por	-3902
▁46	-3903
care	-3904
fact	-3905
leph	-3906
ling	-3907
rity	-3908
shop	-3909
▁PMS	-3910
▁Spa	-3911
▁tom	-3912
iding	-3913
orrow	-3914
tical	-3915
▁Prin	-3916
▁kind	-3917
▁reli	-3918
▁class	-3919
▁roles	-3920
alities	-3921
diction	-3922
▁/***\1	-3923
▁60(1)(	-3924
▁Skills	-3925
▁adverb	-3926
▁equity	-3927
▁wanted	-3928
▁Spatial	-3929
▁earlier	-3930
fortunate	-3931
▁Measures	-3932
▁attacked	-3933
▁eligible	-3934
▁Mediation	-3935
▁currently	-3936
▁delegates	-3937
▁interests	-3938
▁colleagues	-3939
▁introduced	-3940
▁empowerment	-3941
▁instruments	-3942
▁legislative	-3943
▁unfortunate	-3944
▁Transparency	-3945
▁Authentication	-3946
ls	-3947
ITY	-3948
▁6.	-3949
▁Sh	-3950
ions	-3951
▁AND	-3952
▁Cup	-3953
▁Ver	-3954
▁log	-3955
▁win	-3956
▁wit	-3957
ingle	-3958
lated	-3959
ontin	-3960
▁Data	-3961
▁Prep	-3962
▁THIS	-3963
▁barg	-3964
▁rate	-3965
▁claim	-3966
▁force	-3967
▁varie	-3968
cluding	-3969
▁Notice	-3970
▁announ	-3971
▁aspect	-3972
▁eduate	-3973
▁honour	-3974
▁manner	-3975
▁simply	-3976
▁single	-3977
▁strong	-3978
standing	-3979
▁Account	-3980
▁Matters	-3981
▁appreci	-3982
▁capable	-3983
▁remains	-3984
▁revenue	-3985
▁waiting	-3986
▁Advocate	-3987
▁consolid	-3988
▁response	-3989
▁reviewed	-3990
▁selected	-3991
▁tomorrow	-3992
▁addressed	-3993
▁discontin	-3994
▁obstacles	-3995
▁ourselves	-3996
▁everything	-3997
▁maintained	-3998
▁performing	-3999
▁implemented	-4000
▁geographical	-4001
▁productivity	-4002
▁questionnaire	-4003
2.	-4004
nov	-4005
▁26	-4006
▁ID	-4007
date	-4008
ider	-4009
ship	-4010
▁Dem	-4011
▁Set	-4012
▁bur	-4013
▁lim	-4014
▁vul	-4015
enced	-4016
ength	-4017
legal	-4018
▁Afri	-4019
▁Both	-4020
▁Cult	-4021
▁Food	-4022
▁More	-4023
▁Redu	-4024
▁fire	-4025
active	-4026
▁2014.	-4027
▁Among	-4028
▁Black	-4029
▁Plant	-4030
▁civil	-4031
▁motiv	-4032
▁press	-4033
lephone	-4034
▁failed	-4035
▁intens	-4036
▁phases	-4037
▁vulner	-4038
document	-4039
erations	-4040
▁Strateg	-4041
▁becomes	-4042
▁examine	-4043
▁falling	-4044
▁underst	-4045
vernments	-4046
▁Business	-4047
▁negative	-4048
▁presence	-4049
▁recorded	-4050
▁sexually	-4051
▁Ministers	-4052
▁inclusive	-4053
▁increased	-4054
▁multiface	-4055
▁Conference	-4056
▁Protection	-4057
▁businesses	-4058
▁indicating	-4059
▁legitimate	-4060
▁monitoring	-4061
▁supplement	-4062
▁demonstrate	-4063
▁historically	-4064
'.	-4065
cle	-4066
put	-4067
tos	-4068
▁CC	-4069
avit	-4070
ober	-4071
reen	-4072
▁DHA	-4073
▁Rem	-4074
▁bab	-4075
▁mal	-4076
abled	-4077
antly	-4078
party	-4079
▁Inte	-4080
▁prec	-4081
fiable	-4082
▁Autom	-4083
▁abuse	-4084
▁pleas	-4085
▁reach	-4086
▁resid	-4087
▁Report	-4088
▁engine	-4089
▁fields	-4090
▁fruits	-4091
▁origin	-4092
▁refers	-4093
▁Profess	-4094
▁marital	-4095
▁vacancy	-4096
bitration	-4097
▁analysis	-4098
▁barriers	-4099
▁expenses	-4100
▁Relations	-4101
▁answering	-4102
▁directors	-4103
▁guarantee	-4104
▁intensify	-4105
▁lifestyle	-4106
▁varieties	-4107
▁bargaining	-4108
▁geographic	-4109
▁respective	-4110
▁sanitation	-4111
▁cooperation	-4112
▁transaction	-4113
▁recommendation	-4114
OU	-4115
by	-4116
lim	-4117
▁08	-4118
anch	-4119
more	-4120
veli	-4121
▁Not	-4122
▁Ren	-4123
▁Yes	-4124
▁ban	-4125
▁low	-4126
edies	-4127
ither	-4128
▁1999	-4129
▁clin	-4130
▁data	-4131
▁elim	-4132
▁host	-4133
▁lose	-4134
▁rich	-4135
▁site	-4136
▁suff	-4137
,***\1	-4138
ically	-4139
ulties	-4140
▁Finan	-4141
▁adopt	-4142
▁assum	-4143
▁shall	-4144
plicate	-4145
tlement	-4146
▁Before	-4147
▁Budget	-4148
▁Second	-4149
▁allows	-4150
▁drawal	-4151
▁length	-4152
▁phytos	-4153
▁stabil	-4154
velihood	-4155
▁Perform	-4156
▁approve	-4157
▁capital	-4158
▁housing	-4159
▁sectors	-4160
▁weekend	-4161
▁contexts	-4162
▁disputes	-4163
▁fighting	-4164
▁reported	-4165
▁copyright	-4166
▁enrolment	-4167
▁principal	-4168
▁receiving	-4169
▁Individual	-4170
▁documented	-4171
▁understood	-4172
▁organizations	-4173
5.	-4174
AN	-4175
ev	-4176
ug	-4177
pon	-4178
▁Mp	-4179
gggg	-4180
▁Oct	-4181
▁jur	-4182
▁rev	-4183
ensus	-4184
rowth	-4185
▁abst	-4186
Africa	-4187
ground	-4188
mitted	-4189
▁Areas	-4190
▁Manag	-4191
▁affil	-4192
▁began	-4193
▁remar	-4194
istance	-4195
stances	-4196
▁Afrika	-4197
▁duties	-4198
▁livest	-4199
▁plants	-4200
▁relief	-4201
▁remind	-4202
▁worked	-4203
inations	-4204
▁October	-4205
▁Activity	-4206
▁briefing	-4207
▁division	-4208
▁Employees	-4209
▁Assessment	-4210
▁conducting	-4211
▁designated	-4212
▁inequality	-4213
▁preventing	-4214
▁Performance	-4215
▁facilitated	-4216
▁facilitator	-4217
▁highlighted	-4218
▁independent	-4219
▁justifiable	-4220
▁Facilitation	-4221
▁Verification	-4222
▁discontinued	-4223
▁Specifications	-4224
CT	-4225
RA	-4226
The	-4227
iry	-4228
isa	-4229
win	-4230
▁3.	-4231
▁SU	-4232
iers	-4233
▁(2)	-4234
▁sug	-4235
guard	-4236
▁Cont	-4237
▁NCOP	-4238
▁Step	-4239
▁conv	-4240
▁lost	-4241
▁pict	-4242
▁unde	-4243
encing	-4244
ingual	-4245
paring	-4246
placed	-4247
▁Botha	-4248
▁Media	-4249
▁Rural	-4250
▁innov	-4251
▁large	-4252
▁lists	-4253
▁media	-4254
▁prosp	-4255
▁relig	-4256
▁Growth	-4257
▁ethnic	-4258
▁extend	-4259
▁invite	-4260
▁itself	-4261
▁papers	-4262
▁superv	-4263
economic	-4264
▁Manager	-4265
▁amongst	-4266
▁illness	-4267
▁therity	-4268
quisition	-4269
▁Document	-4270
▁prosecut	-4271
▁solution	-4272
▁supplied	-4273
▁assessing	-4274
▁safeguard	-4275
▁Principles	-4276
▁complaints	-4277
▁meaningful	-4278
▁represented	-4279
▁requirement	-4280
▁contributory	-4281
▁difficulties	-4282
▁occupational	-4283
tal	-4284
▁4.	-4285
▁48	-4286
▁lo	-4287
atal	-4288
epar	-4289
inct	-4290
ques	-4291
▁2.1	-4292
▁bre	-4293
▁che	-4294
▁won	-4295
ALITY	-4296
▁2004	-4297
▁Make	-4298
▁baby	-4299
▁debt	-4300
▁pack	-4301
Thould	-4302
▁Found	-4303
▁dealt	-4304
▁doesn	-4305
▁seeks	-4306
▁shape	-4307
▁signs	-4308
▁Member	-4309
▁belong	-4310
▁injury	-4311
▁spouse	-4312
▁Roberts	-4313
▁careful	-4314
▁looking	-4315
▁prevail	-4316
▁qualify	-4317
▁restric	-4318
▁sending	-4319
▁underes	-4320
including	-4321
operative	-4322
▁announce	-4323
▁answered	-4324
▁pleasure	-4325
▁Financial	-4326
▁contraven	-4327
▁secondary	-4328
▁transform	-4329
▁electrical	-4330
▁foundation	-4331
▁productive	-4332
▁structural	-4333
▁unexpected	-4334
▁flexibility	-4335
▁interactive	-4336
▁prioritised	-4337
▁termination	-4338
▁legislatures	-4339
▁subscrimination	-4340
6.	-4341
AT	-4342
MM	-4343
io	-4344
cum	-4345
ina	-4346
ked	-4347
ung	-4348
▁sc	-4349
abwe	-4350
aces	-4351
aria	-4352
atic	-4353
eter	-4354
ocks	-4355
ored	-4356
racy	-4357
rete	-4358
rugg	-4359
with	-4360
▁Jac	-4361
ances	-4362
anies	-4363
▁bear	-4364
▁unac	-4365
prises	-4366
retion	-4367
▁aside	-4368
▁certi	-4369
▁falls	-4370
▁wider	-4371
imbabwe	-4372
▁Autory	-4373
▁absent	-4374
▁academ	-4375
▁branch	-4376
▁enable	-4377
▁orders	-4378
▁undert	-4379
▁uphold	-4380
▁volunt	-4381
ceptable	-4382
▁hazards	-4383
▁proceed	-4384
▁taxable	-4385
velihoods	-4386
▁Building	-4387
▁concrete	-4388
▁exchange	-4389
▁handbook	-4390
▁licensed	-4391
▁lifetime	-4392
▁precinct	-4393
▁subscrib	-4394
▁Congratul	-4395
▁certified	-4396
▁discussed	-4397
▁diversity	-4398
▁Compulsory	-4399
▁Foundation	-4400
▁disability	-4401
▁foodstuffs	-4402
▁lifestyles	-4403
▁mobilising	-4404
▁profession	-4405
▁underestim	-4406
▁appointment	-4407
▁substantial	-4408
▁distribution	-4409
▁unacceptable	-4410
▁Understanding	-4411
▁Congratulations	-4412
--?	-4413
oor	-4414
osp	-4415
reg	-4416
▁7.	-4417
▁US	-4418
MENT	-4419
anga	-4420
back	-4421
ford	-4422
isms	-4423
▁mod	-4424
▁run	-4425
acted	-4426
feren	-4427
ource	-4428
tiles	-4429
ufact	-4430
▁2014	-4431
▁Does	-4432
▁Late	-4433
▁coun	-4434
▁Jacob	-4435
▁Veter	-4436
▁juris	-4437
▁purch	-4438
▁separ	-4439
▁table	-4440
▁veter	-4441
▁Income	-4442
▁Intern	-4443
▁fourth	-4444
▁interm	-4445
▁mining	-4446
▁season	-4447
▁threat	-4448
▁trends	-4449
▁growing	-4450
▁picture	-4451
▁possess	-4452
▁usually	-4453
▁witness	-4454
▁Councill	-4455
▁Prioriti	-4456
▁handling	-4457
▁hearings	-4458
▁location	-4459
▁religion	-4460
vernmental	-4461
▁Solutions	-4462
▁elsewhere	-4463
▁performed	-4464
▁constantly	-4465
▁prevention	-4466
▁successful	-4467
▁sufficient	-4468
▁Furthermore	-4469
▁transmitted	-4470
▁competencies	-4471
▁jurisdiction	-4472
▁multilingual	-4473
MA	-4474
TIV	-4475
ole	-4476
opo	-4477
ris	-4478
siz	-4479
▁fe	-4480
fect	-4481
ifer	-4482
▁Env	-4483
▁Inc	-4484
▁Inf	-4485
▁obs	-4486
Natal	-4487
adequ	-4488
▁2001	-4489
▁MECs	-4490
▁Next	-4491
▁fill	-4492
▁harm	-4493
itably	-4494
▁Which	-4495
▁brain	-4496
▁effec	-4497
▁price	-4498
▁total	-4499
▁Excell	-4500
▁agreed	-4501
▁centre	-4502
▁crimes	-4503
▁damage	-4504
▁really	-4505
▁secure	-4506
liminary	-4507
ological	-4508
▁Airways	-4509
▁absence	-4510
▁defence	-4511
▁educate	-4512
▁enforce	-4513
▁perfect	-4514
▁Provided	-4515
▁disaster	-4516
▁judicial	-4517
▁accompany	-4518
▁existence	-4519
▁nominated	-4520
▁responded	-4521
▁telephone	-4522
▁Governance	-4523
▁Priorities	-4524
▁allocation	-4525
▁authorised	-4526
▁healthcare	-4527
▁Environment	-4528
▁contributors	-4529
▁expectations	-4530
▁effectiveness	-4531
Ex	-4532
enn	-4533
iar	-4534
▁Dr	-4535
ests	-4536
king	-4537
offs	-4538
rule	-4539
▁(16	-4540
▁Tax	-4541
▁ven	-4542
agues	-4543
atter	-4544
enary	-4545
erial	-4546
▁Even	-4547
▁From	-4548
▁Hear	-4549
▁Near	-4550
▁PROC	-4551
▁Tour	-4552
▁jobs	-4553
▁mist	-4554
▁wage	-4555
reater	-4556
ticles	-4557
▁1994,	-4558
▁Built	-4559
▁alone	-4560
▁occas	-4561
▁penal	-4562
pliance	-4563
▁afford	-4564
▁except	-4565
▁opened	-4566
▁wished	-4567
adequate	-4568
ervation	-4569
▁Special	-4570
▁attempt	-4571
▁billion	-4572
▁choices	-4573
▁dealing	-4574
▁expired	-4575
▁inspect	-4576
▁mistake	-4577
▁obliged	-4578
▁payable	-4579
▁resolve	-4580
▁Everyone	-4581
▁creating	-4582
▁describe	-4583
▁globally	-4584
▁notified	-4585
ortunately	-4586
▁administr	-4587
▁guideline	-4588
▁hazardous	-4589
Snowledging	-4590
▁innovation	-4591
▁partnering	-4592
▁connections	-4593
▁sustainable	-4594
▁unemployment	-4595
▁qualification	-4596
▁multilingualism	-4597
12	-4598
ST	-4599
af	-4600
AIA	-4601
ize	-4602
joy	-4603
▁ke	-4604
8(1)	-4605
erly	-4606
ighb	-4607
inds	-4608
plic	-4609
skom	-4610
umal	-4611
▁Ass	-4612
▁gra	-4613
▁sen	-4614
▁ves	-4615
▁2008	-4616
▁Look	-4617
▁Meet	-4618
▁coll	-4619
▁died	-4620
▁exec	-4621
alogue	-4622
ention	-4623
ources	-4624
▁1994.	-4625
▁Eskom	-4626
▁Imple	-4627
▁ahead	-4628
▁depos	-4629
▁incor	-4630
▁users	-4631
▁virus	-4632
ignment	-4633
ligious	-4634
olution	-4635
▁Mpumal	-4636
▁Recogn	-4637
▁Senior	-4638
▁affirm	-4639
▁arrive	-4640
▁charge	-4641
▁neighb	-4642
▁subsid	-4643
▁sugges	-4644
▁vessel	-4645
nerships	-4646
▁Parties	-4647
▁Primary	-4648
▁Tourism	-4649
▁banking	-4650
▁closely	-4651
▁initial	-4652
▁malaria	-4653
▁prepare	-4654
▁produce	-4655
▁spatial	-4656
▁trading	-4657
▁evaluate	-4658
▁strength	-4659
▁admission	-4660
▁companies	-4661
▁competent	-4662
▁correctly	-4663
▁departure	-4664
▁livestock	-4665
▁objective	-4666
▁suspended	-4667
▁terminate	-4668
▁workplace	-4669
▁constitute	-4670
▁reflection	-4671
▁engineering	-4672
▁proceedings	-4673
▁provisional	-4674
▁dispensation	-4675
▁communicating	-4676
▁investigating	-4677
▁Investigations	-4678
ki	-4679
ys	-4680
REE	-4681
isor	-4682
▁ANA	-4683
▁Mab	-4684
▁cir	-4685
▁gir	-4686
ables	-4687
ached	-4688
erves	-4689
lipch	-4690
ostic	-4691
wards	-4692
▁Here	-4693
▁Mill	-4694
▁Sign	-4695
▁Town	-4696
▁feed	-4697
▁rule	-4698
atible	-4699
ruggle	-4700
▁1998)	-4701
▁begun	-4702
▁enjoy	-4703
▁sides	-4704
▁theme	-4705
▁touch	-4706
▁waste	-4707
ustries	-4708
▁Bodies	-4709
▁called	-4710
▁deploy	-4711
▁negoti	-4712
▁places	-4713
▁stages	-4714
▁techni	-4715
chedules	-4716
▁Company	-4717
▁Victims	-4718
▁helping	-4719
▁invited	-4720
▁opening	-4721
▁recruit	-4722
▁suspend	-4723
▁changing	-4724
▁detained	-4725
▁manufact	-4726
▁eliminate	-4727
▁estimates	-4728
▁increases	-4729
▁infection	-4730
▁resolving	-4731
▁applicants	-4732
▁compatible	-4733
▁inadequate	-4734
governmental	-4735
▁Fortunately	-4736
▁contributed	-4737
▁increasingly	-4738
▁practitioners	-4739
CIP	-4740
Wor	-4741
ery	-4742
its	-4743
los	-4744
man	-4745
mod	-4746
raa	-4747
ral	-4748
xim	-4749
▁55	-4750
▁At	-4751
▁Up	-4752
TIVE	-4753
quor	-4754
▁180	-4755
▁76,	-4756
▁max	-4757
ATION	-4758
house	-4759
obody	-4760
orney	-4761
thern	-4762
▁Also	-4763
▁Over	-4764
▁Rena	-4765
▁arch	-4766
▁card	-4767
▁late	-4768
▁sens	-4769
▁sets	-4770
▁stri	-4771
iaries	-4772
idavit	-4773
itions	-4774
reness	-4775
▁1998?	-4776
▁Guild	-4777
▁defin	-4778
▁leads	-4779
▁ready	-4780
ospital	-4781
outhern	-4782
▁Market	-4783
▁easier	-4784
▁emphas	-4785
▁miscon	-4786
▁served	-4787
▁values	-4788
ximately	-4789
▁Private	-4790
▁hearing	-4791
▁maximum	-4792
▁attorney	-4793
▁phytosan	-4794
▁textbook	-4795
▁consensus	-4796
▁customers	-4797
▁dependent	-4798
▁exporting	-4799
▁intermedi	-4800
▁provident	-4801
▁Integrated	-4802
▁administer	-4803
▁discretion	-4804
▁industries	-4805
▁Councillors	-4806
▁differently	-4807
▁governments	-4808
▁recruitment	-4809
▁suggestions	-4810
▁Investigating	-4811
▁approximately	-4812
▁beneficiaries	-4813
57	-4814
Os	-4815
SE	-4816
hu	-4817
ib	-4818
la	-4819
rs	-4820
▁Fe	-4821
▁bo	-4822
ball	-4823
hoea	-4824
mail	-4825
tire	-4826
▁Don	-4827
▁Sim	-4828
▁UIF	-4829
▁bal	-4830
▁gen	-4831
▁tex	-4832
eries	-4833
shops	-4834
▁gone	-4835
▁near	-4836
▁went	-4837
System	-4838
▁36(1)	-4839
▁Activ	-4840
▁THREE	-4841
▁cover	-4842
▁homes	-4843
▁liber	-4844
▁moral	-4845
▁stake	-4846
▁worth	-4847
▁Reform	-4848
▁animal	-4849
▁blocks	-4850
▁calcul	-4851
▁demand	-4852
▁expiry	-4853
▁gories	-4854
ilateral	-4855
▁PROCESS	-4856
▁chamber	-4857
▁deposit	-4858
▁measure	-4859
▁reached	-4860
▁agencies	-4861
▁attended	-4862
▁breeders	-4863
▁complied	-4864
▁conclude	-4865
▁material	-4866
▁occasion	-4867
▁proposed	-4868
▁workload	-4869
▁Regulator	-4870
▁affidavit	-4871
▁childhood	-4872
▁evaluated	-4873
▁sensitive	-4874
▁Mpumalanga	-4875
▁Provincial	-4876
▁coordinate	-4877
▁obtainable	-4878
▁scientists	-4879
▁simplified	-4880
▁communicate	-4881
▁Excellencies	-4882
▁experiencing	-4883
▁inequalities	-4884
▁intervention	-4885
▁reservations	-4886
▁Consolidation	-4887
.)	-4888
11	-4889
fa	-4890
den	-4891
iss	-4892
let	-4893
mar	-4894
▁6,	-4895
▁Ga	-4896
▁Te	-4897
ague	-4898
ateg	-4899
ists	-4900
oint	-4901
rary	-4902
vent	-4903
▁And	-4904
▁Cal	-4905
▁Mag	-4906
▁NOT	-4907
▁Sci	-4908
▁Two	-4909
▁ded	-4910
▁eye	-4911
andon	-4912
iency	-4913
sized	-4914
▁1976	-4915
▁Code	-4916
▁Limp	-4917
▁Soci	-4918
▁aims	-4919
▁side	-4920
ertise	-4921
parent	-4922
urnish	-4923
▁1996,	-4924
▁2007.	-4925
▁21(1)	-4926
▁36(2)	-4927
▁Elect	-4928
▁adequ	-4929
▁advan	-4930
▁dates	-4931
▁extra	-4932
▁girls	-4933
▁risks	-4934
▁trave	-4935
ategory	-4936
ception	-4937
duction	-4938
fulness	-4939
inating	-4940
ression	-4941
▁76(1),	-4942
▁Calcul	-4943
▁combat	-4944
▁saving	-4945
▁senior	-4946
▁tabled	-4947
▁Culture	-4948
▁Limpopo	-4949
▁accused	-4950
▁aspects	-4951
▁decided	-4952
▁drivers	-4953
▁enacted	-4954
▁greater	-4955
▁largely	-4956
▁learner	-4957
▁replace	-4958
▁similar	-4959
▁unequal	-4960
Executive	-4961
▁advertis	-4962
▁annually	-4963
▁incorpor	-4964
▁promotes	-4965
▁schedule	-4966
▁speakers	-4967
▁Schedules	-4968
▁Transport	-4969
▁buildings	-4970
▁cooperate	-4971
▁expertise	-4972
▁preferred	-4973
▁reservist	-4974
▁timeframe	-4975
▁appreciate	-4976
▁definition	-4977
▁motivation	-4978
▁overheaded	-4979
▁techniques	-4980
▁Demonstrate	-4981
▁Regulations	-4982
▁allocations	-4983
▁prosecution	-4984
▁celebrations	-4985
▁facilitating	-4986
▁proportional	-4987
▁phytosanitary	-4988
▁professionalism	-4989
ER	-4990
In	-4991
EGA	-4992
ats	-4993
org	-4994
rif	-4995
▁1(	-4996
▁Ha	-4997
▁bi	-4998
▁il	-4999
bbbb	-5000
gans	-5001
iche	-5002
lets	-5003
mber	-5004
pted	-5005
wide	-5006
▁36,	-5007
▁Equ	-5008
▁ago	-5009
▁eld	-5010
▁err	-5011
▁map	-5012
▁wro	-5013
icted	-5014
ureau	-5015
▁Fact	-5016
▁Feed	-5017
▁Nove	-5018
▁cent	-5019
▁code	-5020
▁hall	-5021
▁reit	-5022
▁shel	-5023
▁told	-5024
inking	-5025
tially	-5026
uality	-5027
▁Green	-5028
▁Madam	-5029
▁Occup	-5030
▁delay	-5031
▁diagn	-5032
▁event	-5033
▁happy	-5034
▁views	-5035
holders	-5036
players	-5037
viation	-5038
▁Follow	-5039
▁Nobody	-5040
▁circum	-5041
▁estate	-5042
▁guests	-5043
▁guided	-5044
▁organs	-5045
▁thirds	-5046
▁transl	-5047
////////	-5048
lipchart	-5049
▁Academy	-5050
▁Millenn	-5051
▁abandon	-5052
▁concern	-5053
▁illegal	-5054
▁letters	-5055
▁protest	-5056
▁towards	-5057
▁Feedback	-5058
▁Outcomes	-5059
▁Sections	-5060
▁assessed	-5061
▁reflects	-5062
▁rejected	-5063
▁withhold	-5064
▁Afrikaans	-5065
▁Calculate	-5066
▁Detention	-5067
▁confident	-5068
▁continent	-5069
▁licensing	-5070
▁strategic	-5071
▁contribute	-5072
▁medication	-5073
▁possession	-5074
▁technology	-5075
▁enforcement	-5076
▁outstanding	-5077
▁consolidated	-5078
▁administrator	-5079
▁circumstances	-5080
--------------?	-5081
OLE	-5082
ero	-5083
ife	-5084
▁CB	-5085
▁Ju	-5086
''''	-5087
keep	-5088
peal	-5089
plom	-5090
▁14.	-5091
▁601	-5092
▁Feb	-5093
▁Lic	-5094
▁Mak	-5095
▁Mon	-5096
▁Pan	-5097
▁War	-5098
▁die	-5099
▁nor	-5100
▁tou	-5101
▁tri	-5102
ducts	-5103
icine	-5104
▁1988	-5105
▁Farm	-5106
▁diss	-5107
▁keep	-5108
▁onto	-5109
▁port	-5110
▁slow	-5111
▁vacc	-5112
ifying	-5113
ussion	-5114
▁Force	-5115
▁agent	-5116
▁effic	-5117
▁gazet	-5118
▁hands	-5119
▁noted	-5120
quently	-5121
related	-5122
titions	-5123
unction	-5124
▁21(1)(	-5125
▁Access	-5126
▁Action	-5127
▁assent	-5128
▁courts	-5129
▁exists	-5130
▁illust	-5131
▁intend	-5132
▁points	-5133
▁regret	-5134
irements	-5135
▁Consult	-5136
▁Student	-5137
▁clinics	-5138
▁describ	-5139
▁pension	-5140
▁periods	-5141
▁respons	-5142
▁sincere	-5143
▁stating	-5144
▁Southern	-5145
▁Strategy	-5146
▁category	-5147
▁deployed	-5148
▁entering	-5149
▁humanity	-5150
▁peaceful	-5151
▁struggle	-5152
▁textiles	-5153
▁emergency	-5154
▁improving	-5155
▁signatory	-5156
titionsport	-5157
▁Discussion	-5158
▁Millennium	-5159
▁University	-5160
▁commission	-5161
▁efficiency	-5162
▁misconduct	-5163
▁terminated	-5164
▁livelihoods	-5165
▁preliminary	-5166
▁Requirements	-5167
▁confirmation	-5168
▁collaboration	-5169
▁transformation	-5170
▁Practitionsport	-5171
9.	-5172
NG	-5173
UN	-5174
hn	-5175
orb	-5176
▁gr	-5177
atis	-5178
cess	-5179
cipl	-5180
nown	-5181
rees	-5182
▁(18	-5183
▁36-	-5184
▁Est	-5185
▁Maj	-5186
▁Mal	-5187
▁Was	-5188
▁aud	-5189
▁bro	-5190
▁mid	-5191
dered	-5192
ggest	-5193
hange	-5194
large	-5195
▁Indi	-5196
▁Trad	-5197
▁Trib	-5198
▁arms	-5199
▁dign	-5200
▁laid	-5201
▁quan	-5202
idency	-5203
longed	-5204
tified	-5205
▁2010,	-5206
▁Enter	-5207
▁added	-5208
▁along	-5209
▁meant	-5210
iferred	-5211
reeders	-5212
▁Nature	-5213
▁degree	-5214
▁father	-5215
▁little	-5216
▁marked	-5217
▁output	-5218
▁sphere	-5219
tlements	-5220
uestions	-5221
▁closing	-5222
▁contrad	-5223
▁editing	-5224
▁elderly	-5225
▁empower	-5226
▁farmers	-5227
▁painful	-5228
▁prosper	-5229
▁threats	-5230
▁visible	-5231
▁winning	-5232
largement	-5233
▁Councils	-5234
▁Ministry	-5235
▁Products	-5236
▁accepted	-5237
▁accommod	-5238
▁familiar	-5239
▁hospital	-5240
▁independ	-5241
▁provider	-5242
▁realised	-5243
▁remedies	-5244
▁rendered	-5245
▁enhancing	-5246
▁voluntary	-5247
▁Assistance	-5248
▁Prioritish	-5249
▁Publishing	-5250
▁Regulation	-5251
▁background	-5252
▁confirming	-5253
▁diagnostic	-5254
▁evaluation	-5255
▁excellence	-5256
▁influences	-5257
▁mechanisms	-5258
▁production	-5259
▁substances	-5260
▁unemployed	-5261
▁vulnerable	-5262
▁Enterprises	-5263
▁Legislature	-5264
▁recognising	-5265
▁residential	-5266
▁simplification	-5267
▁differentiation	-5268
44	-5269
ED	-5270
CTU	-5271
NDC	-5272
eni	-5273
plg	-5274
tra	-5275
▁0.	-5276
cale	-5277
feed	-5278
reds	-5279
▁Des	-5280
▁Iss	-5281
▁Sum	-5282
▁Tas	-5283
▁cru	-5284
▁dou	-5285
▁mac	-5286
▁unk	-5287
fered	-5288
isory	-5289
llage	-5290
oming	-5291
▁East	-5292
▁Miti	-5293
▁anti	-5294
▁enqu	-5295
▁firm	-5296
▁hund	-5297
▁seek	-5298
abling	-5299
arried	-5300
cedent	-5301
enders	-5302
ending	-5303
rifice	-5304
▁1970,	-5305
▁Appro	-5306
▁Techn	-5307
▁heart	-5308
▁meals	-5309
▁overs	-5310
▁pages	-5311
▁tasks	-5312
▁texts	-5313
▁trust	-5314
astfeed	-5315
▁Appeal	-5316
▁Ladies	-5317
▁Summit	-5318
▁absorb	-5319
▁burden	-5320
▁bureau	-5321
▁integr	-5322
▁looked	-5323
▁search	-5324
▁unions	-5325
▁whiche	-5326
stitutes	-5327
▁Monitor	-5328
▁carried	-5329
▁compact	-5330
▁dignity	-5331
▁linkage	-5332
▁preserv	-5333
▁referen	-5334
▁shelter	-5335
▁unknown	-5336
▁Breeders	-5337
▁November	-5338
▁articles	-5339
▁pressure	-5340
▁utilised	-5341
▁writeral	-5342
▁convicted	-5343
▁destroyed	-5344
▁indicator	-5345
▁neighbour	-5346
▁positions	-5347
▁reiterate	-5348
▁allowances	-5349
▁breastfeed	-5350
▁competency	-5351
▁difficulty	-5352
▁directions	-5353
▁governance	-5354
▁letterhead	-5355
▁multiparty	-5356
▁protecting	-5357
▁responsive	-5358
▁supervisor	-5359
▁Arbitration	-5360
▁Professions	-5361
▁functioning	-5362
▁remembering	-5363
▁submissions	-5364
▁transparent	-5365
▁Occupational	-5366
▁Transactions	-5367
▁disadvantages	-5368
▁specification	-5369
▁underestimate	-5370
PA	-5371
rd	-5372
OUR	-5373
ana	-5374
arr	-5375
pay	-5376
way	-5377
▁1-	-5378
▁32	-5379
▁39	-5380
▁Ob	-5381
▁Pe	-5382
SARS	-5383
band	-5384
door	-5385
tise	-5386
▁3.1	-5387
▁Pay	-5388
▁Ref	-5389
▁cut	-5390
▁dev	-5391
▁exc	-5392
▁fax	-5393
While	-5394
aches	-5395
ening	-5396
erman	-5397
itect	-5398
oring	-5399
usual	-5400
▁Anot	-5401
▁Decl	-5402
▁Find	-5403
▁Task	-5404
▁cond	-5405
ablish	-5406
otball	-5407
▁1998;	-5408
▁Grant	-5409
▁Mayor	-5410
▁Organ	-5411
▁Women	-5412
▁aimed	-5413
▁loved	-5414
▁prove	-5415
▁socio	-5416
herited	-5417
preting	-5418
tensive	-5419
▁Ensure	-5420
▁States	-5421
▁Update	-5422
▁colour	-5423
▁politi	-5424
▁repair	-5425
▁summar	-5426
▁Another	-5427
▁Firstly	-5428
▁Prepare	-5429
▁Renaiss	-5430
▁Workers	-5431
▁balance	-5432
▁courses	-5433
▁created	-5434
▁crucial	-5435
▁helpful	-5436
▁located	-5437
▁studied	-5438
ciliation	-5439
▁adoptive	-5440
▁becoming	-5441
▁comments	-5442
▁facility	-5443
▁features	-5444
▁resulted	-5445
▁starting	-5446
▁watching	-5447
compliance	-5448
▁Diversity	-5449
▁Establish	-5450
▁arranging	-5451
▁bilateral	-5452
▁delegated	-5453
▁described	-5454
▁electoral	-5455
▁explained	-5456
▁prescribe	-5457
▁producing	-5458
▁stability	-5459
▁underline	-5460
----------?	-5461
application	-5462
▁collective	-5463
▁complexity	-5464
▁instrument	-5465
▁purchasing	-5466
▁regulatory	-5467
▁Individuals	-5468
▁Mathematics	-5469
▁destination	-5470
▁participants	-5471
▁partnerships	-5472
▁differentiate	-5473
▁dissemination	-5474
▁relationships	-5475
▁substantially	-5476
--------------)	-5477
▁considerations	-5478
',	-5479
):	-5480
90	-5481
po	-5482
.".	-5483
iff	-5484
lam	-5485
ney	-5486
olo	-5487
▁67	-5488
▁AU	-5489
▁ur	-5490
--),	-5491
▁150	-5492
▁Fax	-5493
▁Mil	-5494
▁arg	-5495
▁den	-5496
▁dro	-5497
▁dwe	-5498
▁mec	-5499
▁mus	-5500
anged	-5501
appro	-5502
arily	-5503
duate	-5504
kable	-5505
owner	-5506
ruary	-5507
▁Call	-5508
▁Move	-5509
▁Time	-5510
▁alle	-5511
▁gain	-5512
▁tack	-5513
▁urge	-5514
angeni	-5515
tities	-5516
urance	-5517
▁Chant	-5518
▁choos	-5519
▁macro	-5520
▁plays	-5521
▁retur	-5522
▁solid	-5523
▁wrote	-5524
certain	-5525
rengthe	-5526
▁Counse	-5527
▁Negoti	-5528
▁Powers	-5529
▁Respon	-5530
▁SUTIVE	-5531
▁expans	-5532
▁extern	-5533
▁fairly	-5534
▁liable	-5535
▁machin	-5536
▁occurs	-5537
▁relate	-5538
▁salary	-5539
▁speaks	-5540
▁spread	-5541
▁tariff	-5542
▁warmly	-5543
tigative	-5544
▁Amongst	-5545
▁Natives	-5546
▁Supreme	-5547
▁Without	-5548
▁ensured	-5549
▁honours	-5550
▁outline	-5551
▁February	-5552
▁academia	-5553
▁elements	-5554
▁enhanced	-5555
▁feelings	-5556
▁thinking	-5557
operatives	-5558
ordinating	-5559
▁Following	-5560
▁Preparing	-5561
▁advertise	-5562
▁belonging	-5563
▁collected	-5564
▁duplicate	-5565
▁expensive	-5566
▁inherited	-5567
▁penalties	-5568
▁placement	-5569
▁Accounting	-5570
▁Collective	-5571
▁completion	-5572
▁objections	-5573
▁prevailing	-5574
▁Cooperation	-5575
▁Declaration	-5576
▁Dublishment	-5577
▁Preparation	-5578
▁Publishment	-5579
▁affiliation	-5580
▁contributes	-5581
▁encouraging	-5582
▁nominations	-5583
▁permanently	-5584
▁writeralism	-5585
▁Registration	-5586
▁Veterinarian	-5587
▁compensation	-5588
▁conservation	-5589
▁finalisation	-5590
▁Documentation	-5591
▁establishment	-5592
5,	-5593
6)	-5594
TO	-5595
GRA	-5596
How	-5597
amp	-5598
eur	-5599
fol	-5600
rep	-5601
▁47	-5602
▁4:	-5603
▁Di	-5604
▁IS	-5605
▁Se	-5606
▁Su	-5607
▁jo	-5608
aken	-5609
atab	-5610
eded	-5611
emed	-5612
imal	-5613
irms	-5614
nual	-5615
orry	-5616
ugee	-5617
utri	-5618
xist	-5619
▁239	-5620
▁Box	-5621
▁Cap	-5622
▁Che	-5623
▁Lit	-5624
▁Map	-5625
▁Rev	-5626
▁saw	-5627
▁ver	-5628
:////	-5629
arged	-5630
imate	-5631
ofung	-5632
utory	-5633
▁Road	-5634
▁cred	-5635
▁inst	-5636
▁spok	-5637
▁vill	-5638
alysis	-5639
icated	-5640
lawful	-5641
▁2009)	-5642
▁About	-5643
------;	-5644
------?	-5645
Sgories	-5646
arrhoea	-5647
keeping	-5648
organis	-5649
▁Having	-5650
▁Liquor	-5651
▁chance	-5652
▁larger	-5653
▁played	-5654
▁saying	-5655
------),	-5656
evitably	-5657
ordinate	-5658
▁Factors	-5659
▁Handing	-5660
▁Systems	-5661
▁Unusual	-5662
▁liberal	-5663
▁offered	-5664
▁specify	-5665
▁Eligious	-5666
▁Gazetted	-5667
▁absorbed	-5668
▁detailed	-5669
▁expanded	-5670
▁explains	-5671
▁external	-5672
▁finalise	-5673
▁hundreds	-5674
▁integral	-5675
▁interact	-5676
▁medicine	-5677
▁mobilise	-5678
▁resolved	-5679
▁Published	-5680
▁addresses	-5681
▁container	-5682
▁corrected	-5683
▁describes	-5684
▁execution	-5685
▁expansion	-5686
▁machinery	-5687
▁uncertain	-5688
----------;	-5689
▁Settlement	-5690
▁confidence	-5691
▁inspection	-5692
▁obligation	-5693
▁officially	-5694
▁operations	-5695
▁Legislation	-5696
▁Legislative	-5697
▁advertising	-5698
▁consignment	-5699
▁obligations	-5700
▁resignation	-5701
▁achievements	-5702
▁representing	-5703
▁veterinarian	-5704
▁clarification	-5705
................	-5706
3)	-5707
HO	-5708
OR	-5709
RC	-5710
VE	-5711
BSA	-5712
NGA	-5713
dum	-5714
edl	-5715
ert	-5716
fil	-5717
got	-5718
▁-.	-5719
▁85	-5720
▁NG	-5721
▁TV	-5722
ands	-5723
ches	-5724
emic	-5725
empl	-5726
eric	-5727
icro	-5728
rang	-5729
▁086	-5730
▁11,	-5731
▁MAN	-5732
▁MDC	-5733
▁Tsh	-5734
▁sam	-5735
▁tap	-5736
aring	-5737
being	-5738
hance	-5739
igure	-5740
quare	-5741
▁Duty	-5742
▁SATI	-5743
▁bord	-5744
▁insu	-5745
▁mild	-5746
▁pers	-5747
▁phot	-5748
▁sold	-5749
UALITY	-5750
ession	-5751
headed	-5752
overed	-5753
remely	-5754
reneur	-5755
sexist	-5756
▁12(1)	-5757
▁Agree	-5758
▁Civil	-5759
▁Foods	-5760
▁SALGA	-5761
▁chain	-5762
▁fewer	-5763
▁oppos	-5764
▁tough	-5765
▁Animal	-5766
▁Record	-5767
▁Submit	-5768
▁agrees	-5769
▁attach	-5770
▁deaths	-5771
▁diplom	-5772
▁electr	-5773
▁entrep	-5774
▁rising	-5775
▁tackle	-5776
atorship	-5777
partheid	-5778
regional	-5779
▁Freedom	-5780
▁Mandate	-5781
▁Schools	-5782
▁Support	-5783
▁bureauc	-5784
▁hosting	-5785
▁politic	-5786
▁remarks	-5787
▁showing	-5788
▁Hearings	-5789
▁Managing	-5790
▁Military	-5791
▁Officers	-5792
▁Steering	-5793
▁believes	-5794
▁enabling	-5795
▁engaging	-5796
▁historic	-5797
▁intended	-5798
▁ordinary	-5799
▁reducing	-5800
▁unfairly	-5801
plications	-5802
▁Reduction	-5803
▁Represent	-5804
▁Strengthe	-5805
▁amendment	-5806
▁exception	-5807
▁presented	-5808
▁suppliers	-5809
▁travelled	-5810
▁Activities	-5811
▁clarifying	-5812
▁conference	-5813
▁containing	-5814
▁referendum	-5815
▁settlement	-5816
▁beneficiary	-5817
▁contravenes	-5818
▁safeguarded	-5819
▁shareholder	-5820
▁titleholder	-5821
▁trafficking	-5822
▁Compensation	-5823
▁entrepreneur	-5824
▁individually	-5825
▁insufficient	-5826
▁specifically	-5827
▁discretionary	-5828
▁professionals	-5829
▁Administration	-5830
▁Infrastructure	-5831
ET	-5832
Na	-5833
ba	-5834
mp	-5835
uy	-5836
app	-5837
ern	-5838
ulk	-5839
▁28	-5840
▁70	-5841
▁CO	-5842
▁cy	-5843
apse	-5844
ault	-5845
bate	-5846
enza	-5847
ians	-5848
isis	-5849
most	-5850
▁1.5	-5851
▁60;	-5852
▁ANC	-5853
▁Exp	-5854
▁Mot	-5855
▁Off	-5856
▁emb	-5857
▁gap	-5858
▁hop	-5859
▁lev	-5860
▁vib	-5861
arity	-5862
erals	-5863
iries	-5864
ptive	-5865
rades	-5866
tings	-5867
▁Gaut	-5868
▁Head	-5869
▁July	-5870
▁Pack	-5871
▁THAT	-5872
▁bulk	-5873
▁dead	-5874
▁doub	-5875
▁pays	-5876
▁rail	-5877
▁risk	-5878
ercial	-5879
itored	-5880
ousing	-5881
saries	-5882
ysical	-5883
▁18(1)	-5884
▁2009?	-5885
▁Achie	-5886
▁Going	-5887
▁Incre	-5888
▁Mitig	-5889
▁disch	-5890
▁drive	-5891
▁error	-5892
▁looks	-5893
▁sorry	-5894
▁spent	-5895
▁stays	-5896
Section	-5897
▁affili	-5898
▁engage	-5899
▁losses	-5900
▁repeat	-5901
▁return	-5902
▁taxpay	-5903
▁voters	-5904
headings	-5905
tigation	-5906
udiciary	-5907
▁Enhance	-5908
▁Licence	-5909
▁Through	-5910
▁abstain	-5911
▁affects	-5912
▁borders	-5913
▁concept	-5914
▁element	-5915
▁halling	-5916
▁obvious	-5917
▁playing	-5918
▁plenary	-5919
▁queries	-5920
▁refugee	-5921
▁reserve	-5922
▁sources	-5923
▁vaccine	-5924
▁Dialogue	-5925
▁Movement	-5926
▁accounts	-5927
▁anywhere	-5928
▁dwelling	-5929
▁exciting	-5930
▁listened	-5931
▁logframe	-5932
▁repeated	-5933
▁responds	-5934
▁sittings	-5935
prevention	-5936
▁Political	-5937
▁continues	-5938
▁diarrhoea	-5939
▁enquiries	-5940
▁extremely	-5941
▁notifying	-5942
▁platforms	-5943
▁producers	-5944
▁selection	-5945
▁sincerely	-5946
▁whichever	-5947
▁Monitoring	-5948
▁attendance	-5949
▁completing	-5950
▁contradict	-5951
▁explaining	-5952
▁infections	-5953
▁photograph	-5954
▁represents	-5955
▁stabilised	-5956
▁undertaken	-5957
▁Recognition	-5958
▁Traditional	-5959
▁alleviation	-5960
▁bureaucracy	-5961
▁complainant	-5962
▁importation	-5963
▁investments	-5964
▁Municipality	-5965
▁Professional	-5966
▁implications	-5967
▁interference	-5968
▁participated	-5969
▁respectively	-5970
▁International	-5971
▁globalisation	-5972
▁participatory	-5973
AS	-5974
no	-5975
wn	-5976
▁,	-5977
00.	-5978
For	-5979
bac	-5980
cer	-5981
ead	-5982
mis	-5983
▁3,	-5984
▁UN	-5985
▁kn	-5986
Prom	-5987
iled	-5988
wise	-5989
▁11.	-5990
▁17(	-5991
▁60,	-5992
▁Eth	-5993
▁His	-5994
▁Now	-5995
▁Soc	-5996
▁cri	-5997
▁egg	-5998
▁jud	-5999
▁mor	-6000
▁syn	-6001
bacco	-6002
beare	-6003
ciple	-6004
cohol	-6005
odied	-6006
overy	-6007
prise	-6008
▁Fire	-6009
▁Good	-6010
▁Path	-6011
▁Tool	-6012
▁base	-6013
▁conj	-6014
▁note	-6015
▁prof	-6016
▁rape	-6017
▁stor	-6018
......	-6019
idents	-6020
losure	-6021
riefly	-6022
▁1997.	-6023
▁2000,	-6024
▁2003,	-6025
▁Bills	-6026
▁Check	-6027
▁China	-6028
▁Goals	-6029
▁Micro	-6030
▁Waste	-6031
▁cycle	-6032
▁datab	-6033
▁divid	-6034
▁impos	-6035
▁trend	-6036
▁venue	-6037
▁Americ	-6038
▁PROGRA	-6039
▁crisis	-6040
▁dismis	-6041
▁either	-6042
▁entire	-6043
▁fixing	-6044
▁viable	-6045
draature	-6046
ordinary	-6047
utrition	-6048
▁Briefly	-6049
▁Chamber	-6050
▁Defence	-6051
▁Similar	-6052
▁Society	-6053
▁broader	-6054
▁dangers	-6055
▁defines	-6056
▁display	-6057
▁edition	-6058
▁factual	-6059
▁guiding	-6060
▁redress	-6061
ciplinary	-6062
intensive	-6063
ordinated	-6064
organisms	-6065
▁Judicial	-6066
▁Resource	-6067
▁approves	-6068
▁choosing	-6069
▁contrary	-6070
▁delegate	-6071
▁embodied	-6072
▁importer	-6073
▁informal	-6074
▁separate	-6075
▁speedily	-6076
reditation	-6077
▁Academics	-6078
▁Agreement	-6079
▁Gentlemen	-6080
▁Providing	-6081
▁Scientist	-6082
▁Strategic	-6083
▁accidents	-6084
▁attending	-6085
▁considers	-6086
▁importing	-6087
▁perfectly	-6088
▁principle	-6089
▁regulated	-6090
▁analytical	-6091
▁commercial	-6092
▁encouraged	-6093
▁initiation	-6094
▁integrated	-6095
▁mechanical	-6096
▁organisers	-6097
▁protective	-6098
▁responding	-6099
▁solidarity	-6100
▁translated	-6101
▁triplicate	-6102
▁Enhancement	-6103
▁Renaissance	-6104
▁acquisition	-6105
▁improvements	-6106
▁investigated	-6107
▁restrictions	-6108
▁developmental	-6109
▁accountability	-6110
▁vulnerabilities	-6111
0,	-6112
As	-6113
OW	-6114
ah	-6115
▁.	-6116
-17	-6117
ASA	-6118
Why	-6119
alo	-6120
aug	-6121
map	-6122
off	-6123
was	-6124
▁09	-6125
▁2,	-6126
▁75	-6127
▁8,	-6128
▁99	-6129
7(1)	-6130
airy	-6131
erse	-6132
etic	-6133
llig	-6134
over	-6135
phas	-6136
quid	-6137
tors	-6138
▁1.8	-6139
▁13,	-6140
▁2.5	-6141
▁Did	-6142
▁Emp	-6143
▁Gra	-6144
▁fre	-6145
▁mut	-6146
▁sac	-6147
▁wom	-6148
ariat	-6149
cheme	-6150
clude	-6151
ghted	-6152
storm	-6153
tigue	-6154
uster	-6155
▁(1)(	-6156
▁Area	-6157
▁inev	-6158
▁oper	-6159
▁phys	-6160
▁pris	-6161
▁wedl	-6162
andard	-6163
entive	-6164
entled	-6165
ership	-6166
ferred	-6167
gotten	-6168
igning	-6169
othing	-6170
▁1990,	-6171
▁2004.	-6172
▁India	-6173
▁Party	-6174
▁careg	-6175
▁faced	-6176
▁input	-6177
▁maize	-6178
▁solve	-6179
▁space	-6180
edience	-6181
holding	-6182
osition	-6183
▁Struct	-6184
▁Superv	-6185
▁compar	-6186
▁credit	-6187
▁incons	-6188
▁influx	-6189
▁liquid	-6190
▁united	-6191
▁venues	-6192
cedented	-6193
esterday	-6194
liferred	-6195
wareness	-6196
▁College	-6197
▁Encoura	-6198
▁Meeting	-6199
▁Mission	-6200
▁Request	-6201
▁Tshwane	-6202
▁adverse	-6203
▁aligned	-6204
▁damaged	-6205
▁drawing	-6206
▁effects	-6207
▁fatigue	-6208
▁focuses	-6209
▁furnish	-6210
▁joining	-6211
▁limited	-6212
▁linking	-6213
▁players	-6214
▁subsidy	-6215
▁tariffs	-6216
▁vibrant	-6217
▁volunte	-6218
▁wedlock	-6219
llaborate	-6220
▁Counsell	-6221
▁Meetings	-6222
▁Response	-6223
▁Specific	-6224
▁advanced	-6225
▁archives	-6226
▁beentled	-6227
▁compiled	-6228
▁critical	-6229
▁deadline	-6230
▁formatis	-6231
▁normally	-6232
▁offences	-6233
▁overview	-6234
▁politics	-6235
▁promised	-6236
▁shortage	-6237
▁spending	-6238
bilisation	-6239
▁Empangeni	-6240
▁Employers	-6241
▁Secondary	-6242
▁abstained	-6243
▁clearance	-6244
▁dedicated	-6245
▁designate	-6246
▁dismissed	-6247
▁expanding	-6248
▁fieldwork	-6249
▁forgotten	-6250
▁marketing	-6251
▁measuring	-6252
▁monitored	-6253
▁necessity	-6254
▁ownership	-6255
▁processed	-6256
▁reviewing	-6257
documenting	-6258
precedented	-6259
▁adequately	-6260
▁connective	-6261
▁corrective	-6262
▁discussing	-6263
▁inevitable	-6264
▁percentage	-6265
▁priorities	-6266
▁quantities	-6267
▁recognises	-6268
▁remarkable	-6269
▁statements	-6270
withstanding	-6271
▁accommodate	-6272
▁conjunction	-6273
▁consolidate	-6274
▁coordinated	-6275
▁designation	-6276
▁manufacture	-6277
▁Conciliation	-6278
▁Organisation	-6279
▁incorporated	-6280
▁intermediary	-6281
▁multilateral	-6282
▁transactions	-6283
▁extraordinary	-6284
▁justification	-6285
▁supplementary	-6286
▁communications	-6287
-0	-6288
-6	-6289
13	-6290
87	-6291
Ds	-6292
LA	-6293
Ps	-6294
WP	-6295
ya	-6296
zi	-6297
▁*	-6298
--;	-6299
agn	-6300
ams	-6301
lia	-6302
rop	-6303
umn	-6304
zil	-6305
▁2(	-6306
▁74	-6307
▁Gr	-6308
▁ME	-6309
▁Of	-6310
▁SY	-6311
alls	-6312
ario	-6313
chel	-6314
ened	-6315
fort	-6316
grad	-6317
hips	-6318
rime	-6319
▁1.6	-6320
▁2.4	-6321
▁2.7	-6322
▁36(	-6323
▁Cor	-6324
▁Her	-6325
▁Law	-6326
▁Mac	-6327
▁Min	-6328
▁Pet	-6329
▁Sow	-6330
▁dra	-6331
▁mem	-6332
▁oil	-6333
▁pop	-6334
antic	-6335
ginal	-6336
itors	-6337
otive	-6338
rawal	-6339
scale	-6340
table	-6341
▁1977	-6342
▁1979	-6343
▁607.	-6344
▁John	-6345
▁Lack	-6346
▁Nine	-6347
▁Term	-6348
▁Tues	-6349
▁Unit	-6350
▁eggs	-6351
▁ever	-6352
▁labe	-6353
▁leaf	-6354
▁surv	-6355
▁valu	-6356
▁visa	-6357
produc	-6358
racial	-6359
▁14(1)	-6360
▁2001,	-6361
▁2006.	-6362
▁Abuse	-6363
▁Inter	-6364
▁Order	-6365
▁Those	-6366
▁banks	-6367
▁check	-6368
▁feels	-6369
▁histo	-6370
▁joint	-6371
▁kinds	-6372
▁loses	-6373
▁lower	-6374
▁music	-6375
▁voted	-6376
assport	-6377
ingness	-6378
ranging	-6379
ulation	-6380
urement	-6381
▁1996),	-6382
▁1998),	-6383
▁Always	-6384
▁Dended	-6385
▁Magist	-6386
▁Senate	-6387
▁Soccer	-6388
▁Transl	-6389
▁clinic	-6390
▁dissol	-6391
▁exceed	-6392
▁farmer	-6393
▁gather	-6394
▁owners	-6395
▁prices	-6396
▁stayed	-6397
▁suffer	-6398
▁widely	-6399
gggggggg	-6400
lamation	-6401
▁Finally	-6402
▁Linking	-6403
▁cutting	-6404
▁ethical	-6405
▁injured	-6406
▁involve	-6407
▁lodging	-6408
▁morning	-6409
▁returns	-6410
▁revised	-6411
▁storage	-6412
▁univers	-6413
▁victims	-6414
▁village	-6415
▁virtual	-6416
ublishing	-6417
▁Cultural	-6418
▁Literacy	-6419
▁Physical	-6420
▁Senators	-6421
▁Standard	-6422
▁although	-6423
▁booklets	-6424
▁clothing	-6425
▁gazetted	-6426
▁honestly	-6427
▁invested	-6428
▁receives	-6429
▁referral	-6430
▁suffered	-6431
▁unlawful	-6432
▁Encourage	-6433
▁Highlight	-6434
▁Institute	-6435
▁Judiciary	-6436
▁Residents	-6437
▁adverbise	-6438
▁broadband	-6439
▁bursaries	-6440
▁constrain	-6441
▁emphasise	-6442
▁exchanged	-6443
▁formation	-6444
▁inclusion	-6445
▁inconsist	-6446
▁negotiate	-6447
▁offenders	-6448
▁precincts	-6449
▁preparing	-6450
▁presiding	-6451
▁reporting	-6452
▁solutions	-6453
▁thedrawal	-6454
▁tradition	-6455
▁translate	-6456
▁utilities	-6457
▁virtually	-6458
▁Automation	-6459
▁Presidency	-6460
▁Revolution	-6461
▁collection	-6462
▁destroying	-6463
▁encourages	-6464
▁expression	-6465
▁illustrate	-6466
▁impossible	-6467
▁industrial	-6468
▁influenced	-6469
▁introduces	-6470
▁speechbook	-6471
▁veterinary	-6472
▁Identifying	-6473
▁arbitration	-6474
▁cooperative	-6475
▁importantly	-6476
▁reservation	-6477
▁resolutions	-6478
▁Disabilities	-6479
▁Practitioner	-6480
▁disseminated	-6481
▁Environmental	-6482
▁Investigation	-6483
▁manufacturing	-6484
▁understandable	-6485
▁proportionality	-6486
.,	-6487
89	-6488
NE	-6489
▁:	-6490
--)	-6491
-19	-6492
-50	-6493
EEE	-6494
ITI	-6495
ird	-6496
liz	-6497
nex	-6498
oys	-6499
ped	-6500
rid	-6501
sia	-6502
ude	-6503
▁05	-6504
▁77	-6505
▁FA	-6506
▁NB	-6507
▁Sp	-6508
(1),	-6509
ICIP	-6510
NGAN	-6511
fies	-6512
ires	-6513
lymp	-6514
tify	-6515
unal	-6516
▁166	-6517
▁DEA	-6518
▁DIF	-6519
▁Has	-6520
▁Sec	-6521
▁TAS	-6522
▁awa	-6523
▁fes	-6524
▁gat	-6525
▁ter	-6526
▁tru	-6527
oured	-6528
rying	-6529
▁1.10	-6530
▁1984	-6531
▁2005	-6532
▁Each	-6533
▁Open	-6534
▁POLE	-6535
▁Visa	-6536
▁band	-6537
▁chem	-6538
▁edge	-6539
▁jour	-6540
▁obey	-6541
▁resc	-6542
▁room	-6543
▁soft	-6544
▁wife	-6545
atever	-6546
etable	-6547
heracy	-6548
ptions	-6549
▁Crime	-6550
▁Forms	-6551
▁Group	-6552
▁Hague	-6553
▁limit	-6554
▁mayor	-6555
▁norms	-6556
▁roads	-6557
▁sites	-6558
▁tests	-6559
facilit	-6560
section	-6561
▁76(1)(	-6562
▁Design	-6563
▁German	-6564
▁Vision	-6565
▁became	-6566
▁helped	-6567
▁hereby	-6568
▁indeed	-6569
▁latter	-6570
▁mutual	-6571
▁observ	-6572
▁oppose	-6573
▁propos	-6574
▁serves	-6575
▁spoken	-6576
▁statis	-6577
▁welcom	-6578
▁writer	-6579
lligence	-6580
prepared	-6581
▁Article	-6582
▁Housing	-6583
▁Sustain	-6584
▁comprom	-6585
▁distrib	-6586
▁mindful	-6587
▁monthly	-6588
▁overall	-6589
▁package	-6590
▁portfol	-6591
▁promise	-6592
▁reality	-6593
▁thebook	-6594
▁tobacco	-6595
uneration	-6596
▁Examples	-6597
▁Official	-6598
▁believed	-6599
▁chemical	-6600
▁collapse	-6601
▁designed	-6602
▁download	-6603
▁emission	-6604
▁labelled	-6605
▁marginal	-6606
▁measured	-6607
▁nominate	-6608
▁openness	-6609
▁recently	-6610
▁welcomes	-6611
▁Higheracy	-6612
▁Religious	-6613
▁allowance	-6614
▁assurance	-6615
▁awareness	-6616
▁equitable	-6617
▁guardians	-6618
▁organised	-6619
▁sacrifice	-6620
▁stabilise	-6621
istribution	-6622
tainability	-6623
▁Colleagues	-6624
▁Dublishing	-6625
▁Structures	-6626
▁brainstorm	-6627
▁delivering	-6628
▁discovered	-6629
▁enterprise	-6630
▁formalised	-6631
▁invitation	-6632
▁positively	-6633
▁prosperous	-6634
▁recognised	-6635
▁rescission	-6636
▁separately	-6637
▁Settlements	-6638
▁liquidation	-6639
▁specialised	-6640
▁proclamation	-6641
▁sufficiently	-6642
▁transmission	-6643
▁unequalified	-6644
▁Strengthening	-6645
▁technological	-6646
▁internationally	-6647
25	-6648
Go	-6649
TC	-6650
ha	-6651
yn	-6652
IMS	-6653
MIA	-6654
ale	-6655
edy	-6656
ene	-6657
hes	-6658
ond	-6659
ops	-6660
oto	-6661
per	-6662
pul	-6663
sib	-6664
▁52	-6665
▁5:	-6666
▁Fr	-6667
▁Hi	-6668
▁JA	-6669
▁Mo	-6670
▁Sm	-6671
▁ir	-6672
▁vo	-6673
auty	-6674
ends	-6675
iral	-6676
ites	-6677
qual	-6678
ract	-6679
swer	-6680
▁1.4	-6681
▁1.7	-6682
▁1.9	-6683
▁238	-6684
▁450	-6685
▁Dra	-6686
▁Eff	-6687
▁HOW	-6688
▁Jab	-6689
▁Mas	-6690
▁RDP	-6691
▁Wes	-6692
▁pot	-6693
▁spl	-6694
ASADC	-6695
TICIP	-6696
hered	-6697
oting	-6698
ously	-6699
rated	-6700
rates	-6701
veral	-6702
▁1978	-6703
▁2006	-6704
▁2015	-6705
▁Deli	-6706
▁List	-6707
▁Math	-6708
▁burn	-6709
▁mand	-6710
▁move	-6711
BasedA	-6712
aguese	-6713
attery	-6714
eavour	-6715
ectors	-6716
endent	-6717
olated	-6718
requis	-6719
▁1980,	-6720
▁1996.	-6721
▁2001.	-6722
▁2007,	-6723
▁23(1)	-6724
▁Airth	-6725
▁Dairy	-6726
▁Olymp	-6727
▁Plans	-6728
▁adult	-6729
▁denom	-6730
▁doubt	-6731
▁drawn	-6732
▁drove	-6733
▁labou	-6734
▁links	-6735
▁optim	-6736
▁owned	-6737
▁seats	-6738
▁subse	-6739
▁unity	-6740
African	-6741
aborate	-6742
forming	-6743
iration	-6744
reation	-6745
uration	-6746
▁Answer	-6747
▁Figure	-6748
▁Medium	-6749
▁Obtain	-6750
▁Should	-6751
▁column	-6752
▁deemed	-6753
▁facing	-6754
▁guides	-6755
▁highly	-6756
▁misund	-6757
▁mostly	-6758
▁nearly	-6759
▁source	-6760
▁stipul	-6761
▁theory	-6762
▁treaty	-6763
''''''''	-6764
emplated	-6765
▁America	-6766
▁Control	-6767
▁Gauteng	-6768
▁Looking	-6769
▁Natural	-6770
▁Prevent	-6771
▁Process	-6772
▁Roadmap	-6773
▁Session	-6774
▁Tuesday	-6775
▁Western	-6776
▁advised	-6777
▁afterno	-6778
▁apology	-6779
▁assumes	-6780
▁avoided	-6781
▁battery	-6782
▁climate	-6783
▁delayed	-6784
▁evident	-6785
▁exports	-6786
▁factors	-6787
▁markets	-6788
▁reminds	-6789
▁running	-6790
▁several	-6791
▁signing	-6792
iferation	-6793
▁Analysis	-6794
▁Campaign	-6795
▁Complain	-6796
▁Delivery	-6797
▁Passport	-6798
▁Reducing	-6799
▁Tribunal	-6800
▁colleges	-6801
▁councill	-6802
▁database	-6803
▁gathered	-6804
▁indirect	-6805
▁outlines	-6806
▁presents	-6807
▁prevails	-6808
▁relocate	-6809
▁replaced	-6810
▁staffing	-6811
▁stations	-6812
▁targeted	-6813
▁valuable	-6814
laboratory	-6815
parliament	-6816
unications	-6817
▁Household	-6818
▁Technical	-6819
▁academics	-6820
▁acknowled	-6821
▁architect	-6822
▁attorneys	-6823
▁flipchart	-6824
▁occupiers	-6825
▁prerequis	-6826
▁providers	-6827
▁rectified	-6828
▁schooling	-6829
▁universal	-6830
----------)	-6831
▁Operations	-6832
▁calculated	-6833
▁diplomatic	-6834
▁frequently	-6835
▁population	-6836
▁preserving	-6837
▁principals	-6838
▁prioritise	-6839
▁prosecutor	-6840
▁resistance	-6841
▁volunteers	-6842
disciplinary	-6843
facilitators	-6844
▁Governments	-6845
▁accordingly	-6846
▁constitutes	-6847
▁constraints	-6848
▁discussions	-6849
▁emergencies	-6850
▁prosecutors	-6851
▁undertaking	-6852
▁Consultation	-6853
▁Coordination	-6854
▁Legalisation	-6855
▁Peacekeeping	-6856
▁contemplated	-6857
▁facilitators	-6858
▁negotiations	-6859
▁transforming	-6860
▁transitional	-6861
▁Establishment	-6862
▁independently	-6863
▁significantly	-6864
▁Representative	-6865
▁Transformation	-6866
▁liberalisation	-6867
▁underestimated	-6868
-3	-6869
-4	-6870
7,	-6871
70	-6872
CE	-6873
oo	-6874
sm	-6875
(3)	-6876
ban	-6877
cor	-6878
elt	-6879
eth	-6880
ift	-6881
ken	-6882
kin	-6883
mon	-6884
rov	-6885
wel	-6886
▁2?	-6887
▁41	-6888
▁44	-6889
▁8.	-6890
▁DE	-6891
▁Ev	-6892
▁GO	-6893
▁Ja	-6894
▁dr	-6895
MMMM	-6896
ails	-6897
body	-6898
down	-6899
erge	-6900
from	-6901
hops	-6902
ized	-6903
mark	-6904
orth	-6905
pair	-6906
thly	-6907
▁CBP	-6908
▁Eng	-6909
▁FET	-6910
▁Hel	-6911
▁Ina	-6912
▁Lib	-6913
▁MSA	-6914
▁Pal	-6915
▁Rug	-6916
▁SAA	-6917
▁VAT	-6918
▁Ven	-6919
▁der	-6920
▁hol	-6921
▁xen	-6922
anded	-6923
imped	-6924
lined	-6925
risti	-6926
▁000?	-6927
▁1.11	-6928
▁1973	-6929
▁8(1)	-6930
▁CBOs	-6931
▁Crim	-6932
▁EMIA	-6933
▁MANA	-6934
▁Molo	-6935
▁NGOs	-6936
▁PAIA	-6937
▁Perm	-6938
▁Team	-6939
▁Vari	-6940
▁abol	-6941
▁bind	-6942
▁caus	-6943
▁enro	-6944
▁felt	-6945
▁glad	-6946
▁love	-6947
▁peti	-6948
▁sale	-6949
▁thri	-6950
EATION	-6951
around	-6952
ivered	-6953
iverse	-6954
otions	-6955
reated	-6956
urrent	-6957
▁Birth	-6958
▁Faith	-6959
▁Marri	-6960
▁expos	-6961
▁faith	-6962
▁farms	-6963
▁firms	-6964
▁forum	-6965
▁gradu	-6966
▁inaug	-6967
▁incom	-6968
▁mathe	-6969
▁matri	-6970
▁model	-6971
▁repro	-6972
▁sheet	-6973
▁split	-6974
▁woman	-6975
ctional	-6976
grading	-6977
portive	-6978
prising	-6979
▁1998).	-6980
▁1998);	-6981
▁Determ	-6982
▁Econom	-6983
▁League	-6984
▁Remind	-6985
▁Select	-6986
▁exclud	-6987
▁forget	-6988
▁lotter	-6989
▁mainly	-6990
▁marine	-6991
▁paying	-6992
▁thanks	-6993
▁theAct	-6994
▁thehip	-6995
▁underm	-6996
▁voices	-6997
approved	-6998
bbbbbbbb	-6999
ecutions	-7000
▁Include	-7001
▁Nothing	-7002
▁Suggest	-7003
▁Various	-7004
▁Willing	-7005
▁assault	-7006
▁burnish	-7007
▁comfort	-7008
▁compare	-7009
▁distric	-7010
▁divided	-7011
▁engaged	-7012
▁expense	-7013
▁finding	-7014
▁honesty	-7015
▁journey	-7016
▁listing	-7017
▁observe	-7018
▁oversee	-7019
▁packing	-7020
▁renewed	-7021
▁setting	-7022
▁thereby	-7023
▁Advisory	-7024
▁Capacity	-7025
▁Criminal	-7026
▁Disposal	-7027
▁Expanded	-7028
▁Policing	-7029
▁Practice	-7030
▁Students	-7031
▁cleaning	-7032
▁damaging	-7033
▁focusing	-7034
▁lifelong	-7035
▁motivate	-7036
▁officers	-7037
▁outlined	-7038
▁promoted	-7039
▁supplier	-7040
▁welcomed	-7041
Hownership	-7042
ologically	-7043
preciation	-7044
▁Otherwise	-7045
▁Preferred	-7046
▁advancing	-7047
▁delighted	-7048
▁delivered	-7049
▁displayed	-7050
▁elaborate	-7051
▁endeavour	-7052
▁investors	-7053
▁oversight	-7054
▁taxpayers	-7055
ternatively	-7056
▁Categories	-7057
▁Counsellor	-7058
▁Developing	-7059
▁Highlights	-7060
▁Preference	-7061
▁Scientists	-7062
▁Veterinary	-7063
▁approaches	-7064
▁containers	-7065
▁highlights	-7066
▁identifies	-7067
▁parliament	-7068
▁supportive	-7069
▁Collaborate	-7070
▁Enlargement	-7071
▁Institution	-7072
▁Sustainable	-7073
▁adverbation	-7074
▁affirmative	-7075
▁appreciated	-7076
▁calculation	-7077
▁enterprises	-7078
▁exceptional	-7079
▁experienced	-7080
▁financially	-7081
▁subscribing	-7082
▁voluntarily	-7083
▁Medicalation	-7084
▁Transforming	-7085
▁announcement	-7086
▁contravening	-7087
▁highlighting	-7088
▁independence	-7089
▁orientations	-7090
▁prerequisite	-7091
▁stakeholders	-7092
▁substigation	-7093
discrimination	-7094
▁Accreditation	-7095
▁Alternatively	-7096
▁advertisement	-7097
▁Implementation	-7098
▁adverbisements	-7099
////////////////	-7100
14	-7101
2(	-7102
29	-7103
MP	-7104
gy	-7105
ja	-7106
uk	-7107
ww	-7108
yl	-7109
GDP	-7110
WHO	-7111
aba	-7112
atl	-7113
hib	-7114
hob	-7115
hos	-7116
iec	-7117
lay	-7118
lob	-7119
oss	-7120
ote	-7121
pid	-7122
rel	-7123
sos	-7124
ton	-7125
uge	-7126
▁''	-7127
▁/1	-7128
▁01	-7129
▁2-	-7130
▁4,	-7131
▁65	-7132
▁66	-7133
▁88	-7134
▁AT	-7135
▁HA	-7136
▁IF	-7137
▁Ik	-7138
▁Pa	-7139
▁RE	-7140
▁ye	-7141
.1.5	-7142
ISSA	-7143
OPLE	-7144
adra	-7145
ains	-7146
ambi	-7147
amic	-7148
aped	-7149
arly	-7150
drom	-7151
fere	-7152
iven	-7153
lant	-7154
ulos	-7155
uted	-7156
▁116	-7157
▁2.6	-7158
▁2.8	-7159
▁21.	-7160
▁4.1	-7161
▁5.1	-7162
▁6.1	-7163
▁844	-7164
▁Ben	-7165
▁Cle	-7166
▁FOR	-7167
▁Int	-7168
▁Met	-7169
▁Put	-7170
▁Rol	-7171
▁See	-7172
▁Tin	-7173
▁car	-7174
▁emp	-7175
▁ful	-7176
▁gas	-7177
▁lat	-7178
▁lay	-7179
▁nur	-7180
▁tau	-7181
adraa	-7182
inian	-7183
iscal	-7184
ively	-7185
lobal	-7186
omics	-7187
ports	-7188
vance	-7189
▁1.12	-7190
▁1989	-7191
▁800.	-7192
▁CCMA	-7193
▁Dist	-7194
▁Fore	-7195
▁Four	-7196
▁Hold	-7197
▁Insp	-7198
▁Just	-7199
▁Lead	-7200
▁Post	-7201
▁Wild	-7202
▁alia	-7203
▁biod	-7204
▁dplg	-7205
▁furn	-7206
▁gard	-7207
▁gave	-7208
▁kill	-7209
▁magn	-7210
▁pand	-7211
▁priv	-7212
▁sick	-7213
▁slip	-7214
▁swim	-7215
▁teas	-7216
▁turn	-7217
Thouse	-7218
asting	-7219
ension	-7220
priate	-7221
ructor	-7222
urally	-7223
verage	-7224
▁2002,	-7225
▁Famil	-7226
▁Games	-7227
▁Grade	-7228
▁Heads	-7229
▁Major	-7230
▁Panel	-7231
▁Rates	-7232
▁Sowet	-7233
▁Their	-7234
▁Three	-7235
▁accur	-7236
▁asset	-7237
▁board	-7238
▁chart	-7239
▁defic	-7240
▁degra	-7241
▁depth	-7242
▁herbs	-7243
▁perce	-7244
▁physi	-7245
▁showc	-7246
▁track	-7247
▁train	-7248
------)	-7249
bearers	-7250
faction	-7251
herence	-7252
phasise	-7253
ressing	-7254
roviral	-7255
taining	-7256
tanding	-7257
ultural	-7258
▁601(1)	-7259
▁Ethics	-7260
▁Global	-7261
▁Issues	-7262
▁Marine	-7263
▁Person	-7264
▁Secret	-7265
▁Speech	-7266
▁Unfair	-7267
▁brings	-7268
▁broken	-7269
▁condem	-7270
▁counse	-7271
▁matrix	-7272
▁modern	-7273
▁mother	-7274
▁oftime	-7275
▁openly	-7276
▁recall	-7277
▁remedy	-7278
▁retire	-7279
▁signal	-7280
▁square	-7281
▁taught	-7282
▁themic	-7283
▁whatso	-7284
▁yellow	-7285
poration	-7286
reaching	-7287
▁Details	-7288
▁Foreign	-7289
▁Olympic	-7290
▁Protect	-7291
▁Station	-7292
▁Venburg	-7293
▁assumed	-7294
▁belongs	-7295
▁classes	-7296
▁constru	-7297
▁demonst	-7298
▁diverse	-7299
▁expires	-7300
▁extract	-7301
▁feeding	-7302
▁festive	-7303
▁lessons	-7304
▁lifting	-7305
▁onlines	-7306
▁printer	-7307
▁suggest	-7308
▁symbols	-7309
▁syndrom	-7310
▁transit	-7311
▁unequiv	-7312
▁viruses	-7313
▁warning	-7314
secutions	-7315
▁Constitu	-7316
▁Heritage	-7317
▁Payments	-7318
▁Sciences	-7319
▁Unfortun	-7320
▁adequate	-7321
▁deciding	-7322
▁exposure	-7323
▁finances	-7324
▁finished	-7325
▁foremost	-7326
▁homework	-7327
▁honoured	-7328
▁isolated	-7329
▁messages	-7330
▁ofations	-7331
▁pandemic	-7332
▁petition	-7333
▁policing	-7334
▁powerful	-7335
▁printing	-7336
▁purchase	-7337
▁revision	-7338
▁sporting	-7339
▁worrying	-7340
▁Achieving	-7341
▁Effective	-7342
▁Flipchart	-7343
▁Resources	-7344
▁Workshops	-7345
▁adversely	-7346
▁arresting	-7347
▁contacted	-7348
▁districts	-7349
▁exercises	-7350
▁foreigner	-7351
▁gazetting	-7352
▁interfere	-7353
▁mechanism	-7354
▁organises	-7355
▁potential	-7356
▁preserved	-7357
▁proposals	-7358
▁2010.***\1	-7359
▁Lategories	-7360
▁Technology	-7361
▁affiliated	-7362
▁conscience	-7363
▁councillor	-7364
▁degraduate	-7365
▁discharged	-7366
▁pertaining	-7367
▁prosperity	-7368
▁restricted	-7369
▁specialist	-7370
▁statistics	-7371
▁summarised	-7372
▁surprising	-7373
▁Acquisition	-7374
▁Livelihoods	-7375
▁Ministerial	-7376
▁agriculture	-7377
▁celebrating	-7378
▁chairperson	-7379
▁combination	-7380
▁conclusions	-7381
▁credibility	-7382
▁electrified	-7383
▁overheading	-7384
▁secretariat	-7385
▁stakeholder	-7386
parliamentary	-7387
▁communicable	-7388
▁strengthened	-7389
▁subsequently	-7390
▁verification	-7391
▁Unfortunately	-7392
▁alternatively	-7393
▁formatisation	-7394
--------------),	-7395
30	-7396
7)	-7397
84	-7398
BC	-7399
If	-7400
do	-7401
kh	-7402
300	-7403
38.	-7404
444	-7405
IDP	-7406
NDP	-7407
PSA	-7408
TIC	-7409
cro	-7410
ita	-7411
izo	-7412
ley	-7413
nel	-7414
oya	-7415
tio	-7416
▁42	-7417
▁49	-7418
▁59	-7419
▁97	-7420
▁Ed	-7421
▁NA	-7422
▁Ng	-7423
▁Nt	-7424
▁PO	-7425
▁ST	-7426
▁VI	-7427
Heal	-7428
TOSA	-7429
awaw	-7430
bank	-7431
eved	-7432
icts	-7433
ison	-7434
iviv	-7435
ocol	-7436
ooth	-7437
outy	-7438
ovis	-7439
reet	-7440
rust	-7441
sequ	-7442
such	-7443
udes	-7444
unch	-7445
▁108	-7446
▁15.	-7447
▁18,	-7448
▁187	-7449
▁188	-7450
▁360	-7451
▁60.	-7452
▁Bet	-7453
▁Bir	-7454
▁Del	-7455
▁Dif	-7456
▁Mrs	-7457
▁NPA	-7458
▁Old	-7459
▁RES	-7460
▁Red	-7461
▁Tel	-7462
▁UDC	-7463
▁bus	-7464
▁dim	-7465
▁div	-7466
▁dry	-7467
▁red	-7468
▁tub	-7469
▁vig	-7470
▁vit	-7471
acing	-7472
ilant	-7473
illar	-7474
indow	-7475
ister	-7476
itime	-7477
nergy	-7478
orial	-7479
sibly	-7480
tment	-7481
uting	-7482
▁1960	-7483
▁1964	-7484
▁Arch	-7485
▁Base	-7486
▁Book	-7487
▁Buff	-7488
▁Conf	-7489
▁DIFF	-7490
▁Down	-7491
▁Form	-7492
▁Hist	-7493
▁Mace	-7494
▁Mata	-7495
▁Port	-7496
▁bill	-7497
▁boys	-7498
▁core	-7499
▁dele	-7500
▁dram	-7501
▁meal	-7502
▁puts	-7503
▁rand	-7504
▁swit	-7505
▁tang	-7506
▁town	-7507
▁wild	-7508
(1)(2)	-7509
UNICIP	-7510
ailing	-7511
entent	-7512
erties	-7513
filing	-7514
hofung	-7515
orient	-7516
outine	-7517
skills	-7518
ultane	-7519
▁2011,	-7520
▁2011-	-7521
▁Again	-7522
▁Offsh	-7523
▁TISSA	-7524
▁advis	-7525
▁alter	-7526
▁docum	-7527
▁eight	-7528
▁fault	-7529
▁grade	-7530
▁heads	-7531
▁posts	-7532
▁sampl	-7533
▁scope	-7534
▁surve	-7535
▁votes	-7536
▁walls	-7537
▁yield	-7538
Ourally	-7539
angered	-7540
crifice	-7541
factory	-7542
itarian	-7543
lectual	-7544
pective	-7545
process	-7546
redible	-7547
ristian	-7548
▁60(1),	-7549
▁Anyone	-7550
▁Applic	-7551
▁Census	-7552
▁Direct	-7553
▁Forums	-7554
▁Macome	-7555
▁Native	-7556
▁Others	-7557
▁Palest	-7558
▁Scheme	-7559
▁Shange	-7560
▁THands	-7561
▁abused	-7562
▁agents	-7563
▁defend	-7564
▁firmly	-7565
▁garden	-7566
▁grades	-7567
▁interd	-7568
▁judges	-7569
▁learnt	-7570
▁limits	-7571
▁prison	-7572
▁proved	-7573
▁smooth	-7574
▁strive	-7575
▁territ	-7576
▁timing	-7577
▁Clearly	-7578
▁Cluster	-7579
▁Counsel	-7580
▁General	-7581
▁Holding	-7582
▁Related	-7583
▁Studies	-7584
▁Traffic	-7585
▁arising	-7586
▁average	-7587
▁booklet	-7588
▁charged	-7589
▁consequ	-7590
▁counter	-7591
▁decides	-7592
▁feeling	-7593
▁firearm	-7594
▁funeral	-7595
▁genetic	-7596
▁impacts	-7597
▁machine	-7598
▁patient	-7599
▁permits	-7600
▁privacy	-7601
▁profile	-7602
▁serving	-7603
▁Academia	-7604
▁Approach	-7605
▁Partners	-7606
▁Register	-7607
▁Remedies	-7608
▁credible	-7609
▁defining	-7610
▁disserge	-7611
▁dramatic	-7612
▁fruitful	-7613
▁possibil	-7614
▁removing	-7615
▁showcase	-7616
▁students	-7617
▁tangible	-7618
corruption	-7619
▁Electoral	-7620
▁Equipment	-7621
▁Reference	-7622
▁Similarly	-7623
▁Standards	-7624
▁construct	-7625
▁detailing	-7626
▁dissolved	-7627
▁emissions	-7628
▁exceeding	-7629
▁exercised	-7630
▁influenza	-7631
▁nutrition	-7632
▁permitted	-7633
▁practical	-7634
▁practices	-7635
▁prosecute	-7636
▁recognise	-7637
▁residency	-7638
▁simultane	-7639
▁subjected	-7640
▁textbooks	-7641
▁timetable	-7642
▁worldwide	-7643
▁Applicants	-7644
▁Automotive	-7645
▁Complaints	-7646
▁Compliance	-7647
▁Foodstuffs	-7648
▁Investment	-7649
▁continuous	-7650
▁finalising	-7651
▁incomplete	-7652
▁incredible	-7653
▁institutes	-7654
▁lawfulness	-7655
▁presidency	-7656
▁properties	-7657
▁repeatedly	-7658
▁retirement	-7659
▁titlements	-7660
▁Palestinian	-7661
▁enlargement	-7662
▁regrettable	-7663
▁settlements	-7664
▁understands	-7665
▁unequivocal	-7666
▁Implementing	-7667
▁emergingcies	-7668
▁humanitarian	-7669
▁inconsistent	-7670
▁marginalised	-7671
▁organization	-7672
▁remuneration	-7673
▁reproduction	-7674
▁acknowledging	-7675
▁consolidation	-7676
▁contradiction	-7677
▁contravention	-7678
▁Communications	-7679
▁naturalisation	-7680
▁Notwithstanding	-7681
▁congratulations	-7682
,,	-7683
EF	-7684
Em	-7685
IN	-7686
LO	-7687
bk	-7688
iy	-7689
zo	-7690
--"	-7691
-21	-7692
-24	-7693
125	-7694
457	-7695
47.	-7696
FMA	-7697
HAT	-7698
Our	-7699
ato	-7700
aza	-7701
ios	-7702
ips	-7703
lor	-7704
sha	-7705
sic	-7706
ume	-7707
vil	-7708
▁2;	-7709
▁3(	-7710
▁54	-7711
▁57	-7712
▁6:	-7713
▁82	-7714
▁89	-7715
▁9,	-7716
▁IT	-7717
▁MD	-7718
▁Mz	-7719
▁OR	-7720
▁PH	-7721
ambo	-7722
aths	-7723
bing	-7724
fall	-7725
iate	-7726
idge	-7727
ilot	-7728
irds	-7729
item	-7730
iver	-7731
lexi	-7732
pass	-7733
ping	-7734
rect	-7735
rols	-7736
safe	-7737
them	-7738
tism	-7739
uous	-7740
wana	-7741
ware	-7742
yond	-7743
▁/12	-7744
▁020	-7745
▁10,	-7746
▁110	-7747
▁13.	-7748
▁160	-7749
▁17.	-7750
▁193	-7751
▁2.9	-7752
▁Ask	-7753
▁Car	-7754
▁Dan	-7755
▁Eas	-7756
▁Far	-7757
▁Fun	-7758
▁IEC	-7759
▁INT	-7760
▁NRS	-7761
▁Nam	-7762
▁ONE	-7763
▁Ter	-7764
▁box	-7765
▁fat	-7766
▁mer	-7767
▁pat	-7768
▁sci	-7769
-----	-7770
Anual	-7771
OURAL	-7772
TIONS	-7773
agers	-7774
agree	-7775
erred	-7776
inced	-7777
iovis	-7778
iring	-7779
isors	-7780
itude	-7781
parts	-7782
plied	-7783
poons	-7784
riate	-7785
sions	-7786
skill	-7787
water	-7788
▁000,	-7789
▁0800	-7790
▁1910	-7791
▁1967	-7792
▁2012	-7793
▁Acce	-7794
▁BEEE	-7795
▁City	-7796
▁Mthe	-7797
▁Peer	-7798
▁Such	-7799
▁Then	-7800
▁Vice	-7801
▁WHAT	-7802
▁bias	-7803
▁brut	-7804
▁cere	-7805
▁ease	-7806
▁inqu	-7807
▁knew	-7808
▁midw	-7809
▁mort	-7810
▁nine	-7811
▁piec	-7812
▁reti	-7813
▁scen	-7814
▁seed	-7815
▁tree	-7816
▁twel	-7817
▁uses	-7818
-1738.	-7819
://///	-7820
CTUCTU	-7821
beries	-7822
ediate	-7823
iarity	-7824
isters	-7825
luenza	-7826
olvent	-7827
prepar	-7828
racism	-7829
respon	-7830
ricity	-7831
ridged	-7832
ritism	-7833
sation	-7834
uarant	-7835
ulosis	-7836
▁17457	-7837
▁1976,	-7838
▁1988,	-7839
▁2005.	-7840
▁2012.	-7841
▁Given	-7842
▁Incap	-7843
▁Intro	-7844
▁Issue	-7845
▁Jabub	-7846
▁Medic	-7847
▁Recep	-7848
▁Small	-7849
▁align	-7850
▁argue	-7851
▁attit	-7852
▁books	-7853
▁derog	-7854
▁direc	-7855
▁green	-7856
▁minor	-7857
▁never	-7858
▁offer	-7859
▁pilot	-7860
▁recon	-7861
▁scale	-7862
▁swear	-7863
▁swift	-7864
▁truth	-7865
casting	-7866
drawals	-7867
general	-7868
lightly	-7869
ocation	-7870
pendent	-7871
skilled	-7872
skimped	-7873
viously	-7874
▁844444	-7875
▁Annual	-7876
▁Export	-7877
▁Gender	-7878
▁Import	-7879
▁Produc	-7880
▁Square	-7881
▁assume	-7882
▁banned	-7883
▁beyond	-7884
▁desire	-7885
▁disast	-7886
▁errors	-7887
▁filled	-7888
▁fulfil	-7889
▁geared	-7890
▁liquor	-7891
▁moving	-7892
▁ortime	-7893
▁passes	-7894
▁pillar	-7895
▁precon	-7896
▁repeal	-7897
▁retren	-7898
▁seeing	-7899
▁stress	-7900
▁unpair	-7901
▁varied	-7902
▁window	-7903
atlantic	-7904
ccessful	-7905
getables	-7906
iovisual	-7907
urrently	-7908
▁Already	-7909
▁Between	-7910
▁Collect	-7911
▁Contrib	-7912
▁Cublish	-7913
▁Eastern	-7914
▁Economy	-7915
▁Network	-7916
▁Project	-7917
▁andancy	-7918
▁assists	-7919
▁barrier	-7920
▁broadly	-7921
▁budgets	-7922
▁calling	-7923
▁causing	-7924
-	-7925
▁	-7926
e	-7927
t	-7928
o	-7929
i	-7930
a	-7931
n	-7932
r	-7933
s	-7934
h	-7935
l	-7936
c	-7937
d	-7938
f	-7939
m	-7940
u	-7941
p	-7942
g	-7943
y	-7944
w	-7945
b	-7946
.	-7947
v	-7948
,	-7949
k	-7950
A	-7951
0	-7952
T	-7953
1	-7954
I	-7955
S	-7956
C	-7957
P	-7958
?	-7959
x	-7960
D	-7961
2	-7962
9	-7963
W	-7964
q	-7965
M	-7966
(	-7967
'	-7968
"	-7969
)	-7970
E	-7971
N	-7972
F	-7973
O	-7974
R	-7975
6	-7976
H	-7977
B	-7978
*	-7979
8	-7980
G	-7981
j	-7982
3	-7983
L	-7984
/	-7985
:	-7986
;	-7987
4	-7988
5	-7989
Y	-7990
7	-7991
U	-7992
z	-7993
\	-7994
J	-7995
V	-7996
